{
  "version": "1.0",
  "truncation": null,
  "padding": null,
  "added_tokens": [
    {
      "id": 0,
      "content": "<|pad|>",
      "single_word": false,
      "lstrip": false,
      "rstrip": false,
      "normalized": false,
      "special": true
    },
    {
      "id": 1,
      "content": "<|unk|>",
      "single_word": false,
      "lstrip": false,
      "rstrip": false,
      "normalized": false,
      "special": true
    },
    {
      "id": 2,
      "content": "<|end|>",
      "single_word": false,
      "lstrip": false,
      "rstrip": false,
      "normalized": false,
      "special": true
    },
    {
      "id": 3,
      "content": "<|user|>",
      "single_word": false,
      "lstrip": false,
      "rstrip": false,
      "normalized": false,
      "special": true
    },
    {
      "id": 4,
      "content": "<|assistant|>",
      "single_word": false,
      "lstrip": false,
      "rstrip": false,
      "normalized": false,
      "special": true
    }
  ],
  "normalizer": {
    "type": "NFC"
  },
  "pre_tokenizer": {
    "type": "ByteLevel",
    "add_prefix_space": false,
    "trim_offsets": true,
    "use_regex": true
  },
  "post_processor": null,
  "decoder": {
    "type": "ByteLevel",
    "add_prefix_space": true,
    "trim_offsets": true,
    "use_regex": true
  },
  "model": {
    "type": "BPE",
    "dropout": null,
    "unk_token": "<|unk|>",
    "continuing_subword_prefix": null,
    "end_of_word_suffix": null,
    "fuse_unk": false,
    "byte_fallback": false,
    "ignore_merges": false,
    "vocab": {
      "<|pad|>": 0,
      "<|unk|>": 1,
      "<|end|>": 2,
      "<|user|>": 3,
      "<|assistant|>": 4,
      "!": 5,
      "\"": 6,
      "#": 7,
      "$": 8,
      "%": 9,
      "&": 10,
      "'": 11,
      "(": 12,
      ")": 13,
      "*": 14,
      "+": 15,
      ",": 16,
      "-": 17,
      ".": 18,
      "/": 19,
      "0": 20,
      "1": 21,
      "2": 22,
      "3": 23,
      "4": 24,
      "5": 25,
      "6": 26,
      "7": 27,
      "8": 28,
      "9": 29,
      ":": 30,
      ";": 31,
      "<": 32,
      "=": 33,
      ">": 34,
      "?": 35,
      "@": 36,
      "A": 37,
      "B": 38,
      "C": 39,
      "D": 40,
      "E": 41,
      "F": 42,
      "G": 43,
      "H": 44,
      "I": 45,
      "J": 46,
      "K": 47,
      "L": 48,
      "M": 49,
      "N": 50,
      "O": 51,
      "P": 52,
      "Q": 53,
      "R": 54,
      "S": 55,
      "T": 56,
      "U": 57,
      "V": 58,
      "W": 59,
      "X": 60,
      "Y": 61,
      "Z": 62,
      "[": 63,
      "\\": 64,
      "]": 65,
      "^": 66,
      "_": 67,
      "`": 68,
      "a": 69,
      "b": 70,
      "c": 71,
      "d": 72,
      "e": 73,
      "f": 74,
      "g": 75,
      "h": 76,
      "i": 77,
      "j": 78,
      "k": 79,
      "l": 80,
      "m": 81,
      "n": 82,
      "o": 83,
      "p": 84,
      "q": 85,
      "r": 86,
      "s": 87,
      "t": 88,
      "u": 89,
      "v": 90,
      "w": 91,
      "x": 92,
      "y": 93,
      "z": 94,
      "{": 95,
      "|": 96,
      "}": 97,
      "~": 98,
      "¡": 99,
      "¢": 100,
      "£": 101,
      "¤": 102,
      "¥": 103,
      "¦": 104,
      "§": 105,
      "¨": 106,
      "©": 107,
      "ª": 108,
      "«": 109,
      "¬": 110,
      "®": 111,
      "¯": 112,
      "°": 113,
      "±": 114,
      "²": 115,
      "³": 116,
      "´": 117,
      "µ": 118,
      "¶": 119,
      "·": 120,
      "¸": 121,
      "¹": 122,
      "º": 123,
      "»": 124,
      "¼": 125,
      "½": 126,
      "¾": 127,
      "¿": 128,
      "À": 129,
      "Á": 130,
      "Â": 131,
      "Ã": 132,
      "Ä": 133,
      "Å": 134,
      "Æ": 135,
      "Ç": 136,
      "È": 137,
      "É": 138,
      "Ê": 139,
      "Ë": 140,
      "Ì": 141,
      "Í": 142,
      "Î": 143,
      "Ï": 144,
      "Ð": 145,
      "Ñ": 146,
      "Ò": 147,
      "Ó": 148,
      "Ô": 149,
      "Õ": 150,
      "Ö": 151,
      "×": 152,
      "Ø": 153,
      "Ù": 154,
      "Ú": 155,
      "Û": 156,
      "Ü": 157,
      "Ý": 158,
      "Þ": 159,
      "ß": 160,
      "à": 161,
      "á": 162,
      "â": 163,
      "ã": 164,
      "ä": 165,
      "å": 166,
      "æ": 167,
      "ç": 168,
      "è": 169,
      "é": 170,
      "ê": 171,
      "ë": 172,
      "ì": 173,
      "í": 174,
      "î": 175,
      "ï": 176,
      "ð": 177,
      "ñ": 178,
      "ò": 179,
      "ó": 180,
      "ô": 181,
      "õ": 182,
      "ö": 183,
      "÷": 184,
      "ø": 185,
      "ù": 186,
      "ú": 187,
      "û": 188,
      "ü": 189,
      "ý": 190,
      "þ": 191,
      "ÿ": 192,
      "Ā": 193,
      "ā": 194,
      "Ă": 195,
      "ă": 196,
      "Ą": 197,
      "ą": 198,
      "Ć": 199,
      "ć": 200,
      "Ĉ": 201,
      "ĉ": 202,
      "Ċ": 203,
      "ċ": 204,
      "Č": 205,
      "č": 206,
      "Ď": 207,
      "ď": 208,
      "Đ": 209,
      "đ": 210,
      "Ē": 211,
      "ē": 212,
      "Ĕ": 213,
      "ĕ": 214,
      "Ė": 215,
      "ė": 216,
      "Ę": 217,
      "ę": 218,
      "Ě": 219,
      "ě": 220,
      "Ĝ": 221,
      "ĝ": 222,
      "Ğ": 223,
      "ğ": 224,
      "Ġ": 225,
      "ġ": 226,
      "Ģ": 227,
      "ģ": 228,
      "Ĥ": 229,
      "ĥ": 230,
      "Ħ": 231,
      "ħ": 232,
      "Ĩ": 233,
      "ĩ": 234,
      "Ī": 235,
      "ī": 236,
      "Ĭ": 237,
      "ĭ": 238,
      "Į": 239,
      "į": 240,
      "İ": 241,
      "ı": 242,
      "Ĳ": 243,
      "ĳ": 244,
      "Ĵ": 245,
      "ĵ": 246,
      "Ķ": 247,
      "ķ": 248,
      "ĸ": 249,
      "Ĺ": 250,
      "ĺ": 251,
      "Ļ": 252,
      "ļ": 253,
      "Ľ": 254,
      "ľ": 255,
      "Ŀ": 256,
      "ŀ": 257,
      "Ł": 258,
      "ł": 259,
      "Ń": 260,
      "ï¼": 261,
      "ï¼Į": 262,
      "ä¸": 263,
      "äº": 264,
      "âĢ": 265,
      "ãĢ": 266,
      "ãĢĤ": 267,
      "åı": 268,
      "å¤": 269,
      "ä»": 270,
      "äºĨ": 271,
      "è¿": 272,
      "çļ": 273,
      "æĺ": 274,
      "ä½": 275,
      "ä¸į": 276,
      "ä¹": 277,
      "çļĦ": 278,
      "æĪ": 279,
      "è¯": 280,
      "ï¼ļ": 281,
      "éģ": 282,
      "æĺ¯": 283,
      "Ġt": 284,
      "å®": 285,
      "æĿ": 286,
      "âĢľ": 287,
      "éģĵ": 288,
      "åĲ": 289,
      "ä¸Ģ": 290,
      "ï¼ļâĢľ": 291,
      "æľ": 292,
      "âĢĿ": 293,
      "å°": 294,
      "æĪĳ": 295,
      "æĿ¥": 296,
      "he": 297,
      "ä½ł": 298,
      "æĹ": 299,
      "äºº": 300,
      "åħ": 301,
      "èĢ": 302,
      "åŃ": 303,
      "è¿Ļ": 304,
      "ï¼ģ": 305,
      "åľ": 306,
      "éĤ": 307,
      "å¥": 308,
      "åİ": 309,
      "ä»ĸ": 310,
      "æī": 311,
      "å¾": 312,
      "Ġa": 313,
      "éĹ": 314,
      "ãĢĤâĢĿ": 315,
      "éĤ£": 316,
      "è¯´": 317,
      "åĩ": 318,
      "çİ": 319,
      "ou": 320,
      "åĽ": 321,
      "åĪ": 322,
      "ä¸ª": 323,
      "éĩ": 324,
      "æľī": 325,
      "Ġs": 326,
      "åį": 327,
      "å¿": 328,
      "æĢ": 329,
      "è§": 330,
      "ï¼Ł": 331,
      "å¦": 332,
      "Ġm": 333,
      "in": 334,
      "Ġw": 335,
      "æŃ": 336,
      "çĿ": 337,
      "åİ»": 338,
      "çľ": 339,
      "ä¹Ł": 340,
      "åŃĲ": 341,
      "re": 342,
      "èµ": 343,
      "ä¼": 344,
      "ha": 345,
      "çĶ": 346,
      "è¡": 347,
      "çĿĢ": 348,
      "nd": 349,
      "Ġthe": 350,
      "åľ¨": 351,
      "éĩĮ": 352,
      "Ħ¿": 353,
      "Ġb": 354,
      "åĳ": 355,
      "è´": 356,
      "ä¸Ĭ": 357,
      "å¤§": 358,
      "è§ģ": 359,
      "åĦ¿": 360,
      "å¾Ĺ": 361,
      "åıĪ": 362,
      "ä¹Ī": 363,
      "å§": 364,
      "is": 365,
      "åıª": 366,
      "ĥ½": 367,
      "å¸": 368,
      "or": 369,
      "æķ": 370,
      "ç¬": 371,
      "å¥½": 372,
      "åĵ": 373,
      "æĬ": 374,
      "ç»": 375,
      "ä¾": 376,
      "å¼": 377,
      "æĥ": 378,
      "å°±": 379,
      "ä»¬": 380,
      "åĨ": 381,
      "æĸ": 382,
      "Ġf": 383,
      "er": 384,
      "æĭ": 385,
      "è¡Į": 386,
      "èĩ": 387,
      "åķ": 388,
      "å®Ŀ": 389,
      "ä¸ĭ": 390,
      "èĢģ": 391,
      "å¹": 392,
      "ll": 393,
      "çİī": 394,
      "æ²": 395,
      "¦ģ": 396,
      "åĩº": 397,
      "it": 398,
      "on": 399,
      "èĢħ": 400,
      "è¦ģ": 401,
      "æ¯": 402,
      "çŁ": 403,
      "å¤´": 404,
      "çĪ": 405,
      "å·": 406,
      "å®¶": 407,
      "éĹ®": 408,
      "å¤ª": 409,
      "čĊ": 410,
      "è®": 411,
      "Ġd": 412,
      "Ġc": 413,
      "æ°": 414,
      "ĠĠ": 415,
      "es": 416,
      "en": 417,
      "Ġn": 418,
      "Ġl": 419,
      "Ġy": 420,
      "çŃ": 421,
      "åĬ": 422,
      "è´¾": 423,
      "çľĭ": 424,
      "ç¬ĳ": 425,
      "åĴ": 426,
      "åº": 427,
      "Ġth": 428,
      "éĥ½": 429,
      "ä¹ĭ": 430,
      "ar": 431,
      "åĽŀ": 432,
      "ä¾¿": 433,
      "çĽ": 434,
      "ç§": 435,
      "Ġh": 436,
      "Ġo": 437,
      "éĢ": 438,
      "Ġto": 439,
      "éĿ": 440,
      "Ġyou": 441,
      "å¦Ĥ": 442,
      "å¿ĥ": 443,
      "å¤©": 444,
      "è¿ĺ": 445,
      "ï¿": 446,
      "å±": 447,
      "ï¿£": 448,
      "Ġp": 449,
      "çİĭ": 450,
      "çŁ¥": 451,
      "è¿ĩ": 452,
      "hat": 453,
      "åĪ°": 454,
      "æĹ¶": 455,
      "è¡ĮèĢħ": 456,
      "åĲ¬": 457,
      "æĹ¥": 458,
      "åī": 459,
      "æĶ": 460,
      "æŀ": 461,
      "å¯": 462,
      "å°ı": 463,
      "å½": 464,
      "è·": 465,
      "ĠI": 466,
      "åĢ": 467,
      "ä¸º": 468,
      "æł": 469,
      "èĩª": 470,
      "äºĭ": 471,
      "äºĮ": 472,
      "Ġhe": 473,
      "éĴ": 474,
      "ve": 475,
      "ot": 476,
      "åı«": 477,
      "åĥ": 478,
      "åķ¦": 479,
      "èµ·": 480,
      "å®Ŀçİī": 481,
      "ç½": 482,
      "åı¯": 483,
      "åģ": 484,
      "ä¸ī": 485,
      "st": 486,
      "Ġand": 487,
      "ow": 488,
      "çŃī": 489,
      "åĸ": 490,
      "æŃ¤": 491,
      "ing": 492,
      "ä¸¤": 493,
      "è¯Ŀ": 494,
      "an": 495,
      "ðŁ": 496,
      "æİ": 497,
      "Ġof": 498,
      "om": 499,
      "è°": 500,
      "è¾": 501,
      "çĦ": 502,
      "èº": 503,
      "äºĽ": 504,
      "Ġg": 505,
      "å§Ĳ": 506,
      "æīĵ": 507,
      "æ²¡": 508,
      "é¢": 509,
      "çº": 510,
      "æĹł": 511,
      "è¢": 512,
      "æĥ³": 513,
      "éĹ¨": 514,
      "ä¸İ": 515,
      "at": 516,
      "çī": 517,
      "æ³": 518,
      "ä»Ģ": 519,
      "èĦ": 520,
      "ä»Ģä¹Ī": 521,
      "æĽ": 522,
      "ç¥": 523,
      "èĭ": 524,
      "åīį": 525,
      "ï¼ŁâĢĿ": 526,
      "æĬĬ": 527,
      "ãĢģ": 528,
      "èĬ": 529,
      "æĢİ": 530,
      "ä»Ĭ": 531,
      "Ġbe": 532,
      "ç«": 533,
      "æīį": 534,
      "çĶŁ": 535,
      "æģ": 536,
      "æĦ": 537,
      "çĦ¶": 538,
      "åĴĮ": 539,
      "ç¬ĳéģĵ": 540,
      "æĮ": 541,
      "çľŁ": 542,
      "å°Ĩ": 543,
      "ä¸įæĺ¯": 544,
      "åĿ": 545,
      "se": 546,
      "çģ": 547,
      "ä¸Ģä¸ª": 548,
      "éĻ": 549,
      "æŃ£": 550,
      "åĥ§": 551,
      "éĿ¢": 552,
      "å£": 553,
      "é£": 554,
      "åĶ": 555,
      "éļ": 556,
      "èº«": 557,
      "éĽ": 558,
      "å¨": 559,
      "åĲĥ": 560,
      "ä¼ļ": 561,
      "çĲ": 562,
      "å¸Ī": 563,
      "ï½": 564,
      "è¿Ľ": 565,
      "Ġmy": 566,
      "çĻ": 567,
      "ç®": 568,
      "åį´": 569,
      "ï½ŀ": 570,
      "å¤ļ": 571,
      "åĽł": 572,
      "ä¿": 573,
      "Ġin": 574,
      "åĲİ": 575,
      "ce": 576,
      "ï¼ģâĢĿ": 577,
      "Ġha": 578,
      "åħ«": 579,
      "æ´": 580,
      "åĮ": 581,
      "åįģ": 582,
      "èµ°": 583,
      "è½": 584,
      "le": 585,
      "æĸ¹": 586,
      "èĥ½": 587,
      "ĠĠĠ": 588,
      "ç©": 589,
      "ä»¥": 590,
      "ay": 591,
      "ä½ķ": 592,
      "æ¯į": 593,
      "ut": 594,
      "ç§į": 595,
      "åĳ¢": 596,
      "é»": 597,
      "æµ": 598,
      "æ¬": 599,
      "å±±": 600,
      "çĤ": 601,
      "æĢª": 602,
      "å¦ĸ": 603,
      "é©": 604,
      "çĶ¨": 605,
      "èĻ": 606,
      "ld": 607,
      "ir": 608,
      "æĻ": 609,
      "ä¼Ĺ": 610,
      "æĢİä¹Ī": 611,
      "et": 612,
      "éķ": 613,
      "ed": 614,
      "æĺİ": 615,
      "æ°´": 616,
      "æł·": 617,
      "éĺ": 618,
      "é¡": 619,
      "çĪ¶": 620,
      "æ¸": 621,
      "çĪ·": 622,
      "èĪ": 623,
      "åľ°": 624,
      "å¤Ħ": 625,
      "é¦": 626,
      "¥¿": 627,
      "ä¸Ń": 628,
      "ç´": 629,
      "ç½¢": 630,
      "ä½ľ": 631,
      "çĥ": 632,
      "åĩł": 633,
      "åĢĴ": 634,
      "å½ĵ": 635,
      "å¨ĺ": 636,
      "ä½ı": 637,
      "æ±": 638,
      "æĤ": 639,
      "æĦı": 640,
      "åĲĹ": 641,
      "åĨį": 642,
      "éĩĳ": 643,
      "Ġme": 644,
      "æĭ¿": 645,
      "im": 646,
      "è¥¿": 647,
      "åĩ¤": 648,
      "å¹´": 649,
      "ith": 650,
      "¨Ģ": 651,
      "éĵ": 652,
      "ä¸Ķ": 653,
      "åĺ": 654,
      "èĤ": 655,
      "'s": 656,
      "å¥¶": 657,
      "å¿Ļ": 658,
      "çĮ": 659,
      "é¢ĺ": 660,
      "æĪĳä»¬": 661,
      "Ġnot": 662,
      "ch": 663,
      "å¤ĸ": 664,
      "èį": 665,
      "éķ¿": 666,
      "ç²": 667,
      "æ°Ķ": 668,
      "å¤«": 669,
      "è¯·": 670,
      "ï¿£)": 671,
      "è¨Ģ": 672,
      "å£°": 673,
      "è¿Ļç§į": 674,
      "åĪ«": 675,
      "èĹ": 676,
      "èĭ¥": 677,
      "Ġthat": 678,
      "åĪĨ": 679,
      "Ġis": 680,
      "éĤ£éĩĮ": 681,
      "gh": 682,
      "æĪĴ": 683,
      "åĽĽ": 684,
      "çĹ": 685,
      "And": 686,
      "äºĨä¸Ģ": 687,
      "çķ": 688,
      "Ġfor": 689,
      "ä¸įçŁ¥": 690,
      "ç¥ŀ": 691,
      "åı£": 692,
      "æį": 693,
      "ke": 694,
      "å¼Ģ": 695,
      "åķĬ": 696,
      "åľ£": 697,
      "å¤ªå¤ª": 698,
      "åģļ": 699,
      "Ġu": 700,
      "èĥ": 701,
      "æīĭ": 702,
      "åħ«æĪĴ": 703,
      "our": 704,
      "äºĳ": 705,
      "æŃ»": 706,
      "å¥³": 707,
      "Ġwe": 708,
      "èĬ±": 709,
      "åĵ¼": 710,
      "oo": 711,
      "èĲ": 712,
      "é¥": 713,
      "æŀľ": 714,
      "åıĳ": 715,
      "ill": 716,
      "åĳ½": 717,
      "å·²": 718,
      "Ġe": 719,
      "èĹı": 720,
      "--": 721,
      "åĿĲ": 722,
      "ä¸ľ": 723,
      "åĩ¤å§Ĳ": 724,
      "è¾¹": 725,
      "her": 726,
      "ç»ı": 727,
      "(ï¿£": 728,
      "éħ": 729,
      "ï¼Ľ": 730,
      "å¸ĪçĪ¶": 731,
      "Ġwith": 732,
      "åİŁ": 733,
      "æĪĲ": 734,
      "èĩ³": 735,
      "çĤ¹": 736,
      "ä¹Łä¸į": 737,
      "æĶ¾": 738,
      "åŃĻ": 739,
      "é£İ": 740,
      "è´¾æ¯į": 741,
      "ent": 742,
      "èı": 743,
      "ï¼ģðŁ": 744,
      "èĢĮ": 745,
      "Ġit": 746,
      "é¸": 747,
      "åĩºæĿ¥": 748,
      "Ġyour": 749,
      "è¡ĮèĢħéģĵ": 750,
      "ad": 751,
      "æ£": 752,
      "éĹ®é¢ĺ": 753,
      "è¢«": 754,
      "éļ¾": 755,
      "éŃ": 756,
      "åħĪ": 757,
      "è¶": 758,
      "..": 759,
      "åĶĲ": 760,
      "åıĺ": 761,
      "æīĢ": 762,
      "å¼Ł": 763,
      "çĻ½": 764,
      "ç©º": 765,
      "çĭ": 766,
      "ri": 767,
      "é©¬": 768,
      "æľ¬": 769,
      "çĽ¸": 770,
      "æ»": 771,
      "æķĻ": 772,
      "å¾Ģ": 773,
      "å²": 774,
      "æĹ©": 775,
      "æķ¢": 776,
      "Ġthou": 777,
      "æŁ": 778,
      "åĸľ": 779,
      "è·¯": 780,
      "Ġst": 781,
      "æ³ķ": 782,
      "äº²": 783,
      "æ·": 784,
      "'d": 785,
      "çľ¼": 786,
      "äºĶ": 787,
      "é«": 788,
      "èµ·æĿ¥": 789,
      "Ġk": 790,
      "ome": 791,
      "åĨħ": 792,
      "å¤«äºº": 793,
      "ä¸¤ä¸ª": 794,
      "éĶ": 795,
      "èİ": 796,
      "åĲĮ": 797,
      "çĶļ": 798,
      "å®ĺ": 799,
      "Ġhis": 800,
      "éĹ´": 801,
      "åĽ½": 802,
      "ä¸īèĹı": 803,
      "è¿ĻéĩĮ": 804,
      "ç»Ļ": 805,
      "èī": 806,
      "æĥħ": 807,
      "éª": 808,
      "åį³": 809,
      "ght": 810,
      "EN": 811,
      "å®ļ": 812,
      "è°ģ": 813,
      "æĳ": 814,
      "éĢģ": 815,
      "å§ĳ": 816,
      "åĲį": 817,
      "å·±": 818,
      "ord": 819,
      "id": 820,
      "The": 821,
      "as": 822,
      "åİ»äºĨ": 823,
      "é«ĺ": 824,
      "ï¼ŁðŁ": 825,
      "Ġre": 826,
      "å®ī": 827,
      "è¿Ļä¸ª": 828,
      "Ġhave": 829,
      "æ¡": 830,
      "ç²¾": 831,
      "æľĪ": 832,
      "è¿ŀ": 833,
      "IN": 834,
      "ly": 835,
      "å©": 836,
      "é¦Ļ": 837,
      "ç®¡": 838,
      "é»Ľ": 839,
      "ra": 840,
      "Ġli": 841,
      "Ġhim": 842,
      "åĵ¥": 843,
      "åıĸ": 844,
      "æĪ¿": 845,
      "å¤§åľ£": 846,
      "é»Ľçİī": 847,
      "âĸ": 848,
      "ç¼": 849,
      "ï¼Ł\"": 850,
      "èĩªå·±": 851,
      "æı": 852,
      "æħ": 853,
      "ç¦": 854,
      "çı": 855,
      "ä»İ": 856,
      "ur": 857,
      "Ġthis": 858,
      "çŀ": 859,
      "al": 860,
      "IO": 861,
      "ä½¿": 862,
      "çĲĨ": 863,
      "åıªè§ģ": 864,
      "âĸ½": 865,
      "å¦Ĥä»Ĭ": 866,
      "ä¸«": 867,
      "åºĶ": 868,
      "Ġso": 869,
      "å¹³": 870,
      "ä½łä»¬": 871,
      "çī©": 872,
      "(ï¿£âĸ½": 873,
      "åħī": 874,
      "æĽ´": 875,
      "æĢķ": 876,
      "å¦¹": 877,
      "Ġas": 878,
      "åĬ¨": 879,
      "åĳĬ": 880,
      "Ġde": 881,
      "å°ļ": 882,
      "ä½Ĩ": 883,
      "å¯¹": 884,
      "çģ«": 885,
      "åĲĦ": 886,
      "åŃĹ": 887,
      "ç¤": 888,
      "æ®": 889,
      "æ²Ļ": 890,
      "Ġon": 891,
      "æ²¡æľī": 892,
      "åįĬ": 893,
      "å¸¦": 894,
      "ä¸»": 895,
      "æľª": 896,
      "é¾": 897,
      "æĲ": 898,
      "ä¸įå¾Ĺ": 899,
      "ä»Ļ": 900,
      "å¿«": 901,
      "çĸ": 902,
      "èĸ": 903,
      "è£": 904,
      "ä»ĸä»¬": 905,
      "ore": 906,
      "èĻ½": 907,
      "ä¸įè¿ĩ": 908,
      "å¦Ī": 909,
      "å°±æĺ¯": 910,
      "æĺ¥": 911,
      "ro": 912,
      "èĮ": 913,
      "éĹ»": 914,
      "AR": 915,
      "æĴ": 916,
      "hi": 917,
      "æĿ¥äºĨ": 918,
      "ç¾": 919,
      "åħ¬": 920,
      "å¿ħ": 921,
      "èħ": 922,
      "åħ¥": 923,
      "äºİ": 924,
      "æ¢": 925,
      "ould": 926,
      "ood": 927,
      "æ¶": 928,
      "è¢Ń": 929,
      "å§ĳå¨ĺ": 930,
      "çº¢": 931,
      "éľ": 932,
      "ä½Ľ": 933,
      "å°ĳ": 934,
      "éĴĹ": 935,
      "ck": 936,
      "ain": 937,
      "é¾Ļ": 938,
      "åĶĲåĥ§": 939,
      "ver": 940,
      "æ¯Ķ": 941,
      "æĽ¾": 942,
      "æĪĸ": 943,
      "è§£": 944,
      "è¡£": 945,
      "èĦĳ": 946,
      "åĲĳ": 947,
      "è¯Ń": 948,
      "åıªæĺ¯": 949,
      "å®ŀ": 950,
      "å¸¸": 951,
      "åŁ": 952,
      "æĿİ": 953,
      "æĢ¥": 954,
      "çİĭå¤«äºº": 955,
      "éŃĶ": 956,
      "è§ī": 957,
      "è¢Ńäºº": 958,
      "å®ĿéĴĹ": 959,
      "est": 960,
      "(ï¿£âĸ½ï¿£)": 961,
      "ä¹¦": 962,
      "åĲ¬äºĨ": 963,
      "è¯¥": 964,
      "æŀĹ": 965,
      "æĶ¶": 966,
      "Ġthy": 967,
      "éħĴ": 968,
      "Ġsha": 969,
      "ess": 970,
      "æķħ": 971,
      "æİ¥": 972,
      "ä¸ĩ": 973,
      "ä¸«å¤´": 974,
      "ea": 975,
      "å¥¶å¥¶": 976,
      "è¯´éģĵ": 977,
      "æĶ¿": 978,
      "Ġdo": 979,
      "Ġwill": 980,
      "åįĥ": 981,
      "æļ": 982,
      "æĢ§": 983,
      "am": 984,
      "é¹": 985,
      "åĮĸ": 986,
      "èĸĽ": 987,
      "å§¨": 988,
      "èĢģå¤ªå¤ª": 989,
      "æĭľ": 990,
      "çĻ¾": 991,
      "Ġno": 992,
      "ç¿": 993,
      "çĿ¡": 994,
      "å¿µ": 995,
      "å¤ľ": 996,
      "é½": 997,
      "å¹²": 998,
      "åĴĮå°ļ": 999,
      "ç¢": 1000,
      "é¬": 1001,
      "èī²": 1002,
      "çĹħ": 1003,
      "ĨåŃĲ": 1004,
      "åħĦ": 1005,
      "Ġbut": 1006,
      "åĺĽ": 1007,
      "è´¾æĶ¿": 1008,
      "us": 1009,
      "è§ģäºĨ": 1010,
      "çļĦäºº": 1011,
      "èĪ¬": 1012,
      "ä¼Ĺäºº": 1013,
      "æ´ŀ": 1014,
      "US": 1015,
      "and": 1016,
      "if": 1017,
      "ç¤¼": 1018,
      "ä¸ľè¥¿": 1019,
      "æĹ¢": 1020,
      "çł": 1021,
      "éĴ±": 1022,
      "çĲı": 1023,
      "çħ": 1024,
      "æĺ¯ä¸įæĺ¯": 1025,
      "ç¬¬": 1026,
      "çİ°": 1027,
      "Ġse": 1028,
      "ä¼¼": 1029,
      "ge": 1030,
      "è·Ł": 1031,
      "æ¬¡": 1032,
      "èĽ": 1033,
      "è¯´çĿĢ": 1034,
      "ä¸įå¥½": 1035,
      "åŃ¦": 1036,
      "çŁ¥éģĵ": 1037,
      "çŀ§": 1038,
      "åºľ": 1039,
      "èİ«": 1040,
      "Th": 1041,
      "èı©": 1042,
      "èģ": 1043,
      "ä¸ĸ": 1044,
      "Ġall": 1045,
      "è®©": 1046,
      "æĢĿ": 1047,
      "éĵ¶": 1048,
      "æĮĩ": 1049,
      "é¥Ń": 1050,
      "æ¸ħ": 1051,
      "ç»Ĩ": 1052,
      "æĤŁ": 1053,
      "èĲ¨": 1054,
      "ä¼ł": 1055,
      "ake": 1056,
      "Ġsu": 1057,
      "çľŁæĺ¯": 1058,
      "èı©èĲ¨": 1059,
      "To": 1060,
      "èµ¶": 1061,
      "ç³": 1062,
      "å¥ĩ": 1063,
      "å¹¶": 1064,
      "æ²Ļåĥ§": 1065,
      "âĢĺ": 1066,
      "åĬĽ": 1067,
      "èĢģçĪ·": 1068,
      "åĵŃ": 1069,
      "âĢĻ": 1070,
      "ä¸ºä»Ģä¹Ī": 1071,
      "å®«": 1072,
      "å¾Ĵ": 1073,
      "ru": 1074,
      "Ġher": 1075,
      "è½¬": 1076,
      "ion": 1077,
      "ä¸ĢéĿ¢": 1078,
      "å¯»": 1079,
      "è¿Ļæł·": 1080,
      "æ»¡": 1081,
      "åħ¶": 1082,
      "å¿½": 1083,
      "th": 1084,
      "é½Ĳ": 1085,
      "åĸĿ": 1086,
      "ç«Ł": 1087,
      "æµ·": 1088,
      "éļı": 1089,
      "Ġan": 1090,
      "å°½": 1091,
      "ter": 1092,
      "æľĿ": 1093,
      "ard": 1094,
      "å¼ł": 1095,
      "éĢļ": 1096,
      "Ġlo": 1097,
      "æĪĳçļĦ": 1098,
      "åł": 1099,
      "çª": 1100,
      "çĽ´": 1101,
      "ä»¶": 1102,
      "han": 1103,
      "ell": 1104,
      "è®¤": 1105,
      "...": 1106,
      "è¯ī": 1107,
      "è´¾çĲı": 1108,
      "è§Ĥ": 1109,
      "ear": 1110,
      "åĽŃ": 1111,
      "Ġsp": 1112,
      "ä¹ĥ": 1113,
      "èĦ¸": 1114,
      "åı¥": 1115,
      "Ġthee": 1116,
      "åĵ©": 1117,
      "çŃĶ": 1118,
      "ç®Ĺ": 1119,
      "âķ": 1120,
      "ä¸įæķ¢": 1121,
      "ä¹±": 1122,
      "é£ŀ": 1123,
      "Ġour": 1124,
      "åĽŀæĿ¥": 1125,
      "åĲ§": 1126,
      "éĥ½æĺ¯": 1127,
      "éĩį": 1128,
      "Ġfa": 1129,
      "Ġshall": 1130,
      "Ġby": 1131,
      "çĬ": 1132,
      "è¿ĳ": 1133,
      "åĥı": 1134,
      "çŁ³": 1135,
      "åħŃ": 1136,
      "å®¶çļĦ": 1137,
      "çĮ´": 1138,
      "ãĢĬ": 1139,
      "UC": 1140,
      "ä¸įèĥ½": 1141,
      "ä¾Ŀ": 1142,
      "æĺ¯ä¸ª": 1143,
      "èĦĳåŃĲ": 1144,
      "ãĢĭ": 1145,
      "æī¾": 1146,
      "èĮ¶": 1147,
      "æķĳ": 1148,
      "åıĹ": 1149,
      "åħ³": 1150,
      "æ±Ĥ": 1151,
      "æľį": 1152,
      "il": 1153,
      "åĲ¬è§ģ": 1154,
      "æīĢä»¥": 1155,
      "è¿ĽæĿ¥": 1156,
      "åĳĬè¯ī": 1157,
      "éŁ": 1158,
      "è±": 1159,
      "Ġare": 1160,
      "ING": 1161,
      "å¼Ħ": 1162,
      "åĲĪ": 1163,
      "å¾ħ": 1164,
      "éĥ": 1165,
      "ĠC": 1166,
      "æĺŁ": 1167,
      "è¿ľ": 1168,
      "rom": 1169,
      "Ġne": 1170,
      "ho": 1171,
      "æĬ¥": 1172,
      "ç´«": 1173,
      "ãĤ": 1174,
      "ä½į": 1175,
      "åľŁ": 1176,
      "è°¢": 1177,
      "è¿Ļä¹Ī": 1178,
      "æ¬¢": 1179,
      "Ġkn": 1180,
      "å¹³åĦ¿": 1181,
      "èĲ½": 1182,
      "ĠR": 1183,
      "æ¹": 1184,
      "åı¤": 1185,
      "åĺ´": 1186,
      "åįĹ": 1187,
      "è®°": 1188,
      "AN": 1189,
      "å¦Ĥä½ķ": 1190,
      "ç©¿": 1191,
      "è¿İ": 1192,
      "éĽ¨": 1193,
      "That": 1194,
      "æĥĬ": 1195,
      "Ġv": 1196,
      "çļĦè¯Ŀ": 1197,
      "è¿ĻäºĽ": 1198,
      "åĢĻ": 1199,
      "ER": 1200,
      "æľĽ": 1201,
      "éķ¿èĢģ": 1202,
      "OR": 1203,
      "ast": 1204,
      "é¼": 1205,
      "èŁ": 1206,
      "éĹ¹": 1207,
      "ct": 1208,
      "ous": 1209,
      "åıªå¾Ĺ": 1210,
      "å«": 1211,
      "å¾Ī": 1212,
      "æĻļ": 1213,
      "Ġwhat": 1214,
      "çģµ": 1215,
      "çķĻ": 1216,
      "åŁİ": 1217,
      "æ£Ĵ": 1218,
      "æĸĩ": 1219,
      "ä½ĵ": 1220,
      "è®¸": 1221,
      "å¦ĸç²¾": 1222,
      "èĵ": 1223,
      "æľīä¸Ģ": 1224,
      "ight": 1225,
      "ä»ĬæĹ¥": 1226,
      "Ġsh": 1227,
      "å§¥": 1228,
      "åİŁæĿ¥": 1229,
      "ä¼¤": 1230,
      "ä¿¡": 1231,
      "æģĲ": 1232,
      "ul": 1233,
      "çļĨ": 1234,
      "âĢĶ": 1235,
      "ET": 1236,
      "æĸĹ": 1237,
      "å¾Ħ": 1238,
      "ãĤŀ": 1239,
      "Ġ'": 1240,
      "èĭ¦": 1241,
      "ant": 1242,
      "æ¯ķ": 1243,
      "è½»": 1244,
      "ES": 1245,
      "åħ¨": 1246,
      "èĢģåŃĻ": 1247,
      "åĩºåİ»": 1248,
      "åĭ": 1249,
      "æ¼": 1250,
      "è¿Ļä¸Ģ": 1251,
      "æķ°": 1252,
      "âķ¬": 1253,
      "Ġup": 1254,
      "éĻ¢": 1255,
      "å®Į": 1256,
      "sel": 1257,
      "èį¯": 1258,
      "æķ£": 1259,
      "åºķ": 1260,
      "qu": 1261,
      "âĹ": 1262,
      "è¿Ļç§įéĹ®é¢ĺ": 1263,
      "But": 1264,
      "æµģ": 1265,
      "éĵģ": 1266,
      "art": 1267,
      "åĴ±": 1268,
      "æ¨": 1269,
      "çļĦäºĭ": 1270,
      "ä¹Ŀ": 1271,
      "å¤§å®¶": 1272,
      "é»Ħ": 1273,
      "èĤ¯": 1274,
      "é¢Ĩ": 1275,
      "ç¬¨": 1276,
      "Ġgood": 1277,
      "ç´§": 1278,
      "çıį": 1279,
      "åıį": 1280,
      "çļ¿": 1281,
      "æł¹": 1282,
      "é¬¼": 1283,
      "row": 1284,
      "åĴ±ä»¬": 1285,
      "ine": 1286,
      "ath": 1287,
      "è¯´äºĨ": 1288,
      "Ġlord": 1289,
      "nt": 1290,
      "ç«ĭ": 1291,
      "hich": 1292,
      "æĿ¥çļĦ": 1293,
      "ust": 1294,
      "å®¹": 1295,
      "åħ«æĪĴéģĵ": 1296,
      "è¯Ĺ": 1297,
      "èĽĭ": 1298,
      "æĪĺ": 1299,
      "----": 1300,
      "æĤŁç©º": 1301,
      "åĻ": 1302,
      "ä¸įè¦ģ": 1303,
      "å¦ĩ": 1304,
      "'ll": 1305,
      "èĦļ": 1306,
      "ä¹Łæĺ¯": 1307,
      "çħ§": 1308,
      "one": 1309,
      "Ġpr": 1310,
      "æ´»": 1311,
      "çĶµ": 1312,
      "Ġcom": 1313,
      "Ġat": 1314,
      "è¿ĺæĺ¯": 1315,
      "å±ĭ": 1316,
      "âķ¬ï¿£": 1317,
      "Ġman": 1318,
      "å§Ĳå§Ĳ": 1319,
      "What": 1320,
      "ĠM": 1321,
      "äººå®¶": 1322,
      "ç§°": 1323,
      "çĳ": 1324,
      "å¦ĤæŃ¤": 1325,
      "çĶļä¹Ī": 1326,
      "Ġwhe": 1327,
      "æİ¢": 1328,
      "ä»¤": 1329,
      "æ¥": 1330,
      "ĠE": 1331,
      "åĲĽ": 1332,
      "KING": 1333,
      "ĠĊ": 1334,
      "åŃ©": 1335,
      "Ġam": 1336,
      "end": 1337,
      "æ¯ı": 1338,
      "æ°ı": 1339,
      "ç¨": 1340,
      "æıĲ": 1341,
      "âĹĭ": 1342,
      "ic": 1343,
      "éĤ£ä¸ª": 1344,
      "è·³": 1345,
      "Ġcon": 1346,
      "åĩłä¸ª": 1347,
      "ç±": 1348,
      "åĨĻ": 1349,
      "ä¿Ŀ": 1350,
      "éŁ³": 1351,
      "å®³": 1352,
      "ä½łçļĦ": 1353,
      "ble": 1354,
      "ä»ĸçļĦ": 1355,
      "ry": 1356,
      "æ¸¸": 1357,
      "éĨ": 1358,
      "å£«": 1359,
      "åĲĥäºĨ": 1360,
      "æ®¿": 1361,
      "éĤ£äºĽ": 1362,
      "å¥ĩæĢª": 1363,
      "æ¹ĺ": 1364,
      "ie": 1365,
      "åĬŀ": 1366,
      "é¡»": 1367,
      "ong": 1368,
      "ç´ł": 1369,
      "äº¦": 1370,
      "ä¸įä¼ļ": 1371,
      "å§¨å¦Ī": 1372,
      "åħµ": 1373,
      "æĸ°": 1374,
      "è·ĳ": 1375,
      "ive": 1376,
      "Ġbl": 1377,
      "Ġfrom": 1378,
      "æŃ¥": 1379,
      "éªĤ": 1380,
      "éĻį": 1381,
      "ä¸ĥ": 1382,
      "ä¸ĢæĹ¶": 1383,
      "å°¤": 1384,
      "åĪĻ": 1385,
      "ä¸İä»ĸ": 1386,
      "çļĦæĺ¯": 1387,
      "ç¥ĸ": 1388,
      "ven": 1389,
      "å¢": 1390,
      "ĠG": 1391,
      "åĨ·": 1392,
      "For": 1393,
      "Ġshe": 1394,
      "æ³ª": 1395,
      "are": 1396,
      "em": 1397,
      "Ġgo": 1398,
      "éº": 1399,
      "ä¹°": 1400,
      "åĶ¤": 1401,
      "IC": 1402,
      "éģĤ": 1403,
      "Ġmore": 1404,
      "æĿ¡": 1405,
      "out": 1406,
      "Ġthem": 1407,
      "è¿ĺæľī": 1408,
      "çģ¯": 1409,
      "æĿĢ": 1410,
      "ĻĦ": 1411,
      "åľº": 1412,
      "æŃ£æĺ¯": 1413,
      "æļĹ": 1414,
      "ï¿£)âĹĭ": 1415,
      "au": 1416,
      "Ġwas": 1417,
      "çĪ±": 1418,
      "oth": 1419,
      "other": 1420,
      "ï¼ģ\"": 1421,
      "éĿĴ": 1422,
      "He": 1423,
      "ol": 1424,
      "Ġsir": 1425,
      "è¯´è¯Ŀ": 1426,
      "å¼º": 1427,
      "çĵ": 1428,
      "åģĩ": 1429,
      "åĸĦ": 1430,
      "æģ©": 1431,
      "ï¼ī": 1432,
      "å·®": 1433,
      "ç¬¨èĽĭ": 1434,
      "äº¤": 1435,
      "Ġnow": 1436,
      "ĠL": 1437,
      "Ġhat": 1438,
      "åı¯ä»¥": 1439,
      "ç«Ļ": 1440,
      "è¿ĩæĿ¥": 1441,
      "æĵ": 1442,
      "æĭī": 1443,
      "åĬŁ": 1444,
      "ost": 1445,
      "Ġif": 1446,
      "ç½ª": 1447,
      "LO": 1448,
      "æĹ§": 1449,
      "çĨ": 1450,
      "è¿Ľåİ»": 1451,
      "ind": 1452,
      "ä¼ı": 1453,
      "ç½¢äºĨ": 1454,
      "å¸Ŀ": 1455,
      "Ġthere": 1456,
      "äºĮçĪ·": 1457,
      "ä¿±": 1458,
      "çļĦåķ¦": 1459,
      "çĥŁ": 1460,
      "åĽ½çİĭ": 1461,
      "ä½łèĦĳåŃĲ": 1462,
      "èįī": 1463,
      "è¸": 1464,
      "èĴ": 1465,
      "Ġwould": 1466,
      "è§ģä»ĸ": 1467,
      "Ġknow": 1468,
      "æĤĦ": 1469,
      "å²Ĥ": 1470,
      "Ġcan": 1471,
      "åıĬ": 1472,
      "ä¸Ģå£°": 1473,
      "èĢ³": 1474,
      "éĹ²": 1475,
      "åĩĢ": 1476,
      "ers": 1477,
      "æłĳ": 1478,
      "çĹ´": 1479,
      "ä½łæĺ¯": 1480,
      "åĩ¤å§ĲåĦ¿": 1481,
      "è¿Ļæĺ¯": 1482,
      "åĮħ": 1483,
      "ä»£": 1484,
      "æģ¶": 1485,
      ".\"": 1486,
      "IUS": 1487,
      "æľ¨": 1488,
      "ep": 1489,
      "è®¡": 1490,
      "æĦŁ": 1491,
      "self": 1492,
      "ãĢĢ": 1493,
      "æħĮ": 1494,
      "ARD": 1495,
      "ather": 1496,
      "fe": 1497,
      "ç»ĵ": 1498,
      "ond": 1499,
      "res": 1500,
      "åĪ°äºĨ": 1501,
      "æĸĭ": 1502,
      "ate": 1503,
      "éģĩ": 1504,
      "åħĦå¼Ł": 1505,
      "åĳ¨": 1506,
      "å½©": 1507,
      "ç¦»": 1508,
      "éĤ£æĢª": 1509,
      "Ġsay": 1510,
      "éĺ³": 1511,
      "ä¸īèĹıéģĵ": 1512,
      "Ġhere": 1513,
      "Ġlove": 1514,
      "åª": 1515,
      "å¤į": 1516,
      "åĪļ": 1517,
      "æ¬²": 1518,
      "åľ¨éĤ£éĩĮ": 1519,
      "äºĮäºº": 1520,
      "è½¦": 1521,
      "pp": 1522,
      "Ġsw": 1523,
      "Ġtheir": 1524,
      "èĸĽå§¨å¦Ī": 1525,
      "å®Ŀçİīéģĵ": 1526,
      "åģ·": 1527,
      "ï¼Ī": 1528,
      "Ġbr": 1529,
      "åĳĨåŃĲ": 1530,
      "å¼ķ": 1531,
      "éĹ®éģĵ": 1532,
      "æĩ": 1533,
      "Ġor": 1534,
      "æ´Ĺ": 1535,
      "å©Ĩ": 1536,
      "å¾Ĵå¼Ł": 1537,
      "all": 1538,
      "ĠS": 1539,
      "è¶Ĭ": 1540,
      "åłĤ": 1541,
      "çł´": 1542,
      "Ġthan": 1543,
      "æľĢ": 1544,
      "é¸³": 1545,
      "æ·±": 1546,
      "åħ»": 1547,
      "Ġthen": 1548,
      "Ġking": 1549,
      "å¡": 1550,
      "Ĵ¦": 1551,
      "ä¸įæĽ¾": 1552,
      "åħ´": 1553,
      "ç½Ĺ": 1554,
      "èĦ±": 1555,
      "Ġus": 1556,
      "å¤±": 1557,
      "èĻİ": 1558,
      "å²ģ": 1559,
      "éĹ®æĪĳ": 1560,
      "å½¢": 1561,
      "ĠO": 1562,
      "æĪĳä¹Ł": 1563,
      "åİ®": 1564,
      "åĮ»": 1565,
      "æĸŃ": 1566,
      "åĬĿ": 1567,
      "ä»¥ä¸º": 1568,
      "ç£": 1569,
      "æ¯Ľ": 1570,
      "æİ¢æĺ¥": 1571,
      "ĠB": 1572,
      "Ġthey": 1573,
      "é¦ĸ": 1574,
      "é¹ĥ": 1575,
      "æľīäºĽ": 1576,
      "è±¡": 1577,
      "åħĥ": 1578,
      "Ġar": 1579,
      "åĤ": 1580,
      "å½Ĵ": 1581,
      "çĽĺ": 1582,
      "éĽª": 1583,
      "é¸¯": 1584,
      "od": 1585,
      "éĿŀ": 1586,
      "é¸³é¸¯": 1587,
      "My": 1588,
      "çĥ§": 1589,
      "å¦Ļ": 1590,
      "ç´«é¹ĥ": 1591,
      "ä¹Ĳ": 1592,
      "æĬ¬": 1593,
      "çľŁçļĦ": 1594,
      "çķĮ": 1595,
      "æĪı": 1596,
      "Ġlet": 1597,
      "çī¹": 1598,
      "ä¾į": 1599,
      "çĥŃ": 1600,
      "å»": 1601,
      "æĹ¨": 1602,
      "åĪĺ": 1603,
      "çĸ¼": 1604,
      "äºĨä»ĸ": 1605,
      "çĮª": 1606,
      "å¤ĩ": 1607,
      "æĹģ": 1608,
      "çīĽ": 1609,
      "æ¦": 1610,
      "Ġun": 1611,
      "éĤ¢": 1612,
      "æŀľçĦ¶": 1613,
      "éĹ»è¨Ģ": 1614,
      "æŃĩ": 1615,
      "ä¸įä½ı": 1616,
      "ä½łè¿Ļ": 1617,
      "çļ®": 1618,
      "è¯Ĩ": 1619,
      "å¿ĥéĩĮ": 1620,
      "çŃīæĪĳ": 1621,
      "æĺ¨": 1622,
      "åľ¨è¿ĻéĩĮ": 1623,
      "åĳµ": 1624,
      "åıªç®¡": 1625,
      "æŃ»äºĨ": 1626,
      "æĪĸèĢħ": 1627,
      "ç§ĭ": 1628,
      "ï¼ģðŁĺ": 1629,
      "çŃĶåºĶ": 1630,
      "]ï¼Į": 1631,
      "ig": 1632,
      "å·§": 1633,
      "åĵ¥åĵ¥": 1634,
      "åĩ¡": 1635,
      "å¯º": 1636,
      "Ġwor": 1637,
      "éĵ¶åŃĲ": 1638,
      "æĦ¿": 1639,
      "é»ĳ": 1640,
      "æĳĩ": 1641,
      "ure": 1642,
      "å®Ĺ": 1643,
      "åĲ¬å¾Ĺ": 1644,
      "é©¾": 1645,
      "å©ĨåŃĲ": 1646,
      "å¥ī": 1647,
      "å¤§çİĭ": 1648,
      "é¡½": 1649,
      "ä¸¢": 1650,
      "åĵĪ": 1651,
      "å·¦": 1652,
      "ä¿®": 1653,
      "ä¸¾": 1654,
      "ink": 1655,
      "åĲ¬è¯´": 1656,
      "ĠH": 1657,
      "éĴŁ": 1658,
      "æį¢": 1659,
      "äºĨåĲĹ": 1660,
      "ame": 1661,
      "ort": 1662,
      "åº¦": 1663,
      "hy": 1664,
      "ĠV": 1665,
      "æĢ»": 1666,
      "fore": 1667,
      "As": 1668,
      "Ĵ¢": 1669,
      "éĩı": 1670,
      "Ġmay": 1671,
      "å¦¹å¦¹": 1672,
      "el": 1673,
      "åļ": 1674,
      "è®²": 1675,
      "æĿİçº": 1676,
      "Ġqu": 1677,
      "Ġcome": 1678,
      "æĦıæĢĿ": 1679,
      "æ¥¼": 1680,
      "Whe": 1681,
      "ook": 1682,
      "è´¾çıį": 1683,
      "ç³»": 1684,
      "è¯´çļĦ": 1685,
      "æľīäºº": 1686,
      "ish": 1687,
      "åĶ¬": 1688,
      "æ²³": 1689,
      "çĥ¦": 1690,
      "æ¢¦": 1691,
      "çĳŀ": 1692,
      "LI": 1693,
      "æĮī": 1694,
      "åĻ¨": 1695,
      "åŀ": 1696,
      "Ġwell": 1697,
      "ï¼ŁðŁ¤": 1698,
      "çĶ·": 1699,
      "éĿĻ": 1700,
      "KE": 1701,
      "ç¡": 1702,
      "æŀģ": 1703,
      "è®º": 1704,
      "åı«éģĵ": 1705,
      "ves": 1706,
      "åĳ¼": 1707,
      "æĽ¿": 1708,
      "æī¯": 1709,
      "éĽ·": 1710,
      "åĽłä¸º": 1711,
      "Ġj": 1712,
      "å°Ĭ": 1713,
      "æħ¢": 1714,
      "ï¼ģðŁ¤": 1715,
      "Ġone": 1716,
      "çľĭè§ģ": 1717,
      "ä¸Ģæł·": 1718,
      "ä¸įçŁ¥éģĵ": 1719,
      "æ¶Ī": 1720,
      "æľº": 1721,
      "åĨµ": 1722,
      "æĬ¤": 1723,
      "éĢł": 1724,
      "èĩªçĦ¶": 1725,
      "Ġhath": 1726,
      "è®¾": 1727,
      "irst": 1728,
      "èĪį": 1729,
      "é£Ł": 1730,
      "æĳĨ": 1731,
      "ä¸įè§ģ": 1732,
      "çĽ®": 1733,
      "å½ĵçĦ¶": 1734,
      "ç¾İ": 1735,
      "åıĮ": 1736,
      "å¥ı": 1737,
      "çİ¯": 1738,
      "æľīä¸ª": 1739,
      "åİ»ç½¢": 1740,
      "æķ´": 1741,
      "åº§": 1742,
      "You": 1743,
      "çļĩ": 1744,
      "æĹ¶åĢĻ": 1745,
      "æĿİçº¨": 1746,
      "Ġmake": 1747,
      "æģ¯": 1748,
      "èĥĮ": 1749,
      "æĴŀ": 1750,
      "ak": 1751,
      "åĹ": 1752,
      "reat": 1753,
      "åı«ä»ĸ": 1754,
      "æĻ´": 1755,
      "gain": 1756,
      "ä¸įçĶ¨": 1757,
      "è¯ķ": 1758,
      "åĪĢ": 1759,
      "èĳ": 1760,
      "Ġmust": 1761,
      "æİĴ": 1762,
      "èĬĤ": 1763,
      "ound": 1764,
      "äºĮåįģ": 1765,
      "èŁł": 1766,
      "ng": 1767,
      "ç«¯": 1768,
      "åĵį": 1769,
      "æ¹ĺäºĳ": 1770,
      "å°ıå¦ĸ": 1771,
      "è£ħ": 1772,
      "æĺ¯æĪĳ": 1773,
      "æĿ¯": 1774,
      "éĤ£è¾¹": 1775,
      "å¥½äºĨ": 1776,
      "èĥľ": 1777,
      "éĶĻ": 1778,
      "æº": 1779,
      "åĪ©": 1780,
      "åįķ": 1781,
      "å¯¿": 1782,
      "Ġgra": 1783,
      "éĻª": 1784,
      "æŁ¥": 1785,
      "åı³": 1786,
      "ç¿»": 1787,
      "åģı": 1788,
      "æĻ¯": 1789,
      "èĥ¡": 1790,
      "Ġwere": 1791,
      "åª³": 1792,
      "åķĨ": 1793,
      "åı¯èĥ½": 1794,
      "è¿ĻèĪ¬": 1795,
      "æīĩ": 1796,
      "ä¼ĳ": 1797,
      "Ġho": 1798,
      "æĤ²": 1799,
      "ci": 1800,
      "éģį": 1801,
      "å®ĥ": 1802,
      "æĿ¾": 1803,
      "å¿į": 1804,
      "(ï¿£^": 1805,
      "Ġsee": 1806,
      "åŃĿ": 1807,
      "Ġlike": 1808,
      "(ï¿£^ï¿£)": 1809,
      "ue": 1810,
      "æľīä»Ģä¹Ī": 1811,
      "æĸĻ": 1812,
      "æİ¨": 1813,
      "å°¤æ°ı": 1814,
      "å¤ļå°ĳ": 1815,
      "é¡¶": 1816,
      "eak": 1817,
      "TIO": 1818,
      "æĿĳ": 1819,
      "çĶ»": 1820,
      "èµ°äºĨ": 1821,
      "æ··": 1822,
      "éĥ¨": 1823,
      "Ġshould": 1824,
      "åŃ©åŃĲ": 1825,
      "ĠP": 1826,
      "è´¼": 1827,
      "ity": 1828,
      "æĪĳå°±": 1829,
      "Ġpro": 1830,
      "æŁ³": 1831,
      "Ġsa": 1832,
      "Ġmad": 1833,
      "um": 1834,
      "Ġpl": 1835,
      "æĸ¹æīį": 1836,
      "åįİ": 1837,
      "åĬł": 1838,
      "è¡¨": 1839,
      "Ġfather": 1840,
      "å·¥": 1841,
      "ç«¥": 1842,
      "åıĶ": 1843,
      "è§Ĵ": 1844,
      "è¯Ŀè¯´": 1845,
      "RO": 1846,
      "é²": 1847,
      "åĽŀåİ»": 1848,
      "éĢĢ": 1849,
      "çºµ": 1850,
      "èı±": 1851,
      "AU": 1852,
      "ä¸¹": 1853,
      "ä¹Łæľī": 1854,
      "çīĻ": 1855,
      "èº«ä¸Ĭ": 1856,
      "Ġhad": 1857,
      "è¹": 1858,
      "ä»į": 1859,
      "ä¹ħ": 1860,
      "è´Ŀ": 1861,
      "Ġdid": 1862,
      "æĮģ": 1863,
      "åį´è¯´": 1864,
      "ï½ŀ(ï¿£âĸ½ï¿£)": 1865,
      "pe": 1866,
      "éĺ´": 1867,
      "è¶³": 1868,
      "åª³å¦ĩ": 1869,
      "è¯¸": 1870,
      "çĲĥ": 1871,
      "ime": 1872,
      "Ġupon": 1873,
      "åıªæľī": 1874,
      "çķ¥": 1875,
      "å´": 1876,
      "è´µ": 1877,
      "æĥľ": 1878,
      "éĢĴ": 1879,
      "ä¼ļåŃĲ": 1880,
      "èĻļ": 1881,
      "äººçļĦ": 1882,
      "è¿ĺè¦ģ": 1883,
      "åĿĹ": 1884,
      "ï¼ŁðŁĴ¦": 1885,
      "éĨĴ": 1886,
      "æĮĤ": 1887,
      "èĤī": 1888,
      "å¥ĩæĢªçļĦ": 1889,
      "ice": 1890,
      "éĴ¯": 1891,
      "èĵī": 1892,
      "æīĵåıĳ": 1893,
      "å§¥å§¥": 1894,
      "ON": 1895,
      "æĸ½": 1896,
      "Ġtoo": 1897,
      "éĺµ": 1898,
      "è¡£æľį": 1899,
      "ä½łçľĭ": 1900,
      "åĪ»": 1901,
      "çľŁä¸ª": 1902,
      "éŀ": 1903,
      "ä¸ĬæĿ¥": 1904,
      "è°ĥ": 1905,
      "å¹¸": 1906,
      "ä¸īä¸ª": 1907,
      "ıäºĨ": 1908,
      "å¿ĺ": 1909,
      "åĢŁ": 1910,
      "çĻ½çĹ´": 1911,
      "çĭ¬": 1912,
      "å¥Ī": 1913,
      "åĳĢ": 1914,
      "ence": 1915,
      "å±ħ": 1916,
      "è®¤å¾Ĺ": 1917,
      "å±ĭéĩĮ": 1918,
      "èĿ": 1919,
      "ĠW": 1920,
      "åı°": 1921,
      "å¾·": 1922,
      "åıĸç»ı": 1923,
      "ä¸ļ": 1924,
      "ä¸İä½ł": 1925,
      "éĽ¯": 1926,
      "æĻ´éĽ¯": 1927,
      "ward": 1928,
      "ä¸ĢèĪ¬": 1929,
      "ist": 1930,
      "å¤Ł": 1931,
      "å®Ī": 1932,
      "ï¼Ł(ï¿£âĸ½ï¿£)": 1933,
      "åľ¨æŃ¤": 1934,
      "æ²»": 1935,
      "æģ¨": 1936,
      "Ġdeath": 1937,
      "å®Ŀè´Ŀ": 1938,
      "èį£": 1939,
      "åıĭ": 1940,
      "å®¢": 1941,
      "åħį": 1942,
      "æŃ¢": 1943,
      "å§ĵ": 1944,
      "own": 1945,
      "å¤ĸå¤´": 1946,
      "åı¸": 1947,
      "å¾®": 1948,
      "man": 1949,
      "ä¸įæĪĲ": 1950,
      "ï¼ģ(ï¿£âĸ½ï¿£)": 1951,
      "é¡¾": 1952,
      "åĸľæ¬¢": 1953,
      "ose": 1954,
      "Ġen": 1955,
      "éĩĮéĿ¢": 1956,
      "è·ª": 1957,
      "è¿Ľæ°´": 1958,
      "Ġr": 1959,
      "ä¹Łè¦ģ": 1960,
      "è¿ĩåİ»": 1961,
      "âĢĶâĢĶ": 1962,
      "un": 1963,
      "çļĦå¥½": 1964,
      "è¿ĻçŃī": 1965,
      "æģ¼": 1966,
      "IS": 1967,
      "±¼": 1968,
      "ç¯": 1969,
      "é±¼": 1970,
      "æĺ¯ä¸Ģ": 1971,
      "çĿĽ": 1972,
      "åĮĹ": 1973,
      "éŃĤ": 1974,
      "ful": 1975,
      "èķ": 1976,
      "åı¹": 1977,
      "éĶ¦": 1978,
      "nce": 1979,
      "å¬": 1980,
      "Ġspeak": 1981,
      "ï¸": 1982,
      "Ġpo": 1983,
      "de": 1984,
      "åı·": 1985,
      "ä¸įå¦Ĥ": 1986,
      "çľģ": 1987,
      "ä¸Ĭåīį": 1988,
      "åįģåĪĨ": 1989,
      "entle": 1990,
      "io": 1991,
      "Ġout": 1992,
      "ä¸įåľ¨": 1993,
      "ä¾Ľ": 1994,
      "èĬ³": 1995,
      "pt": 1996,
      "ä½İ": 1997,
      "è¯´æĺ¯": 1998,
      "Ġwhich": 1999,
      "æ¸Ĳ": 2000,
      "æ±ī": 2001,
      "ICH": 2002,
      "åĪĺå§¥å§¥": 2003,
      "Ġfri": 2004,
      "æ²¹": 2005,
      "åºĬ": 2006,
      "å½±": 2007,
      "éª¨": 2008,
      "èĻ½çĦ¶": 2009,
      "OL": 2010,
      "æ³¼": 2011,
      "èĢĮä¸Ķ": 2012,
      "ç¦ı": 2013,
      "åļ·": 2014,
      "¦âĢ": 2015,
      "éĤª": 2016,
      "éĻ¤": 2017,
      "å¬·": 2018,
      "DU": 2019,
      "ä¸įåı¯": 2020,
      "Ġagain": 2021,
      "åĪ«äºº": 2022,
      "DUKE": 2023,
      "ä¸ĭæĿ¥": 2024,
      "Ġhow": 2025,
      "èµı": 2026,
      "å®¶éĩĮ": 2027,
      "äºĨåĲ§": 2028,
      "çĽĸ": 2029,
      "çıł": 2030,
      "çĸĳ": 2031,
      "éĤ¢å¤«äºº": 2032,
      "EL": 2033,
      "ä¸Ī": 2034,
      "åı²": 2035,
      "ä¸ĢæĹ¥": 2036,
      "ä½łä»¥ä¸º": 2037,
      "çĶ±": 2038,
      "å°ıä¸«å¤´": 2039,
      "è¾ŀ": 2040,
      "ick": 2041,
      "ĠA": 2042,
      "Ġtru": 2043,
      "æī§": 2044,
      "ç»Ŀ": 2045,
      "æŀ¶": 2046,
      "Ġheart": 2047,
      "æĽ°": 2048,
      "æ½": 2049,
      "è¿Ļè¯Ŀ": 2050,
      "ä¿Ĺ": 2051,
      "åįĸ": 2052,
      "åĵ¦": 2053,
      "æĢĢ": 2054,
      "Ġyet": 2055,
      "åģľ": 2056,
      "ä»ĬåĦ¿": 2057,
      "Ġhand": 2058,
      "æĺİçĻ½": 2059,
      "CA": 2060,
      "æĢ¨": 2061,
      "æĢľ": 2062,
      "åıĪä¸įæĺ¯": 2063,
      "å¦Ĥæŀľ": 2064,
      "Thou": 2065,
      "è¡ĮèĢħç¬ĳéģĵ": 2066,
      "èµ·èº«": 2067,
      "æ»ļ": 2068,
      "èħ°": 2069,
      "very": 2070,
      "å¸Ń": 2071,
      "é¥®": 2072,
      "çªĹ": 2073,
      "ICHARD": 2074,
      "æĪĳçŃī": 2075,
      "åİĨ": 2076,
      "å¾¡": 2077,
      "çİ©": 2078,
      "è¨Ģè¯Ń": 2079,
      "ENTIO": 2080,
      "With": 2081,
      "âľ": 2082,
      "å³": 2083,
      "ä½łæĺ¯ä¸įæĺ¯": 2084,
      "æįī": 2085,
      "ign": 2086,
      "å§Ĭ": 2087,
      "æŃ¤æĹ¶": 2088,
      "çķª": 2089,
      "æ¡ĥ": 2090,
      "Ġsome": 2091,
      "ç»Ī": 2092,
      "æĭħ": 2093,
      "åĪ°åºķ": 2094,
      "ance": 2095,
      "ç±»": 2096,
      "Ġwho": 2097,
      "Which": 2098,
      "äºĨä¸Ģä¸ª": 2099,
      "åį·": 2100,
      "å·²ç»ı": 2101,
      "If": 2102,
      "èĨ": 2103,
      "ï¼ļâĢĺ": 2104,
      "æĪĳè¯´": 2105,
      "æĢĴ": 2106,
      "å¥½çļĦ": 2107,
      "å¯Ĵ": 2108,
      "æĮĳ": 2109,
      "é¡¿": 2110,
      "èĸĽèŁł": 2111,
      "Ġwhen": 2112,
      "ies": 2113,
      "å¤¹": 2114,
      "ä¸įçĦ¶": 2115,
      "ä»ĸä¸Ģ": 2116,
      "Ġmar": 2117,
      "åĵĦ": 2118,
      "æĭĽ": 2119,
      "ire": 2120,
      "ç¿ł": 2121,
      "æ¨¡": 2122,
      "ï¸ı": 2123,
      "èľ": 2124,
      "åħ±": 2125,
      "æīĺ": 2126,
      "Ġmine": 2127,
      "æĭ¾": 2128,
      "Ġhon": 2129,
      "æ®µ": 2130,
      "ç¢Ĺ": 2131,
      "æĺ¾": 2132,
      "æĪĳæĺ¯": 2133,
      "har": 2134,
      "è§ģéĤ£": 2135,
      "orn": 2136,
      "Ġoff": 2137,
      "ç´¢": 2138,
      "ack": 2139,
      "ä¸įèĤ¯": 2140,
      "åĪĿ": 2141,
      "ince": 2142,
      "ç§¦": 2143,
      "INC": 2144,
      "é¦Ļèı±": 2145,
      "In": 2146,
      "ĠY": 2147,
      "æĺĵ": 2148,
      "éģĵå£«": 2149,
      "çľĭæĹ¶": 2150,
      "é¥¶": 2151,
      "é¸¡": 2152,
      "ï¼ģâķ¬ï¿£": 2153,
      "æī¶": 2154,
      "Ġson": 2155,
      "çŁŃ": 2156,
      "Ġdis": 2157,
      "æĶ¹": 2158,
      "éļĲ": 2159,
      "èĭ¥æĺ¯": 2160,
      "éļ¾éģĵ": 2161,
      "Ġal": 2162,
      "éĤ£ä¹Ī": 2163,
      "æŃ¦": 2164,
      "èĩ´": 2165,
      "çĦ¶åĲİ": 2166,
      "'t": 2167,
      "æĪĳæīį": 2168,
      "åĵģ": 2169,
      "å¥³åĦ¿": 2170,
      "æ£į": 2171,
      "è¿ŀå¿Ļ": 2172,
      "ç¼ĺ": 2173,
      "è®¸å¤ļ": 2174,
      "åĳ³": 2175,
      "å±Ĥ": 2176,
      "We": 2177,
      "äºī": 2178,
      "ä»»": 2179,
      "éĹ·": 2180,
      "è®®": 2181,
      "åı¯æĺ¯": 2182,
      "AB": 2183,
      "åıĤ": 2184,
      "å¾ĹäºĨ": 2185,
      "æĬ±": 2186,
      "åĬ¿": 2187,
      "çīĮ": 2188,
      "æĺİæĹ¥": 2189,
      "oy": 2190,
      "éģŃ": 2191,
      "æĿ¥éĹ®æĪĳ": 2192,
      "è´«": 2193,
      "ä¸İæĪĳ": 2194,
      "èİ²": 2195,
      "å¦»": 2196,
      "uch": 2197,
      "wn": 2198,
      "ä¸Ģé½Ĳ": 2199,
      "éĤ£èĢģ": 2200,
      "è¿ĺä¸į": 2201,
      "Ġhea": 2202,
      "First": 2203,
      "åĪĩ": 2204,
      "èµ¦": 2205,
      "ç¾¤": 2206,
      "Ġtime": 2207,
      "Ġhear": 2208,
      "éĴ»": 2209,
      "æĭ¿äºĨ": 2210,
      "éħį": 2211,
      "äºı": 2212,
      "å®ģ": 2213,
      "æİĮ": 2214,
      "é¡º": 2215,
      "å§Ĭå¦¹": 2216,
      "ec": 2217,
      "åĩ¶": 2218,
      "åĽ´": 2219,
      "å®¶äºº": 2220,
      "åºĦ": 2221,
      "æĶ¾å¿ĥ": 2222,
      "ï¼ģðŁĻĦ": 2223,
      "Ġsuch": 2224,
      "çĻ½çĹ´éĹ®é¢ĺ": 2225,
      "ness": 2226,
      "æĻĵ": 2227,
      "LA": 2228,
      "æ¯Ĵ": 2229,
      "èĪħ": 2230,
      "è¶£": 2231,
      "éºĿ": 2232,
      "Ġbrother": 2233,
      "è¡Ģ": 2234,
      "å¼Ĥ": 2235,
      "çľĭçľĭ": 2236,
      "æİī": 2237,
      "éĽ¾": 2238,
      "Of": 2239,
      "ç¦ģ": 2240,
      "å®¿": 2241,
      "åŃĻè¡ĮèĢħ": 2242,
      "æ·»": 2243,
      "åıĪæľī": 2244,
      "å¸Ĳ": 2245,
      "æķ¬": 2246,
      "çº¸": 2247,
      "ç®į": 2248,
      "é¬Ł": 2249,
      "å«Ĥ": 2250,
      "å°ĺ": 2251,
      "äººæĿ¥": 2252,
      "çĹĽ": 2253,
      "Ġblood": 2254,
      "ãĢĤâĢĻ": 2255,
      "æĺ¯è°ģ": 2256,
      "ither": 2257,
      "åĴĲ": 2258,
      "è¶ģ": 2259,
      "è¿Ł": 2260,
      "Ġab": 2261,
      "å·´": 2262,
      "å£ģ": 2263,
      "æĩĤ": 2264,
      "UE": 2265,
      "Why": 2266,
      "Ġthese": 2267,
      "å°ıçļĦ": 2268,
      "No": 2269,
      "ç°": 2270,
      "è´¤": 2271,
      "è´¹": 2272,
      "èĩ£": 2273,
      "éĹ®ä»ĸ": 2274,
      "è®¨": 2275,
      "Ġgive": 2276,
      "èĭ±": 2277,
      "æ´¾": 2278,
      "çĭĹ": 2279,
      "qut": 2280,
      "åĲ¹": 2281,
      "åĦ¿åŃĲ": 2282,
      "åĢ¼": 2283,
      "äºĨåķ¦": 2284,
      "å¥´": 2285,
      "èµĸ": 2286,
      "ç»³": 2287,
      "è¿ĩäºĨ": 2288,
      "çĻ»": 2289,
      "èĢį": 2290,
      "åıªè§ģéĤ£": 2291,
      "åĵª": 2292,
      "Ġfo": 2293,
      "Ġday": 2294,
      "éĵº": 2295,
      "éľ²": 2296,
      "æ¬¢åĸľ": 2297,
      "äºĨæĪĳ": 2298,
      "æĬĺ": 2299,
      "æ¡Į": 2300,
      "çİ°åľ¨": 2301,
      "ĠII": 2302,
      "èĬ¸": 2303,
      "å¦ĸæĢª": 2304,
      "è¥¿å¤©": 2305,
      "Ġear": 2306,
      "ä¸«é¬Ł": 2307,
      "ĠRICHARD": 2308,
      "çĨŁ": 2309,
      "TER": 2310,
      "Ġro": 2311,
      "åİĭ": 2312,
      "ise": 2313,
      "åıªæĢķ": 2314,
      "Ġex": 2315,
      "Ġlife": 2316,
      "This": 2317,
      "(âķ¬ï¿£": 2318,
      "eet": 2319,
      "Ġtell": 2320,
      "åĳĨ": 2321,
      "So": 2322,
      "ä½łä¹Ł": 2323,
      "åıĪæĺ¯": 2324,
      "Ġlook": 2325,
      "Ġthink": 2326,
      "æ¯įäº²": 2327,
      "æ¸©": 2328,
      "UCH": 2329,
      "ä¸ĵ": 2330,
      "oul": 2331,
      "Ġword": 2332,
      "å¸ĺ": 2333,
      "æ±Ł": 2334,
      "Ġey": 2335,
      "ç¦ħ": 2336,
      "--------": 2337,
      "Ġwhere": 2338,
      "ag": 2339,
      "een": 2340,
      "æĿĸ": 2341,
      "ä½łæĢİä¹Ī": 2342,
      "éĤ£ä¸Ģ": 2343,
      "åĬ³": 2344,
      "æ¡Ĥ": 2345,
      "éĵģæ£Ĵ": 2346,
      "age": 2347,
      "ther": 2348,
      "æī¿": 2349,
      "çº¿": 2350,
      "æĢİçļĦ": 2351,
      "GLO": 2352,
      "ef": 2353,
      "Ġtake": 2354,
      "ç»£": 2355,
      "åĽŀå¤´": 2356,
      "æĺİåĦ¿": 2357,
      "ï¼ŁðŁĺ": 2358,
      "éĹ»å¾Ĺ": 2359,
      "æĢ§åĳ½": 2360,
      "UCES": 2361,
      "Ġfriend": 2362,
      "GLOUCES": 2363,
      "GLOUCESTER": 2364,
      "ãĥ": 2365,
      "å¸ĥ": 2366,
      "erv": 2367,
      "è´¾èĵī": 2368,
      "æĳ¸": 2369,
      "å§¨å¨ĺ": 2370,
      "äº®": 2371,
      "ä¼Ļ": 2372,
      "éĩĮå¤´": 2373,
      "åĳĺ": 2374,
      "è´¥": 2375,
      "åľ°æĸ¹": 2376,
      "æ±¤": 2377,
      "ï¼ŁðŁĻĦ": 2378,
      "çıŃ": 2379,
      "ï¼ģðŁĺ¤": 2380,
      "çİĦ": 2381,
      "çľĭäºĨ": 2382,
      "åĴĴ": 2383,
      "ady": 2384,
      "rown": 2385,
      "éºĿæľĪ": 2386,
      "¯äºĨ": 2387,
      "Ġdes": 2388,
      "æŀª": 2389,
      "ings": 2390,
      "ç«¹": 2391,
      "è¿Ļç§įçĻ½çĹ´éĹ®é¢ĺ": 2392,
      "é¾Ļçİĭ": 2393,
      "å¦ĥ": 2394,
      "è´Ł": 2395,
      "åĬ©": 2396,
      "å¤©çİĭ": 2397,
      "ç³Ĭ": 2398,
      "ave": 2399,
      "not": 2400,
      "âĻ": 2401,
      "ä¸įå¿ħ": 2402,
      "å¸®": 2403,
      "å¹¿": 2404,
      "éĺģ": 2405,
      "åı¶": 2406,
      "ä¸Ģä¸ĭ": 2407,
      "âĢĿãĢĤ": 2408,
      "éĩİ": 2409,
      "çľĭçĿĢ": 2410,
      "ä¾¿æĺ¯": 2411,
      "äºĮå¥¶å¥¶": 2412,
      "Ġgentle": 2413,
      "urse": 2414,
      "åħ¬ä¸»": 2415,
      "æĶ¶æĭ¾": 2416,
      "é¼ĵ": 2417,
      "ä¸Ŀ": 2418,
      "å¦ĤæĿ¥": 2419,
      "å®Ŀçİīç¬ĳéģĵ": 2420,
      "çīĩ": 2421,
      "èĴĻ": 2422,
      "Ġri": 2423,
      "Ģï¸ı": 2424,
      "ä¸įè§ī": 2425,
      "ä¸ĢçĤ¹": 2426,
      "åħ¢": 2427,
      "èµĮ": 2428,
      "å¤ªåŃĲ": 2429,
      "åı«äºº": 2430,
      "æĥ³çĿĢ": 2431,
      "åįģäºĮ": 2432,
      "How": 2433,
      "RY": 2434,
      "ase": 2435,
      "æĴĴ": 2436,
      "äºİæĺ¯": 2437,
      "ºåĦ¿": 2438,
      "įâĻ": 2439,
      "è¯į": 2440,
      "æľŁ": 2441,
      "åĴ¬": 2442,
      "çĽĳ": 2443,
      "èº²": 2444,
      "å¨ģ": 2445,
      "å¸Īå¾Ĵ": 2446,
      "è²": 2447,
      "ä½łè¿Ļç§į": 2448,
      "åĪĹ": 2449,
      "èµµ": 2450,
      "éĹ¨å¤ĸ": 2451,
      "éĻĪ": 2452,
      "çĲ´": 2453,
      "åĽłæŃ¤": 2454,
      "æŀĹé»Ľçİī": 2455,
      "ç£ķ": 2456,
      "QUE": 2457,
      "way": 2458,
      "å°ģ": 2459,
      "åıĪè¯´": 2460,
      "åĨĽ": 2461,
      "æĢİä¹Īæł·": 2462,
      "åĵĪåĵĪ": 2463,
      "INCENTIO": 2464,
      "įâĻĢï¸ı": 2465,
      "QUEEN": 2466,
      "Ġlea": 2467,
      "æ³¢": 2468,
      "èĤļ": 2469,
      "äºĨä¸ĢåĽŀ": 2470,
      "åĿĲåľ¨": 2471,
      "ä¸ľåľŁ": 2472,
      "tis": 2473,
      "äºĨåĩł": 2474,
      "çŃĭ": 2475,
      "åı«åģļ": 2476,
      "åĶ±": 2477,
      "ç²ī": 2478,
      "åĳ¨çĳŀ": 2479,
      "ĠOF": 2480,
      "åĩŃ": 2481,
      "å°ıåİ®": 2482,
      "Ġart": 2483,
      "Ġmost": 2484,
      "çŁ£": 2485,
      "æŀĿ": 2486,
      "èĥĨ": 2487,
      "èħ¾": 2488,
      "èģĬ": 2489,
      "Where": 2490,
      "åıī": 2491,
      "è¿Ļä¼ļåŃĲ": 2492,
      "ä»ĸå°±": 2493,
      "æıŃ": 2494,
      "(ï¿£âĸ½ï¿£": 2495,
      "Ġhonour": 2496,
      "LAN": 2497,
      "Ġsl": 2498,
      "Ġmuch": 2499,
      "æĢģ": 2500,
      "ï¼Łï¼ģ": 2501,
      "Ġwar": 2502,
      "ä¹ĭäºĭ": 2503,
      "è¾Ī": 2504,
      "è·Łåīį": 2505,
      "æĺı": 2506,
      "è¯ģ": 2507,
      "åħ°": 2508,
      "ä¸ĬçļĦ": 2509,
      "Ġfl": 2510,
      "æ¯«": 2511,
      "éĥ½ä¸į": 2512,
      "urn": 2513,
      "åĩºéĹ¨": 2514,
      "ä¾¿è¯´": 2515,
      "é£ĺ": 2516,
      "çĤ¹å¤´": 2517,
      "åŃĻå¤§åľ£": 2518,
      "èıľ": 2519,
      "é¼»": 2520,
      "Ġmade": 2521,
      "10": 2522,
      "ment": 2523,
      "è¯»": 2524,
      "åīĳ": 2525,
      "ä¸»æĦı": 2526,
      "å¿½è§ģ": 2527,
      "æĤĦæĤĦ": 2528,
      "âľ¨": 2529,
      "Now": 2530,
      "èĶ": 2531,
      "ä»ĺ": 2532,
      "ä¸Ģå¤Ħ": 2533,
      "âĢĿï¼Į": 2534,
      "ä½łåİ»": 2535,
      "çĿĢä»ĸ": 2536,
      "Ġhast": 2537,
      "ç»Ļä»ĸ": 2538,
      "Ġtw": 2539,
      "åľĨ": 2540,
      "æľīäºĨ": 2541,
      "å¦Ĩ": 2542,
      "éĩĮçļĦ": 2543,
      "Ġfear": 2544,
      "ç®Ģ": 2545,
      "å¦ĸéŃĶ": 2546,
      "æ¨ª": 2547,
      "æ¨¡æł·": 2548,
      "çĩ": 2549,
      "ĠT": 2550,
      "è§Ĩ": 2551,
      "åıĪä¸į": 2552,
      "åıªè¯´": 2553,
      "ä¸ĭåĽŀ": 2554,
      "çºª": 2555,
      "å¤ĸéĿ¢": 2556,
      "åĪĨè§£": 2557,
      "åı¥è¯Ŀ": 2558,
      "çĬ¹": 2559,
      "è¶Ĭåıĳ": 2560,
      "Ġ*": 2561,
      "åĦ¿çļĦ": 2562,
      "åĨ²": 2563,
      "è°Ī": 2564,
      "å¼ŁåŃĲ": 2565,
      "éĶģ": 2566,
      "è°ģçŁ¥": 2567,
      "éľĢ": 2568,
      "å®½": 2569,
      "æ±ł": 2570,
      "æį§": 2571,
      "ç±³": 2572,
      "ä½łèĦĳåŃĲæĺ¯ä¸įæĺ¯": 2573,
      "åŀĤ": 2574,
      "æľīçļĦ": 2575,
      "Ġbet": 2576,
      "æīįå¥½": 2577,
      "èĻ«": 2578,
      "ENRY": 2579,
      "aught": 2580,
      "åĨ°": 2581,
      "ä¸Ģä¸ªäºº": 2582,
      "çĪ·çĪ·": 2583,
      "ç¥ŀéĢļ": 2584,
      "å®ĮäºĨ": 2585,
      "LE": 2586,
      "ff": 2587,
      "è¯ļ": 2588,
      "åĲĵ": 2589,
      "æ²ī": 2590,
      "è·Į": 2591,
      "é¢Ħ": 2592,
      "æĥ³æĺ¯": 2593,
      "æħĪ": 2594,
      "Is": 2595,
      "ber": 2596,
      "çļĦæĹ¶åĢĻ": 2597,
      "ç¬¼": 2598,
      "çİīå¸Ŀ": 2599,
      "æīįæĺ¯": 2600,
      "æ¬º": 2601,
      "å¦Īå¦Ī": 2602,
      "æĶ¶äºĨ": 2603,
      "ĠGod": 2604,
      "ä¸´": 2605,
      "æĿ¿": 2606,
      "åĲ¾": 2607,
      "ough": 2608,
      "å¹Į": 2609,
      "ved": 2610,
      "åİŁæĺ¯": 2611,
      "å¸¦äºĨ": 2612,
      "åľŁåľ°": 2613,
      "åı¦": 2614,
      "è¿Ĳ": 2615,
      "ä¹Łæ²¡": 2616,
      "Ġbre": 2617,
      "åĢĺ": 2618,
      "æĥľæĺ¥": 2619,
      "ä¸ĭåĽŀåĪĨè§£": 2620,
      "çļĦä¸Ģ": 2621,
      "å¥Ĺ": 2622,
      "è´¾èµ¦": 2623,
      "è½¯": 2624,
      "è§Ĥçľĭ": 2625,
      "çĮ´çİĭ": 2626,
      "cc": 2627,
      "ä»Ķ": 2628,
      "æĪ·": 2629,
      "éĹª": 2630,
      "è¯´ä¸į": 2631,
      "ç¬Ķ": 2632,
      "ower": 2633,
      "éĺ²": 2634,
      "çĪ¶æ¯į": 2635,
      "è¶ħ": 2636,
      "Ġnever": 2637,
      "ĠVINCENTIO": 2638,
      "è²Į": 2639,
      "Be": 2640,
      "ap": 2641,
      "igh": 2642,
      "ĠK": 2643,
      "åı¯æĢľ": 2644,
      "Ġgreat": 2645,
      "åıĺä½ľ": 2646,
      "å°±æĺ¯äºĨ": 2647,
      "æ²Ļåĥ§éģĵ": 2648,
      "Ġfair": 2649,
      "Who": 2650,
      "]ãĢĤ": 2651,
      "ee": 2652,
      "tle": 2653,
      "æĪĳå¸ĪçĪ¶": 2654,
      "åĩĨ": 2655,
      "Ġmen": 2656,
      "orrow": 2657,
      "ä¸ĭæ¬¡": 2658,
      "Ġcou": 2659,
      "è´¾èĬ¸": 2660,
      "éĽģ": 2661,
      "åĽĽä¸ª": 2662,
      "æķĻä»ĸ": 2663,
      "çŀ§çŀ§": 2664,
      "Ġnew": 2665,
      "ĠRome": 2666,
      "aster": 2667,
      "ç¨ĭ": 2668,
      "ç¡®": 2669,
      "ä»Ķç»Ĩ": 2670,
      "uke": 2671,
      "ä¸įæĥ³": 2672,
      "åĪ¶": 2673,
      "è¡¥": 2674,
      "åı«æĪĳ": 2675,
      "åŃĻæĤŁç©º": 2676,
      "çĵ¶": 2677,
      "å´ĸ": 2678,
      "iz": 2679,
      "èļ": 2680,
      "éĤ£åĳĨåŃĲ": 2681,
      "èĢģå¸Ī": 2682,
      "çĪ¬": 2683,
      "å°ĨæĿ¥": 2684,
      "çģŃ": 2685,
      "åĢĴæĺ¯": 2686,
      "ä½ıäºĨ": 2687,
      "åįĬæĹ¥": 2688,
      "old": 2689,
      "ä½łè¯´": 2690,
      "èĢĥ": 2691,
      "æī«": 2692,
      "ä¼¸": 2693,
      "çĿĢä¸Ģ": 2694,
      "éĽĦ": 2695,
      "èī¯": 2696,
      "è®°å¾Ĺ": 2697,
      "ORK": 2698,
      "æ§": 2699,
      "äº¬": 2700,
      "ä½łä¸į": 2701,
      "å¥Ķ": 2702,
      "å¨ĺå¨ĺ": 2703,
      "å¼ĢäºĨ": 2704,
      "äºĨä½ł": 2705,
      "çļĦåĲĹ": 2706,
      "ä¹Łå¤ª": 2707,
      "åľ¨éĤ£": 2708,
      "æĶ¯": 2709,
      "ation": 2710,
      "èį¡": 2711,
      "åĿĲä¸ĭ": 2712,
      "è´¾æ¯įéģĵ": 2713,
      "ä»ĸä¸¤ä¸ª": 2714,
      "åįĩ": 2715,
      "è´´": 2716,
      "åıĪè§ģ": 2717,
      "æ°ĳ": 2718,
      "éĿł": 2719,
      "Ġpart": 2720,
      "ç²Ĺ": 2721,
      "ä¸įé¢ĺ": 2722,
      "åĽ¾": 2723,
      "åĸĬ": 2724,
      "åį´æĺ¯": 2725,
      "æĻº": 2726,
      "INIUS": 2727,
      "éĽ¨æĿĳ": 2728,
      "ss": 2729,
      "ä¹ī": 2730,
      "çļĦä¸ľè¥¿": 2731,
      "æĪ´": 2732,
      "å®´": 2733,
      "åŃ¤": 2734,
      "ree": 2735,
      "çīµ": 2736,
      "æµª": 2737,
      "ide": 2738,
      "ä¹ĥæĺ¯": 2739,
      "çļĦäºĭæĥħ": 2740,
      "Or": 2741,
      "äºĨä¸ª": 2742,
      "æĪĳè¿Ļ": 2743,
      "æŃ¹": 2744,
      "Ġcall": 2745,
      "éĴī": 2746,
      "ä¸Ģä¸ªä¸ª": 2747,
      "åĲİæĿ¥": 2748,
      "æ¶Ĥ": 2749,
      "ple": 2750,
      "åĲ©": 2751,
      "ä½łå°±": 2752,
      "ä¹ŁæĿ¥éĹ®æĪĳ": 2753,
      "éĻĽ": 2754,
      "Ġany": 2755,
      "éªĤéģĵ": 2756,
      "Ġheaven": 2757,
      "æ¤": 2758,
      "åı©": 2759,
      "åĲ«": 2760,
      "åİ¢": 2761,
      "Ġad": 2762,
      "è¡Ĺ": 2763,
      "å¤§å°ı": 2764,
      "æĬĵ": 2765,
      "ç»¿": 2766,
      "æĦģ": 2767,
      "å¥³åŃĲ": 2768,
      "è§īå¾Ĺ": 2769,
      "åĨµä¸Ķ": 2770,
      "åĲ©åĴĲ": 2771,
      "äºŃ": 2772,
      "è¿·": 2773,
      "éĴĪ": 2774,
      "åľ°ä¸ĭ": 2775,
      "çľ¼çĿĽ": 2776,
      "Ġcomm": 2777,
      "¦âĢįâĻĢï¸ı": 2778,
      "å«ĤåŃĲ": 2779,
      "éľĢè¦ģ": 2780,
      "It": 2781,
      "Your": 2782,
      "æĪĳä¸į": 2783,
      "è¡ĮæĿİ": 2784,
      "Ġname": 2785,
      "åĽŀå®¶": 2786,
      "æĹłäºº": 2787,
      "ç¥¥": 2788,
      "åħĪçĶŁ": 2789,
      "Ġstand": 2790,
      "Ġcannot": 2791,
      "Ġtrue": 2792,
      "DW": 2793,
      "ä¸įçĿĢ": 2794,
      "æĬķ": 2795,
      "Ġbeen": 2796,
      "å²¸": 2797,
      "ç¼ł": 2798,
      "ears": 2799,
      "DWARD": 2800,
      "ï¼ģ(ï¿£^ï¿£)": 2801,
      "Ġcl": 2802,
      "Ġpre": 2803,
      "è½¿": 2804,
      "ä»¥åĲİ": 2805,
      "é¦Ĩ": 2806,
      "åıĺåĮĸ": 2807,
      "çĬ¯": 2808,
      "ä¼ıä¾į": 2809,
      "æģ¶å¿ĥ": 2810,
      "Ġsweet": 2811,
      ",--": 2812,
      "æĥŁ": 2813,
      "è¦ģæĺ¯": 2814,
      "Ġdoth": 2815,
      "å¸ĪåħĦ": 2816,
      "æ±Ŀ": 2817,
      "åģļä¸ª": 2818,
      "Ġpray": 2819,
      "hing": 2820,
      "äºĨä¸¤": 2821,
      "éĢ¢": 2822,
      "æĲŃ": 2823,
      "è·ŁçĿĢ": 2824,
      "PET": 2825,
      "UM": 2826,
      "å¤ªå®Ĺ": 2827,
      "æĢİçĶŁ": 2828,
      "å¦ĸçİĭ": 2829,
      "ï¼ģðŁĴ¢": 2830,
      "Ġnoble": 2831,
      "LUC": 2832,
      "MEN": 2833,
      "TH": 2834,
      "çļĦäºĨ": 2835,
      "æĬ«": 2836,
      "åĩºäºĨ": 2837,
      "å¤´ä¸Ĭ": 2838,
      "Ġown": 2839,
      "Ġple": 2840,
      "ä¸īåįģ": 2841,
      "è¾ĥ": 2842,
      "ass": 2843,
      "æĺ¨æĹ¥": 2844,
      "ĠD": 2845,
      "éģ¿": 2846,
      "æĪĳä¸Ģ": 2847,
      "ouse": 2848,
      "å¥½äºĽ": 2849,
      "Ġper": 2850,
      "éĺ¿": 2851,
      "ç¾ŀ": 2852,
      "éĢĴä¸İ": 2853,
      "Ay": 2854,
      "Come": 2855,
      "li": 2856,
      "ull": 2857,
      "åĲĬ": 2858,
      "ä½łè¿Ļä¸ª": 2859,
      "çľī": 2860,
      "å°ıå§Ĳ": 2861,
      "å®ĿçİīåĲ¬äºĨ": 2862,
      "çº¦": 2863,
      "éĹ¨ä¸Ĭ": 2864,
      "æĽ²": 2865,
      "There": 2866,
      "æĪ¿éĩĮ": 2867,
      "è´¾æĶ¿éģĵ": 2868,
      "åŃ©åĦ¿": 2869,
      "è´«åĥ§": 2870,
      "æĺ¯ä»Ģä¹Ī": 2871,
      "Ġtr": 2872,
      "ä¸Ģä»¶": 2873,
      "åŃĺ": 2874,
      "Ġwr": 2875,
      "ä¹Łå°±": 2876,
      "Ġdone": 2877,
      "åĲĥé¥Ń": 2878,
      "å¤ļæĹ¶": 2879,
      "çĭ®": 2880,
      "ife": 2881,
      "å·¦åı³": 2882,
      "aw": 2883,
      "ä¸ĭåİ»": 2884,
      "å·ŀ": 2885,
      "æĬĬéĤ£": 2886,
      "äºĳå¤´": 2887,
      "ç©ºä¸Ń": 2888,
      "ä¼Ĺäººéĥ½": 2889,
      "èģĶ": 2890,
      "éĥİ": 2891,
      "Ġä¸įè¿ĩ": 2892,
      "ä»ĸè¯´": 2893,
      "Ġway": 2894,
      "å¾ĹéĤ£": 2895,
      "çĽĽ": 2896,
      "Ġother": 2897,
      "Ġhead": 2898,
      "çģ¾": 2899,
      "éļĶ": 2900,
      "çĤī": 2901,
      "èĪ¹": 2902,
      "ç¢İ": 2903,
      "å®¹æĺĵ": 2904,
      "åĳ¨çĳŀå®¶çļĦ": 2905,
      "è¯¾": 2906,
      "åĲ¸": 2907,
      "ä¸ĢåĽŀ": 2908,
      "æĬ¢": 2909,
      "åĴĮä½ł": 2910,
      "åį´åıĪ": 2911,
      "Ġmean": 2912,
      "ï¼īï¼ļ": 2913,
      "èł": 2914,
      "ä¹Į": 2915,
      "red": 2916,
      "çĶ²": 2917,
      "å¥½ä¸įå¥½": 2918,
      "å¯Į": 2919,
      "åĿı": 2920,
      "èĪŀ": 2921,
      "çĮ®": 2922,
      "åľ£åĥ§": 2923,
      "åĩ¤å§Ĳéģĵ": 2924,
      "çĿ¡è§ī": 2925,
      "åħµåĻ¨": 2926,
      "åĤ»": 2927,
      "When": 2928,
      "éĻĽä¸ĭ": 2929,
      "EO": 2930,
      "dward": 2931,
      "éĤ£æĹ¶": 2932,
      "åĨ³": 2933,
      "Ġnor": 2934,
      "å±ķ": 2935,
      "ðŁĴ¢": 2936,
      "éĹ¨å¤¹": 2937,
      "åĿĲçĿĢ": 2938,
      "11": 2939,
      "MEO": 2940,
      "ä¸ĳ": 2941,
      "æĺ¯åĽłä¸º": 2942,
      "æĿŁ": 2943,
      "äººéĥ½": 2944,
      "Ġsc": 2945,
      "Ġsoul": 2946,
      "å¤§çĪ·": 2947,
      "å§ĭ": 2948,
      "Ġpres": 2949,
      "è¢ĸ": 2950,
      "éĩĳç®į": 2951,
      "åĽĽåįģ": 2952,
      "çľŁæĺ¯çļĦ": 2953,
      "ROMEO": 2954,
      "ace": 2955,
      "ving": 2956,
      "ä½Ļ": 2957,
      "Ġnight": 2958,
      "åºĻ": 2959,
      "éĹ¨åīį": 2960,
      "Ġbear": 2961,
      "çĶŁæ°Ķ": 2962,
      "èµ°æĿ¥": 2963,
      "èĥİ": 2964,
      "ENIUS": 2965,
      "ç²¾ç¥ŀ": 2966,
      "aint": 2967,
      "ĠCl": 2968,
      "Ġworld": 2969,
      "è¿Ľæ°´äºĨåĲĹ": 2970,
      "MENENIUS": 2971,
      "ger": 2972,
      "åĲ¯": 2973,
      "å°Ŀ": 2974,
      "åİ»çļĦ": 2975,
      "åıªåĲ¬": 2976,
      "Ġbefore": 2977,
      "å¨ĩ": 2978,
      "çĪ¶äº²": 2979,
      "ä¸Ķè¯´": 2980,
      "è¢«éĹ¨å¤¹": 2981,
      "æ¡Ī": 2982,
      "ause": 2983,
      "æĩĴ": 2984,
      "èĬ³å®ĺ": 2985,
      "per": 2986,
      "åŃĲéĩĮ": 2987,
      "Ġboth": 2988,
      "å±ı": 2989,
      "å¯Ĩ": 2990,
      "æį®": 2991,
      "æ¦Ĥ": 2992,
      "Ġqueen": 2993,
      "Īè£": 2994,
      "ä¹ĸ": 2995,
      "æĪĳæĿ¥": 2996,
      "åľĪ": 2997,
      "éĤ£å¦ĸç²¾": 2998,
      "ç§ģ": 2999,
      "è¢Īè£": 3000,
      "çĤ¼": 3001,
      "æĭ¿çĿĢ": 3002,
      "èĢĮåİ»": 3003,
      "Then": 3004,
      "çĬ¶": 3005,
      "aughter": 3006,
      "è¢Īè£Ł": 3007,
      "RUCH": 3008,
      "ock": 3009,
      "äºĨäºĽ": 3010,
      "æľ¯": 3011,
      "æīĳ": 3012,
      "å¤ªéĺ³": 3013,
      "Ġchi": 3014,
      "æīĵåĲ¬": 3015,
      "æĥ³èµ·": 3016,
      "å¨¶": 3017,
      "åĮ¹": 3018,
      "èĪĮ": 3019,
      "èĩªå·±çļĦ": 3020,
      "Here": 3021,
      "PETRUCH": 3022,
      "PETRUCHIO": 3023,
      "OM": 3024,
      "able": 3025,
      "Ġvery": 3026,
      "åİħ": 3027,
      "åŃĲçļĦ": 3028,
      "å¹¼": 3029,
      "å¤©å¤©": 3030,
      "èº«ä¸Ģ": 3031,
      "å¹´çºª": 3032,
      "ä¹Łä¸įæķ¢": 3033,
      "ç»Ļä½ł": 3034,
      "åºĶè¯¥": 3035,
      "Ġdead": 3036,
      "æ¢ħ": 3037,
      "è¸ı": 3038,
      "12": 3039,
      "TES": 3040,
      "ä¸ĢæĿ¡": 3041,
      "ä½łè¿ĺ": 3042,
      "èĢģèĢħ": 3043,
      "å¿ĥä¸Ń": 3044,
      "ç¥¸": 3045,
      "æ»´": 3046,
      "ç»ĻæĪĳ": 3047,
      "æ¡¥": 3048,
      "ç´łæĹ¥": 3049,
      "By": 3050,
      "Ġra": 3051,
      "åĲŁ": 3052,
      "ite": 3053,
      "éĢĥ": 3054,
      "é¢ľ": 3055,
      "çĤķ": 3056,
      "æ£ĭ": 3057,
      "å©¶": 3058,
      "è¿ĳåīį": 3059,
      "åİŁæĿ¥æĺ¯": 3060,
      "çĮªåħ«æĪĴ": 3061,
      "Than": 3062,
      "the": 3063,
      "Ġke": 3064,
      "ä¹İ": 3065,
      "ä¸ĢæĬĬ": 3066,
      "æĪĳåİ»": 3067,
      "ä½łåľ¨": 3068,
      "è§Ħ": 3069,
      "å§Ķ": 3070,
      "æĬĸ": 3071,
      "éĹ®å¾Ĺ": 3072,
      "ðŁĴ": 3073,
      "åĿ¡": 3074,
      "éķľ": 3075,
      "åĺ»": 3076,
      "ç¤¾": 3077,
      "ç¾Ĭ": 3078,
      "è¢Ńäººéģĵ": 3079,
      "å¢Ļ": 3080,
      "å¡Ķ": 3081,
      "å¿ĺäºĨ": 3082,
      "ab": 3083,
      "les": 3084,
      "ĠF": 3085,
      "ä¸įæĿ¥": 3086,
      "Ġdown": 3087,
      "åĪ°æŃ¤": 3088,
      "äºĮå§Ĳ": 3089,
      "åĸĤ": 3090,
      "ç¥Ń": 3091,
      "ä¼Ĺåĥ§": 3092,
      "éĩĳæ¡Ĥ": 3093,
      "æĶ¾åľ¨": 3094,
      "å¦Ļçİī": 3095,
      "æĤĦæĤĦçļĦ": 3096,
      "sw": 3097,
      "to": 3098,
      "ä¸įåĲĮ": 3099,
      "ä¹ł": 3100,
      "åĲĲ": 3101,
      "Ġapp": 3102,
      "åĽ¢": 3103,
      "æľīä¸Ģä¸ª": 3104,
      "ä¾Ħ": 3105,
      "Ġmyself": 3106,
      "èĮĹ": 3107,
      "å¿ħæĺ¯": 3108,
      "æ¶§": 3109,
      "éľŀ": 3110,
      "æŀĹä¹ĭ": 3111,
      "å«Į": 3112,
      "Ġcont": 3113,
      "GR": 3114,
      "HA": 3115,
      "åıĻ": 3116,
      "ä¹¡": 3117,
      "è¯´ä»Ģä¹Ī": 3118,
      "Ġwh": 3119,
      "æŃ£åľ¨": 3120,
      "Ġrem": 3121,
      "éŃĶçİĭ": 3122,
      "å¿½çĦ¶": 3123,
      "ĠLord": 3124,
      "Ġarm": 3125,
      "å¸ĸ": 3126,
      "Ġthus": 3127,
      "ä¹ĭéĹ´": 3128,
      "èĬ¦": 3129,
      "IOLAN": 3130,
      "ilt": 3131,
      "ORIOLAN": 3132,
      "æ¼Ķ": 3133,
      "ORIOLANUS": 3134,
      "CORIOLANUS": 3135,
      "Sec": 3136,
      "æĪļ": 3137,
      "åħ½": 3138,
      "åŃĲæĿ¥": 3139,
      "ä¸Ĭåİ»": 3140,
      "æ³¨": 3141,
      "çĭĤ": 3142,
      "éº»": 3143,
      "éĽªéĽģ": 3144,
      "Ġleave": 3145,
      "Second": 3146,
      "ä¸įè®¸": 3147,
      "æľĭ": 3148,
      "ä»ĸæĺ¯": 3149,
      "æľīä½ķ": 3150,
      "èµĲ": 3151,
      "èµĽ": 3152,
      "çŃĳ": 3153,
      "ç§ĳ": 3154,
      "åĸ·": 3155,
      "Ġbeing": 3156,
      "çĭł": 3157,
      "äºĶçĻ¾": 3158,
      "çŀĴ": 3159,
      "æ¬¡æĹ¥": 3160,
      "ction": 3161,
      "ĠEdward": 3162,
      "çĵľ": 3163,
      "BA": 3164,
      "Nor": 3165,
      "ä¸ģ": 3166,
      "æľµ": 3167,
      "æī¬": 3168,
      "çĿĢäºĨ": 3169,
      "æ°¸": 3170,
      "ä¸ĶåĲ¬": 3171,
      "Ġunt": 3172,
      "åŁº": 3173,
      "å¹²åĩĢ": 3174,
      "ress": 3175,
      "Ġgrace": 3176,
      "å¥ĩæĢªçļĦéĹ®é¢ĺ": 3177,
      "éŀĭ": 3178,
      "less": 3179,
      "ä¸§": 3180,
      "è¿½": 3181,
      "ä¹ĺ": 3182,
      "å°¾": 3183,
      "éĹŃ": 3184,
      "æĬ¡": 3185,
      "ç»ķ": 3186,
      "æİ£": 3187,
      "è¾°": 3188,
      "æĹłèģĬ": 3189,
      "Ġbeg": 3190,
      "ç«ĸ": 3191,
      "åĪ«çļĦ": 3192,
      "åĲĦèĩª": 3193,
      "Ġeyes": 3194,
      "land": 3195,
      "çļĦéĹ®é¢ĺ": 3196,
      "åĲī": 3197,
      "å°¸": 3198,
      "åħ·": 3199,
      "åĩī": 3200,
      "Ġmother": 3201,
      "å¥½æŃ¹": 3202,
      "åĬ¡": 3203,
      "æ²¡äºĨ": 3204,
      "çĮľ": 3205,
      "è§ĤéŁ³": 3206,
      "åı¤äºº": 3207,
      "å¬·å¬·": 3208,
      "ran": 3209,
      "äº§": 3210,
      "è¿¹": 3211,
      "Ġma": 3212,
      "è´¾çİ¯": 3213,
      "Ġold": 3214,
      "ç©·": 3215,
      "Ġim": 3216,
      "è¯¯": 3217,
      "å®£": 3218,
      "ä¹Łç½¢": 3219,
      "çĶ°": 3220,
      "éĢī": 3221,
      "åī©": 3222,
      "é¦Ģ": 3223,
      "æīĭæ®µ": 3224,
      "åĲįåŃĹ": 3225,
      "INA": 3226,
      "æ®ĭ": 3227,
      "è¿İæĺ¥": 3228,
      "ĠEDWARD": 3229,
      "é³": 3230,
      "ä¸įå°½": 3231,
      "è¯´å¾Ĺ": 3232,
      "åĨĴ": 3233,
      "itiz": 3234,
      "äºĭæĥħ": 3235,
      "æµİ": 3236,
      "æĢİä¹ĪåĬŀ": 3237,
      "è¯·äºĨ": 3238,
      "ä½łèĦĳåŃĲè¿Ľæ°´äºĨåĲĹ": 3239,
      "æĬ¬å¤´": 3240,
      "æŀĹä¹ĭåŃĿ": 3241,
      "ä¸ĶåĲ¬ä¸ĭåĽŀåĪĨè§£": 3242,
      "itizen": 3243,
      "ps": 3244,
      "ä¸įç®¡": 3245,
      "ä¸Ģåı£": 3246,
      "æŃĮ": 3247,
      "æĭĶ": 3248,
      "Ġlong": 3249,
      "å½¼": 3250,
      "æīĵæŃ»": 3251,
      "åı£éĩĮ": 3252,
      "æįĨ": 3253,
      "åĳ½äºº": 3254,
      "Ġever": 3255,
      "çĭ¼": 3256,
      "å²Ń": 3257,
      "èģļ": 3258,
      "åĸĿéģĵ": 3259,
      "åºķä¸ĭ": 3260,
      "ĠMar": 3261,
      "çļĩå¸Ŀ": 3262,
      "è¤": 3263,
      "éģ®": 3264,
      "ä¸Ģä¸Ģ": 3265,
      "è¿Ļåĩł": 3266,
      "å¦¥": 3267,
      "èµ¤": 3268,
      "å¤§ä»Ļ": 3269,
      "åıĪéģĵ": 3270,
      "æŃ£ç»ı": 3271,
      "èµ°è·¯": 3272,
      "Ġlive": 3273,
      "æİ¥äºĨ": 3274,
      "æļĤ": 3275,
      "ä¸ĢéĿ¢è¯´": 3276,
      "æ¼«": 3277,
      "å»Ĭ": 3278,
      "ãĥİ": 3279,
      "Ġchild": 3280,
      "Let": 3281,
      "me": 3282,
      "ä¸įåĪ°": 3283,
      "ä½łè¦ģ": 3284,
      "éĤ£äºº": 3285,
      "Ġwife": 3286,
      "ä¸ĬéĿ¢": 3287,
      "åıĪéĹ®": 3288,
      "åıªè¦ģ": 3289,
      "ä¾¯": 3290,
      "æĥ§": 3291,
      "å¹½": 3292,
      "åºµ": 3293,
      "éĥ½è¦ģ": 3294,
      "æĭ¿æĿ¥": 3295,
      "ãĢĭï¼Į": 3296,
      "åĳĬè¯īä½ł": 3297,
      "æ¯ķç«Ł": 3298,
      "æĵĴ": 3299,
      "She": 3300,
      "æ¿": 3301,
      "ä¸ĢåĪĻ": 3302,
      "Ġaway": 3303,
      "åķ¼": 3304,
      "æµĳ": 3305,
      "åľ°çĲĥ": 3306,
      "å½ĵæĹ¶": 3307,
      "è¥¿æ¸¸": 3308,
      "æĹ©å·²": 3309,
      "Ġrep": 3310,
      "é»Ľçİīéģĵ": 3311,
      "ç¬¬äºĮ": 3312,
      "å¢ĥ": 3313,
      "å²Ĥä¸į": 3314,
      "ä¸¢äºĨ": 3315,
      "éĢłåĮĸ": 3316,
      "å¥´æīį": 3317,
      "ĠIII": 3318,
      "\"ï¼Į": 3319,
      "for": 3320,
      "æª": 3321,
      "æľķ": 3322,
      "ä»ĸåİ»": 3323,
      "éĩĬ": 3324,
      "Ġwom": 3325,
      "ä¹ĭå¤Ħ": 3326,
      "è½®": 3327,
      "ä½ľä»Ģä¹Ī": 3328,
      "è¥¿æĸ¹": 3329,
      "èĤł": 3330,
      "äºĨä¸Ģéģį": 3331,
      "ç¤º": 3332,
      "æķħæŃ¤": 3333,
      "å½ĵçĦ¶æĺ¯": 3334,
      "Ġpoor": 3335,
      "Ġfriends": 3336,
      "come": 3337,
      "wick": 3338,
      "å¤º": 3339,
      "æĺ¯ä»ĸ": 3340,
      "æĿĤ": 3341,
      "æĪĳçľĭ": 3342,
      "Ġaf": 3343,
      "ä¸ªäºº": 3344,
      "Ġmight": 3345,
      "éĥ½åľ¨": 3346,
      "æİ©": 3347,
      "åį´ä¸į": 3348,
      "çĥĤ": 3349,
      "äºĶåįģ": 3350,
      "èĴ¸": 3351,
      "é²ľ": 3352,
      "è·ªä¸ĭ": 3353,
      "ç£ķå¤´": 3354,
      "èł¢": 3355,
      "ä½łä¸Ķ": 3356,
      "nder": 3357,
      "æĭ³": 3358,
      "æĹ¥åŃĲ": 3359,
      "è¯·å®ī": 3360,
      "é¸Ł": 3361,
      "Ġstay": 3362,
      "éľĦ": 3363,
      "eace": 3364,
      "ç¢§": 3365,
      "ç¡¬": 3366,
      "ks": 3367,
      "äº¡": 3368,
      "ä»Ĺ": 3369,
      "éģ£": 3370,
      "æĪĳè¿ĺ": 3371,
      "oud": 3372,
      "åıªåĲ¬å¾Ĺ": 3373,
      "Ġdie": 3374,
      "atch": 3375,
      "éĻ©": 3376,
      "åĽłéĹ®": 3377,
      "led": 3378,
      "ç©¶": 3379,
      "éħ¸": 3380,
      "è¢«ä»ĸ": 3381,
      "çŁ¥éģĵäºĨ": 3382,
      "åĽŃéĩĮ": 3383,
      "ĠJ": 3384,
      "Ġru": 3385,
      "ä¸ĬäºĨ": 3386,
      "ä¾ĭ": 3387,
      "ä¹ĭæĦı": 3388,
      "arwick": 3389,
      "çĽĨ": 3390,
      "æł¼": 3391,
      "ä¸¤éĵ¶åŃĲ": 3392,
      "çº±": 3393,
      "æĬĬæĪĳ": 3394,
      "æĬĬä»ĸ": 3395,
      "æł·åŃĲ": 3396,
      "èĢĮå·²": 3397,
      "åıĺæĪĲ": 3398,
      "éĶħ": 3399,
      "æĲ¬": 3400,
      "Ġcomes": 3401,
      "Ġcons": 3402,
      "æ¸¸æĪı": 3403,
      "ç¥ĸå®Ĺ": 3404,
      "æĹģè¾¹": 3405,
      "å¥Īä½ķ": 3406,
      "å³°": 3407,
      "ç³Ĭæ¶Ĥ": 3408,
      "é¢Ħå¤ĩ": 3409,
      "èŃ": 3410,
      "é¥¿": 3411,
      "ä¸įå¤§": 3412,
      "è¯´æĪĳ": 3413,
      "åĽ°": 3414,
      "æĭ¦": 3415,
      "Ġcrown": 3416,
      "å¤©ä¸ĭ": 3417,
      "ows": 3418,
      "æ´²": 3419,
      "çĮ¿": 3420,
      "åĪĨä»ĺ": 3421,
      "åıĸåĩº": 3422,
      "ä¸ĸçķĮ": 3423,
      "Ġmany": 3424,
      "èµµå§¨å¨ĺ": 3425,
      "æľĭåıĭ": 3426,
      "çļĦæĦıæĢĿ": 3427,
      "éģĵäºº": 3428,
      "çĿģ": 3429,
      "ä¼¯": 3430,
      "åľ¨å¤ĸ": 3431,
      "è´¢": 3432,
      "å¤§åĶĲ": 3433,
      "åĬĪ": 3434,
      "Ġpe": 3435,
      "åĢļ": 3436,
      "èº«åŃĲ": 3437,
      "çĮĽ": 3438,
      "æį»": 3439,
      "ç¨³": 3440,
      "Tis": 3441,
      "lo": 3442,
      "æĺ¯ä½ł": 3443,
      "æĹı": 3444,
      "åİī": 3445,
      "hall": 3446,
      "å¤§å¤«": 3447,
      "ison": 3448,
      "å¸ħ": 3449,
      "å·¡": 3450,
      "éĹ®åĲĹ": 3451,
      "Ġle": 3452,
      "çģ°": 3453,
      "æŃ£å¸¸": 3454,
      "èµ°åĪ°": 3455,
      "é¡¹": 3456,
      "åĨįè¯´äºĨ": 3457,
      "åĿĲäºĨ": 3458,
      "èİºåĦ¿": 3459,
      "å®īæİĴ": 3460,
      "æĲĢ": 3461,
      "çªĿ": 3462,
      "èĵ¬": 3463,
      "åķĨè®®": 3464,
      "ĠYORK": 3465,
      "uck": 3466,
      "ĠæĪĳ": 3467,
      "åħħ": 3468,
      "è¿Ļä¸¤": 3469,
      "åĪº": 3470,
      "iss": 3471,
      "æķĮ": 3472,
      "Ġhouse": 3473,
      "åīįæĹ¥": 3474,
      "åĲİéĿ¢": 3475,
      "Ġhar": 3476,
      "éĤ£éĩĮåİ»": 3477,
      "Ġthought": 3478,
      "Ġrest": 3479,
      "èħ¿": 3480,
      "çİĭå¤«äººéģĵ": 3481,
      "æļĸ": 3482,
      "èĽĩ": 3483,
      "é½Ĳå¤©": 3484,
      "ISAB": 3485,
      "ELLA": 3486,
      "åĢĺæĪĸ": 3487,
      "ISABELLA": 3488,
      "ian": 3489,
      "ä½łåıĪ": 3490,
      "ä¹Łéĥ½": 3491,
      "erc": 3492,
      "Ġcour": 3493,
      "éĢĤ": 3494,
      "å¼ĢéĹ¨": 3495,
      "åĵ¥åĦ¿": 3496,
      "æıĴ": 3497,
      "å¡ŀ": 3498,
      "å»º": 3499,
      "RAN": 3500,
      "Ġent": 3501,
      "çļĦå°ı": 3502,
      "éĩĩ": 3503,
      "è´§": 3504,
      "ç»Ł": 3505,
      "ä¹ĭåĲİ": 3506,
      "å¤©å®«": 3507,
      "å±Ī": 3508,
      "è¾¾": 3509,
      "çĦ°": 3510,
      "çº·": 3511,
      "æĮ£": 3512,
      "åıĺæĢģ": 3513,
      "è·¯ä¸Ĭ": 3514,
      "Ġlie": 3515,
      "å®ĿéĴĹéģĵ": 3516,
      "åıĹçĶ¨": 3517,
      "èŁ¾": 3518,
      "æĻĵå¾Ĺ": 3519,
      "ç¡®å®ŀ": 3520,
      "che": 3521,
      "ä¸Ģå®ļ": 3522,
      "ä½łæĥ³": 3523,
      "ä»ĸä¹Ł": 3524,
      "Ġset": 3525,
      "æĸŁ": 3526,
      "èĩªåľ¨": 3527,
      "äºĽåĦ¿": 3528,
      "ä¸įçŁ¥æĺ¯": 3529,
      "é¹¿": 3530,
      "æĹ¢çĦ¶": 3531,
      "èı©èĲ¨éģĵ": 3532,
      "éĩĳç®įæ£Ĵ": 3533,
      "JU": 3534,
      "well": 3535,
      "ä¸°": 3536,
      "äºķ": 3537,
      "äºĨåİ»": 3538,
      "æĿ¥ä¹Ł": 3539,
      "å¿§": 3540,
      "å¦¨": 3541,
      "ors": 3542,
      "å®ĿçĲ´": 3543,
      "æĹ¶éĹ´": 3544,
      "éĴ¦": 3545,
      "åı«å£°": 3546,
      "ç½ĳ": 3547,
      "åģ¶": 3548,
      "atter": 3549,
      "æ³ī": 3550,
      "åĴĮä»ĸ": 3551,
      "æĻ®": 3552,
      "éĺ¶": 3553,
      "æ£Ģ": 3554,
      "èĸĦ": 3555,
      "åłĨ": 3556,
      "LIET": 3557,
      "ONTES": 3558,
      "ĠWarwick": 3559,
      "LEONTES": 3560,
      "JULIET": 3561,
      "13": 3562,
      ";)": 3563,
      "Nay": 3564,
      "int": 3565,
      "çĶĦ": 3566,
      "æĬ¹": 3567,
      "ittle": 3568,
      "Ġdaughter": 3569,
      "Ġgone": 3570,
      "èĦī": 3571,
      "é©®": 3572,
      "åĽĽä¼Ĺ": 3573,
      "å¸¦çĿĢ": 3574,
      "æ´ŀéĩĮ": 3575,
      "ä¼¼çļĦ": 3576,
      "Ġbetter": 3577,
      "MI": 3578,
      "os": 3579,
      "rant": 3580,
      "ä¸¥": 3581,
      "éģ¥": 3582,
      "æĹĹ": 3583,
      "éĤ£ä¸Ģä¸ª": 3584,
      "è¯´ä»ĸ": 3585,
      "ought": 3586,
      "å¿Ĺ": 3587,
      "ä¸Ĭä¸ĭ": 3588,
      "åıªåĽł": 3589,
      "å¼ı": 3590,
      "å°±è¦ģ": 3591,
      "åı«ä½ł": 3592,
      "è¾Ľ": 3593,
      "æĽ¹": 3594,
      "èĭ¥ä¸į": 3595,
      "äº²æĪļ": 3596,
      "èĻ½æĺ¯": 3597,
      "Ġprince": 3598,
      "å¸Īå¾Ĵä»¬": 3599,
      "DY": 3600,
      "His": 3601,
      "Ġtong": 3602,
      "å°ĸ": 3603,
      "Ġwit": 3604,
      "èµ´": 3605,
      "ä¼º": 3606,
      "å¼¥": 3607,
      "å°±ä¸į": 3608,
      "ç¬ĳè¯Ŀ": 3609,
      "ç§Ģ": 3610,
      "çº¹": 3611,
      "éĻĲ": 3612,
      "æµ®": 3613,
      "Ġnothing": 3614,
      "éªĮ": 3615,
      "ç¼ĸ": 3616,
      "åĶĲåĥ§éģĵ": 3617,
      "æŀĹå§ĳå¨ĺ": 3618,
      "åı©å¤´": 3619,
      "CE": 3620,
      "VOL": 3621,
      "çļĦä¸Ģå£°": 3622,
      "ä¸Ģçľĭ": 3623,
      "æĪĳæĥ³": 3624,
      "è¡Ļ": 3625,
      "è¦ģç´§": 3626,
      "ç½ļ": 3627,
      "æŃ¤å¤Ħ": 3628,
      "è¢ĭ": 3629,
      "æĮº": 3630,
      "ç´¯": 3631,
      "æīĭæľº": 3632,
      "æĶ¾ä¸ĭ": 3633,
      "é¸£": 3634,
      "ENCE": 3635,
      "å§ĳå¨ĺä»¬": 3636,
      "LADY": 3637,
      "BR": 3638,
      "TA": 3639,
      "cl": 3640,
      "ied": 3641,
      "å¤ı": 3642,
      "ï¼ļ`": 3643,
      "å®¤": 3644,
      "æľ±": 3645,
      "ä½łåı¯": 3646,
      "åİ¿": 3647,
      "å¥½çĶŁ": 3648,
      "æĥ¹": 3649,
      "å¯Ł": 3650,
      "éĴ¢": 3651,
      "æĢİæł·": 3652,
      "è½½": 3653,
      "äºĨä¸Ģå£°": 3654,
      "åĲĦå¤Ħ": 3655,
      "æĲº": 3656,
      "é½¿": 3657,
      "å¢¨": 3658,
      "åĮ»çĶŁ": 3659,
      "æĺ¨åĦ¿": 3660,
      "æºľ": 3661,
      "çĩķ": 3662,
      "Ġkeep": 3663,
      "å¼¹": 3664,
      "ç¬ĳçĿĢ": 3665,
      "éĢĽ": 3666,
      "äºĮåĪĻ": 3667,
      "éĵľ": 3668,
      "Go": 3669,
      "Well": 3670,
      "ces": 3671,
      "ious": 3672,
      "Ġ(": 3673,
      "å¤¸": 3674,
      "äºĨæĿ¥": 3675,
      "Ġsle": 3676,
      "èµŀ": 3677,
      "ä¸Ĭä¸Ģ": 3678,
      "æĬĽ": 3679,
      "ä¾¿åı«": 3680,
      "ç§¯": 3681,
      "çº§": 3682,
      "æĥ³éģĵ": 3683,
      "æŃ£è¯´çĿĢ": 3684,
      "æĤ¬": 3685,
      "æĭ¿ä½ı": 3686,
      "çķľ": 3687,
      "æľ¬äºĭ": 3688,
      "æŁĵ": 3689,
      "åĸľéģĵ": 3690,
      "Ġres": 3691,
      "æĭľä½Ľ": 3692,
      "èĵĿ": 3693,
      "åĭ¾": 3694,
      "è¿Ļç§įéĹ®é¢ĺä¹Łè¦ģ": 3695,
      "æĦ¿æĦı": 3696,
      "hard": 3697,
      "Ġnews": 3698,
      "è¥¿æ¸¸è®°": 3699,
      "SIC": 3700,
      "ft": 3701,
      "ier": 3702,
      "çĺ": 3703,
      "åıł": 3704,
      "ä¸įäºĨ": 3705,
      "Ġtri": 3706,
      "Ġmo": 3707,
      "ret": 3708,
      "æĭ¥": 3709,
      "æĭĲ": 3710,
      "å®ĿèŁ¾": 3711,
      "ont": 3712,
      "çľĭä»ĸ": 3713,
      "Ġthose": 3714,
      "ä¾¿éĹ®": 3715,
      "çĽı": 3716,
      "æł¡": 3717,
      "Ġgri": 3718,
      "æ³¥": 3719,
      "ï½ŀðŁ": 3720,
      "ool": 3721,
      "è£Ļ": 3722,
      "æķħäºĭ": 3723,
      "çłį": 3724,
      "une": 3725,
      "èķĬ": 3726,
      "SICINIUS": 3727,
      "Not": 3728,
      "ä»ĩ": 3729,
      "å¥¹": 3730,
      "åįł": 3731,
      "åıĪè¦ģ": 3732,
      "èĢģéŃĶ": 3733,
      "è®¿": 3734,
      "Ġlittle": 3735,
      "å±ŀ": 3736,
      "å¯Ĥ": 3737,
      "çĶŁçļĦ": 3738,
      "åģļäºĨ": 3739,
      "æľ¬æĿ¥": 3740,
      "èģĮ": 3741,
      "çĽ´æİ¥": 3742,
      "è½»è½»": 3743,
      "Ġlords": 3744,
      "Ġagainst": 3745,
      "------------": 3746,
      "èŃ¦": 3747,
      "ford": 3748,
      "Ġbest": 3749,
      "å°±æľī": 3750,
      "ç§»": 3751,
      "Ġhour": 3752,
      "Ġhence": 3753,
      "å§ĲåĦ¿": 3754,
      "æĮ¨": 3755,
      "åĨįè¯´": 3756,
      "èĤ¡": 3757,
      "èĤ²": 3758,
      "æ·¡": 3759,
      "èħ¹": 3760,
      "èģª": 3761,
      "ardon": 3762,
      "ç£¨": 3763,
      "akes": 3764,
      "çľŁä¸ªæĺ¯": 3765,
      "Ġ()": 3766,
      "On": 3767,
      "lse": 3768,
      "åħ¸": 3769,
      "å¾ģ": 3770,
      "Ġacc": 3771,
      "å¼±": 3772,
      "æĭĸ": 3773,
      "ä¸ĭäºĨ": 3774,
      "ä¹ĭäºº": 3775,
      "ä¹ĭçī©": 3776,
      "sed": 3777,
      "éĵĥ": 3778,
      "èī³": 3779,
      "åŁĭ": 3780,
      "ä¸«å¤´ä»¬": 3781,
      "Ġface": 3782,
      "ult": 3783,
      "éĨī": 3784,
      "åĨ·ç¬ĳéģĵ": 3785,
      "çŃĶåºĶäºĨ": 3786,
      "Ġfoll": 3787,
      "16": 3788,
      "ew": 3789,
      "ud": 3790,
      "«èĬ¦": 3791,
      "åľ¨å®¶": 3792,
      "å¤§çļĦ": 3793,
      "å¥½å¤§åľ£": 3794,
      "åĬ«": 3795,
      "åĴ½": 3796,
      "ark": 3797,
      "éĢı": 3798,
      "Ġyoung": 3799,
      "å¤©åľ°": 3800,
      "çŁ¥æĺ¯": 3801,
      "åĪ°è¿ĻéĩĮ": 3802,
      "å¯¸": 3803,
      "éĹ¨éĩĮ": 3804,
      "èĭį": 3805,
      "åīįåĦ¿": 3806,
      "Ġend": 3807,
      "åıĺåģļ": 3808,
      "éľľ": 3809,
      "åħ³æĸĩ": 3810,
      "çī¹æĿ¥": 3811,
      "èĳ«èĬ¦": 3812,
      "å¿įä¸įä½ı": 3813,
      "è¯Ŀè¯´åĽŀæĿ¥": 3814,
      "(ï¿£âĸ½ï¿£;)": 3815,
      "èŀ": 3816,
      "ä»·": 3817,
      "ä¸Ģåıª": 3818,
      "æĪĳè¿ĻéĩĮ": 3819,
      "åŃĶ": 3820,
      "ork": 3821,
      "åĵī": 3822,
      "ç¬ĳè¯´": 3823,
      "Ġthing": 3824,
      "ä¸īäºº": 3825,
      "ä»Ĭå¹´": 3826,
      "åĲĥçļĦ": 3827,
      "æĸ¹ä¾¿": 3828,
      "æŁ´": 3829,
      "Ġstill": 3830,
      "Ġkind": 3831,
      "è®©äºº": 3832,
      "ield": 3833,
      "ST": 3834,
      "~*": 3835,
      "âĢ¦âĢ": 3836,
      "ä»ª": 3837,
      "èĢ¶": 3838,
      "å¥ĺ": 3839,
      "åĪ¤": 3840,
      "æľīçĶļ": 3841,
      "å¤§æĥĬ": 3842,
      "åıªå¥½": 3843,
      "æĬĦ": 3844,
      "æĭ£": 3845,
      "çĽĹ": 3846,
      "Ġpri": 3847,
      "Ġpur": 3848,
      "æĬĬè¿Ļ": 3849,
      "æĦļ": 3850,
      "åĿıäºĨ": 3851,
      "æŃ£è¦ģ": 3852,
      "ç®±": 3853,
      "ä½ķå¤Ħ": 3854,
      "éªĹ": 3855,
      "alk": 3856,
      "åħīæĻ¯": 3857,
      "Thy": 3858,
      "Ġcomp": 3859,
      "æ¥ļ": 3860,
      "éĴīéĴ¯": 3861,
      "LUCIO": 3862,
      "âĢ¦âĢ¦": 3863,
      "ale": 3864,
      "ä»ģ": 3865,
      "ä¸įåİ»": 3866,
      "ä¸Ģå¤©": 3867,
      "å°¼": 3868,
      "ins": 3869,
      "ert": 3870,
      "èĢģåĲĽ": 3871,
      "åºĹ": 3872,
      "åĽŀéģĵ": 3873,
      "ä¾¿éģĵ": 3874,
      "Ġput": 3875,
      "Ġpower": 3876,
      "æĶĴ": 3877,
      "ĠIV": 3878,
      "é«ĺåı«éģĵ": 3879,
      "è£³": 3880,
      "ä¸įè¿ĩæĺ¯": 3881,
      "å®ŀåľ¨": 3882,
      "åłª": 3883,
      "ichard": 3884,
      "åĶ¬å¾Ĺ": 3885,
      "èĿĮ": 3886,
      "åħ¢åħ¢": 3887,
      "æ¯«æ¯Ľ": 3888,
      "Ġtwo": 3889,
      "Sir": 3890,
      "çĴ": 3891,
      "ä»°": 3892,
      "å®ĩ": 3893,
      "å°º": 3894,
      "ä½łæĿ¥": 3895,
      "åĪ¹": 3896,
      "åİ»ä¹Ł": 3897,
      "ä¸Ĭæľī": 3898,
      "è§ģè¿ĩ": 3899,
      "Ġcha": 3900,
      "åīª": 3901,
      "åı¯ä¸įæĺ¯": 3902,
      "æ²¡äºº": 3903,
      "éĻħ": 3904,
      "æ´ĭ": 3905,
      "Ġhimself": 3906,
      "æ¢ģ": 3907,
      "å°ĳä¸įå¾Ĺ": 3908,
      "ä»¶äºĭ": 3909,
      "éŁµ": 3910,
      "è°¢äºĨ": 3911,
      "åı¤ä»£": 3912,
      "èĥ¡è¯´": 3913,
      "åıĶåıĶ": 3914,
      "çİĦå¥ĺ": 3915,
      "14": 3916,
      "Pro": 3917,
      "å®ľ": 3918,
      "éĤ£åĴĮå°ļ": 3919,
      "è¯´æ¯ķ": 3920,
      "iness": 3921,
      "åĨł": 3922,
      "Ġfirst": 3923,
      "ä¹ĭä¸ĭ": 3924,
      "Ġpeace": 3925,
      "çŃīçĿĢ": 3926,
      "Ġgu": 3927,
      "ç«ł": 3928,
      "åį´ä¹Ł": 3929,
      "åį´æīį": 3930,
      "å¦ĸéĤª": 3931,
      "èįĴ": 3932,
      "Ġelse": 3933,
      "è´¾æ¯įç¬ĳéģĵ": 3934,
      "ried": 3935,
      "Ġdear": 3936,
      "å§¨å¤ªå¤ª": 3937,
      "ç¤¼éģĵ": 3938,
      "ç¬¬ä¸Ģ": 3939,
      "åĭĩ": 3940,
      "å½¢å®¹": 3941,
      "cious": 3942,
      "æ½ĩ": 3943,
      "çŃĭæĸĹ": 3944,
      "ail": 3945,
      "ty": 3946,
      "åĲµ": 3947,
      "ï¼ģ(âķ¬ï¿£": 3948,
      "ä»ĸæĿ¥": 3949,
      "éĤ£ç§į": 3950,
      "ä¸Ĭå¤´": 3951,
      "å°±åĥı": 3952,
      "åĨ¤": 3953,
      "å¯¡": 3954,
      "è¾ĵ": 3955,
      "æĶ¾äºĨ": 3956,
      "çĭĲ": 3957,
      "éªĳ": 3958,
      "ason": 3959,
      "æľªæĽ¾": 3960,
      "æĴĳ": 3961,
      "hile": 3962,
      "Ġsub": 3963,
      "èµ¶çĿĢ": 3964,
      "è´¾çĲıéģĵ": 3965,
      "åĭĴ": 3966,
      "éĻįå¦ĸ": 3967,
      "Ġunto": 3968,
      "ä¼ºåĢĻ": 3969,
      "ile": 3970,
      "ray": 3971,
      "æ¾": 3972,
      "çļĦå¿ĥ": 3973,
      "Ġtill": 3974,
      "åĩĳ": 3975,
      "Ġsm": 3976,
      "æŃª": 3977,
      "å°±èµ°": 3978,
      "éĹ®ä½ł": 3979,
      "ä¹ĭæĹ¶": 3980,
      "ç½®": 3981,
      "æĦĪ": 3982,
      "åĲĥéħĴ": 3983,
      "uty": 3984,
      "ä½ıéģĵ": 3985,
      "å¥³äºº": 3986,
      "æĳĦ": 3987,
      "ç¢°": 3988,
      "åħ¶å®ŀ": 3989,
      "çķĻä¸ĭ": 3990,
      "æĪĺåħ¢åħ¢": 3991,
      "æħ¢æħ¢": 3992,
      "å®ĥä»¬": 3993,
      "ç§¦éĴŁ": 3994,
      "15": 3995,
      "RI": 3996,
      "ZAB": 3997,
      "ect": 3998,
      "Ġtra": 3999,
      "æĿĲ": 4000,
      "ä¸ĢçĽ´": 4001,
      "ä¸Ģéĺµ": 4002,
      "è¿Ļè¾¹": 4003,
      "Ġbid": 4004,
      "Ġback": 4005,
      "å¸Ĥ": 4006,
      "æĭĺ": 4007,
      "Ġdre": 4008,
      "Ġhus": 4009,
      "éĢŁ": 4010,
      "åĿł": 4011,
      "æĢªéģĵ": 4012,
      "çĮ«": 4013,
      "æŀľåŃĲ": 4014,
      "åİŁæķħ": 4015,
      "åºľéĩĮ": 4016,
      "ETH": 4017,
      "ĠELI": 4018,
      "Ġtherefore": 4019,
      "å·¥å¤«": 4020,
      "Ġearth": 4021,
      "Ġwords": 4022,
      "Ġcount": 4023,
      "ZABETH": 4024,
      "ĠELIZABETH": 4025,
      "Have": 4026,
      "band": 4027,
      "ius": 4028,
      "men": 4029,
      "ople": 4030,
      "yal": 4031,
      "ä¸įåĩº": 4032,
      "æĪĳä¹Łä¸į": 4033,
      "ä½łè¿Ļä¹Ī": 4034,
      "éĤ£éķ¿èĢģ": 4035,
      "éĤ£åĽ½çİĭ": 4036,
      "Ġfind": 4037,
      "Ġcould": 4038,
      "åģ¥": 4039,
      "ä¸¤è¾¹": 4040,
      "èº¬": 4041,
      "èº«ä½ĵ": 4042,
      "éķĩ": 4043,
      "èıĬ": 4044,
      "çħ®": 4045,
      "âĢĻï¼Į": 4046,
      "ä½łçľĭä»ĸ": 4047,
      "æ¸Ĳæ¸Ĳ": 4048,
      "æ¿Ģ": 4049,
      "Ġtongue": 4050,
      "ä¸Ģåı¥": 4051,
      "ä½łèĢģ": 4052,
      "åįĪ": 4053,
      "orse": 4054,
      "å°±èĥ½": 4055,
      "Ġlady": 4056,
      "Ġthine": 4057,
      "éĢ¼": 4058,
      "å°ıåĦ¿": 4059,
      "è°¨": 4060,
      "åĺ±": 4061,
      "å²«": 4062,
      "å®ļäºĨ": 4063,
      "è°ģä¼ļ": 4064,
      "è¡£è£³": 4065,
      "èĸĽèĿĮ": 4066,
      "çªģ": 4067,
      "åħŃåįģ": 4068,
      "Ġneed": 4069,
      "æĻļä¸Ĭ": 4070,
      "åĤ¬": 4071,
      "ĠYork": 4072,
      "æ±ĿçŃī": 4073,
      "HENRY": 4074,
      "get": 4075,
      "lp": 4076,
      "tw": 4077,
      "ä¸įåĬ¨": 4078,
      "Ġtre": 4079,
      "åĲŀ": 4080,
      "ä½łåıª": 4081,
      "æľīéĹ®é¢ĺ": 4082,
      "åİ»æĿ¥": 4083,
      "Ġfell": 4084,
      "æĭį": 4085,
      "enry": 4086,
      "ç¬ĳäºĨ": 4087,
      "åĽŀè¯´": 4088,
      "Ġhigh": 4089,
      "å¯¼": 4090,
      "ä¸īå¹´": 4091,
      "éĻĢ": 4092,
      "æĢİä¹Īåı¯èĥ½": 4093,
      "éĺ»": 4094,
      "å¿Ļéģĵ": 4095,
      "è¿Ļç§įå¥ĩæĢªçļĦéĹ®é¢ĺ": 4096,
      "Ġforth": 4097,
      "çĸ¾": 4098,
      "æ¢³": 4099,
      "è¸ª": 4100,
      "èĢ³æľµ": 4101,
      "Ġhope": 4102,
      "çļĦå¥½åĲĹ": 4103,
      "èķī": 4104,
      "ï¼ŁðŁĺ¤": 4105,
      "é½Ĳå¤©å¤§åľ£": 4106,
      "CL": 4107,
      "MER": 4108,
      "St": 4109,
      "ĠéĤ£": 4110,
      "äºĨè¿Ļ": 4111,
      "éģĵæĺ¯": 4112,
      "åį§": 4113,
      "è´º": 4114,
      "å¤§äºĭ": 4115,
      "æĸ¤": 4116,
      "å·¾": 4117,
      "ä¾¿è¯´éģĵ": 4118,
      "Ġhome": 4119,
      "éĢĶ": 4120,
      "çİĭåŃĲ": 4121,
      "vere": 4122,
      "æŃ¤è¨Ģ": 4123,
      "è°ĵ": 4124,
      "çĦ¦": 4125,
      "çº³": 4126,
      "çĶŁæĹ¥": 4127,
      "æ¬ł": 4128,
      "eth": 4129,
      "æ±Ĺ": 4130,
      "èĥ¸": 4131,
      "æŁľ": 4132,
      "æĳ©": 4133,
      "é«ĺåħ´": 4134,
      "é¹¤": 4135,
      "Ġseem": 4136,
      "éĥ¡": 4137,
      "å¾Ħèĩ³": 4138,
      "Ġright": 4139,
      "eech": 4140,
      "ĠRomeo": 4141,
      "Ġhusband": 4142,
      "ä½³": 4143,
      "Ġduke": 4144,
      "ä¾¿å°Ĩ": 4145,
      "çĽĬ": 4146,
      "éĽĨ": 4147,
      "ç¥ŀä»Ļ": 4148,
      "èĲ¥": 4149,
      "æ³ķåĦ¿": 4150,
      "ç°ĩ": 4151,
      "GE": 4152,
      "WAR": 4153,
      "WIC": 4154,
      "fort": 4155,
      "ĠWhat": 4156,
      "ä¸įä¸Ĭ": 4157,
      "å®ħ": 4158,
      "éģĵçĲĨ": 4159,
      "ä¸Ģäºº": 4160,
      "æīŃ": 4161,
      "æľīåĩł": 4162,
      "æĢ¡": 4163,
      "rer": 4164,
      "Ġban": 4165,
      "åĨ¬": 4166,
      "èĢģå©ĨåŃĲ": 4167,
      "æİ·": 4168,
      "éĿ¢åīį": 4169,
      "æ´ª": 4170,
      "uth": 4171,
      "çĶ¨æĿ¥": 4172,
      "èĻĳ": 4173,
      "ä¸ŃéĹ´": 4174,
      "Ġthough": 4175,
      "çĸı": 4176,
      "æĬ¥éģĵ": 4177,
      "é¼ł": 4178,
      "å«ģ": 4179,
      "æħĮå¾Ĺ": 4180,
      "ĠVI": 4181,
      "WARWIC": 4182,
      "WARWICK": 4183,
      "UT": 4184,
      "ach": 4185,
      "ix": 4186,
      "ä¸ŀ": 4187,
      "ä»ĸåıĪ": 4188,
      "Ġmind": 4189,
      "ä¼´": 4190,
      "çĿĢä¸Ģä¸ª": 4191,
      "Ġbra": 4192,
      "è´¨": 4193,
      "è´ª": 4194,
      "ister": 4195,
      "æĬ½": 4196,
      "æĭ½": 4197,
      "å¹»": 4198,
      "Ġche": 4199,
      "Ġchar": 4200,
      "éĺİ": 4201,
      "æ¸¡": 4202,
      "æĤĶ": 4203,
      "èĬ±æŀľ": 4204,
      "åĩºæĿ¥çļĦ": 4205,
      "æ£®": 4206,
      "å®ļæĺ¯": 4207,
      "æ²ĻåĴĮå°ļ": 4208,
      "hip": 4209,
      "æĹ¢æĺ¯": 4210,
      "è®©æĪĳ": 4211,
      "ç»Ĩç»Ĩ": 4212,
      "çĮ´åŃĲ": 4213,
      "æķ£äºĨ": 4214,
      "è¿Ļç§įéĹ®é¢ĺä¹ŁæĿ¥éĹ®æĪĳ": 4215,
      "å¦ĤæŃ¤è¯´": 4216,
      "ĠHENRY": 4217,
      "ï¼ģðŁ¤¢": 4218,
      "æīĩåŃĲ": 4219,
      "èĶ·": 4220,
      "Ġpeople": 4221,
      "Nurse": 4222,
      "PU": 4223,
      "ds": 4224,
      "ged": 4225,
      "ï¼Į\"": 4226,
      "è¯Ģ": 4227,
      "ä¸Ģèµ·": 4228,
      "æĪĳåıª": 4229,
      "äººåİ»": 4230,
      "ä¹Łæ²¡æľī": 4231,
      "åıĪå°Ĩ": 4232,
      "è°Ľ": 4233,
      "èºº": 4234,
      "æģ°": 4235,
      "éĽħ": 4236,
      "ä½ķå¦Ĥ": 4237,
      "æĪĲäºĨ": 4238,
      "éŃĦ": 4239,
      "åĶĲçİĭ": 4240,
      "éĶĭ": 4241,
      "å©ļ": 4242,
      "æĢķä»ĸ": 4243,
      "ĠCitizen": 4244,
      "ä¼¤å¿ĥ": 4245,
      "ç§ĭçº¹": 4246,
      "ï¼ŁðŁ¤¦âĢįâĻĢï¸ı": 4247,
      "åĪ©å®³": 4248,
      "å°ıçļĦä»¬": 4249,
      "èģªæĺİ": 4250,
      "Ġä¸Ķè¯´": 4251,
      "å¤®": 4252,
      "äºĨåĩºæĿ¥": 4253,
      "æĪĳè¦ģ": 4254,
      "åİļ": 4255,
      "åĽº": 4256,
      "æľīäºĭ": 4257,
      "ren": 4258,
      "æķĪ": 4259,
      "å°ıå¿ĥ": 4260,
      "æĥ³æĿ¥": 4261,
      "æ°ĶçļĦ": 4262,
      "æľ¬æĺ¯": 4263,
      "They": 4264,
      "æĲģ": 4265,
      "æĲľ": 4266,
      "æĲŀ": 4267,
      "è£¤": 4268,
      "è½¬èº«": 4269,
      "æ¯ıæĹ¥": 4270,
      "ä¿ĿæĬ¤": 4271,
      "éĹ²è¯Ŀ": 4272,
      "ĠHenry": 4273,
      "å¥ıéģĵ": 4274,
      "åį´è¯´éĤ£": 4275,
      "HAM": 4276,
      "IAN": 4277,
      "LET": 4278,
      "eed": 4279,
      "ä¸Ģè·¯": 4280,
      "ä¸Ģæł¹": 4281,
      "ä¸Ģåº§": 4282,
      "å°Ħ": 4283,
      "Ġbri": 4284,
      "Ġchan": 4285,
      "Ġlaw": 4286,
      "å¿ĥä¸ĭ": 4287,
      "æŀī": 4288,
      "æŀķ": 4289,
      "èĩªæľī": 4290,
      "æĹłå¥Ī": 4291,
      "ç¦Ħ": 4292,
      "ä¸įå¥½äºĨ": 4293,
      "åħ³ç³»": 4294,
      "ĠRichard": 4295,
      "Ġshow": 4296,
      "Ġconf": 4297,
      "æħĮäºĨ": 4298,
      "å©Ĩå©Ĩ": 4299,
      "Ġhands": 4300,
      "åİĨåı²": 4301,
      "å²«çĥŁ": 4302,
      "PULET": 4303,
      "EY": 4304,
      "be": 4305,
      "é¤": 4306,
      "Ġå®Ŀçİī": 4307,
      "åĲĴ": 4308,
      "åİ¨": 4309,
      "æī®": 4310,
      "æīİ": 4311,
      "å¾ĭ": 4312,
      "ï¼Ł(ï¿£^ï¿£)": 4313,
      "Ġmaster": 4314,
      "Ġwhy": 4315,
      "å¥½åĲĹ": 4316,
      "Ġco": 4317,
      "Ġcause": 4318,
      "åĽŀäºĨ": 4319,
      "è¿ĺæ²¡": 4320,
      "è¡ĮèĢħéĹ»è¨Ģ": 4321,
      "äºĮçĻ¾": 4322,
      "Ġgl": 4323,
      "é»ĺ": 4324,
      "éĩĳæĺŁ": 4325,
      "æĭ¿åĩº": 4326,
      "å£°éŁ³": 4327,
      "Ġonce": 4328,
      "ä½ĽæķĻ": 4329,
      "ä½Ľç¥ĸ": 4330,
      "ç¿ħ": 4331,
      "çİ°äºĨ": 4332,
      "ä¸ºä»Ģä¹Īä¸į": 4333,
      "Ġsaid": 4334,
      "å±ħçĦ¶": 4335,
      "Ġimp": 4336,
      "Cl": 4337,
      "Good": 4338,
      "MIO": 4339,
      "Shall": 4340,
      "ä¸Ģé¡¿": 4341,
      "æĿ¥èĩ³": 4342,
      "èĢĲ": 4343,
      "Ġbod": 4344,
      "ç»µ": 4345,
      "å¼ĥ": 4346,
      "Ġnone": 4347,
      "çŃµ": 4348,
      "åºŃ": 4349,
      "åı¯çŁ¥": 4350,
      "è°İ": 4351,
      "è¾ī": 4352,
      "éĽ¶": 4353,
      "éĽĢ": 4354,
      "å¤ļäºĨ": 4355,
      "é©¿": 4356,
      "è¨Ģéģĵ": 4357,
      "ä¹Łä¸įçĶ¨": 4358,
      "ä½Ĩæĺ¯": 4359,
      "ousin": 4360,
      "æıĲèµ·": 4361,
      "æĹ¨æĦı": 4362,
      "Ġjoy": 4363,
      "å°ıä¸«å¤´åŃĲ": 4364,
      "ervant": 4365,
      "All": 4366,
      "bt": 4367,
      "ãģ": 4368,
      "ç¨Ģ": 4369,
      "æĪĳåľ¨": 4370,
      "æĪĳæĬĬ": 4371,
      "äººäºĨ": 4372,
      "åĨ¯": 4373,
      "å®ĿäºĮçĪ·": 4374,
      "å®¶åİ»": 4375,
      "è¾¨": 4376,
      "å£®": 4377,
      "çĶ¨æīĭ": 4378,
      "åĢĴä¹Ł": 4379,
      "æĪĳä»¬çļĦ": 4380,
      "Ġfort": 4381,
      "çĽ¸è§ģ": 4382,
      "ä¸¤ä¸ªäºº": 4383,
      "ç¿ģ": 4384,
      "Ġbring": 4385,
      "çŃĶåºĶçĿĢ": 4386,
      "çĥ¦æģ¼": 4387,
      "Yet": 4388,
      "ä¸įçĲĨ": 4389,
      "ä¸įæĩĤ": 4390,
      "æĪĳæľī": 4391,
      "äººç±»": 4392,
      "åŃ½": 4393,
      "å¤§å¥¶å¥¶": 4394,
      "å¤ªçĽĳ": 4395,
      "Ġdou": 4396,
      "è´¾åħ°": 4397,
      "å¤©ä¸Ĭ": 4398,
      "çĦļ": 4399,
      "ates": 4400,
      "èĭı": 4401,
      "æĮ¡": 4402,
      "Ġevery": 4403,
      "å¾Ģè¥¿å¤©": 4404,
      "UCKING": 4405,
      "å°¤äºĮå§Ĳ": 4406,
      "ç«Ļåľ¨": 4407,
      "çĨ¬": 4408,
      "çĥŃéĹ¹": 4409,
      "çĶ·äºº": 4410,
      "ç®Ģåįķ": 4411,
      "æħĪæĤ²": 4412,
      "BRUT": 4413,
      "é¤Ĳ": 4414,
      "UCKINGHAM": 4415,
      "BRUTUS": 4416,
      "BRO": 4417,
      "BUCKINGHAM": 4418,
      "From": 4419,
      "TRAN": 4420,
      "iet": 4421,
      "ĠçľŁæĺ¯": 4422,
      "äº«": 4423,
      "ä¸Ģå¹´": 4424,
      "Ġmist": 4425,
      "åıĪæĿ¥": 4426,
      "æĬµ": 4427,
      "å°±ç®Ĺ": 4428,
      "èĢģçĮª": 4429,
      "åĩºåı£": 4430,
      "Ġpass": 4431,
      "éĴı": 4432,
      "åīįåĲİ": 4433,
      "ird": 4434,
      "èĹ¤": 4435,
      "æŃ»çļĦ": 4436,
      "Ġlight": 4437,
      "æĲħ": 4438,
      "æŀĹå¦¹å¦¹": 4439,
      "INGBRO": 4440,
      "ESS": 4441,
      "ĠBOL": 4442,
      "å£ģåİ¢": 4443,
      "TRANIO": 4444,
      "INGBROKE": 4445,
      "ĠBOLINGBROKE": 4446,
      "Do": 4447,
      "Will": 4448,
      "lt": 4449,
      "vost": 4450,
      "çį": 4451,
      "åĲĨ": 4452,
      "è¿Ļä¸įæĺ¯": 4453,
      "åİĮ": 4454,
      "Ġwo": 4455,
      "èµ¢": 4456,
      "æķ²": 4457,
      "Ġnat": 4458,
      "Ġthr": 4459,
      "æĬĬä¸ª": 4460,
      "åįģåħ«": 4461,
      "çĥĽ": 4462,
      "ä¸»åŃĲ": 4463,
      "å¿«åİ»": 4464,
      "éļıä¾¿": 4465,
      "Ġroyal": 4466,
      "æ¤ħ": 4467,
      "swer": 4468,
      "PER": 4469,
      "TIS": 4470,
      "cle": 4471,
      "Ġè¿ĻéĩĮ": 4472,
      "ä¸įåıĬ": 4473,
      "Ġtears": 4474,
      "æĪĳåĢĴ": 4475,
      "åħ®": 4476,
      "éĤ£æł·": 4477,
      "å¿Ĵ": 4478,
      "å¤§äºº": 4479,
      "æĭ´": 4480,
      "its": 4481,
      "çĪ½": 4482,
      "Ġcame": 4483,
      "ary": 4484,
      "ä¸ºäºĨ": 4485,
      "æĥ³æ³ķ": 4486,
      "åīįéĿ¢": 4487,
      "æµĭ": 4488,
      "åĩłå¹´": 4489,
      "å½ĵæĹ¥": 4490,
      "å¤«å¦»": 4491,
      "çĻ½é©¬": 4492,
      "å©¿": 4493,
      "ä½¿å¾Ĺ": 4494,
      "èµ¶ä¸Ĭ": 4495,
      "âĢĻãĢĤ": 4496,
      "èĦ¸ä¸Ĭ": 4497,
      "åĭī": 4498,
      "ĠMAR": 4499,
      "åı¹éģĵ": 4500,
      "Ġwhose": 4501,
      "Ġplease": 4502,
      "èĮĹçĥŁ": 4503,
      "lf": 4504,
      "vy": 4505,
      "Ġä½ł": 4506,
      "ä¸įæľŁ": 4507,
      "ä¸ĢåĿĹ": 4508,
      "ä½łéĤ£": 4509,
      "çĿĢå¤´": 4510,
      "åľ¨ä»ĸ": 4511,
      "Ġboy": 4512,
      "è§ģå®Ŀçİī": 4513,
      "åıĪåı«": 4514,
      "ory": 4515,
      "ä¸ĭé©¬": 4516,
      "åĩºåİ»äºĨ": 4517,
      "çĽĴ": 4518,
      "Ġpardon": 4519,
      "åī¯": 4520,
      "åı¯å·§": 4521,
      "åĴĮæĪĳ": 4522,
      "åĽłåıĪ": 4523,
      "æĺİæĺİ": 4524,
      "å½ĵå¹´": 4525,
      "ç²®": 4526,
      "æķĻä½ł": 4527,
      "æŁĶ": 4528,
      "æħ°": 4529,
      "roke": 4530,
      "å®ĿéĴĹç¬ĳéģĵ": 4531,
      "èĮ¶æĿ¥": 4532,
      "æ¼ı": 4533,
      "æĵ¦": 4534,
      "å»¶": 4535,
      "ĠAn": 4536,
      "GAR": 4537,
      "NE": 4538,
      "pose": 4539,
      "äºĨåįĬ": 4540,
      "æĿĥ": 4541,
      "åħĶ": 4542,
      "åį±": 4543,
      "Ġbes": 4544,
      "åĵĢ": 4545,
      "ä¾§": 4546,
      "Ġfull": 4547,
      "æĭĨ": 4548,
      "arry": 4549,
      "Ġheard": 4550,
      "èºģ": 4551,
      "æĹłäºĭ": 4552,
      "è¢±": 4553,
      "Ġhapp": 4554,
      "é¥¥": 4555,
      "ï¼ģðŁĴ": 4556,
      "åĩºæĿ¥äºĨ": 4557,
      "æ»ĳ": 4558,
      "äº²èĩª": 4559,
      "èİ·": 4560,
      "Ġdev": 4561,
      "è®©ä»ĸ": 4562,
      "æĥĬåĬ¨": 4563,
      "æ¹ĺèİ²": 4564,
      "ä¿®è¡Į": 4565,
      "Ġjust": 4566,
      "éŀŃ": 4567,
      "Ġwrong": 4568,
      "Ġpresent": 4569,
      "ĠMARGAR": 4570,
      "ĠMARGARET": 4571,
      "ATH": 4572,
      "bl": 4573,
      "eel": 4574,
      "èĺ": 4575,
      "æĺł": 4576,
      "ä¸įä¿¡": 4577,
      "ä¸įåħį": 4578,
      "çļĦæł·åŃĲ": 4579,
      "æĪĳåıĪ": 4580,
      "åĪ·": 4581,
      "Ġsince": 4582,
      "Ġmis": 4583,
      "çĪ¸": 4584,
      "ens": 4585,
      "Ġland": 4586,
      "Ġlast": 4587,
      "éĥ½è¯´": 4588,
      "æĢªçī©": 4589,
      "æĢİä¹Īè¯´": 4590,
      "éĩĳåĪļ": 4591,
      "èĤ©": 4592,
      "Ġere": 4593,
      "Ġstate": 4594,
      "ç¤¼æĭľ": 4595,
      "æ±Ĥç»ı": 4596,
      "å¦ĩäºº": 4597,
      "ç«Ļèµ·æĿ¥": 4598,
      "åĮ»éĻ¢": 4599,
      "Ġplace": 4600,
      "ä½İå¤´": 4601,
      "å¦Ĥæŀľä½ł": 4602,
      "åĵªåĲĴ": 4603,
      "è¯»ä¹¦": 4604,
      "MIL": 4605,
      "sand": 4606,
      "è¿°": 4607,
      "ä¸įè¯Ĩ": 4608,
      "æĪĳäºĨ": 4609,
      "ä½łåĢĴ": 4610,
      "ä½łä¸¤ä¸ª": 4611,
      "ä»ĸåį´": 4612,
      "éĤ£æĺ¯": 4613,
      "éĤ£å¦ĸ": 4614,
      "åľ¨å±±": 4615,
      "åľ¨æĹģ": 4616,
      "å¸½": 4617,
      "ç¬¦": 4618,
      "æĥ¯": 4619,
      "å°±æīĵ": 4620,
      "æĸ¯": 4621,
      "åī¥": 4622,
      "å£¶": 4623,
      "ç®Ń": 4624,
      "å¤ļå®ĺ": 4625,
      "éĩĳåħī": 4626,
      "Ġmeet": 4627,
      "Ġunder": 4628,
      "Ġkill": 4629,
      "è¯ĹæĽ°": 4630,
      "åĪļæīį": 4631,
      "åķĨéĩı": 4632,
      "ç¯ĩ": 4633,
      "æ¨ªç«ĸ": 4634,
      "Ġafter": 4635,
      "HOR": 4636,
      "cent": 4637,
      "ãĢĤâĢĶâĢĶ": 4638,
      "ä¸įèµ·": 4639,
      "éģĹ": 4640,
      "æĿı": 4641,
      "åĲ¦": 4642,
      "Ġsorrow": 4643,
      "åŃĲä¸Ĭ": 4644,
      "å¤§åĵ¥": 4645,
      "ç»ĳ": 4646,
      "ition": 4647,
      "Ġcare": 4648,
      "æīĵå¼Ģ": 4649,
      "èĬŃ": 4650,
      "æģķ": 4651,
      "ä¿Ĭ": 4652,
      "å¼ŁåħĦ": 4653,
      "Ġthousand": 4654,
      "äºĶåĦ¿": 4655,
      "åį³åĳ½": 4656,
      "é»Ľçİīç¬ĳéģĵ": 4657,
      "ä»İæŃ¤": 4658,
      "ä¸įè¿ĩè¯´": 4659,
      "esty": 4660,
      "æķħæĦı": 4661,
      "ç¢į": 4662,
      "ä¸ºä»Ģä¹Īè¦ģ": 4663,
      "è±Ĩ": 4664,
      "ANGE": 4665,
      "ORD": 4666,
      "æ¼Ĩ": 4667,
      "æ¨µ": 4668,
      "ç½ĹåĪ¹": 4669,
      "Ġhold": 4670,
      "æĸĻçĲĨ": 4671,
      "åºĬä¸Ĭ": 4672,
      "æıŃè°Ľ": 4673,
      "GRE": 4674,
      "æĢ¡çº¢": 4675,
      "èĬ±æŀľå±±": 4676,
      "ANGELO": 4677,
      "CU": 4678,
      "Our": 4679,
      "çļĦåĴĮå°ļ": 4680,
      "æĺ¯åľ¨": 4681,
      "ä¸Ģåľº": 4682,
      "ä½łæĹ¢": 4683,
      "éĤ£æĹ¥": 4684,
      "ä¹Łç½¢äºĨ": 4685,
      "å¤§äºĨ": 4686,
      "æĥĳ": 4687,
      "å°±å¥½": 4688,
      "èĢģç¥ĸå®Ĺ": 4689,
      "åĩºä¸Ģä¸ª": 4690,
      "å¤ªçĪ·": 4691,
      "çľĭåĪ°": 4692,
      "ä¹ĭå¿ĥ": 4693,
      "å¯ĩ": 4694,
      "Ġhelp": 4695,
      "éĴµ": 4696,
      "ç½ķ": 4697,
      "æīĵäºĨ": 4698,
      "ç¥Ŀ": 4699,
      "çĶŁå¾Ĺ": 4700,
      "æ¬¾": 4701,
      "æįı": 4702,
      "é¥°": 4703,
      "é¥¼": 4704,
      "èµ·æĿ¥äºĨ": 4705,
      "ç¦Ģ": 4706,
      "ARINA": 4707,
      "æģĲæĢķ": 4708,
      "arence": 4709,
      "ï¼ŁðŁ¤£": 4710,
      "è¹Ħ": 4711,
      "èº«ä¸Ģåıĺ": 4712,
      "èĢģèĢħéģĵ": 4713,
      "å©¶åŃĲ": 4714,
      "Ġwhom": 4715,
      "æŀĹä¹ĭåŃĿå®¶çļĦ": 4716,
      "Ġfollow": 4717,
      "KATH": 4718,
      "day": 4719,
      "è¿Ŀ": 4720,
      "éģµ": 4721,
      "ä¸Ģè§ģ": 4722,
      "åħĭ": 4723,
      "è¿Ļäºĭ": 4724,
      "è¿Ļå¤§åľ£": 4725,
      "ä»ĸä¾¿": 4726,
      "çľ·": 4727,
      "ä¼¶": 4728,
      "çĶĺ": 4729,
      "Ġfar": 4730,
      "çŁ©": 4731,
      "Ġless": 4732,
      "ä¾¿åĳ½": 4733,
      "Ġhither": 4734,
      "è¿ĩçļĦ": 4735,
      "ceive": 4736,
      "irt": 4737,
      "çĥĪ": 4738,
      "åĩłæĹ¶": 4739,
      "Ġweep": 4740,
      "æĪĲçļĦ": 4741,
      "åĶĲæľĿ": 4742,
      "æĳĺ": 4743,
      "éĢģäºĨ": 4744,
      "æĽ´æĹł": 4745,
      "ä½Ĩè§ģ": 4746,
      "Ġshame": 4747,
      "åįĹæĹł": 4748,
      "selves": 4749,
      "æĭīçĿĢ": 4750,
      "è¸¢": 4751,
      "åĹ³": 4752,
      "æºĲ": 4753,
      "cius": 4754,
      "åı¸æ£ĭ": 4755,
      "Ġenem": 4756,
      "Ġabout": 4757,
      "Ġeye": 4758,
      "æ¯ķç«Łä¸įçŁ¥": 4759,
      "KATHARINA": 4760,
      "iol": 4761,
      "Ġä½łæĺ¯ä¸įæĺ¯": 4762,
      "è¿Ļä¸Ģä¸ª": 4763,
      "æľīè¶£": 4764,
      "å¤§åĵŃ": 4765,
      "å°±å¥½äºĨ": 4766,
      "åĨ»": 4767,
      "Ġfal": 4768,
      "Ġfool": 4769,
      "ons": 4770,
      "Ġpat": 4771,
      "æģŃ": 4772,
      "åĽłè¯´éģĵ": 4773,
      "åĮ£": 4774,
      "æĢİä¹Īä¸į": 4775,
      "çĹķ": 4776,
      "åħ«æĪĴç¬ĳéģĵ": 4777,
      "æŁĲ": 4778,
      "æ³ķåĬĽ": 4779,
      "çľ¼æ³ª": 4780,
      "èīº": 4781,
      "urde": 4782,
      "è£ģ": 4783,
      "æİ¥çĿĢ": 4784,
      "ä¼Ĺäººéģĵ": 4785,
      "Ġsun": 4786,
      "Ġanswer": 4787,
      "çĽ´èĩ³": 4788,
      "å®³æĢķ": 4789,
      "çĵ¦": 4790,
      "æĳĩèº«ä¸Ģåıĺ": 4791,
      "éĽ·éŁ³": 4792,
      "éĶĻäºĨ": 4793,
      "å¾¡å¼Ł": 4794,
      "èĭ±éĽĦ": 4795,
      "air": 4796,
      "åµ": 4797,
      "ï¼Į`": 4798,
      "åħľ": 4799,
      "ä»ĸéĤ£": 4800,
      "åĩ»": 4801,
      "ä¹ŁæĹł": 4802,
      "çĿĢæĢ¥": 4803,
      "è§ģæĪĳ": 4804,
      "åıĪåĳ½": 4805,
      "æĬ¼": 4806,
      "æĸ©": 4807,
      "æĭ©": 4808,
      "èĢģå¦ĸ": 4809,
      "Ġch": 4810,
      "ä¾¿è¦ģ": 4811,
      "å¤©æ°Ķ": 4812,
      "ä¸ºä½ķ": 4813,
      "èĦĤ": 4814,
      "èĦı": 4815,
      "è¿ĽäºĨ": 4816,
      "èĪĴ": 4817,
      "èĹķ": 4818,
      "éĤ£éĩĮæĿ¥çļĦ": 4819,
      "å¥³åŃ©åŃĲ": 4820,
      "åĩ¤å§Ĳç¬ĳéģĵ": 4821,
      "asure": 4822,
      "æļ´": 4823,
      "Ġfall": 4824,
      "è¿İæİ¥": 4825,
      "æĽ¿ä½ł": 4826,
      "è¿Ľæ°´äºĨ": 4827,
      "ä¸įåľ¨å®¶": 4828,
      "åĴĴè¯Ń": 4829,
      "å¹¿å¤§": 4830,
      "èļĬ": 4831,
      "Ġmaid": 4832,
      "åİīå£°": 4833,
      "è¾Ľèĭ¦": 4834,
      "LUS": 4835,
      "Un": 4836,
      "Up": 4837,
      "èª": 4838,
      "çļĤ": 4839,
      "ä¸įä½Ĩ": 4840,
      "ä¹¾": 4841,
      "çļĦåľ°æĸ¹": 4842,
      "ä¸Ģè¡Į": 4843,
      "ä¸ĢçĻ¾": 4844,
      "ä¸Ģå¤ľ": 4845,
      "ä½łè¯¥": 4846,
      "ount": 4847,
      "æľīä¸ī": 4848,
      "åį¦": 4849,
      "Ġbus": 4850,
      "æ²¿": 4851,
      "Ġcousin": 4852,
      "äºĭçļĦ": 4853,
      "éĴ©": 4854,
      "éĹ¨åı£": 4855,
      "æ³¡": 4856,
      "æĭ¿åĩºæĿ¥": 4857,
      "éķ¿çĶŁ": 4858,
      "éķ¿å®ī": 4859,
      "é¥±": 4860,
      "ï¼ģðŁĳ": 4861,
      "æ³ķå¸Ī": 4862,
      "æ¯Ķå¦Ĥ": 4863,
      "åįĥä¸ĩ": 4864,
      "thy": 4865,
      "åĲĪæİĮ": 4866,
      "æĸĩæŃ¦": 4867,
      "ESCA": 4868,
      "Ġhate": 4869,
      "ç«ĻçĿĢ": 4870,
      "åĮħè¢±": 4871,
      "æ¦ľ": 4872,
      "è¯ķè¯ķ": 4873,
      "Ġgracious": 4874,
      "Ġgentleman": 4875,
      "ĠKing": 4876,
      "Ġgrief": 4877,
      "æ½ĩæ¹ĺ": 4878,
      "èĬŃèķī": 4879,
      "ESCALUS": 4880,
      "**": 4881,
      "An": 4882,
      "ject": 4883,
      "ove": 4884,
      "pl": 4885,
      "ä¸įä¾¿": 4886,
      "ä¸įå¤ļæĹ¶": 4887,
      "ä¸Ģä¼ļ": 4888,
      "äººçŃī": 4889,
      "èĢ½": 4890,
      "åĽĬ": 4891,
      "æľīçĲĨ": 4892,
      "åį«": 4893,
      "Ġmakes": 4894,
      "ä¹Łä¸įæĺ¯": 4895,
      "èµĦ": 4896,
      "è´£": 4897,
      "åıªåľ¨": 4898,
      "èĩ¾": 4899,
      "å¤´åĦ¿": 4900,
      "ä¹ĭå¤ĸ": 4901,
      "ä¹ĭè¨Ģ": 4902,
      "ä¸ºäºº": 4903,
      "è°·": 4904,
      "åĿļ": 4905,
      "Ġinto": 4906,
      "æĻĴ": 4907,
      "imes": 4908,
      "çĭ±": 4909,
      "æķĻæĪĳ": 4910,
      "å¾Ģåīį": 4911,
      "Ġstri": 4912,
      "åĲįåĶ¤": 4913,
      "çĸ¯": 4914,
      "ç«Łæĺ¯": 4915,
      "å£«éļĲ": 4916,
      "æ®¿ä¸Ĭ": 4917,
      "é¡»èĩ¾": 4918,
      "ç¥ĸå¸Ī": 4919,
      "å½©äºĳ": 4920,
      "é¼»åŃĲ": 4921,
      "æ§Ľ": 4922,
      "æĢ¡çº¢éĻ¢": 4923,
      "Hath": 4924,
      "iv": 4925,
      "ild": 4926,
      "ä¸¸": 4927,
      "ï¼ļ\"": 4928,
      "å®µ": 4929,
      "ä¹Łä¸įçŁ¥": 4930,
      "åľ¨ä¸Ģå¤Ħ": 4931,
      "æĭĪ": 4932,
      "å®Ŀå§Ĳå§Ĳ": 4933,
      "åĽŀåĪ°": 4934,
      "éĢĲ": 4935,
      "å±ģ": 4936,
      "ç½©": 4937,
      "ä¼Ĺç¥ŀ": 4938,
      "æĢİä¹Īå°±": 4939,
      "å¹´è½»": 4940,
      "èį·": 4941,
      "é©¬ä¸Ĭ": 4942,
      "Ġstre": 4943,
      "ç¦½": 4944,
      "çº¢äºĨ": 4945,
      "èĢģå¤ªå¤ªçļĦ": 4946,
      "ç³ĸ": 4947,
      "çĬ¬": 4948,
      "å¹³åĦ¿éģĵ": 4949,
      "ĠEng": 4950,
      "æį¢äºĨ": 4951,
      "ï¼ŁðŁ¤Ķ": 4952,
      "ç«¥åŃĲ": 4953,
      "ä¾ĦåĦ¿": 4954,
      "Ġwoman": 4955,
      "DUCH": 4956,
      "åı®": 4957,
      "æĺ¼": 4958,
      "ä¸įæīĵ": 4959,
      "ä¸įä¾Ŀ": 4960,
      "æĺ¯è¦ģ": 4961,
      "Ġturn": 4962,
      "è¯´èµ·": 4963,
      "åľ¨åľ°": 4964,
      "å¾Ĺä»ĸ": 4965,
      "æĸľ": 4966,
      "éĥ½æĿ¥": 4967,
      "çĽĤ": 4968,
      "Ġhum": 4969,
      "Ġover": 4970,
      "Ġbel": 4971,
      "æīįä¸įæĺ¯": 4972,
      "æĮ½": 4973,
      "åįģä¸ª": 4974,
      "èĤĿ": 4975,
      "æĹ©æĻļ": 4976,
      "alt": 4977,
      "å°ļæľª": 4978,
      "èħ®": 4979,
      "æ¯Ķè¾ĥ": 4980,
      "Ġdost": 4981,
      "åįĥéĩĮ": 4982,
      "Ġcomfort": 4983,
      "ices": 4984,
      "èĦ±äºĨ": 4985,
      "ï¼ģðŁ¤¦âĢįâĻĢï¸ı": 4986,
      "èµĸå¤§": 4987,
      "åĪĹä½į": 4988,
      "Ġcoun": 4989,
      "ĠDuke": 4990,
      "ä½łåľ¨è¯´ä»Ģä¹Ī": 4991,
      "Ġcourt": 4992,
      "Ġsleep": 4993,
      "urderer": 4994,
      "DUCHESS": 4995,
      "17": 4996,
      "Lord": 4997,
      "pher": 4998,
      "æĺ¯æĥ³": 4999,
      "Ġtalk": 5000,
      "ä½łäºĨ": 5001,
      "æĹºåĦ¿": 5002,
      "åĩı": 5003,
      "ä¹Łå¥½": 5004,
      "çĿĢå®ŀ": 5005,
      "åľ¨åľ°ä¸ĭ": 5006,
      "å¥½å¤Ħ": 5007,
      "ä¸ĭçļĦ": 5008,
      "itor": 5009,
      "å¤´åıĳ": 5010,
      "éĥ½æľī": 5011,
      "æŀ¯": 5012,
      "åĸı": 5013,
      "æİĢ": 5014,
      "è°ħ": 5015,
      "è°ĭ": 5016,
      "æĹłç¤¼": 5017,
      "è¢Ħ": 5018,
      "å°Ĩä»ĸ": 5019,
      "åĲĥèĮ¶": 5020,
      "é¡·": 5021,
      "åĩłåı¥": 5022,
      "çĹĩ": 5023,
      "èĩ³äºİ": 5024,
      "èĢĮæĿ¥": 5025,
      "é¸¾": 5026,
      "ä½Ĩåıª": 5027,
      "æľªäºĨ": 5028,
      "çħİ": 5029,
      "å¹¶ä¸į": 5030,
      "ä¸ºä»Ģä¹ĪæĪĳ": 5031,
      "çŁ³å¤´": 5032,
      "å¾ħæĪĳ": 5033,
      "èŁ¹": 5034,
      "åĭ¤": 5035,
      "æł¹æľ¬": 5036,
      "çĳ¶": 5037,
      "æľ¨åıī": 5038,
      "éĤ£æĢªéģĵ": 5039,
      "ç«¯çļĦ": 5040,
      "ç§¦æ°ı": 5041,
      "å¯Įè´µ": 5042,
      "è§ĦçŁ©": 5043,
      "Ġbody": 5044,
      "20": 5045,
      "morrow": 5046,
      "ä¸Ľ": 5047,
      "çļĪ": 5048,
      "æĺĤ": 5049,
      "æĺ¯ä½ķ": 5050,
      "æĿ¨": 5051,
      "åĪ®": 5052,
      "æľīåĩłä¸ª": 5053,
      "Ġwilt": 5054,
      "åİ»å¤Ħ": 5055,
      "Ġbu": 5056,
      "æĭ±": 5057,
      "è¦ģä¸įè¦ģ": 5058,
      "åĬª": 5059,
      "è´¾çĳŀ": 5060,
      "åºĨ": 5061,
      "åĢį": 5062,
      "åĸĩ": 5063,
      "Ġgr": 5064,
      "éĹ¨çļĦ": 5065,
      "åĿĽ": 5066,
      "å¨¥": 5067,
      "åįģåħŃ": 5068,
      "ä½ķå¿ħ": 5069,
      "ute": 5070,
      "åľ°éĩĮ": 5071,
      "åĨįåİ»": 5072,
      "éĩĳéĵ¶": 5073,
      "èĭ¥è¯´": 5074,
      "åģļä»Ģä¹Ī": 5075,
      "çº¢çİī": 5076,
      "å¸¸è¨Ģéģĵ": 5077,
      "æĢ¥å¿Ļ": 5078,
      "çĿ¡äºĨ": 5079,
      "gelo": 5080,
      "æĤŁç©ºéģĵ": 5081,
      "çīĽçİĭ": 5082,
      "ï¼ģðŁ¤Ń": 5083,
      "deed": 5084,
      "åĵĪåĵĪåĵĪ": 5085,
      "ĠMarcius": 5086,
      "IA": 5087,
      "ience": 5088,
      "Ġi": 5089,
      "ä¸ĺ": 5090,
      "åı¨": 5091,
      "æĺ¯éĤ£": 5092,
      "ä½łåĪ«": 5093,
      "åį¿": 5094,
      "èµļ": 5095,
      "åľ¨æīĭ": 5096,
      "ised": 5097,
      "åıªå½ĵ": 5098,
      "å¥½å¥½": 5099,
      "ç»Ń": 5100,
      "æĭ¨": 5101,
      "å·į": 5102,
      "å¿ĥæĥĬ": 5103,
      "æĹ¶å¸¸": 5104,
      "åı«ä»ĸä»¬": 5105,
      "ans": 5106,
      "é¢Ĺ": 5107,
      "æĥ³åĪ°": 5108,
      "Ġbed": 5109,
      "åĮº": 5110,
      "æµħ": 5111,
      "ä¸ŃçļĦ": 5112,
      "æ±¡": 5113,
      "äºĨä¸Ģåı£": 5114,
      "å·²æĺ¯": 5115,
      "è´¾æ¯įçŃī": 5116,
      "æĪ¿åĨħ": 5117,
      "æıª": 5118,
      "ä½¿ä¸ª": 5119,
      "çĹħäºĨ": 5120,
      "èµ¶ç´§": 5121,
      "Ġfault": 5122,
      "è°¢æģ©": 5123,
      "çģµå±±": 5124,
      "Ġatt": 5125,
      "ieve": 5126,
      "åĽ½çİĭéģĵ": 5127,
      "å²ĤçŁ¥": 5128,
      "Ġprove": 5129,
      "Ġplay": 5130,
      "èį£åºľ": 5131,
      "CAMIL": 5132,
      "ä¸ľåľŁå¤§åĶĲ": 5133,
      "ĠClarence": 5134,
      "çĤķä¸Ĭ": 5135,
      "åĺ»åĺ»": 5136,
      "çĴĥ": 5137,
      "CAMILLO": 5138,
      "God": 5139,
      "ere": 5140,
      "ily": 5141,
      "åı¬": 5142,
      "ä¸įæĢķ": 5143,
      "ä½łæľī": 5144,
      "ä½łèĭ¥": 5145,
      "äººçī©": 5146,
      "Ġsound": 5147,
      "çĶľ": 5148,
      "å¤´éĩĮ": 5149,
      "å®¶ä¼Ļ": 5150,
      "Ġdra": 5151,
      "çŃ¾": 5152,
      "ä¹ĭç±»": 5153,
      "å¦ĤæĦı": 5154,
      "å¯Ħ": 5155,
      "å¯Ŀ": 5156,
      "å®ĿçİīçļĦ": 5157,
      "æŃ¤éĹ´": 5158,
      "omet": 5159,
      "é¢ł": 5160,
      "è¢į": 5161,
      "æģĭ": 5162,
      "Ġinst": 5163,
      "å¥³åŃ©åĦ¿": 5164,
      "Ġwel": 5165,
      "éħ¬": 5166,
      "ade": 5167,
      "æīĢæľī": 5168,
      "é©¬åĮ¹": 5169,
      "Ġret": 5170,
      "å®īæŃĩ": 5171,
      "ç¼ĵ": 5172,
      "Ġdeed": 5173,
      "å¿ħå®ļ": 5174,
      "è®©ä½ł": 5175,
      "æĤŁèĥ½": 5176,
      "è±¹": 5177,
      "éģĩè§ģ": 5178,
      "Ġthank": 5179,
      "æ¦»": 5180,
      "åıĮæīĭ": 5181,
      "å¤ŁäºĨ": 5182,
      "å§Ĭå¦¹ä»¬": 5183,
      "TEN": 5184,
      "ä¹ŀ": 5185,
      "çļĦè¯´": 5186,
      "å°ī": 5187,
      "éĤ£å¤§åľ£": 5188,
      "åĪĳ": 5189,
      "æľīæŃ¤": 5190,
      "Ġser": 5191,
      "ä¹Łè¯¥": 5192,
      "éĩĮéĹ´": 5193,
      "Ġbo": 5194,
      "åıĪè§ģéĤ£": 5195,
      "æĸ§": 5196,
      "Ġfight": 5197,
      "èĩĬ": 5198,
      "å¤´æĿ¥": 5199,
      "éĹ®äºĨ": 5200,
      "èĩªå®¶": 5201,
      "åı¯æĥľ": 5202,
      "é¢Ŀ": 5203,
      "Ġindeed": 5204,
      "æ´Ĵ": 5205,
      "éĺŁ": 5206,
      "ä½ľäºĨ": 5207,
      "åĢĴäºĨ": 5208,
      "åĨįæĿ¥": 5209,
      "å¥³å©¿": 5210,
      "illain": 5211,
      "Ġem": 5212,
      "ä¹Łä¸įèĥ½": 5213,
      "æ·ĭ": 5214,
      "æľªåħį": 5215,
      "è¢ŃäººçŃī": 5216,
      "æĤŁåĩĢ": 5217,
      "hold": 5218,
      "Ġvo": 5219,
      "éĹ¹å¤©å®«": 5220,
      "åĨĻçĿĢ": 5221,
      "æĵį": 5222,
      "ç¦»äºĨ": 5223,
      "Ġsword": 5224,
      "èº¬èº«": 5225,
      "ĠAngelo": 5226,
      "HORTEN": 5227,
      "Ġfalse": 5228,
      "HORTENS": 5229,
      "\".": 5230,
      "FRI": 5231,
      "Sh": 5232,
      "É¡": 5233,
      "ä¸įè¯´": 5234,
      "ä¸Ģå¼ł": 5235,
      "ä¸Ģæ¦Ĥ": 5236,
      "æĿ¥è¯·": 5237,
      "ä½łåį´": 5238,
      "éĤĢ": 5239,
      "åį°": 5240,
      "æĢĶ": 5241,
      "çĿĢæĪĳ": 5242,
      "ä¹ĭå£°": 5243,
      "æĹ¶è¾°": 5244,
      "åĲ¬è§ģäºĨ": 5245,
      "æłĩ": 5246,
      "äºĭäºĨ": 5247,
      "è¯Ŀä¸ĭ": 5248,
      "è¿ĽåŁİ": 5249,
      "åĽłè§ģ": 5250,
      "çĶ¨çļĦ": 5251,
      "èįĨ": 5252,
      "Ġuse": 5253,
      "Ġeven": 5254,
      "ï¼ģðŁĴ¦": 5255,
      "æľ¬çĽ¸": 5256,
      "ä¸īèĹıéĹ»è¨Ģ": 5257,
      "Ġsovere": 5258,
      "æ¢¯": 5259,
      "ä¼łæĹ¨": 5260,
      "Ġanother": 5261,
      "éĤ£æĢªçī©": 5262,
      "é¸³é¸¯éģĵ": 5263,
      "æĽ¿ä»ĸ": 5264,
      "Ġgrave": 5265,
      "èĢįåŃĲ": 5266,
      "Ġadv": 5267,
      "Provost": 5268,
      "Ġfellow": 5269,
      "åĭīå¼º": 5270,
      "Upon": 5271,
      "HORTENSIO": 5272,
      "FRIAR": 5273,
      ",'": 5274,
      "PTIS": 5275,
      "eal": 5276,
      "ï¼ĮâĢĶâĢĶ": 5277,
      "ä¸įè¡Į": 5278,
      "è¯Ħ": 5279,
      "è¯¯äºĨ": 5280,
      "ä¸Ģå¾Ħ": 5281,
      "åħ¼": 5282,
      "è¯´æĺİ": 5283,
      "å¿ł": 5284,
      "å¤§èĢģçĪ·": 5285,
      "åıªåı«": 5286,
      "æĥł": 5287,
      "ä¸ĭéĿ¢": 5288,
      "Ġcur": 5289,
      "çľĭå¤Ħ": 5290,
      "å¿ĥåĨħ": 5291,
      "åĲ¬çĿĢ": 5292,
      "åī§": 5293,
      "ä¸ºè¯ģ": 5294,
      "è¾Ł": 5295,
      "æĥ³äºĨä¸Ģ": 5296,
      "éĹ¨é¦ĸ": 5297,
      "èĬ¹": 5298,
      "æĮª": 5299,
      "çģĮ": 5300,
      "ä¸Ģä¸ªæĺ¯": 5301,
      "éĻµ": 5302,
      "Ġhas": 5303,
      "æĭ¿ä»ĸ": 5304,
      "å¹´åīį": 5305,
      "æįŁ": 5306,
      "æŁ±": 5307,
      "ury": 5308,
      "ä¸įè¿ĩè¯Ŀè¯´åĽŀæĿ¥": 5309,
      "çİĭå¤«äººçŃī": 5310,
      "åıĹäºĨ": 5311,
      "å±ĭåŃĲ": 5312,
      "pect": 5313,
      "è¢«éĹ¨å¤¹äºĨåĲĹ": 5314,
      "BAPTIS": 5315,
      "æħ¢æħ¢çļĦ": 5316,
      "Ġbanish": 5317,
      "Ġfortune": 5318,
      "BAPTISTA": 5319,
      "CUS": 5320,
      "COM": 5321,
      "TOL": 5322,
      "YCUS": 5323,
      "pen": 5324,
      "ä¸½": 5325,
      "ä¸įåĲĥ": 5326,
      "ä¸ĢæĹ©": 5327,
      "æĪĳå®¶": 5328,
      "æĿ¥åĪ°": 5329,
      "è¿Ļåİ®": 5330,
      "ï¼ģ(": 5331,
      "è¯´åĩº": 5332,
      "åĩ¹": 5333,
      "çİĩ": 5334,
      "ouch": 5335,
      "æľīå¤ļå°ĳ": 5336,
      "Ġmerc": 5337,
      "Ġmatter": 5338,
      "Ġwant": 5339,
      "ä¸Ĭé©¬": 5340,
      "å¤§è·¯": 5341,
      "åıĪæģĲ": 5342,
      "å¥½å¥½çļĦ": 5343,
      "åĩºå®¶äºº": 5344,
      "è¦ģåİ»": 5345,
      "å®¶åŃĲ": 5346,
      "éĥ½æ²¡æľī": 5347,
      "çŃīèĢģåŃĻ": 5348,
      "ä¸¤æĹ¥": 5349,
      "æ³£": 5350,
      "ä»Ģä¹Īäºĭ": 5351,
      "æĬĬä½ł": 5352,
      "æīįèĥ½": 5353,
      "åĶĩ": 5354,
      "éĽķ": 5355,
      "è¿Ľåħ¥": 5356,
      "åįģäºĶ": 5357,
      "å±±åĿ¡": 5358,
      "é©¸": 5359,
      "æĻĮ": 5360,
      "æĭ¿åİ»": 5361,
      "å¿ĻçļĦ": 5362,
      "æį£": 5363,
      "éŃı": 5364,
      "æŁĦ": 5365,
      "Ġreven": 5366,
      "Ġass": 5367,
      "å¸¸è¯Ĩ": 5368,
      "Ġsend": 5369,
      "åįĹæµ·": 5370,
      "è¿İçĿĢ": 5371,
      "Ġprison": 5372,
      "çĶµèĦĳ": 5373,
      "ç¨į": 5374,
      "ä¸ĥåħ«": 5375,
      "fect": 5376,
      "åĹ½": 5377,
      "AUTOL": 5378,
      "Ġrather": 5379,
      "èĨı": 5380,
      "ç¾¤å¦ĸ": 5381,
      "Ġcountry": 5382,
      "Ġdoubt": 5383,
      "åĲĨåĸĿ": 5384,
      "COMINIUS": 5385,
      "AUTOLYCUS": 5386,
      ".'": 5387,
      "Are": 5388,
      "Even": 5389,
      "More": 5390,
      "è¿Ķ": 5391,
      "ä¸įåĪĨ": 5392,
      "è¯µ": 5393,
      "æĿ¥è¯´": 5394,
      "ä½łåħĪ": 5395,
      "éĤ£ä¸¤ä¸ª": 5396,
      "åĪģ": 5397,
      "Ġwish": 5398,
      "Ġyears": 5399,
      "ä¹ĭä¸Ĭ": 5400,
      "åĽŀæĿ¥äºĨ": 5401,
      "ç§ī": 5402,
      "åĪ°éĤ£": 5403,
      "æŃ¤äºĭ": 5404,
      "æīĵä¸ª": 5405,
      "æīĵæī®": 5406,
      "åĿ¤": 5407,
      "æ´ģ": 5408,
      "å±±ä¸Ń": 5409,
      "éĺĶ": 5410,
      "çĪ¶çİĭ": 5411,
      "å¿ĻéĹ®": 5412,
      "åį³å¿Ļ": 5413,
      "Ġreason": 5414,
      "Ġlies": 5415,
      "ç¼ķ": 5416,
      "æ®Ĭ": 5417,
      "Ġonly": 5418,
      "ARENCE": 5419,
      "é¹°": 5420,
      "Third": 5421,
      "ç©¿çĿĢ": 5422,
      "Ġvirt": 5423,
      "éķ¿èĢģéģĵ": 5424,
      "åĶ¤åģļ": 5425,
      "ä½łæĺ¯æĥ³": 5426,
      "æĿİçº¨éģĵ": 5427,
      "ä¸įåľ¨è¯Ŀä¸ĭ": 5428,
      "åĪ°åºķæĺ¯": 5429,
      "æĬ±æĢ¨": 5430,
      "Ġtruth": 5431,
      "æļĤä¸Ķ": 5432,
      "é©¸é©¬": 5433,
      "Would": 5434,
      "ior": 5435,
      "ms": 5436,
      "of": 5437,
      "rance": 5438,
      "ĠBut": 5439,
      "âĢ¢": 5440,
      "ä¸ªå¤§": 5441,
      "æľīçĤ¹": 5442,
      "å¤§æĢĴ": 5443,
      "å¼¯": 5444,
      "ä¸ĭæĭľ": 5445,
      "ä¸ĭçķĮ": 5446,
      "åĩºåŁİ": 5447,
      "Ġdan": 5448,
      "ä¾¿çŁ¥": 5449,
      "å±Ģ": 5450,
      "Ġpers": 5451,
      "æłı": 5452,
      "åĸ§": 5453,
      "ä¸¤åıª": 5454,
      "any": 5455,
      "æİĪ": 5456,
      "æģį": 5457,
      "æµĨ": 5458,
      "åĩłæĹ¥": 5459,
      "åĪ«å¤Ħ": 5460,
      "ç¼Ŀ": 5461,
      "åįĬä¸ª": 5462,
      "è§£äºĨ": 5463,
      "é¹ħ": 5464,
      "åĳĬè¯īäºĨ": 5465,
      "åĳĬè¯īä»ĸ": 5466,
      "ç´«èĭ±": 5467,
      "è¿Ļæĺ¯ä»Ģä¹Ī": 5468,
      "éĽ·åħ¬": 5469,
      "è¹²": 5470,
      "Ġbreath": 5471,
      "ç¥¥äºĳ": 5472,
      "Ġarms": 5473,
      "Ġdream": 5474,
      "CLARENCE": 5475,
      "éĴıåĦ¿": 5476,
      "pherd": 5477,
      "BEN": 5478,
      "MAR": 5479,
      "NOR": 5480,
      "dd": 5481,
      "der": 5482,
      "å®¡": 5483,
      "ä¸ĢæĿ¯": 5484,
      "å°¿": 5485,
      "äººéĹ´": 5486,
      "è¿ĻæĹ¥": 5487,
      "æī£": 5488,
      "éĤ£åİ®": 5489,
      "Ġsent": 5490,
      "æĥ¨": 5491,
      "å°±åİ»": 5492,
      "å°±åľ¨": 5493,
      "ä¸ĭæ³ª": 5494,
      "èĢģå©Ĩ": 5495,
      "è¦ģæīĵ": 5496,
      "ener": 5497,
      "åĴ³": 5498,
      "åĪ°éĤ£éĩĮ": 5499,
      "äºĮéŃĶ": 5500,
      "äºĮä½į": 5501,
      "åı¯çĪ±": 5502,
      "Ġgi": 5503,
      "ä»Ģä¹ĪçļĦ": 5504,
      "åīįè¿Ľ": 5505,
      "æĦ§": 5506,
      "å°ĨéĤ£": 5507,
      "éĻ°": 5508,
      "æµĵ": 5509,
      "èĤ¥": 5510,
      "çĮ¢": 5511,
      "åĽĽå¤§": 5512,
      "ç¥ŀåĥ§": 5513,
      "åķĬåĸĤ": 5514,
      "å¤ªå¤ªä»¬": 5515,
      "çĭ²": 5516,
      "çĽ¸è²Į": 5517,
      "å¾Ģå¤ĸ": 5518,
      "Ġstra": 5519,
      "åıĸäºĨ": 5520,
      "çŀħ": 5521,
      "çŀİ": 5522,
      "åĲĦåĲĦ": 5523,
      "èĻ½ä¸į": 5524,
      "Ġshalt": 5525,
      "æ´ŀåı£": 5526,
      "è®¤ä¸º": 5527,
      "è¿Ļä¹ĪçĿĢ": 5528,
      "çħ§åºĶ": 5529,
      "æħĮå¾ĹéĤ£": 5530,
      "åĹĶ": 5531,
      "è¾ŀäºĨ": 5532,
      "ä¿Ĺè¯Ń": 5533,
      "é¥¶ä½ł": 5534,
      "Ġdisc": 5535,
      "è¶ģæĹ©": 5536,
      "ä½łèĦĳåŃĲæĺ¯ä¸įæĺ¯è¢«éĹ¨å¤¹": 5537,
      "ç¥ŀéĢļå¹¿å¤§": 5538,
      "VOLIO": 5539,
      "éĺİçİĭ": 5540,
      "Clown": 5541,
      "Ġbusiness": 5542,
      "æ½ĩæ¹ĺé¦Ĩ": 5543,
      "BENVOLIO": 5544,
      "Al": 5545,
      "At": 5546,
      "PRO": 5547,
      "SPER": 5548,
      "by": 5549,
      "¥çı": 5550,
      "ä¸įè§ģäºĨ": 5551,
      "æĺ¯å¥½": 5552,
      "hed": 5553,
      "ä½łè¿ŀ": 5554,
      "ï¼ģâľ¨": 5555,
      "éĤ£è¡ĮèĢħ": 5556,
      "Ġsen": 5557,
      "æĢ¯": 5558,
      "çľł": 5559,
      "åĦ¿æĿ¥": 5560,
      "å¾Ĺç½ª": 5561,
      "åķĲ": 5562,
      "çĪ¹": 5563,
      "è´¾èĶ·": 5564,
      "Ġprom": 5565,
      "æĹ¥æľĪ": 5566,
      "å½¹": 5567,
      "åĢ¾": 5568,
      "èĩªä»İ": 5569,
      "æĮ¯": 5570,
      "çĲ¥çı": 5571,
      "eter": 5572,
      "åĩ¤ä¸«å¤´": 5573,
      "åı£åĨħ": 5574,
      "æ£ł": 5575,
      "éļ¾ä¸º": 5576,
      "çĽ¸å¹²": 5577,
      "ç¼ļ": 5578,
      "ä¸»äºº": 5579,
      "åĲ¬äºĨè¿Ļè¯Ŀ": 5580,
      "èī²çļĦ": 5581,
      "ä¼łè¯´": 5582,
      "éļıåĲİ": 5583,
      "åĲ¬è§ģè¯´": 5584,
      "åĳĬè¯īæĪĳ": 5585,
      "è¿ĻäºĽäºº": 5586,
      "æ¼±": 5587,
      "æķ°åŃ¦": 5588,
      "Ġholy": 5589,
      "Ġenough": 5590,
      "ç´¢æĢ§": 5591,
      "erving": 5592,
      "Ġcommand": 5593,
      "UMIO": 5594,
      "éĹ®å¾Ĺåĩºåı£": 5595,
      "GRUMIO": 5596,
      "å¼¥éĻĢ": 5597,
      "åĺ±åĴĲ": 5598,
      "PROSPER": 5599,
      "çĲ¥çıĢ": 5600,
      "PROSPERO": 5601,
      "ia": 5602,
      "ken": 5603,
      "åĦ": 5604,
      "æĺ¯æľī": 5605,
      "ä¸Ģè¯Ń": 5606,
      "æľ«": 5607,
      "Ġsea": 5608,
      "æĢł": 5609,
      "å¦¾": 5610,
      "Ġwind": 5611,
      "ä¹ŁæĽ¾": 5612,
      "å¤§åĸľ": 5613,
      "å§¿": 5614,
      "å®Ŀæ®¿": 5615,
      "ä¸ĭä¸Ģ": 5616,
      "æ²¾": 5617,
      "itt": 5618,
      "è¦ģåĲĥ": 5619,
      "è¦ģèµ°": 5620,
      "Ġcra": 5621,
      "æ°§": 5622,
      "Ġlay": 5623,
      "éĥ½ä¸įçŁ¥éģĵ": 5624,
      "ars": 5625,
      "å¤©å°Ĭ": 5626,
      "å±¥": 5627,
      "Ġpity": 5628,
      "åīĤ": 5629,
      "äºĭæĿ¥": 5630,
      "éĴĵ": 5631,
      "è¯ĿåĦ¿": 5632,
      "æīĵçĤ¹": 5633,
      "ator": 5634,
      "çī¢": 5635,
      "Ġbea": 5636,
      "Ġhang": 5637,
      "å½ĵä¸ĭ": 5638,
      "å¿Ļç¬ĳéģĵ": 5639,
      "èĭ¥æľī": 5640,
      "æĹ©èµ·": 5641,
      "Ġstran": 5642,
      "åĽ½åºľ": 5643,
      "Ġsold": 5644,
      "éŃĶå¤´": 5645,
      "Ġsec": 5646,
      "è·ŁäºĨ": 5647,
      "ç³Ł": 5648,
      "Ġspir": 5649,
      "Ġfare": 5650,
      "è¿ĳæĹ¥": 5651,
      "æĻļéĹ´": 5652,
      "ä½ĵèĤ²": 5653,
      "Ġproud": 5654,
      "ĠMurderer": 5655,
      "Ġswear": 5656,
      "éĨĴäºĨ": 5657,
      "Ġcontent": 5658,
      "æªĲ": 5659,
      "MERCU": 5660,
      "MERCUTIO": 5661,
      "com": 5662,
      "ike": 5663,
      "çļĦåĺĽ": 5664,
      "å®°": 5665,
      "æĪĳä¸İä½ł": 5666,
      "æĿ¥åĽŀ": 5667,
      "è¯´ç¬ĳ": 5668,
      "åĩĮ": 5669,
      "çĿĢåĳ¢": 5670,
      "åľ¨åĲİ": 5671,
      "å¸Į": 5672,
      "ç»«": 5673,
      "Ġdare": 5674,
      "ä¾¿èµ°": 5675,
      "å¤©æĺİ": 5676,
      "å±İ": 5677,
      "åĲ¬ä»ĸ": 5678,
      "æĶ»": 5679,
      "å°ıæĹ¶": 5680,
      "å®ĿçİīåĲ¬è¯´": 5681,
      "æīĵæĿĢ": 5682,
      "ä¸İä¼Ĺ": 5683,
      "åīįæĿ¥": 5684,
      "æĻ¦": 5685,
      "æĤ¦": 5686,
      "éĤ£éĩĮæľī": 5687,
      "å²©": 5688,
      "æ·ĺ": 5689,
      "å§ĳåŃĲ": 5690,
      "Ġlives": 5691,
      "Ġdep": 5692,
      "è£¹": 5693,
      "æĴµ": 5694,
      "ä¹¦æĪ¿": 5695,
      "æĹ¢å¦ĤæŃ¤": 5696,
      "æĮĩçĿĢ": 5697,
      "è®¤çľŁ": 5698,
      "åĽŃåŃĲ": 5699,
      "åĽŃåĨħ": 5700,
      "Ġvillain": 5701,
      "éĤ£äºĽäºº": 5702,
      "æ³ªéģĵ": 5703,
      "åħĦå¼Łä»¬": 5704,
      "èĸĽå§¨å¦Īéģĵ": 5705,
      "æī¯ä½ı": 5706,
      "gainst": 5707,
      "éŀį": 5708,
      "ç¯®": 5709,
      "å°ıåİ®ä»¬": 5710,
      "ĠKate": 5711,
      "LUCENTIO": 5712,
      "Ġremem": 5713,
      "Ġnature": 5714,
      "Ġwelcome": 5715,
      "åĦĴ": 5716,
      "POM": 5717,
      "Tw": 5718,
      "sh": 5719,
      "unt": 5720,
      "è¿¸": 5721,
      "ä¸įå¤ļ": 5722,
      "ä¸įæ¶Ī": 5723,
      "Ġtend": 5724,
      "ä¸ĢåĲĮ": 5725,
      "æĪĳåį´": 5726,
      "æĪĳåĨį": 5727,
      "ä½łå¿«": 5728,
      "ä¸ªä¸ª": 5729,
      "ä¼½": 5730,
      "ham": 5731,
      "å¤§æµ·": 5732,
      "å¥½äºº": 5733,
      "åĵŁ": 5734,
      "å°±å¦Ĥ": 5735,
      "å°±å®ĮäºĨ": 5736,
      "åĨĮ": 5737,
      "Ġfree": 5738,
      "æĭŁ": 5739,
      "èĢģå®ŀ": 5740,
      "åĴķ": 5741,
      "è¿ĺæľīä¸Ģ": 5742,
      "èĩªåİ»": 5743,
      "äºĮåŃĹ": 5744,
      "äºĮéĥİ": 5745,
      "åĸĺ": 5746,
      "Ġgre": 5747,
      "Ġget": 5748,
      "è¿ĽæĿ¥äºĨ": 5749,
      "Ġint": 5750,
      "èĭ¥è¦ģ": 5751,
      "Ġwithin": 5752,
      "é£İæµģ": 5753,
      "æŁı": 5754,
      "Ġkiss": 5755,
      "åºĶäºĨ": 5756,
      "ä½Ĩè§ģéĤ£": 5757,
      "ç¾½": 5758,
      "åħ¬åŃĲ": 5759,
      "ester": 5760,
      "ĠCome": 5761,
      "Ġgods": 5762,
      "ä¹°åįĸ": 5763,
      "åĩ¤å§ĲåĦ¿éģĵ": 5764,
      "æİ¢æĺ¥éģĵ": 5765,
      "åĳµåĳµ": 5766,
      "åļ¼": 5767,
      "æĽ¿æĪĳ": 5768,
      "èŁłæ¡ĥ": 5769,
      "Ġsaw": 5770,
      "Ġmadam": 5771,
      "ä»įæĹ§": 5772,
      "éĻ¤äºĨ": 5773,
      "LAND": 5774,
      "è¾ĪåŃĲ": 5775,
      "è½»è½»çļĦ": 5776,
      "Ġhappy": 5777,
      "Ġsovereign": 5778,
      "ä¸ĭæ³ªæĿ¥": 5779,
      "çĮ¢çĭ²": 5780,
      "POMP": 5781,
      "LINA": 5782,
      "PAU": 5783,
      "apt": 5784,
      "æ©": 5785,
      "å¤¯": 5786,
      "äºĨå¤´": 5787,
      "çļĦéģĵ": 5788,
      "ä¸Ģè¾¹": 5789,
      "æľĹ": 5790,
      "å°Ķ": 5791,
      "äººè¯´": 5792,
      "åĩĦ": 5793,
      "Ġserv": 5794,
      "Ġsister": 5795,
      "Ġsomet": 5796,
      "èµĶ": 5797,
      "hal": 5798,
      "åľ¨åĨħ": 5799,
      "è´±": 5800,
      "ä¸Ĭå¤ľ": 5801,
      "å¼¼": 5802,
      "å¼ĵ": 5803,
      "å°±æĿ¥": 5804,
      "å°±æĬĬ": 5805,
      "Ġfoul": 5806,
      "èĢģåŃĲ": 5807,
      "çĪª": 5808,
      "Ġcity": 5809,
      "çľĭå®Ī": 5810,
      "åº·": 5811,
      "å¤©æĻļ": 5812,
      "å°ıåŃĲ": 5813,
      "å½ķ": 5814,
      "éĹ¨æĿ¥": 5815,
      "å°Ĩèµ·æĿ¥": 5816,
      "åĽłç¬ĳéģĵ": 5817,
      "æĸ¹æ³ķ": 5818,
      "ä½ķä¸į": 5819,
      "ä½ķèĭ¦": 5820,
      "èĻ¾": 5821,
      "çĥĺ": 5822,
      "åĨįéĹ®": 5823,
      "æį¶": 5824,
      "èĬ±åĦ¿": 5825,
      "èĩ³æŃ¤": 5826,
      "å®ļè¦ģ": 5827,
      "ç¼©": 5828,
      "æĽ´ä¸į": 5829,
      "åįĬç©ºä¸Ń": 5830,
      "åħ¬åħ¬": 5831,
      "vers": 5832,
      "æĢ¥çļĦ": 5833,
      "è¢Ńäººç¬ĳéģĵ": 5834,
      "æ¸ħæ¥ļ": 5835,
      "å¹¶æĹł": 5836,
      "çŃĶéģĵ": 5837,
      "ä¾Ŀè¨Ģ": 5838,
      "åħ³äºĨ": 5839,
      "æĵħ": 5840,
      "å²Ĥæľī": 5841,
      "ç»ĵæŀľ": 5842,
      "åħ´åĦ¿": 5843,
      "æ¶Īæģ¯": 5844,
      "Were": 5845,
      "éĤ£èĢģèĢħ": 5846,
      "ç¥¥åħī": 5847,
      "å§Ķå±Ī": 5848,
      "æ¢³æ´Ĺ": 5849,
      "Ġbeseech": 5850,
      "ä½ĵèĤ²èĢģå¸Ī": 5851,
      "PAULINA": 5852,
      "18": 5853,
      "YORK": 5854,
      "ient": 5855,
      "use": 5856,
      "ä»Ĩ": 5857,
      "æĪĳåĴĮ": 5858,
      "èĢĹ": 5859,
      "è¿Ļä¸¤ä¸ª": 5860,
      "è¯´ä½ł": 5861,
      "åĩĿ": 5862,
      "æľīè¯Ĺ": 5863,
      "ï¼Ł&": 5864,
      "åľ¨å®¶éĩĮ": 5865,
      "å¾Ĺä¸ª": 5866,
      "åıĪç¬ĳéģĵ": 5867,
      "åıĪåĲĳ": 5868,
      "åıĪä¸įæķ¢": 5869,
      "ç»ľ": 5870,
      "åĨ¥": 5871,
      "ery": 5872,
      "ä¸ĭäºº": 5873,
      "å¤´ä¸Ģ": 5874,
      "Ġden": 5875,
      "Ġyield": 5876,
      "Ġthree": 5877,
      "ä¹ĭåĨħ": 5878,
      "çĽĪ": 5879,
      "Ġoath": 5880,
      "å¿ĥä¸Ĭ": 5881,
      "å¤©çľŁ": 5882,
      "å°ıæĺİ": 5883,
      "å°ıé¾Ļ": 5884,
      "å½»": 5885,
      "æł¸": 5886,
      "æ²¡çļĦ": 5887,
      "çģ¼": 5888,
      "æŃ£æŀľ": 5889,
      "ä¿ĥ": 5890,
      "çĪ¶åŃĲ": 5891,
      "æĤł": 5892,
      "éĤ£éĩĮåİ»äºĨ": 5893,
      "åĽĽäºº": 5894,
      "æįŀ": 5895,
      "æŃ»äºº": 5896,
      "Ġyours": 5897,
      "åĶĲä¸īèĹı": 5898,
      "å®ĺåĳĺ": 5899,
      "æĪ¿åŃĲ": 5900,
      "å¤§åľ£éģĵ": 5901,
      "ç¼İ": 5902,
      "åħīèķĬ": 5903,
      "åĲĦäºº": 5904,
      "è§£éĩĬ": 5905,
      "çĿ¡çĿĢ": 5906,
      "ä¼ĹäººåĲ¬äºĨ": 5907,
      "ç©¿äºĨ": 5908,
      "åĩ¤å§ĲåĦ¿ç¬ĳéģĵ": 5909,
      "onder": 5910,
      "å·§å§ĲåĦ¿": 5911,
      "é²į": 5912,
      "ague": 5913,
      "eft": 5914,
      "èĤļåŃĲ": 5915,
      "Ġbreak": 5916,
      "Ġmeans": 5917,
      "é¢ľèī²": 5918,
      "ç©¶ç«Ł": 5919,
      "Ġsubject": 5920,
      "gether": 5921,
      "GREMIO": 5922,
      "POMPEY": 5923,
      "NIA": 5924,
      "OLI": 5925,
      "POLI": 5926,
      "XEN": 5927,
      "balt": 5928,
      "ybalt": 5929,
      "è¥": 5930,
      "Ġä¸ĢæĹ¶": 5931,
      "ĠNor": 5932,
      "ä¸Ģå¤´": 5933,
      "æĪĳä¸Ķ": 5934,
      "æĿ¥æŃ¤": 5935,
      "ä½łéģĵ": 5936,
      "ä½łå®¶": 5937,
      "æĹĭ": 5938,
      "è¿ĻåĴĮå°ļ": 5939,
      "åİķ": 5940,
      "æī°": 5941,
      "Ġaw": 5942,
      "è¯´å®Į": 5943,
      "åį¡": 5944,
      "Ġmer": 5945,
      "Ġwhile": 5946,
      "è¡Ķ": 5947,
      "åľ¨å¤ĸå¤´": 5948,
      "Ġborn": 5949,
      "åĦ¿å¥³": 5950,
      "åıªä¼ļ": 5951,
      "å¸ķ": 5952,
      "ç»°": 5953,
      "èĩŃ": 5954,
      "åĩºä¸Ģ": 5955,
      "è´¾åºľ": 5956,
      "ç¬ĳèµ·æĿ¥": 5957,
      "Ġthings": 5958,
      "åĽŀèº«": 5959,
      "çĽĲ": 5960,
      "Ġhorse": 5961,
      "èĩªå¹¼": 5962,
      "ä¸īåįĥ": 5963,
      "anc": 5964,
      "æīĵä»ĸ": 5965,
      "çīĴ": 5966,
      "æ³Ħ": 5967,
      "ç«¿": 5968,
      "å¤ļå¿ĥ": 5969,
      "æĸ¹ä¸Ī": 5970,
      "åĩ¤å§ĲåĲ¬äºĨ": 5971,
      "æ®·": 5972,
      "æĴĩ": 5973,
      "æĿİå¤©çİĭ": 5974,
      "usic": 5975,
      "è½¬è¿ĩ": 5976,
      "åĺ´éĩĮ": 5977,
      "ANT": 5978,
      "æĻļé¥Ń": 5979,
      "åĭ¿": 5980,
      "è¿Ļç§įéĹ®é¢ĺä¹Ł": 5981,
      "é¡»å¾Ĺ": 5982,
      "æŃĩæŃĩ": 5983,
      "çĶ·å¥³": 5984,
      "æ¹ĺäºĳéģĵ": 5985,
      "æīĵåıĳäºº": 5986,
      "æ½ľ": 5987,
      "èľĤ": 5988,
      "Ġbloody": 5989,
      "ç°ª": 5990,
      "Ġlooks": 5991,
      "ï¼ŁðŁĺı": 5992,
      "è¶ħçº§": 5993,
      "UMNIA": 5994,
      "éĺ¿å¼¥éĻĢ": 5995,
      "like": 5996,
      "å¦¥å½ĵ": 5997,
      "ches": 5998,
      "VOLUMNIA": 5999,
      "åĨ¯ç´«èĭ±": 6000,
      "ä¹¾åĿ¤": 6001,
      "POLIXEN": 6002,
      "éĺ¿å¼¥éĻĢä½Ľ": 6003,
      "POLIXENES": 6004,
      "GON": 6005,
      "Her": 6006,
      "rong": 6007,
      "up": 6008,
      "ues": 6009,
      "ä¸įç¦ģ": 6010,
      "è¯Ĭ": 6011,
      "Ġtem": 6012,
      "åĲ´": 6013,
      "æĪĳåĳ¢": 6014,
      "æĿ¥å¾Ģ": 6015,
      "èĢĢ": 6016,
      "ï¼ģ(ï¿£âĸ½ï¿£;)": 6017,
      "éĤ£å©ĨåŃĲ": 6018,
      "æľīä¸¤ä¸ª": 6019,
      "ï¼Ł(ï¿£": 6020,
      "Ġwin": 6021,
      "Ġwound": 6022,
      "çĿĢéĤ£": 6023,
      "éĩĮè¾¹": 6024,
      "å¤§å¤ªå¤ª": 6025,
      "å¤§è§Ĥ": 6026,
      "è§ģçļĦ": 6027,
      "å¾ĹæĪĳ": 6028,
      "Ġfire": 6029,
      "enger": 6030,
      "åº¶": 6031,
      "åĽŀèĩ³": 6032,
      "è¿ĺè¯´": 6033,
      "çŁ¥ä»ĸ": 6034,
      "æĶĢ": 6035,
      "å°ıåŃ©åŃĲ": 6036,
      "å®Ŀçİīä¾¿": 6037,
      "ä¸İåħ«æĪĴ": 6038,
      "ä¸ŃåĽ½": 6039,
      "çĥ«": 6040,
      "ç²Ĵ": 6041,
      "åĪĨæĺİ": 6042,
      "åĽĽäºĶ": 6043,
      "äºĨä¸Ģä¼ļ": 6044,
      "Ġyourself": 6045,
      "éĶ¡": 6046,
      "éĶ¤": 6047,
      "ï¼ŁðŁĴ¢": 6048,
      "æħ§": 6049,
      "ä»İåīį": 6050,
      "å¸¦é¢Ĩ": 6051,
      "å¿ħæľī": 6052,
      "ä¸ĩå²ģ": 6053,
      "çłĤ": 6054,
      "Ġsupp": 6055,
      "Ġspo": 6056,
      "Ġfaith": 6057,
      "åħ³å¿ĥ": 6058,
      "INGS": 6059,
      "åŁİä¸Ń": 6060,
      "è¿Ļä¸Ģåľº": 6061,
      "å®Įåħ¨": 6062,
      "åĮħåĭĩ": 6063,
      "åªĴ": 6064,
      "ĠServing": 6065,
      "å¾®å¾®": 6066,
      "å³»": 6067,
      "å¿ĥä¸ŃæļĹ": 6068,
      "Ġmaj": 6069,
      "éĤ£äººéģĵ": 6070,
      "STINGS": 6071,
      "å¯¡äºº": 6072,
      "Ġtraitor": 6073,
      "centio": 6074,
      "æĥ³äºĨä¸Ģæĥ³": 6075,
      "ä½ĵèĤ²èĢģå¸ĪæķĻ": 6076,
      "ĠServingman": 6077,
      "19": 6078,
      "RENCE": 6079,
      "Say": 6080,
      "bs": 6081,
      "broke": 6082,
      "éĬ": 6083,
      "Ġè¿Ļç§į": 6084,
      "ï¼ĮâĢľ": 6085,
      "ä¸įåĩºæĿ¥": 6086,
      "ä¸įè¯¥": 6087,
      "çļĦä¸«å¤´": 6088,
      "äººåıĤ": 6089,
      "è¿Ļè¡ĮèĢħ": 6090,
      "éĹº": 6091,
      "éĤ£ä¸«å¤´": 6092,
      "è§¦": 6093,
      "åİ»è¯·": 6094,
      "ä¹Łæľª": 6095,
      "rem": 6096,
      "åľ¨ç©ºä¸Ń": 6097,
      "åıªä¸º": 6098,
      "åıªèĥ½": 6099,
      "åĵĳ": 6100,
      "ä¾µ": 6101,
      "å®ĿæĿĸ": 6102,
      "èĢģåĦ¿": 6103,
      "å·¨": 6104,
      "Ġdru": 6105,
      "Ġlam": 6106,
      "å®Ŀçİīå¿Ļ": 6107,
      "ä¸İæ²Ļåĥ§": 6108,
      "æīįä¸įä¼ļ": 6109,
      "å°ĨåĨĽ": 6110,
      "åį´ä¸įæĺ¯": 6111,
      "åĽłè¯´": 6112,
      "ä¿Ĳ": 6113,
      "åĲİéĹ¨": 6114,
      "çĤ¸": 6115,
      "æ°´å¸ĺ": 6116,
      "æ¸´": 6117,
      "åĢĴæį¢": 6118,
      "æ±ª": 6119,
      "éĢģåİ»": 6120,
      "çģ«çĦ°": 6121,
      "essenger": 6122,
      "å¿µä¹¦": 6123,
      "èİ«æĥ³": 6124,
      "åĨĻäºĨ": 6125,
      "ä¿ĿåĶĲåĥ§": 6126,
      "éĨĭ": 6127,
      "ĠLAU": 6128,
      "ä½łæĺ¯åľ¨": 6129,
      "æĮīèĲ½": 6130,
      "éĻªçĿĢ": 6131,
      "éĻªç¬ĳéģĵ": 6132,
      "åı¯èĥ½æĺ¯": 6133,
      "Ġmark": 6134,
      "ç®įåĦ¿": 6135,
      "æ¡Įä¸Ĭ": 6136,
      "Ġcommon": 6137,
      "æĥŁæľī": 6138,
      "HASTINGS": 6139,
      "Ġchildren": 6140,
      "form": 6141,
      "ertain": 6142,
      "çŃĭæĸĹäºĳ": 6143,
      "æ¾¡": 6144,
      "Ġmistress": 6145,
      "ä¸įè¿ĩè¯´çľŁçļĦ": 6146,
      "å¼¼é©¬": 6147,
      "éĬ®": 6148,
      "ĠLAURENCE": 6149,
      "BY": 6150,
      "BER": 6151,
      "æĨ": 6152,
      "çļĦä¸į": 6153,
      "ä¸ĢæŃ¥": 6154,
      "åħģ": 6155,
      "ä»ĸæĢİä¹Ī": 6156,
      "å¦Ħ": 6157,
      "åıĪæĢķ": 6158,
      "å¥½å®¹æĺĵ": 6159,
      "æĭĤ": 6160,
      "è¡Įäºĭ": 6161,
      "Ġcond": 6162,
      "Ġleft": 6163,
      "ä¹ĭæģ©": 6164,
      "è¿ĺäºĨ": 6165,
      "å°ıäºĭ": 6166,
      "æłª": 6167,
      "äºĮåĵ¥": 6168,
      "è°¦": 6169,
      "æīĵçĿĢ": 6170,
      "æ²¡äºĭ": 6171,
      "èĦ¾": 6172,
      "ç¥Ł": 6173,
      "Ġbeat": 6174,
      "çľŁåĲĽ": 6175,
      "éĻĦ": 6176,
      "åĥ§äºº": 6177,
      "ï½ŀ(ï¿£âĸ½ï¿£": 6178,
      "çĤ®": 6179,
      "éĺĻ": 6180,
      "æ¸º": 6181,
      "ç»ıè¿ĩ": 6182,
      "é¸¦": 6183,
      "äº²åıĭ": 6184,
      "Ġrequ": 6185,
      "æıı": 6186,
      "ä½¿ä¸įå¾Ĺ": 6187,
      "çī©çĲĨ": 6188,
      "æĽ´åĬł": 6189,
      "Ġdef": 6190,
      "é¾Ł": 6191,
      "æĲ§": 6192,
      "ç¬¬ä¹Ŀ": 6193,
      "èµ¶æĿ¥": 6194,
      "åĵŃéģĵ": 6195,
      "ä¾ĿçĦ¶": 6196,
      "è¿ľè¿ĳ": 6197,
      "åı¤æĢª": 6198,
      "Ġval": 6199,
      "çģµéľĦ": 6200,
      "çļĨæĺ¯": 6201,
      "è·³åĩº": 6202,
      "çł´äºĨ": 6203,
      "ç½Ĺæ±ī": 6204,
      "Ġuncle": 6205,
      "é©¾äºĳ": 6206,
      "ä½łçľĭéĤ£": 6207,
      "åı²æ¹ĺäºĳ": 6208,
      "èľľ": 6209,
      "åĳĺå¤ĸ": 6210,
      "Therefore": 6211,
      "ä»ĹçĿĢ": 6212,
      "åİīå£°é«ĺåı«éģĵ": 6213,
      "ä½łè¯¥ä¸įä¼ļ": 6214,
      "Ġmajesty": 6215,
      "*)": 6216,
      "CLI": 6217,
      "FF": 6218,
      "Look": 6219,
      "Was": 6220,
      "äºĨåįĬæĹ¥": 6221,
      "ä¸įçŀĴ": 6222,
      "çļĦåĳ¢": 6223,
      "ä¸Ģçķª": 6224,
      "æĪĳçŁ¥éģĵ": 6225,
      "æĿ¥çľĭ": 6226,
      "éĤ»": 6227,
      "Ġaff": 6228,
      "Ġsin": 6229,
      "Ġmet": 6230,
      "åİ»çľĭ": 6231,
      "ä¹Łéļ¾": 6232,
      "è¡¬": 6233,
      "ä¸Ĭå¤©": 6234,
      "å¾Ĺå¥½": 6235,
      "æĥļ": 6236,
      "èĢģå¨ĺ": 6237,
      "èĢģå¸ĪçĪ¶": 6238,
      "æ¯¡": 6239,
      "Ġlate": 6240,
      "éĥ½æ²¡": 6241,
      "ä¾¿ä¸į": 6242,
      "ä¾¿åĲĳ": 6243,
      "Ġtold": 6244,
      "å¤©èī²": 6245,
      "åī²": 6246,
      "åĢ¦": 6247,
      "åĸ»": 6248,
      "æĹłä¸į": 6249,
      "ä»Ĭå¤©": 6250,
      "æĮ¤": 6251,
      "æŃ£è¯´": 6252,
      "åħ«åįģ": 6253,
      "å±±ä¸Ĭ": 6254,
      "æĻķ": 6255,
      "èį¤": 6256,
      "çĹĴ": 6257,
      "ä¸įçŁ¥ä½ķ": 6258,
      "åıĳçİ°": 6259,
      "ä¹Łä¸įæĽ¾": 6260,
      "äºĶè¡Į": 6261,
      "æ¡¶": 6262,
      "ä½¿åĶ¤": 6263,
      "Ġsoon": 6264,
      "å¦¹åŃĲ": 6265,
      "åįĬç©º": 6266,
      "æ¢¨": 6267,
      "æĢ¥äºĨ": 6268,
      "Ġseen": 6269,
      "æµ·æ£ł": 6270,
      "æľĿä¸Ĭ": 6271,
      "éĩįè¦ģ": 6272,
      "åĺ´èĦ¸": 6273,
      "ç§°ä¸º": 6274,
      "æļĹæļĹ": 6275,
      "æłĳä¸Ĭ": 6276,
      "æħĮå¿Ļ": 6277,
      "ç¾İäºº": 6278,
      "å°ıå¦ĸéģĵ": 6279,
      "Ġsave": 6280,
      "ï½ŀ(ï¿£âĸ½ï¿£)~*": 6281,
      "æ³¼çĮ´": 6282,
      "æī¶çĿĢ": 6283,
      "å®ģåºľ": 6284,
      "Ġdays": 6285,
      "è¿Ļç§įçĻ½çĹ´éĹ®é¢ĺä¹Ł": 6286,
      "UMBER": 6287,
      "THUMBER": 6288,
      "è¯·äºĨå®ī": 6289,
      "çĺ¦": 6290,
      "åĪ¤å®ĺ": 6291,
      "Ġwoe": 6292,
      "èªĵ": 6293,
      "ĠEngland": 6294,
      "NORTHUMBER": 6295,
      "Ġtender": 6296,
      "CLIFF": 6297,
      "NORTHUMBERLAND": 6298,
      "ID": 6299,
      "Take": 6300,
      "bed": 6301,
      "ever": 6302,
      "ring": 6303,
      "ten": 6304,
      "äºĨäºº": 6305,
      "äºĨä»ĸçļĦ": 6306,
      "äºĨå¤ļå°ĳ": 6307,
      "çļĦå¤§": 6308,
      "æĺ¯ä½ĵèĤ²èĢģå¸ĪæķĻ": 6309,
      "ä¸Ģå¿ĥ": 6310,
      "ä¸ĢåºĶ": 6311,
      "ä¸Ģåįĥ": 6312,
      "éĤ¦": 6313,
      "æī³": 6314,
      "éĹ¯": 6315,
      "Ġsight": 6316,
      "ï¼Ł(âķ¬ï¿£": 6317,
      "Ġmon": 6318,
      "ä¼ĺ": 6319,
      "åľ¨è¿Ļ": 6320,
      "åľ¨éĩĮéĿ¢": 6321,
      "è´¬": 6322,
      "è´¯": 6323,
      "è§ģæĺ¯": 6324,
      "å§»": 6325,
      "åıªé¡¾": 6326,
      "å¥½æĿĢ": 6327,
      "ç»§": 6328,
      "å°±è¯¥": 6329,
      "æĸĳ": 6330,
      "è¡Įç¤¼": 6331,
      "å·Ŀ": 6332,
      "åĽŀæĺİ": 6333,
      "è¿ĺèĥ½": 6334,
      "åĲ¬åĲ¬": 6335,
      "åīĬ": 6336,
      "åı¯æľī": 6337,
      "ä¸¤åı£": 6338,
      "æİ§": 6339,
      "äºĽä»Ģä¹Ī": 6340,
      "Ġgener": 6341,
      "åĲĥäºĨä¸Ģ": 6342,
      "åį´æĢİä¹Ī": 6343,
      "åįģä¸ĩ": 6344,
      "èµ°åĩº": 6345,
      "å±±éĹ¨": 6346,
      "çĪ·ä»¬": 6347,
      "åĩłå¤©": 6348,
      "éĩĳçĿĽ": 6349,
      "çĮ©": 6350,
      "è¯·éĹ®": 6351,
      "éĤ£éĩĮçŁ¥éģĵ": 6352,
      "çĹ°": 6353,
      "ä¹Łä¸įå¥½": 6354,
      "è¢«æĪĳ": 6355,
      "ides": 6356,
      "idow": 6357,
      "èĮ«": 6358,
      "èħĲ": 6359,
      "æ¢¢": 6360,
      "æ¶¦": 6361,
      "æ¶²": 6362,
      "ä¸ĩæľĽ": 6363,
      "Ġdoes": 6364,
      "å¾ħè¦ģ": 6365,
      "è¿ľè¿ľ": 6366,
      "åħ¨æĹł": 6367,
      "å¡«": 6368,
      "æİ¢æĺ¥ç¬ĳéģĵ": 6369,
      "æŃĩæģ¯": 6370,
      "åĶ¬å¾ĹéĤ£": 6371,
      "åĮĹéĿĻ": 6372,
      "Though": 6373,
      "ä¸«é¬Łä»¬": 6374,
      "ä½łèĦĳåŃĲæĺ¯ä¸įæĺ¯è¿Ľæ°´äºĨ": 6375,
      "çĭ®åŃĲ": 6376,
      "è§ĤéŁ³èı©èĲ¨": 6377,
      "å¤§æĥĬéģĵ": 6378,
      "Ġreturn": 6379,
      "Ġmercy": 6380,
      "Ġfarewell": 6381,
      "ac": 6382,
      "dom": 6383,
      "mp": 6384,
      "nÉ¡": 6385,
      "~)": 6386,
      "ĠAN": 6387,
      "ĻèĮĹ": 6388,
      "äºĨåķĬ": 6389,
      "äºĨä¸įå¾Ĺ": 6390,
      "ä¸įå®¹": 6391,
      "æĪĳéĤ£": 6392,
      "hes": 6393,
      "ä½łæĺ¯ä¸ª": 6394,
      "æī¹": 6395,
      "æľīäºĶ": 6396,
      "Ġsit": 6397,
      "Ġsad": 6398,
      "è§ħ": 6399,
      "rel": 6400,
      "åľ¨æĪĳ": 6401,
      "åľ¨æ°´": 6402,
      "åĳľ": 6403,
      "å¤§çº¢": 6404,
      "æĬĢ": 6405,
      "ä¸ĭéĽ¨": 6406,
      "å¤ªå¤ļ": 6407,
      "ä¹ĭç½ª": 6408,
      "åĽŀæĪ¿": 6409,
      "çĽ¼": 6410,
      "å¿ĥçĮ¿": 6411,
      "è¿ĺæĪĳ": 6412,
      "å°ıè¯´": 6413,
      "å°ıçº¢": 6414,
      "çŃīä»ĸ": 6415,
      "çĦĻèĮĹ": 6416,
      "æĢİæķ¢": 6417,
      "ä»Ĭå¤ľ": 6418,
      "çľŁç»ı": 6419,
      "å°Ĩèº«ä¸Ģ": 6420,
      "éĻ·": 6421,
      "æŃ£èĩª": 6422,
      "ï½ŀ(ï¿£^ï¿£)": 6423,
      "åĮł": 6424,
      "å¨ĺåĦ¿": 6425,
      "åĨįä¸į": 6426,
      "èĤ¤": 6427,
      "å¼Ģåı£": 6428,
      "å¥³çİĭ": 6429,
      "åį³æĹ¶": 6430,
      "ç¼º": 6431,
      "åħīæĺİ": 6432,
      "åĬ¨äºĨ": 6433,
      "åĬ¨æīĭ": 6434,
      "Ġdeep": 6435,
      "å¿«å¿«": 6436,
      "ä¸įè¿ĩåĺĽ": 6437,
      "æĴĤ": 6438,
      "æ¯Ķä¸ĺ": 6439,
      "é¬ĵ": 6440,
      "æ´ŀä¸Ń": 6441,
      "åħ¶ä»ĸ": 6442,
      "ters": 6443,
      "çªŁ": 6444,
      "æľįäºĨä½ł": 6445,
      "è±ª": 6446,
      "éĥģ": 6447,
      "æ¹¿": 6448,
      "å«©": 6449,
      "çķĻå¿ĥ": 6450,
      "æľīä¸Ģåº§": 6451,
      "è¿Ļä¸Ģåİ»": 6452,
      "è·ĳäºĨ": 6453,
      "Ġgold": 6454,
      "è®¡è¾ĥ": 6455,
      "éģĩçĿĢ": 6456,
      "å·§å§Ĳ": 6457,
      "èĥĮåĲİ": 6458,
      "æºª": 6459,
      "ç¿»èº«": 6460,
      "unes": 6461,
      "Ġmarry": 6462,
      "Ġheavy": 6463,
      "èĪħèĪħ": 6464,
      "Ġfoot": 6465,
      "Ġwarrant": 6466,
      "ĠJul": 6467,
      "çº·çº·": 6468,
      "Ġpurpose": 6469,
      "ä½łèĢģäººå®¶": 6470,
      "Ġthrough": 6471,
      "å¦Ĥæŀľä½łçľŁçļĦ": 6472,
      "ä¼¶ä¿Ĳ": 6473,
      "èļĬåŃĲ": 6474,
      "Ġdanger": 6475,
      "æľīè¯Ĺä¸ºè¯ģ": 6476,
      "æĺ¯ä½ĵèĤ²èĢģå¸ĪæķĻçļĦåĲĹ": 6477,
      "ĠANNE": 6478,
      "Ah": 6479,
      "Did": 6480,
      "Give": 6481,
      "PR": 6482,
      "aim": 6483,
      "ict": 6484,
      "mer": 6485,
      "so": 6486,
      "und": 6487,
      "vent": 6488,
      "Ġill": 6489,
      "çļĦéĤ£": 6490,
      "æĪª": 6491,
      "æĺ¯ä¸į": 6492,
      "å®ĭ": 6493,
      "éģĵæķĻ": 6494,
      "æĪĳèĢģåŃĻ": 6495,
      "æĪĳåĴĮä½ł": 6496,
      "ä½łå¥½": 6497,
      "è¿Ļä»¶äºĭ": 6498,
      "å¥ĸ": 6499,
      "æľīå¤ļ": 6500,
      "åį¯": 6501,
      "çĶ³": 6502,
      "åıĪä¸įå¥½": 6503,
      "å¥½ä¸ª": 6504,
      "å¥½å§Ĳå§Ĳ": 6505,
      "å°±ä¼ļ": 6506,
      "å®Ŀå§ĳå¨ĺ": 6507,
      "å®ĿåħĦå¼Ł": 6508,
      "å¤´çļĦ": 6509,
      "çĪĨ": 6510,
      "å·¢": 6511,
      "Ġcho": 6512,
      "Ġcold": 6513,
      "ĠĠĊ": 6514,
      "Ġnurse": 6515,
      "çŃĸ": 6516,
      "åºı": 6517,
      "åĽŀçŃĶ": 6518,
      "éĢŀ": 6519,
      "Ġtogether": 6520,
      "å¤©åħµ": 6521,
      "Ġgrow": 6522,
      "æ²¡ä¸ª": 6523,
      "ä¸İéĤ£": 6524,
      "æīįä¼ļ": 6525,
      "çľŁæŃ£": 6526,
      "å°ĨæŃ¤": 6527,
      "éļľ": 6528,
      "èº«è¾¹": 6529,
      "åįģåĽĽ": 6530,
      "æĻ¶": 6531,
      "ä¸Ķèİ«": 6532,
      "è¿Ļç§įäºĭæĥħ": 6533,
      "èĭ¥è®º": 6534,
      "ours": 6535,
      "æŀľæĺ¯": 6536,
      "åıĺäºĨ": 6537,
      "å¾ĢåĲİ": 6538,
      "å²³": 6539,
      "åĽ½å®¶": 6540,
      "æ¡Ĳ": 6541,
      "æıĸ": 6542,
      "ä½Ĩåıªæĺ¯": 6543,
      "åĲĦèī²": 6544,
      "ä¸»åħ¬": 6545,
      "ä»Ļæ°Ķ": 6546,
      "è£Ĥ": 6547,
      "èħĶ": 6548,
      "éľŃ": 6549,
      "ifford": 6550,
      "ç¬¬ä¸ĥ": 6551,
      "ç¬¬äºĮåįģ": 6552,
      "çŁ¥éģĵçļĦ": 6553,
      "æ¸ħé£İ": 6554,
      "Ġsure": 6555,
      "earn": 6556,
      "æī¾å¯»": 6557,
      "å¹³åĦ¿ç¬ĳéģĵ": 6558,
      "è¿ĻäºĽè¯Ŀ": 6559,
      "ç«ĭåĪ»": 6560,
      "åĬŀæ³ķ": 6561,
      "æŃ£æĺ¯éĤ£": 6562,
      "ä»£åĦĴ": 6563,
      "ç´«é¹ĥéģĵ": 6564,
      "ä¾įç«ĭ": 6565,
      "å¯ºéĩĮ": 6566,
      "èĳ¬": 6567,
      "æĸ½ä¸»": 6568,
      "å¹¸äºı": 6569,
      "åĪĺå§¥å§¥éģĵ": 6570,
      "ä¸Īå¤«": 6571,
      "CAPULET": 6572,
      "ignior": 6573,
      "INCE": 6574,
      "Ġdeser": 6575,
      "ments": 6576,
      "æĻºåķĨ": 6577,
      "çĭĤé£İ": 6578,
      "çº¢äºĨèĦ¸": 6579,
      "åĬªåĬĽ": 6580,
      "é²įäºĮ": 6581,
      "å¤§è§ĤåĽŃ": 6582,
      "å¼¼é©¬æ¸©": 6583,
      "PRINCE": 6584,
      "az": 6585,
      "aid": 6586,
      "ca": 6587,
      "oint": 6588,
      "ĠæĪĳæīį": 6589,
      "ĠåĨįè¯´äºĨ": 6590,
      "çļĦå¾Ī": 6591,
      "è¯§": 6592,
      "Ġtimes": 6593,
      "ä¸Ģåıĳ": 6594,
      "ä¸Ģåı¥è¯Ŀ": 6595,
      "æĪĳå·²": 6596,
      "ä»ĸä¸į": 6597,
      "oriol": 6598,
      "ç»®": 6599,
      "èĩĤ": 6600,
      "èĢģå¬·å¬·": 6601,
      "å¿ĥçļĦ": 6602,
      "è¿ĺæľª": 6603,
      "åĪ°ä»ĸ": 6604,
      "åı«äºĨ": 6605,
      "çŃīåĢĻ": 6606,
      "ingbroke": 6607,
      "æĥ³å¿ħ": 6608,
      "çīĪ": 6609,
      "åĿĬ": 6610,
      "åĶ§": 6611,
      "èº«æ³ķ": 6612,
      "ceed": 6613,
      "è½©": 6614,
      "èĥ½å¤Ł": 6615,
      "æĢİä¹ĪåıĪ": 6616,
      "åĪ«è¯´": 6617,
      "Ġwithout": 6618,
      "enty": 6619,
      "æ£º": 6620,
      "åıĺåģļä¸ª": 6621,
      "æ»¢": 6622,
      "è·¯æĹģ": 6623,
      "çľ¼èī²": 6624,
      "åĵ¥åĳµ": 6625,
      "Ġask": 6626,
      "åĬ¨çī©": 6627,
      "ross": 6628,
      "åĲĳåīį": 6629,
      "åĮĸæĸĭ": 6630,
      "ush": 6631,
      "çľŁæĺ¯è®©äºº": 6632,
      "å¹¶ä¸įæĺ¯": 6633,
      "æ»¡éĿ¢": 6634,
      "Ġlost": 6635,
      "æķĳæĪĳ": 6636,
      "æĺŁå®ĺ": 6637,
      "é¼ĭ": 6638,
      "ä¼¤äºĨ": 6639,
      "æ®¿ä¸ĭ": 6640,
      "arewell": 6641,
      "olingbroke": 6642,
      "æĺ¨å¤ľ": 6643,
      "èĩªçĦ¶æĺ¯": 6644,
      "é¡¶ä¸Ĭ": 6645,
      "Ġpluck": 6646,
      "èĿī": 6647,
      "èķĻ": 6648,
      "åļ·éģĵ": 6649,
      "çĸĳæĥĳ": 6650,
      "çªĹå¤ĸ": 6651,
      "æĮĳçĿĢ": 6652,
      "æ£įåŃĲ": 6653,
      "çĹĽåĵŃ": 6654,
      "ãĥĺ": 6655,
      "æ¢ħèĬ±": 6656,
      "å½¼æŃ¤": 6657,
      "Ġreport": 6658,
      "Ġliege": 6659,
      "One": 6660,
      "æľīéĹ®é¢ĺåķĬ": 6661,
      "ä¸ŀçĽ¸": 6662,
      "Ġbelieve": 6663,
      "Ġspirit": 6664,
      "ling": 6665,
      "xt": 6666,
      "ä¸įæĶ¾": 6667,
      "ä¸įç»Ŀ": 6668,
      "æĿĨ": 6669,
      "ä¸ĢäºĮ": 6670,
      "æĪĳåı¯": 6671,
      "æĪĳèĭ¥": 6672,
      "æĪĳå¦Ĥä»Ĭ": 6673,
      "ä½łæĬĬ": 6674,
      "åŃķ": 6675,
      "è¿Ļåľº": 6676,
      "Ġair": 6677,
      "Ġage": 6678,
      "éĤ£å¥³åŃĲ": 6679,
      "outh": 6680,
      "å¿Ĩ": 6681,
      "Ġwat": 6682,
      "åİ»åĳ¢": 6683,
      "ä¹Łç®Ĺ": 6684,
      "çĿĢä½ł": 6685,
      "åĳĪ": 6686,
      "å¤§éĹ¹å¤©å®«": 6687,
      "ç»¢": 6688,
      "è®Ń": 6689,
      "ç¬ĳè¯´éģĵ": 6690,
      "åĴ§": 6691,
      "ä¹ĭåīį": 6692,
      "ä¾¿æĬĬ": 6693,
      "è¿ĺå¥½": 6694,
      "è¿ĩåİ»äºĨ": 6695,
      "æŀĦ": 6696,
      "å°ıåĴĮå°ļ": 6697,
      "Ġheir": 6698,
      "ðŁ¤": 6699,
      "æĹłåı¯": 6700,
      "æĹłè¯Ń": 6701,
      "åĶ¿": 6702,
      "çĤŃ": 6703,
      "ets": 6704,
      "æĺİæľĪ": 6705,
      "èĪŁ": 6706,
      "æĪĲç²¾": 6707,
      "åŃĻåŃĲ": 6708,
      "ç©ºåĦ¿": 6709,
      "æĹ©æľī": 6710,
      "äº²å®¶": 6711,
      "éĢģæĿ¥": 6712,
      "å®īåħ¨": 6713,
      "èħ»": 6714,
      "ains": 6715,
      "Ġthyself": 6716,
      "çĿ¡ä¸ĭ": 6717,
      "ift": 6718,
      "æ»¡å¿ĥ": 6719,
      "é½Ĳæķ´": 6720,
      "Ġloss": 6721,
      "çªį": 6722,
      "çĮ´åĦ¿": 6723,
      "ä½ĵéĿ¢": 6724,
      "é»Ħéĩĳ": 6725,
      "ĠMont": 6726,
      "çĨı": 6727,
      "ãĢĢãĢĢ": 6728,
      "Ġsays": 6729,
      "ĠBolingbroke": 6730,
      "å°Ĭéĩį": 6731,
      "ä»įæĺ¯": 6732,
      "åıĸç»ıçļĦ": 6733,
      "èħ°éĹ´": 6734,
      "èµĮæĸĹ": 6735,
      "èĤļéĩĮ": 6736,
      "Whose": 6737,
      "ä¼¯éĴ¦": 6738,
      "èĢģéŃĶéģĵ": 6739,
      "æ¨µåŃĲ": 6740,
      "Ġstrange": 6741,
      "åİķæīĢ": 6742,
      "æ°´å¸ĺæ´ŀ": 6743,
      "è¯§å¼Ĥ": 6744,
      "00": 6745,
      "ALO": 6746,
      "Had": 6747,
      "ial": 6748,
      "no": 6749,
      "ner": 6750,
      "Ġä½łä»¥ä¸º": 6751,
      "Ġä¸ĭæ¬¡": 6752,
      "ä¸įè¨Ģ": 6753,
      "ä¸įè¶³": 6754,
      "ä¸įå¦¨": 6755,
      "è¯¦": 6756,
      "ä¸ĢåıĮ": 6757,
      "æĪĳèĻ½": 6758,
      "ä½łå¸ĪçĪ¶": 6759,
      "ä»ĸéģĵ": 6760,
      "ä»ĸè¿Ļ": 6761,
      "åįľ": 6762,
      "åİ»åĲİ": 6763,
      "Ġbat": 6764,
      "æĬļ": 6765,
      "ç»´": 6766,
      "Ġcry": 6767,
      "Ġlearn": 6768,
      "çľĭå¾Ĺ": 6769,
      "ä¹ĭçĲĨ": 6770,
      "å¤©éĹ¨": 6771,
      "å¤©å¸Ī": 6772,
      "è¿ĺåľ¨": 6773,
      "åĢª": 6774,
      "äºĮå¤«äºº": 6775,
      "ä¸¤åı¥": 6776,
      "çº¯": 6777,
      "æ³°": 6778,
      "æ³Ľ": 6779,
      "ç¥ł": 6780,
      "æŃ£å¥½": 6781,
      "åĥ§éģĵ": 6782,
      "ä¿¯": 6783,
      "ced": 6784,
      "åĮ¾": 6785,
      "ä½ķæĽ¾": 6786,
      "çĤĴ": 6787,
      "èĻĶ": 6788,
      "ä½ľè¯Ĺ": 6789,
      "ä¸Ķä¼ĳ": 6790,
      "åĽĽåŃĹ": 6791,
      "åı£ä¸Ń": 6792,
      "èĬ±åĽŃ": 6793,
      "åĵ¼åĵ¼": 6794,
      "éħ¥": 6795,
      "è¢«äºº": 6796,
      "åħĪéĶĭ": 6797,
      "æīĢè°ĵ": 6798,
      "å§ĳå¥¶å¥¶": 6799,
      "ä»İå°ıåĦ¿": 6800,
      "æľªçŁ¥": 6801,
      "æ¯Ķä¸įå¾Ĺ": 6802,
      "å¿µä½Ľ": 6803,
      "å¤ľéĩĮ": 6804,
      "Ġsuff": 6805,
      "å¿½åĲ¬": 6806,
      "å¿½åĲ¬å¾Ĺ": 6807,
      "èŁĴ": 6808,
      "éĹ¹çļĦ": 6809,
      "åİŁæĿ¥è¿Ļ": 6810,
      "ä»¤äºº": 6811,
      "ç±į": 6812,
      "æĸ°é²ľ": 6813,
      "ç¬¨èĽĭåĳ¢": 6814,
      "æĵŀ": 6815,
      "åħĥå¦ĥ": 6816,
      "åĤ²": 6817,
      "éĤ¢çİĭ": 6818,
      "aking": 6819,
      "éĺ´åı¸": 6820,
      "èĨĿ": 6821,
      "æ¬¢åĸľéģĵ": 6822,
      "Ġears": 6823,
      "ï¼Łï¼ģ(âķ¬ï¿£": 6824,
      "Ġhaste": 6825,
      "å¹Įä¸Ģ": 6826,
      "è¯´ä¸įäºĨ": 6827,
      "çīµé©¬": 6828,
      "ĠClifford": 6829,
      "Ġentreat": 6830,
      "æĭľä½Ľæ±Ĥç»ı": 6831,
      "æĬ½èº«": 6832,
      "Ġdevil": 6833,
      "Ġground": 6834,
      "Should": 6835,
      "Ġperson": 6836,
      "åĮĹéĿĻçİĭ": 6837,
      "ĠJuliet": 6838,
      "Like": 6839,
      "Wh": 6840,
      "__": 6841,
      "ges": 6842,
      "night": 6843,
      "ç¹": 6844,
      "è¿¦": 6845,
      "ä¸įå°±": 6846,
      "ä¸įå·²": 6847,
      "ä¸įåĥı": 6848,
      "çļĦæ°´": 6849,
      "ä¸Ģç§į": 6850,
      "ä¸Ģçīĩ": 6851,
      "æľ¦": 6852,
      "äººå¤ļ": 6853,
      "åĪĽ": 6854,
      "Ġmur": 6855,
      "ined": 6856,
      "è¡°": 6857,
      "åľ¨é©¬ä¸Ĭ": 6858,
      "æķĸ": 6859,
      "ç»ĩ": 6860,
      "Ġfly": 6861,
      "ä¾¿å®ľ": 6862,
      "Ġtoward": 6863,
      "Ġpast": 6864,
      "æĹ¥åĲİ": 6865,
      "ä¸īæĹ¥": 6866,
      "çŃīçī©": 6867,
      "è¯ĿæĿ¥": 6868,
      "oman": 6869,
      "æīĵå¾Ĺ": 6870,
      "æĹłè¯Ŀ": 6871,
      "è¢ľ": 6872,
      "æĥ³æĥ³": 6873,
      "æĬĬåĶĲåĥ§": 6874,
      "ç«º": 6875,
      "çĶŁçī©": 6876,
      "åįģæĿ¥": 6877,
      "èµ°èµ°": 6878,
      "let": 6879,
      "æĸ¹åı¯": 6880,
      "ä½ķä¹Ł": 6881,
      "ä¼Ĺå¦ĸ": 6882,
      "åĢĴè±¡": 6883,
      "å½ĵéĿ¢": 6884,
      "è¥¿åİ»": 6885,
      "ç²¥": 6886,
      "è¿Ļç§įæĹłèģĬ": 6887,
      "æŃ»æ´»": 6888,
      "æĪĲåĬŁ": 6889,
      "åħĪåīį": 6890,
      "æĥħæĦ¿": 6891,
      "æĳĶ": 6892,
      "éĢģä»ĸ": 6893,
      "å®īæħ°": 6894,
      "æ¡©": 6895,
      "è£°": 6896,
      "å¿ħè¦ģ": 6897,
      "å¿ħçĦ¶": 6898,
      "åįĥå¹´": 6899,
      "åŃ¦çĶŁ": 6900,
      "ä¸ĸå¾·": 6901,
      "âĢĻãĢĤâĢĿ": 6902,
      "ä¸ĢéĿ¢åıĪ": 6903,
      "çĽ´è£°": 6904,
      "ç®Ĺè®¡": 6905,
      "Ġfast": 6906,
      "Ġvis": 6907,
      "å¤§å®¶éĥ½": 6908,
      "aud": 6909,
      "ĠLu": 6910,
      "å¡Į": 6911,
      "å¤±äºĨ": 6912,
      "åĬĿéģĵ": 6913,
      "åĤį": 6914,
      "çĥ§äºĨ": 6915,
      "æ¥¼ä¸Ĭ": 6916,
      "è¹¬": 6917,
      "Ġpoint": 6918,
      "Ġfriar": 6919,
      "Ġdisp": 6920,
      "ç°¿": 6921,
      "è´¤å¼Ł": 6922,
      "Ġslain": 6923,
      "Ġbetw": 6924,
      "æĬĸæĵŀ": 6925,
      "ĠFrance": 6926,
      "æªĢ": 6927,
      "åħħçĶµ": 6928,
      "ixt": 6929,
      "Ġjustice": 6930,
      "æĺ¼å¤ľ": 6931,
      "è¦ģä¸įè¦ģæĪĳ": 6932,
      "éŃıå¾ģ": 6933,
      "Ġstraight": 6934,
      "Ġremember": 6935,
      "åĢĴæį¢åħ³æĸĩ": 6936,
      "ä¸ĸå¾·åłĤ": 6937,
      "APULET": 6938,
      "FL": 6939,
      "FID": 6940,
      "IZ": 6941,
      "May": 6942,
      "Some": 6943,
      "Ġord": 6944,
      "Ġåį´è¯´": 6945,
      "ãĢĤ\"": 6946,
      "æĺ§": 6947,
      "ä¸įå®ī": 6948,
      "ä¸įè¿ľ": 6949,
      "æĺ¯çĶ¨æĿ¥": 6950,
      "æĿľ": 6951,
      "ä½łä¸įä¼ļ": 6952,
      "ä»ĸä¹Łä¸į": 6953,
      "éĤ£ä¸įæĺ¯": 6954,
      "æľīæĹ¶": 6955,
      "Ġsil": 6956,
      "ina": 6957,
      "ä¹Łè¿ĺ": 6958,
      "Ġbold": 6959,
      "ä¸ĬçķĮ": 6960,
      "è§ģäºº": 6961,
      "è§ģå¾Ĺ": 6962,
      "åĦ¿éģĵ": 6963,
      "å¾Ĺä½ı": 6964,
      "æķķ": 6965,
      "å¥½äºĭ": 6966,
      "æĭĻ": 6967,
      "å®Ŀåīĳ": 6968,
      "èĢģéģĵ": 6969,
      "Ġcurse": 6970,
      "Ġnear": 6971,
      "çľĭéĤ£": 6972,
      "å¤©ç«º": 6973,
      "çİĭçĪ·": 6974,
      "è¾£": 6975,
      "åĿĳ": 6976,
      "åį´å¥½": 6977,
      "èµ°èĩ³": 6978,
      "ution": 6979,
      "æµ´": 6980,
      "çĤİ": 6981,
      "éķ¿çļĦ": 6982,
      "åĪĨéĴŁ": 6983,
      "äºĨä¸Ģè·³": 6984,
      "æį±": 6985,
      "åģļçļĦ": 6986,
      "çĻ½çİī": 6987,
      "æľ¬èº«": 6988,
      "åĸľçļĦ": 6989,
      "Ġstrong": 6990,
      "äºĶæĽ´": 6991,
      "åį³å°Ĩ": 6992,
      "éĢģåĪ°": 6993,
      "These": 6994,
      "åıĸç¬ĳ": 6995,
      "ä½¿çĶ¨": 6996,
      "åĳĬéģĵ": 6997,
      "åįĬå¤©": 6998,
      "é¾Ħ": 6999,
      "å®ĿéĴĹçŃī": 7000,
      "çłĮ": 7001,
      "é£ŀæľº": 7002,
      "çĬ¯äºĨ": 7003,
      "ä¾ĿæĹ§": 7004,
      "ĠCAPULET": 7005,
      "ORIZ": 7006,
      "åıįæŃ£": 7007,
      "æ¯ıäºº": 7008,
      "ç¨»": 7009,
      "å¢ŀ": 7010,
      "çĨĬ": 7011,
      "æĸĭåĥ§": 7012,
      "èĦ±èº«": 7013,
      "åħĥå¸ħ": 7014,
      "æŀľçĦ¶æĺ¯": 7015,
      "Ġworthy": 7016,
      "æĢ»æĺ¯": 7017,
      "Ġquick": 7018,
      "è´¾çıįéģĵ": 7019,
      "èĥĮåľ°éĩĮ": 7020,
      "èĳĽ": 7021,
      "å¯¿æĺŁ": 7022,
      "é²ģ": 7023,
      "AUFID": 7024,
      "éĺ´éĺ³": 7025,
      "entleman": 7026,
      "Ġtrust": 7027,
      "é¥®é£Ł": 7028,
      "Ġalone": 7029,
      "åĳĨåĳĨ": 7030,
      "Ġdesire": 7031,
      "åľŁåľ°éģĵ": 7032,
      "è¯´ä¸įå®ļ": 7033,
      "ä¼Ĺåĥ§éģĵ": 7034,
      "å¸ĸåĦ¿": 7035,
      "è¿Ļåĩłå¹´": 7036,
      "åİīå®³": 7037,
      "åı©å¤´éģĵ": 7038,
      "è¡ĻéĹ¨": 7039,
      "âĢ¦âĢ¦âĢĿ": 7040,
      "Ġinstru": 7041,
      "Ġbeauty": 7042,
      "æĻ¦æ°Ķ": 7043,
      "Ġservice": 7044,
      "ç¹ģ": 7045,
      "FLORIZ": 7046,
      "AUFIDIUS": 7047,
      "FLORIZEL": 7048,
      "Can": 7049,
      "SE": 7050,
      "Tell": 7051,
      "VER": 7052,
      "gs": 7053,
      "ning": 7054,
      "ship": 7055,
      "with": 7056,
      "ä¸²": 7057,
      "ä¸įæ¸ħ": 7058,
      "ä¸įæıĲ": 7059,
      "ä¸įå¿į": 7060,
      "æĺ¯äºĨ": 7061,
      "Ġtouch": 7062,
      "ä¸Ģæ¬¡": 7063,
      "ä¸Ģä¼ļåŃĲ": 7064,
      "æĪĳåĲĥ": 7065,
      "æĿ¥éĹ®": 7066,
      "ä½łä¸Ģ": 7067,
      "è¿ĻæŃ£æĺ¯": 7068,
      "ä»ĸåľ¨": 7069,
      "ä»ĸè¿ĺ": 7070,
      "ä»ĸåĢĴ": 7071,
      "éĤ£åħ«æĪĴ": 7072,
      "è¯´æĿ¥": 7073,
      "è¯´äºĨä¸Ģéģį": 7074,
      "å¾Ĺèĥľ": 7075,
      "ç»¦": 7076,
      "ç»¸": 7077,
      "å°±è¯´": 7078,
      "Ġfound": 7079,
      "ithe": 7080,
      "ä¹ĭä¸Ń": 7081,
      "ä¾¿ç¬ĳéģĵ": 7082,
      "ï¿£ï¼ī": 7083,
      "ĠIs": 7084,
      "èĩªæĺ¯": 7085,
      "èĩªåı¤": 7086,
      "æĹłæ³ķ": 7087,
      "çľŁåģĩ": 7088,
      "åĿŁ": 7089,
      "æŃ£æ¬²": 7090,
      "åħ«çĻ¾": 7091,
      "å±±ç¥ŀ": 7092,
      "ä¼Ĺå®ĺ": 7093,
      "æ¸Ķ": 7094,
      "æĦıæ¬²": 7095,
      "å¤ĸåħ¬": 7096,
      "èĲ§": 7097,
      "åİŁèº«": 7098,
      "çĤ¹åŃĲ": 7099,
      "adam": 7100,
      "å¾ĢéĩĮ": 7101,
      "åĨħæľī": 7102,
      "é«ĺå±±": 7103,
      "Ġready": 7104,
      "è¿ŀæĹ¥": 7105,
      "å©´": 7106,
      "ION": 7107,
      "åıªè§ģä¸Ģä¸ª": 7108,
      "ä½Ĩä¸įçŁ¥": 7109,
      "æĲĤ": 7110,
      "å¿«æĹ©": 7111,
      "æĴŃ": 7112,
      "åħ¥æľĿ": 7113,
      "æĪĸæĺ¯": 7114,
      "ä¸ĩéĩĮ": 7115,
      "ç¢Ł": 7116,
      "ç³ķ": 7117,
      "åĸĿéħĴ": 7118,
      "è¿ĳæĿ¥": 7119,
      "è¿Ļä¹Īå¤§": 7120,
      "åİŁæĿ¥éĤ£": 7121,
      "çĶµè§Ĩ": 7122,
      "è¯´è¯ĿåĦ¿": 7123,
      "æĵİ": 7124,
      "Ġbrought": 7125,
      "æ´Ĺæ¾¡": 7126,
      "éĿŀå¸¸": 7127,
      "ured": 7128,
      "ï¼ŁðŁ¤Ń": 7129,
      "è®¾è®¡": 7130,
      "èĿ¶": 7131,
      "ç¯·": 7132,
      "Ġposs": 7133,
      "æĺİçĻ½äºĨ": 7134,
      "æŃ¦èīº": 7135,
      "è¿Ļç§įçĻ½çĹ´éĹ®é¢ĺä¹ŁæĿ¥éĹ®æĪĳ": 7136,
      "ĠTybalt": 7137,
      "åĨ²æĴŀ": 7138,
      "åİħä¸Ĭ": 7139,
      "Ġrun": 7140,
      "æį»çĿĢ": 7141,
      "Ġhard": 7142,
      "ä¸Ģåıªæīĭ": 7143,
      "æ¸Ĳæ¸ĲçļĦ": 7144,
      "éĴµçĽĤ": 7145,
      "Ġenemy": 7146,
      "çļĪä¾Ŀ": 7147,
      "Ġrevenge": 7148,
      "æĮīèĲ½äºĳå¤´": 7149,
      "Ġgeneral": 7150,
      "éĤ¢çİĭäºĮå¤«äºº": 7151,
      "audio": 7152,
      "!'": 7153,
      "Ha": 7154,
      "ible": 7155,
      "vo": 7156,
      "»çĴĥ": 7157,
      "ï¾": 7158,
      "ĠHere": 7159,
      "äºĨä¹Ī": 7160,
      "è¿ģ": 7161,
      "ä½©": 7162,
      "ä¸įé¡»": 7163,
      "çļĦæĿ¥": 7164,
      "çļĦä¸Ģä¸ª": 7165,
      "æĺ¯çĶļä¹Ī": 7166,
      "åĲ¼": 7167,
      "åĲı": 7168,
      "æĪĳåİŁ": 7169,
      "ä½łæĪĳ": 7170,
      "ä½łåıªç®¡": 7171,
      "ä»ĸå®¶": 7172,
      "çİ»çĴĥ": 7173,
      "åĪĴ": 7174,
      "å¦Ĵ": 7175,
      "Ġwoo": 7176,
      "åİ»æī¾": 7177,
      "èµİ": 7178,
      "ä¸ĬæĪ¿": 7179,
      "å¤§èĥĨ": 7180,
      "è§ģè´¾æ¯į": 7181,
      "ç»ĥ": 7182,
      "ä¸ĭäºĳå¤´": 7183,
      "èĢģèĻİ": 7184,
      "çİīéĴıåĦ¿": 7185,
      "è®ª": 7186,
      "Ġduty": 7187,
      "enator": 7188,
      "åºĵ": 7189,
      "éĥ½éģĵ": 7190,
      "ä¹ĭæĥħ": 7191,
      "ä¹ĭéĻħ": 7192,
      "ä¾¿ç½¢": 7193,
      "éĿ´": 7194,
      "è·¨": 7195,
      "æł½": 7196,
      "ä¸¤äºº": 7197,
      "Ġgrant": 7198,
      "æ²¡å¥Īä½ķ": 7199,
      "æĹłæķ°": 7200,
      "æ³³": 7201,
      "çĶŁäºĭ": 7202,
      "çľŁè¨Ģ": 7203,
      "éĻĨ": 7204,
      "æŃ£è¡Į": 7205,
      "Ġinf": 7206,
      "cept": 7207,
      "ä½ķäºĭ": 7208,
      "åĩłæ¬¡": 7209,
      "åĩłä¹İ": 7210,
      "æĭ¿ä½ł": 7211,
      "èĤĥ": 7212,
      "åģļæ¢¦": 7213,
      "è´¾æ¯įåĲ¬äºĨ": 7214,
      "Ġitself": 7215,
      "éĹ®é¢ĺéĹ®å¾Ĺ": 7216,
      "å¾ĢéĤ£éĩĮåİ»": 7217,
      "éĶĢ": 7218,
      "ç»ĻäºĨ": 7219,
      "åį³ä¾¿": 7220,
      "åį³åĪ»": 7221,
      "ä»İæĿ¥": 7222,
      "ä½¿äºº": 7223,
      "ç¾¡": 7224,
      "éľİ": 7225,
      "æĪĸæľī": 7226,
      "amill": 7227,
      "è¯´çĿĢä¾¿": 7228,
      "Ġlose": 7229,
      "åłķ": 7230,
      "çŃĶè¨Ģ": 7231,
      "è¿Ļä¹Īè¯´": 7232,
      "çļĦè¯Ŀé¢ĺ": 7233,
      "èĤ¯å®ļ": 7234,
      "åĲĥäºĨé¥Ń": 7235,
      "ä¸ĥåĽŀ": 7236,
      "aunt": 7237,
      "æĭīäºĨ": 7238,
      "åĬŁæĽ¹": 7239,
      "Ġknows": 7240,
      "Ġcanst": 7241,
      "ĠSenator": 7242,
      "é¡½èĢį": 7243,
      "å·¦æīĭ": 7244,
      "inks": 7245,
      "ç¾İçĮ´çİĭ": 7246,
      "çļĩåĲİ": 7247,
      "æľīä»Ģä¹Īåħ³ç³»": 7248,
      "umber": 7249,
      "âľ§": 7250,
      "èĨ³": 7251,
      "Ġmarried": 7252,
      "èµĮæ°Ķ": 7253,
      "ç²Ĺç»Ĩ": 7254,
      "è¡Ĺä¸Ĭ": 7255,
      "éĴĪçº¿": 7256,
      "ç§ĳåŃ¦": 7257,
      "é³ŀ": 7258,
      "è¤¥": 7259,
      "èĢĮå·²åķ¦": 7260,
      "Ġthoughts": 7261,
      "åģ¶çĦ¶": 7262,
      "æ¬łèº«": 7263,
      "Ġcharge": 7264,
      "è¹ĦåŃĲ": 7265,
      "åĹ³åĵŁ": 7266,
      "ç¥ĸå¸Īéģĵ": 7267,
      "åĴ³åĹ½": 7268,
      "ï¿£ï¼īâĹĭ": 7269,
      "Against": 7270,
      "Bec": 7271,
      "CIUS": 7272,
      "RICHARD": 7273,
      "Sp": 7274,
      "cester": 7275,
      "eep": 7276,
      "gu": 7277,
      "lou": 7278,
      "sue": 7279,
      "ua": 7280,
      "¦Ĩ": 7281,
      "çµ": 7282,
      "ĠN": 7283,
      "ĠYou": 7284,
      "ä»½": 7285,
      "äºĨæĪĳçļĦ": 7286,
      "äºĨè®¸å¤ļ": 7287,
      "éģĵçļĦ": 7288,
      "ä¸Ģå®¶": 7289,
      "ä¸ĢäºĽ": 7290,
      "æĪĳå¥½": 7291,
      "æĪĳåĽł": 7292,
      "æĪĳæĢİä¹Ī": 7293,
      "æĪĳåħĪ": 7294,
      "å¥¥": 7295,
      "ä»ĸèĭ¥": 7296,
      "ä»ĸäºĮäºº": 7297,
      "è¯´çļĦæĺ¯": 7298,
      "æľīè®¸å¤ļ": 7299,
      "Ġmorn": 7300,
      "çĿĢçľ¼": 7301,
      "éĩĮæľī": 7302,
      "è§ģéĿ¢": 7303,
      "åıĪè¢«": 7304,
      "å¼¦": 7305,
      "è¡Įä¸º": 7306,
      "çİīçļĩ": 7307,
      "æ¯ģ": 7308,
      "ç¬ĳåĺ»åĺ»": 7309,
      "ä¾¿éĹ®éģĵ": 7310,
      "è¿ĺå¾Ĺ": 7311,
      "åĲ¬èµ·æĿ¥": 7312,
      "ä¸īåĽŀ": 7313,
      "ä¸¤ä»¶": 7314,
      "è¾±": 7315,
      "è¾ľ": 7316,
      "æīĵæī«": 7317,
      "æ²¡èĦ¸": 7318,
      "æĥ³è¦ģ": 7319,
      "ä¸İè¡ĮèĢħ": 7320,
      "èĦĬ": 7321,
      "çľŁçľŁ": 7322,
      "éĿ¢ä¸Ĭ": 7323,
      "å¸Īå¼Ł": 7324,
      "è¿Ľäº¬": 7325,
      "ä¿ı": 7326,
      "åĮĻ": 7327,
      "æĸ¹å¼ı": 7328,
      "ç©´": 7329,
      "ä½ķæĸ¹": 7330,
      "æĻĥ": 7331,
      "éĩĳä¸¹": 7332,
      "åĪ«äºĨ": 7333,
      "äºĨä¸Ģå¤ľ": 7334,
      "æį½": 7335,
      "èĥĸ": 7336,
      "Ġwear": 7337,
      "æĶ¾çĿĢ": 7338,
      "è´¾æ¯įçİĭå¤«äºº": 7339,
      "èıĮ": 7340,
      "çĻ½æĹ¥": 7341,
      "riage": 7342,
      "çĽ¸è¿İ": 7343,
      "å¾ĢæĿ¥": 7344,
      "å¾Ģä¸ĭ": 7345,
      "éĶ£": 7346,
      "å®ĺåĦ¿": 7347,
      "åĽ½å¸Ī": 7348,
      "è¿ĻéĩĮæĮĩ": 7349,
      "èī°": 7350,
      "Ġread": 7351,
      "å®īéĿĻ": 7352,
      "ç¼¸": 7353,
      "Ġdeli": 7354,
      "æĴº": 7355,
      "å§ĳå¨ĺçļĦ": 7356,
      "æĿİè´µ": 7357,
      "çĿ¡çĿĢäºĨ": 7358,
      "å¿µéģĵ": 7359,
      "å¤ľéĹ´": 7360,
      "å¹²åĺĽ": 7361,
      "çłļ": 7362,
      "ç¬¬ä¸īåįģ": 7363,
      "å¹¶æ²¡æľī": 7364,
      "å°½çļĨ": 7365,
      "éĢļè¿ĩ": 7366,
      "Ġspeed": 7367,
      "åŁİéĩĮ": 7368,
      "æ¼ł": 7369,
      "åıįåĢĴ": 7370,
      "åĴ±ä»¬å®¶": 7371,
      "å¾Ĵå¼Łåĳµ": 7372,
      "å»·": 7373,
      "çŃīæĪĳåİ»": 7374,
      "ä¸¢ä¸ĭ": 7375,
      "Ġquar": 7376,
      "åŀ¢": 7377,
      "çĶ·åŃĲ": 7378,
      "ï¼ģðŁ¤£": 7379,
      "åı³æīĭ": 7380,
      "åı¯èĥ½ä¼ļ": 7381,
      "Ġprof": 7382,
      "æīĵåıĳäººæĿ¥": 7383,
      "æī§äºĭ": 7384,
      "æĭħå¿ĥ": 7385,
      "åĪĩèİ«": 7386,
      "å·´ä¸įå¾Ĺ": 7387,
      "Ġtwenty": 7388,
      "æ¬ºè´Ł": 7389,
      "çĪ¬èµ·æĿ¥": 7390,
      "æ¤į": 7391,
      "Ġstands": 7392,
      "BAST": 7393,
      "åŁºæľ¬": 7394,
      "Shepherd": 7395,
      "ched": 7396,
      "Ġhours": 7397,
      "Ġconfess": 7398,
      "çįĲ": 7399,
      "åį±éĻ©": 7400,
      "Ġstreng": 7401,
      "æģįæĥļ": 7402,
      "ä¸Ģè¯ŃæľªäºĨ": 7403,
      "SEBAST": 7404,
      "ithee": 7405,
      "SEBASTIAN": 7406,
      "OW": 7407,
      "cess": 7408,
      "è¦Ĩ": 7409,
      "Ġæĺ¯ä¸įæĺ¯": 7410,
      "ä¸įåĲ¬": 7411,
      "ä¸įå½ĵ": 7412,
      "ä¸įè¯Ń": 7413,
      "ä¸įå¤Ł": 7414,
      "ä¹ı": 7415,
      "è¯º": 7416,
      "æĺ¯æĢİä¹Ī": 7417,
      "éģĵå©Ĩ": 7418,
      "ä¸Ģæĥ³": 7419,
      "ä¸Ģçŀ§": 7420,
      "ä¸Ģé¦ĸ": 7421,
      "ä¸Ģéĥ¨": 7422,
      "æĪĳèĩª": 7423,
      "ï¼ģï¼ģ": 7424,
      "åįļ": 7425,
      "å¿»": 7426,
      "Ġmock": 7427,
      "çĿĢçļĦ": 7428,
      "çĿĢåĺ´": 7429,
      "è§ģä½ł": 7430,
      "åıĪæĹł": 7431,
      "åĵĿ": 7432,
      "Ġfur": 7433,
      "Ġfore": 7434,
      "Ġfield": 7435,
      "èĢģæĢª": 7436,
      "ones": 7437,
      "å¤ªåĮ»": 7438,
      "Ġdiv": 7439,
      "Ġcar": 7440,
      "ç¬ĳçļĦ": 7441,
      "Ġyouth": 7442,
      "Ġpost": 7443,
      "çŁ¥ä¹ĭ": 7444,
      "æĹ¶åĪĨ": 7445,
      "äºĮæĿ¥": 7446,
      "Ġhell": 7447,
      "ingham": 7448,
      "ðŁĺ": 7449,
      "æīĵè°ħ": 7450,
      "æ²¡æ³ķ": 7451,
      "æĹłçŁ¥": 7452,
      "ç¥¨": 7453,
      "çľŁäºº": 7454,
      "å°Ĩåİ»": 7455,
      "æŃ£åĢ¼": 7456,
      "åĶĨ": 7457,
      "åĲĥè¿ĩ": 7458,
      "ä¼ļä¸įä¼ļ": 7459,
      "Ġhalf": 7460,
      "ä¼ĹçĮ´": 7461,
      "æĺİå¹´": 7462,
      "ä½ıåľ¨": 7463,
      "åĨįèĢħ": 7464,
      "åı£æ°Ķ": 7465,
      "åı£ä»Ļæ°Ķ": 7466,
      "èĥĥ": 7467,
      "oop": 7468,
      "èĲĿ": 7469,
      "åıĳäºĨ": 7470,
      "ä¸ľè¾¹": 7471,
      "èĩ³ä»Ĭ": 7472,
      "é¸Ń": 7473,
      "è¢«è¡ĮèĢħ": 7474,
      "éļ¾å¾Ĺ": 7475,
      "åıĺå¾Ĺ": 7476,
      "æĹ©å°±": 7477,
      "æ·¹": 7478,
      "éĢģä½ł": 7479,
      "æı£": 7480,
      "æ®¡": 7481,
      "éĹ»è¯´": 7482,
      "å¥¶å¥¶çļĦ": 7483,
      "æĭľè°¢": 7484,
      "çłĸ": 7485,
      "ç¬¬åĽĽåįģ": 7486,
      "Thus": 7487,
      "æĮĩæľĽ": 7488,
      "åĸĿäºĨ": 7489,
      "æľĿå¤©": 7490,
      "ãĢĭãĢĤ": 7491,
      "ĠRi": 7492,
      "åįĹè¾¹": 7493,
      "é¼İ": 7494,
      "çħ§é¡¾": 7495,
      "åĲĽçİĭ": 7496,
      "olk": 7497,
      "fection": 7498,
      "çīĽéŃĶçİĭ": 7499,
      "ï¼ģðŁĺı": 7500,
      "ĠHast": 7501,
      "åĶ¬çļĦ": 7502,
      "Ġjud": 7503,
      "æŁ³å®¶çļĦ": 7504,
      "ump": 7505,
      "è¿ĺè¦ģéĹ®åĲĹ": 7506,
      "æĸ½ç¤¼éģĵ": 7507,
      "æĮĳæĭħ": 7508,
      "Ġexec": 7509,
      "å¨ģé£İ": 7510,
      "Ġfearful": 7511,
      "æģ¶å¿ĥæŃ»äºĨ": 7512,
      "æĬ«æĮĤ": 7513,
      "ä¹ĸä¹ĸ": 7514,
      "åľĪåŃĲ": 7515,
      "æīĳçļĦ": 7516,
      "è·ªä¸ĭéģĵ": 7517,
      "æĭ¦ä½ı": 7518,
      "ç»Ĩç»ĨçļĦ": 7519,
      "é©¿ä¸ŀ": 7520,
      "çĦļé¦Ļ": 7521,
      "Ġcounsel": 7522,
      "å¹Įä¸Ģå¹Į": 7523,
      "amillo": 7524,
      "çµ®": 7525,
      "BION": 7526,
      "Com": 7527,
      "DEL": 7528,
      "Till": 7529,
      "most": 7530,
      "pare": 7531,
      "Äģ": 7532,
      "ä»ĭ": 7533,
      "æĺŃ": 7534,
      "ä¸įè§£": 7535,
      "ä¸įéĢļ": 7536,
      "Ġter": 7537,
      "ä¸ĢåĲĳ": 7538,
      "æĪĳéĥ½": 7539,
      "æĪĳéĤ£éĩĮ": 7540,
      "äººå®¶çļĦ": 7541,
      "è¿Ļä½į": 7542,
      "éĤ£éģĵå£«": 7543,
      "éĤ£å¦ĸçİĭ": 7544,
      "æľīè¯Ŀ": 7545,
      "Ġmin": 7546,
      "Ġwret": 7547,
      "åİ»å¾Ĺ": 7548,
      "Ġbos": 7549,
      "åıĪä¸įçŁ¥": 7550,
      "ä¸ĭæīĭ": 7551,
      "æ²Ĳ": 7552,
      "åĩºå®¶": 7553,
      "åĩºåħ¥": 7554,
      "ä¹ĭå®¶": 7555,
      "Ġpar": 7556,
      "çİĭæ¯į": 7557,
      "åĲ¬è¨Ģ": 7558,
      "èĩªä¸º": 7559,
      "åı¯æĽ¾": 7560,
      "çŃīäºĭ": 7561,
      "è¾Ĩ": 7562,
      "æīĵçł´": 7563,
      "çºł": 7564,
      "éĹ¨åŃĲ": 7565,
      "ä¸İæĪĳä»¬": 7566,
      "ç¥·": 7567,
      "Ġbehold": 7568,
      "æĮ¥": 7569,
      "éļĨ": 7570,
      "ä¼ļæĦı": 7571,
      "çĲ¼": 7572,
      "åį´å°±": 7573,
      "Ġinc": 7574,
      "åįģæķ°": 7575,
      "ä½ķæĿ¥": 7576,
      "æµĬ": 7577,
      "æ¬£": 7578,
      "åĢĴå¥½": 7579,
      "æĤļ": 7580,
      "éĩĳéĻµ": 7581,
      "å¹´çļĦ": 7582,
      "å¿ĻçĿĢ": 7583,
      "æĪĳä»¬æĺ¯": 7584,
      "éĤ£éĩĮèĤ¯": 7585,
      "äºĨä¸Ģåľº": 7586,
      "çķı": 7587,
      "åķĬç¬¨èĽĭ": 7588,
      "å·²æ¯ķ": 7589,
      "Ġeach": 7590,
      "ads": 7591,
      "æĥħåĨµ": 7592,
      "Ġrec": 7593,
      "åĵ¥åķĬ": 7594,
      "æħķ": 7595,
      "Ġdel": 7596,
      "æľªæĿ¥": 7597,
      "æĴ®": 7598,
      "æĢ¥çºµ": 7599,
      "ç¤¼æ¯ķ": 7600,
      "çł¸": 7601,
      "çİ°åĩº": 7602,
      "è®©åĿĲ": 7603,
      "åĵŃçĿĢ": 7604,
      "éļıçĿĢ": 7605,
      "å¼łåįİ": 7606,
      "çĬĢ": 7607,
      "åħŃä¸ª": 7608,
      "ĠCoriol": 7609,
      "å¾Īå¤ļ": 7610,
      "å¾Ħåħ¥": 7611,
      "ols": 7612,
      "å¼ºçĽĹ": 7613,
      "æĦŁæ¿Ģ": 7614,
      "Ġwork": 7615,
      "ortal": 7616,
      "åĳ¼åĳ¼": 7617,
      "ï¼ģðŁ¤¬": 7618,
      "å¥ĩæĢªçļĦä¸ľè¥¿": 7619,
      "çľģå¾Ĺ": 7620,
      "Ġhearts": 7621,
      "Ġmarriage": 7622,
      "Ġdesp": 7623,
      "å¸®ä½ł": 7624,
      "èį¡èį¡": 7625,
      "ĠClaudio": 7626,
      "ðŁĴ¥": 7627,
      "éķľåŃĲ": 7628,
      "itizens": 7629,
      "æįĨäºĨ": 7630,
      "å¤§ä»Ļéģĵ": 7631,
      "uckingham": 7632,
      "ä¸°åĦ¿": 7633,
      "Ġresol": 7634,
      "éĥ¡ä¾¯": 7635,
      "MARCIUS": 7636,
      "ĠMontague": 7637,
      "ä¸ĸå¾·åłĤæľ¬": 7638,
      "loucester": 7639,
      "BIONDEL": 7640,
      "Ġbosom": 7641,
      "BIONDELLO": 7642,
      "Away": 7643,
      "MON": 7644,
      "Madam": 7645,
      "bly": 7646,
      "folk": 7647,
      "iers": 7648,
      "now": 7649,
      "ĠçľŁ": 7650,
      "ĠThe": 7651,
      "Ġï¼Ī": 7652,
      "å¤·": 7653,
      "äºĨå¥½äºĽ": 7654,
      "çļ±": 7655,
      "ä¸įèĩªåľ¨": 7656,
      "è¯³": 7657,
      "Ġtit": 7658,
      "Ġten": 7659,
      "Ġtale": 7660,
      "å®Ļ": 7661,
      "ä¸ĢåįĬ": 7662,
      "ä¸Ģå±Ĥ": 7663,
      "ä¸Ģæĭ¥": 7664,
      "ä½łä¸įçŁ¥": 7665,
      "ä½łè¿Ļæł·": 7666,
      "è¿Ļæīįæĺ¯": 7667,
      "éĤ£å¸ĪçĪ¶": 7668,
      "ä¼ŀ": 7669,
      "Ġbound": 7670,
      "åĦ¿åĳ¢": 7671,
      "å¾ĹæĦı": 7672,
      "æĥ¶": 7673,
      "åĩºèº«": 7674,
      "å¤´çĸ¼": 7675,
      "Ġdam": 7676,
      "Ġcut": 7677,
      "ench": 7678,
      "Ġye": 7679,
      "åºļ": 7680,
      "Ġopen": 7681,
      "éĢ»": 7682,
      "è¿ĺæĥ³": 7683,
      "è¡ĮèĢħæļĹ": 7684,
      "å°ıäºº": 7685,
      "æŃ¤æĺ¯": 7686,
      "æŃ¤çī©": 7687,
      "ä¸¤å®¶": 7688,
      "ðŁĴ¦": 7689,
      "æİĲ": 7690,
      "æĹłæīĢ": 7691,
      "åīįåİ»": 7692,
      "å°Ĩè¿Ľåİ»": 7693,
      "çĻĸ": 7694,
      "åĺī": 7695,
      "é¢ĺçĽ®": 7696,
      "æĪĳä»¬ä¹Ł": 7697,
      "æįķ": 7698,
      "æīĢæľīçļĦ": 7699,
      "çĭ¸": 7700,
      "äºĶæĸ¹": 7701,
      "é«»": 7702,
      "è¿ĻéĩĮæĺ¯": 7703,
      "è¿ĻéĩĮæĿ¥": 7704,
      "å§ĳå¦Ī": 7705,
      "rah": 7706,
      "æĪ¿éĹ¨": 7707,
      "alm": 7708,
      "çĲĨä¼ļ": 7709,
      "çī©ä»¶": 7710,
      "åĳĬè¾ŀ": 7711,
      "å¯¹ä¼Ĺ": 7712,
      "ä»ĸä»¬çļĦ": 7713,
      "èĮħ": 7714,
      "åŁĥ": 7715,
      "æĢ¥æĢ¥": 7716,
      "æļĳ": 7717,
      "æ´ŀéĹ¨": 7718,
      "æĹ¢æľī": 7719,
      "ä¸įå¥½æĦıæĢĿ": 7720,
      "èİ«å¿µ": 7721,
      "åĵŃçļĦ": 7722,
      "ĠCap": 7723,
      "æĬ¥ä»ĩ": 7724,
      "å«Ķ": 7725,
      "Ġshort": 7726,
      "æµģæ²Ļ": 7727,
      "ä¹ĿåĽŀ": 7728,
      "æĪĺæĪĺåħ¢åħ¢": 7729,
      "åĻ«": 7730,
      "ä½łèĦĳåŃĲè¢«éĹ¨å¤¹äºĨåĲĹ": 7731,
      "Ġknown": 7732,
      "åıĬèĩ³": 7733,
      "éĹ®æĪĳåĲĹ": 7734,
      "æĸŃçĦ¶": 7735,
      "ĠBuckingham": 7736,
      "æī¯ä½ıéģĵ": 7737,
      "Ġseek": 7738,
      "åŃĿæķ¬": 7739,
      "æ··å¸Ĳ": 7740,
      "å·¥ä½ľ": 7741,
      "çĭ¬èĩª": 7742,
      "å±ħä½ı": 7743,
      "çİ©ç¬ĳ": 7744,
      "ä¸ĵä¸ļ": 7745,
      "å¸ĺåŃĲ": 7746,
      "éºĿæľĪéģĵ": 7747,
      "æį§çĿĢ": 7748,
      "ä¼Ĺäººéĥ½éģĵ": 7749,
      "ä½ĻèĢħ": 7750,
      "åı¤äººäºĳ": 7751,
      "æµĳèº«": 7752,
      "Ġharm": 7753,
      "éĢĽéĢĽ": 7754,
      "å¯Ĥå¯": 7755,
      "Ġcompany": 7756,
      "å®ĩå®Ļ": 7757,
      "Ġguilt": 7758,
      "Ġhighness": 7759,
      "Ġstrike": 7760,
      "Ġattend": 7761,
      "Ġserve": 7762,
      "éĶ¡æĿĸ": 7763,
      "Ġmurder": 7764,
      "ĠHastings": 7765,
      "Farewell": 7766,
      "HER": 7767,
      "OP": 7768,
      "chan": 7769,
      "hood": 7770,
      "Ġve": 7771,
      "ĠHe": 7772,
      "ĠAU": 7773,
      "äºĴ": 7774,
      "ä¸įå®ļ": 7775,
      "ä¸įè¨Ģè¯Ń": 7776,
      "æĺ¯çĶļ": 7777,
      "ä¸Ģéģĵ": 7778,
      "ä¸Ģç¬ĳ": 7779,
      "ä¸Ģå¹¶": 7780,
      "ä¸Ģå£ģåİ¢": 7781,
      "æĪĳåĪ°": 7782,
      "æĪĳæ²¡": 7783,
      "æĿ¥æĹ¶": 7784,
      "ä½łåĨį": 7785,
      "äººä¹Ł": 7786,
      "äººçĶŁ": 7787,
      "è¿Ļä¹Ł": 7788,
      "è¿Ļå°±æĺ¯": 7789,
      "Ġag": 7790,
      "Ġsat": 7791,
      "Ġside": 7792,
      "æĢŀ": 7793,
      "Ġwhi": 7794,
      "Ġwatch": 7795,
      "ä¹ŁæĿ¥": 7796,
      "ä¹Łåıª": 7797,
      "rest": 7798,
      "åľ¨åºĬä¸Ĭ": 7799,
      "ä¸ĬåŃ¦": 7800,
      "å¤§å¼Ģ": 7801,
      "å¾Ĺä¸Ģ": 7802,
      "åıĪæ·»": 7803,
      "ished": 7804,
      "æķĽ": 7805,
      "Ġfeel": 7806,
      "æĭĦ": 7807,
      "æĭŃ": 7808,
      "éĹ®è¿Ļç§įéĹ®é¢ĺ": 7809,
      "å¤ªä¸Ĭ": 7810,
      "å¤ªå¹³": 7811,
      "Ġdish": 7812,
      "Ġdist": 7813,
      "ç¬ĳéĹ®éģĵ": 7814,
      "åĽŀåİ»äºĨ": 7815,
      "ç§Ĵ": 7816,
      "å¤©æ²³": 7817,
      "åīĸ": 7818,
      "å°ıæĢª": 7819,
      "èĩªæĿ¥": 7820,
      "æŃ¤å±±": 7821,
      "æĹłè¾¹": 7822,
      "ä¸İå®Ŀçİī": 7823,
      "çĶŁæŃ»": 7824,
      "çģ¶": 7825,
      "è¿ĽéĹ¨": 7826,
      "åĽłä»ĸ": 7827,
      "åĲİæĹ¥": 7828,
      "åħ«ä¸ª": 7829,
      "åľ°ä¸Ĭ": 7830,
      "é¦į": 7831,
      "ä½ľèĢħ": 7832,
      "ä½ľä¸»": 7833,
      "å¿Ļè¯´": 7834,
      "å¤ĸäºº": 7835,
      "éķ¿çŁŃ": 7836,
      "èĥ§": 7837,
      "æīĭèĦļ": 7838,
      "æŀľè§ģ": 7839,
      "åĿĲåĿĲ": 7840,
      "çĤ¹åķ¦": 7841,
      "ents": 7842,
      "æ»ĭ": 7843,
      "çľ¼éĩĮ": 7844,
      "åĲĮçĿĢ": 7845,
      "è°ģæķ¢": 7846,
      "éĢģåĩº": 7847,
      "éĢģèĩ³": 7848,
      "ç¼°": 7849,
      "å¯¹éĿ¢": 7850,
      "çģ«åħī": 7851,
      "èĦĳè¢ĭ": 7852,
      "éŃĶæ³ķ": 7853,
      "çĻ¾åįģ": 7854,
      "ander": 7855,
      "æĹ¢è¿Ļæł·": 7856,
      "çİ°å®ŀ": 7857,
      "èİ«è¯´": 7858,
      "Ġsuit": 7859,
      "éļıèº«": 7860,
      "Ġloving": 7861,
      "æķĳä»ĸ": 7862,
      "æĸĩåŃĹ": 7863,
      "é¢ĨäºĨ": 7864,
      "åĻĹ": 7865,
      "æ¯ıä¸ª": 7866,
      "æ¸¸æ³³": 7867,
      "åĸĦåĵī": 7868,
      "å²Ĥä¸įæĺ¯": 7869,
      "åĳ¼åĲ¸": 7870,
      "å°¤æ°ıéģĵ": 7871,
      "éĥ¨æ´²": 7872,
      "è¯¸äºĭ": 7873,
      "æĮĤçĿĢ": 7874,
      "ONIO": 7875,
      "èĿĩ": 7876,
      "éŃĤé£ŀ": 7877,
      "ä¾Ľåħ»": 7878,
      "æ»ļæ»ļ": 7879,
      "æįīå¼Ħ": 7880,
      "æ¡ĥèĬ±": 7881,
      "Ġhonest": 7882,
      "èİ²èĬ±": 7883,
      "åĲ¹åı£ä»Ļæ°Ķ": 7884,
      "å¸®çĿĢ": 7885,
      "Ġheavens": 7886,
      "åºĻéĩĮ": 7887,
      "åĲ¯å¥ı": 7888,
      "éº»çĥ¦": 7889,
      "Ġtrib": 7890,
      "MERLE": 7891,
      "èĺħ": 7892,
      "èĪĴæľį": 7893,
      "èĬŃèķīæīĩ": 7894,
      "Ġdraw": 7895,
      "Ġvoices": 7896,
      "æ·ĺæ°Ķ": 7897,
      "Ġsomething": 7898,
      "ANTONIO": 7899,
      "åĢªäºĮ": 7900,
      "æľ¦èĥ§": 7901,
      "Ġstrength": 7902,
      "ĠAUMERLE": 7903,
      "Marry": 7904,
      "Pray": 7905,
      "See": 7906,
      "ZALO": 7907,
      "]ï¼ģ": 7908,
      "]ãĢĤâĢĿ": 7909,
      "fid": 7910,
      "ging": 7911,
      "su": 7912,
      "Â´": 7913,
      "Ġä¸Ģ": 7914,
      "Ġè¦ģ": 7915,
      "ĥèŁ¹": 7916,
      "ï¼ĮãĢĬ": 7917,
      "âĢįâĻĢï¸ı": 7918,
      "ä¸įæ¯Ķ": 7919,
      "çļĦåķĬ": 7920,
      "çļĦé«ĺ": 7921,
      "æĪŁ": 7922,
      "å®¾": 7923,
      "ä¸Ģåĳ³": 7924,
      "ä½łæīį": 7925,
      "æĹĮ": 7926,
      "äººäºº": 7927,
      "äººäºĭ": 7928,
      "ï¼ģâĢĻ": 7929,
      "Ġact": 7930,
      "éĤ£å¹´": 7931,
      "éĤ£éŃĶçİĭ": 7932,
      "Ġsake": 7933,
      "å¿Į": 7934,
      "Ġwast": 7935,
      "Ġwonder": 7936,
      "Ġwidow": 7937,
      "Ġbit": 7938,
      "å¤§éĹ¨": 7939,
      "å¤§ä¼Ĺ": 7940,
      "å¤§èĪħ": 7941,
      "å¤§å«ĤåŃĲ": 7942,
      "å¤§çº¦": 7943,
      "åıªåī©": 7944,
      "ç¬ĭ": 7945,
      "ç»Ħ": 7946,
      "Ġcor": 7947,
      "çľĭæĿ¥": 7948,
      "åĴ¦": 7949,
      "åĽŀè¿ĩ": 7950,
      "è¿ĺæ²¡æľī": 7951,
      "Ġpie": 7952,
      "åĪ°æĪĳ": 7953,
      "èĩªçĶ±": 7954,
      "ä¸īä½į": 7955,
      "èº¯": 7956,
      "å§Ĳå¦¹": 7957,
      "èĭ¹": 7958,
      "èĭĶ": 7959,
      "åīįå¹´": 7960,
      "èĬĻ": 7961,
      "èĬĿ": 7962,
      "çĶŁäºĨ": 7963,
      "åĲİè¾¹": 7964,
      "ä¸Ńæľī": 7965,
      "æĤ£": 7966,
      "éĩĳéĬ®": 7967,
      "åĺ¤": 7968,
      "åĺ²": 7969,
      "æĪĳä»¬éĥ½": 7970,
      "è¯·ä»ĸ": 7971,
      "è¿Ļç§įä¸ľè¥¿": 7972,
      "åĽĽéĿ¢": 7973,
      "ä¸ľåįĹ": 7974,
      "åİŁåĽł": 7975,
      "é£İå£°": 7976,
      "åħĪåİ»": 7977,
      "çĽ¸æĮģ": 7978,
      "çĽ¸éĢ¢": 7979,
      "Ġsto": 7980,
      "Ġstir": 7981,
      "ç»Ļä»ĸä»¬": 7982,
      "åĲįåĦ¿": 7983,
      "ä½łä»¬çļĦ": 7984,
      "åįĬå¤ľ": 7985,
      "èĻ½æľī": 7986,
      "æĿİå¬·å¬·": 7987,
      "çĿ¡åİ»": 7988,
      "çłģ": 7989,
      "åŃ¦æł¡": 7990,
      "éĵ¶éĴ±": 7991,
      "èµ¶åĪ°": 7992,
      "éĥ½æĺ¯äºĽ": 7993,
      "èĮ¶é¥Ń": 7994,
      "å¼Ħå¾Ĺ": 7995,
      "æľĽè§ģ": 7996,
      "éĻ¢åĨħ": 7997,
      "è¿Ļç§įéĹ®é¢ĺè¿ĺè¦ģéĹ®åĲĹ": 7998,
      "ç«ĭåľ¨": 7999,
      "çħ§ç®¡": 8000,
      "è·ĳåĪ°": 8001,
      "ĠGentleman": 8002,
      "ĠGloucester": 8003,
      "ĠLanc": 8004,
      "åªļ": 8005,
      "åĬĿè§£": 8006,
      "ç£ģ": 8007,
      "çĽĺç¼ł": 8008,
      "æĳĩæĳĩ": 8009,
      "å¥īæĹ¨": 8010,
      "å·¦è¾¹": 8011,
      "å½ĵçĦ¶ä¼ļ": 8012,
      "èĥľè´Ł": 8013,
      "Ġdidst": 8014,
      "è¯¸å¤©": 8015,
      "å¹¸èĢĮ": 8016,
      "æĻ´éĽ¯éģĵ": 8017,
      "éĶ¦è¡£": 8018,
      "åģľå½ĵ": 8019,
      "æĢ¨ä¸įå¾Ĺ": 8020,
      "é¥®éħĴ": 8021,
      "èľ¡": 8022,
      "è¿ŁäºĨ": 8023,
      "Ġgentlemen": 8024,
      "åįģäºĮåĽŀ": 8025,
      "åĲĵå¾Ĺ": 8026,
      "Ġcloud": 8027,
      "æİ£åĩº": 8028,
      "è¿ĻåĩłæĹ¥": 8029,
      "Ġwomen": 8030,
      "çĿģçľ¼": 8031,
      "æĻ®éĢļ": 8032,
      "è¿Ļç§įéĹ®é¢ĺä¹Łè¦ģéĹ®": 8033,
      "èŀĥèŁ¹": 8034,
      "ethinks": 8035,
      "è¿Ļç§įéĹ®é¢ĺä¹ŁæĿ¥éĹ®æĪĳåķ¦": 8036,
      "çİ°äºĨæľ¬çĽ¸": 8037,
      "Ġenemies": 8038,
      "ï¼ģðŁĳĬ": 8039,
      "GONZALO": 8040,
      "ç®įåĦ¿åĴĴ": 8041,
      "ï½ŀ(ï¿£âĸ½ï¿£~)": 8042,
      "ĠLancaster": 8043,
      "OH": 8044,
      "Unt": 8045,
      "ives": 8046,
      "éī": 8047,
      "Ġåĩ¤å§Ĳ": 8048,
      "æĺĨ": 8049,
      "ä¸įèĢģ": 8050,
      "ä¸įèĥľ": 8051,
      "æĪĳä¾¿": 8052,
      "æĿ¥å®¶": 8053,
      "æĿ¥æī¾": 8054,
      "ä½łå¦Ĥä»Ĭ": 8055,
      "æĹ¦": 8056,
      "è¿Ļä»¶": 8057,
      "è¿ĻåĳĨåŃĲ": 8058,
      "ï¼ģ(ï¿£": 8059,
      "ä»ĸäºĨ": 8060,
      "æīĽ": 8061,
      "å¾Ĳ": 8062,
      "éĤ£å¦ĩäºº": 8063,
      "Ġsing": 8064,
      "ï¼Łâķ¬ï¿£": 8065,
      "Ġmusic": 8066,
      "rew": 8067,
      "è¡«": 8068,
      "Ġbreat": 8069,
      "è´ŀ": 8070,
      "ä¸Ĭè¥¿å¤©": 8071,
      "å¤§æ¦Ĥ": 8072,
      "åıĪæ²¡": 8073,
      "åıªçŃī": 8074,
      "åıªåĲ¬è§ģ": 8075,
      "å¥½åĥı": 8076,
      "åĵ¨": 8077,
      "åĩºçļĦ": 8078,
      "æ¯Ĺ": 8079,
      "éĹ®éĹ®": 8080,
      "Ġdr": 8081,
      "ä¹ĭåĬŁ": 8082,
      "åĽŀéģ¿": 8083,
      "ä¾¿åıĪ": 8084,
      "å¤©èĵ¬": 8085,
      "Ġpra": 8086,
      "Ġpale": 8087,
      "çİĭä»ģ": 8088,
      "åĪ°äºİ": 8089,
      "è¡ĮèĢħè§ģäºĨ": 8090,
      "å°ıç¥ŀ": 8091,
      "æłĬ": 8092,
      "äºĮåĵ¥åĵ¥": 8093,
      "æŃ¤åİ»": 8094,
      "è°Ĳ": 8095,
      "çĦī": 8096,
      "Ġgates": 8097,
      "æīĵçļĦ": 8098,
      "æīĵç®Ĺ": 8099,
      "èĭĹ": 8100,
      "æĬĬèĩªå·±": 8101,
      "æĮĸ": 8102,
      "éĻĭ": 8103,
      "æŃ£å½ĵ": 8104,
      "å¨ĥ": 8105,
      "åĲĥäºĽ": 8106,
      "æĸ¹åĲĳ": 8107,
      "æ¯įå¥³": 8108,
      "æµĩ": 8109,
      "é©±": 8110,
      "éĺħ": 8111,
      "å¤Ħå¤Ħ": 8112,
      "åĢĴè¦ģ": 8113,
      "éĩĳèį£": 8114,
      "å¿Ļå¿ĻçļĦ": 8115,
      "æĪĳä»¬å®¶": 8116,
      "éķ¿åĺ´": 8117,
      "éĤ£éĩĮèµ°": 8118,
      "å¼Ģå¿ĥ": 8119,
      "èĥŃ": 8120,
      "oose": 8121,
      "åıĳæħĪæĤ²": 8122,
      "èĩ³æ¬¡æĹ¥": 8123,
      "åĽ½ä¸Ī": 8124,
      "race": 8125,
      "æĪ¿å±ĭ": 8126,
      "é»ĽçİīçļĦ": 8127,
      "æı¡": 8128,
      "åįĬæĻĮ": 8129,
      "æľªå¿ħ": 8130,
      "éĹ»æŃ¤è¨Ģ": 8131,
      "åħ¬éģĵ": 8132,
      "å¿ħé¡»": 8133,
      "æ¶Į": 8134,
      "éľ¸": 8135,
      "æ¯Ķåĸ»": 8136,
      "å¿µåĬ¨": 8137,
      "å¿µå¿µ": 8138,
      "ç¢Į": 8139,
      "ç¬¬åħŃåįģ": 8140,
      "èİ«è¦ģ": 8141,
      "æĮĩéģĵ": 8142,
      "çĽ´åĪ°": 8143,
      "âķ¯": 8144,
      "ä¹±åļ·": 8145,
      "çĮ´å¤´": 8146,
      "ils": 8147,
      "ĠCamillo": 8148,
      "Ġnext": 8149,
      "Ġknew": 8150,
      "æľĽç©º": 8151,
      "ä¼¤å®³": 8152,
      "ä¼¤æĦŁ": 8153,
      "Ġcoming": 8154,
      "ç§°è°¢": 8155,
      "åĲĽèĩ£": 8156,
      "ä¸ĥä¸ª": 8157,
      "æĿĢäºĨ": 8158,
      "ç«Ļä½ı": 8159,
      "æĦŁè§ī": 8160,
      "å¤įåıĪ": 8161,
      "Ġthanks": 8162,
      "èĻİè±¹": 8163,
      "å²ģäºĨ": 8164,
      "çĸ¼çĹĽ": 8165,
      "å¯ºéĻ¢": 8166,
      "å¥īæī¿": 8167,
      "ç³»ç»Ł": 8168,
      "åŀĭ": 8169,
      "èĪįä¸įå¾Ĺ": 8170,
      "å´Ķ": 8171,
      "ç¯±": 8172,
      "æī§çĿĢ": 8173,
      "å°ĺåŁĥ": 8174,
      "é¾Ļçİĭéģĵ": 8175,
      "ä¸įè§īçļĦ": 8176,
      "æĥľæĺ¥éģĵ": 8177,
      "çļĦä¸Ģç§į": 8178,
      "Ġclose": 8179,
      "Ġpleasure": 8180,
      "å±ķå¼Ģ": 8181,
      "Ġsouls": 8182,
      "å©¶å¨ĺ": 8183,
      "è¯´å¾Ĺæĺ¯": 8184,
      "ianca": 8185,
      "Ġcourse": 8186,
      "Ġenter": 8187,
      "Ġwithal": 8188,
      "Ġbrave": 8189,
      "Ġchee": 8190,
      "ceived": 8191,
      "éĽ·éŁ³å¯º": 8192,
      "Ġtitle": 8193,
      "èĬĻèĵī": 8194,
      "DIO": 8195,
      "fter": 8196,
      "ne": 8197,
      "uk": 8198,
      "vour": 8199,
      "you": 8200,
      "½åŃĲ": 8201,
      "Ãł": 8202,
      "Ġè°ģ": 8203,
      "ĠèĢĮä¸Ķ": 8204,
      "äºıäºĨ": 8205,
      "å¤ķ": 8206,
      "äºĨä¸ī": 8207,
      "æĺĶ": 8208,
      "ä¸įä¼¼": 8209,
      "ä¸įéĶĻ": 8210,
      "ä¹į": 8211,
      "çļĦéĴ±": 8212,
      "çļĦè¯Ĺ": 8213,
      "æĺ¯ä¸ºäºĨ": 8214,
      "Ġty": 8215,
      "ä¸Ģäºĭ": 8216,
      "ä¸Ģéģį": 8217,
      "æĪĳä¸įæĺ¯": 8218,
      "æĪĳç«Ł": 8219,
      "æĿ¥åİĨ": 8220,
      "ä½łåĳ¢": 8221,
      "ä½łè¿Ļç§įéĹ®é¢ĺ": 8222,
      "äººåı£": 8223,
      "èĢ¸": 8224,
      "è¿Ļå¦ĸç²¾": 8225,
      "è¯´åĩºæĿ¥": 8226,
      "ä¸ªå°ı": 8227,
      "åį¸": 8228,
      "Ġwa": 8229,
      "åİ»å¯»": 8230,
      "ä¹Łä¾¿": 8231,
      "èµĥ": 8232,
      "çĶ¥": 8233,
      "Ġbur": 8234,
      "åĳķ": 8235,
      "ä¸Ĭæ®¿": 8236,
      "å¤§åĸľéģĵ": 8237,
      "åĦ¿äºĨ": 8238,
      "å¸ļ": 8239,
      "å¥½éģĵ": 8240,
      "ç»Ľ": 8241,
      "Ġfit": 8242,
      "æĭ¼": 8243,
      "åķ¥": 8244,
      "éĹ®è®": 8245,
      "çľĭä½ł": 8246,
      "åºŁ": 8247,
      "ä¹ĭæ³ķ": 8248,
      "åĽŀè¯Ŀ": 8249,
      "ä¾¿å¾Ģ": 8250,
      "çĽ²": 8251,
      "éĢį": 8252,
      "åĪ°å®¶": 8253,
      "æĹ¶èĬĤ": 8254,
      "è·µ": 8255,
      "èĩªæŃ¤": 8256,
      "èµ·åİ»": 8257,
      "oward": 8258,
      "çŃīäºº": 8259,
      "ä¸¤çıŃ": 8260,
      "è°±": 8261,
      "Ġgar": 8262,
      "Ġbecome": 8263,
      "æīįæĿ¥": 8264,
      "æīįè¦ģ": 8265,
      "åį´å°Ĩ": 8266,
      "åį´ä¼¼": 8267,
      "ä»¥æĿ¥": 8268,
      "é»İ": 8269,
      "æĢİä¹Īèĥ½": 8270,
      "etch": 8271,
      "etru": 8272,
      "å¨ĺåŃĲ": 8273,
      "æĭ¿æĪĳ": 8274,
      "å¿Ļåĳ½": 8275,
      "çĮİ": 8276,
      "å¤ĸè¾¹": 8277,
      "èįĲ": 8278,
      "è¿Ļç§įè¯Ŀ": 8279,
      "è¿Ļç§įæģ¶å¿ĥ": 8280,
      "èĭ¥ä¸įæĺ¯": 8281,
      "åĪĨè¯´": 8282,
      "Ġforg": 8283,
      "å¤ªå¤ªçļĦ": 8284,
      "å¥³æĢª": 8285,
      "Ġweak": 8286,
      "Ġeither": 8287,
      "éħ±": 8288,
      "çĤ¹åĦ¿": 8289,
      "çĤ¹çĤ¹å¤´": 8290,
      "é£İåĲ¹": 8291,
      "èĢĮä¸įæĺ¯": 8292,
      "æ£µ": 8293,
      "æ£ĺ": 8294,
      "äºĶåįĥ": 8295,
      "çĶļæĺ¯": 8296,
      "çĶļå¥½": 8297,
      "æľĪéĴ±": 8298,
      "æľĪäº®": 8299,
      "Ġlips": 8300,
      "å¹³å®ī": 8301,
      "æĽ´å¥½": 8302,
      "åĲĦç§į": 8303,
      "æ²ĻéĹ¨": 8304,
      "ä»Ļå¥³": 8305,
      "çĸĹ": 8306,
      "æĴķ": 8307,
      "åħ¥éĩĮéĿ¢": 8308,
      "æ¢°": 8309,
      "æ¶¯": 8310,
      "å°ĳå¥³": 8311,
      "é¹¦": 8312,
      "åŃ¦ä¹ł": 8313,
      "ä¸ĸéĹ´": 8314,
      "ç»Ĩçľĭ": 8315,
      "çľŁæĺ¯çļĦåķ¦": 8316,
      "rust": 8317,
      "æµ·é¾Ļçİĭ": 8318,
      "ä¾ĿæĪĳè¯´": 8319,
      "åįĹå¤©": 8320,
      "åŁİæ±ł": 8321,
      "åĻĻ": 8322,
      "çħ§çľĭ": 8323,
      "å±ĭåĨħ": 8324,
      "æ¯ıæ¬¡": 8325,
      "é¡»æĺ¯": 8326,
      "ä¹°çļĦ": 8327,
      "æĭīä½ı": 8328,
      "ä¿±æĺ¯": 8329,
      "æľĢåĲİ": 8330,
      "ä¸įä½ıçļĦ": 8331,
      "ç§ĭæ¡Ĳ": 8332,
      "els": 8333,
      "æ¥¼åı°": 8334,
      "çĳŀæ°Ķ": 8335,
      "æŀģä¹Ĳ": 8336,
      "Ġjest": 8337,
      "é£Łçī©": 8338,
      "Ġplain": 8339,
      "AUDIO": 8340,
      "çļĦå¥½ä¸įå¥½": 8341,
      "æģ¼äºĨ": 8342,
      "åįģåĪĨæ¬¢åĸľ": 8343,
      "éĤ£ä¹Īå¤ļ": 8344,
      "Ġabs": 8345,
      "è®¨åİĮ": 8346,
      "çĭĹçĭĹ": 8347,
      "æ¡ĮåŃĲ": 8348,
      "çĨŁäºĨ": 8349,
      "è´¥éĺµ": 8350,
      "æĢİä¹Īæł·åĳ¢": 8351,
      "åĩºéĹ¨æĿ¥": 8352,
      "çĩ¥": 8353,
      "æĿ¿åĦ¿": 8354,
      "Ġpret": 8355,
      "å¦ĸçİĭéģĵ": 8356,
      "èģĶéģĵ": 8357,
      "éĢĥçĶŁ": 8358,
      "åķ¼åĵŃ": 8359,
      "éĴ¦å·®": 8360,
      "claim": 8361,
      "Ġgrie": 8362,
      "ï½ŀðŁĺ": 8363,
      "CLAUDIO": 8364,
      "æģ°å¥½": 8365,
      "Ġchange": 8366,
      "MIONE": 8367,
      "çŃµå®´": 8368,
      "æģķç½ª": 8369,
      "æĢłæħ¢": 8370,
      "ĠNorfolk": 8371,
      "CLIFFORD": 8372,
      "Ġsuffer": 8373,
      "Ġdeliver": 8374,
      "å¯Ĥå¯ŀ": 8375,
      "HERMIONE": 8376,
      "èĭ¹æŀľ": 8377,
      "éī´": 8378,
      "DA": 8379,
      "EDWARD": 8380,
      "LORD": 8381,
      "Most": 8382,
      "cher": 8383,
      "nk": 8384,
      "ses": 8385,
      "ufid": 8386,
      "Ġè¯´çĿĢ": 8387,
      "ĠTh": 8388,
      "Ġä¸ºä»Ģä¹Ī": 8389,
      "ä¸įç®Ĺ": 8390,
      "ä¸įè®º": 8391,
      "ä¸įæĸĻ": 8392,
      "ä¸įæµİ": 8393,
      "è¯ŀ": 8394,
      "æĿµ": 8395,
      "ä¸Ģä¸¤": 8396,
      "ä¸Ģå¯¹": 8397,
      "ä¸Ģå®¿": 8398,
      "æĪĳåĲ¬è§ģ": 8399,
      "è¿Ļåı¯": 8400,
      "è¿Ļéĥ½æĺ¯": 8401,
      "è¿Ļåı¥è¯Ŀ": 8402,
      "ä»ĸéĤ£éĩĮ": 8403,
      "éĤ£èı©èĲ¨": 8404,
      "åĩ³": 8405,
      "æľīåĽĽ": 8406,
      "æľīæīĢ": 8407,
      "æľīçĹħ": 8408,
      "Ġsk": 8409,
      "Ġsame": 8410,
      "Ġsick": 8411,
      "Ġsign": 8412,
      "Ġwis": 8413,
      "Ġwall": 8414,
      "ready": 8415,
      "çĿĢäºº": 8416,
      "åľ¨åīį": 8417,
      "åľ¨èº«ä¸Ĭ": 8418,
      "å¤§ä¼ļ": 8419,
      "è§ģéĹ®": 8420,
      "åĦ¿ç½¢": 8421,
      "å¾ĹåĬ¨": 8422,
      "åıĪä¸Ģ": 8423,
      "åıĪåĲ¬å¾Ĺ": 8424,
      "isf": 8425,
      "æķı": 8426,
      "ç»ª": 8427,
      "åĨľ": 8428,
      "èĢģäººå®¶": 8429,
      "å¹¡": 8430,
      "æ²ģ": 8431,
      "åĩºæ°Ķ": 8432,
      "å¤ªå¸Ī": 8433,
      "è®¢": 8434,
      "è®«": 8435,
      "Ġcast": 8436,
      "åĬ²": 8437,
      "å¿ĥäºĨ": 8438,
      "å¤©çļĦ": 8439,
      "å¤©å°Ĩ": 8440,
      "å¤©ç¥ŀ": 8441,
      "çŁ¥åİ¿": 8442,
      "ä¸ºçļĦæĺ¯": 8443,
      "äºĮå¹´": 8444,
      "äºĮåıĶ": 8445,
      "åĥ»": 8446,
      "åģ¿": 8447,
      "ä¸īçĻ¾": 8448,
      "åĸī": 8449,
      "æĹłå¤Ħ": 8450,
      "ç¥ĩ": 8451,
      "èĬľ": 8452,
      "ä¸įæĺ¯ä»Ģä¹Ī": 8453,
      "ä½ķä¸º": 8454,
      "ä½ķåĨµ": 8455,
      "çĶ¨äºĨ": 8456,
      "irth": 8457,
      "ä½ıçĿĢ": 8458,
      "æĭ¿èµ·": 8459,
      "èĤĮ": 8460,
      "æĪĳä»¬è¿Ļ": 8461,
      "chio": 8462,
      "éķ¿å¯¿": 8463,
      "åĽĽåĽŀ": 8464,
      "Ġforb": 8465,
      "Ġforget": 8466,
      "ç¥ŀåħµ": 8467,
      "å¼Ģçľ¼": 8468,
      "åģļçĶļ": 8469,
      "oof": 8470,
      "åĳ½çļĦ": 8471,
      "å¸ĪçĪ¶åĳµ": 8472,
      "æĶ¾å£°": 8473,
      "ç©ºæ°Ķ": 8474,
      "ries": 8475,
      "æľ¬åĥı": 8476,
      "æ³ķåŃĲ": 8477,
      "çľ¼åīį": 8478,
      "Ġreg": 8479,
      "urp": 8480,
      "æĽ´æľī": 8481,
      "å¿«èµ°": 8482,
      "èĻ½è¯´": 8483,
      "æĺ¥çĩķ": 8484,
      "æ¶ī": 8485,
      "east": 8486,
      "çĹħçĿĢ": 8487,
      "è´¾æĶ¿åĲ¬äºĨ": 8488,
      "æ´ŀåºľ": 8489,
      "çĲıäºĮçĪ·": 8490,
      "ç¬¬åįģ": 8491,
      "çŀ§äºĨ": 8492,
      "èģĴ": 8493,
      "æĢĿæĥ³": 8494,
      "æĢĿèĢĥ": 8495,
      "çľŁæĺ¯ä¸ª": 8496,
      "çľŁæĺ¯æľįäºĨä½ł": 8497,
      "å¹¶æ²¡": 8498,
      "è§Ĥä¸ĸ": 8499,
      "æī¾åĪ°": 8500,
      "å¾ħä»ĸ": 8501,
      "åĺ´å·´": 8502,
      "Ġven": 8503,
      "å¾Īå¥½": 8504,
      "åŁİå¤ĸ": 8505,
      "å¾ĦåĽŀ": 8506,
      "å°¤å§Ĳ": 8507,
      "Ġthemselves": 8508,
      "è¿ĺæľīä»Ģä¹Ī": 8509,
      "äº¤ç»Ļ": 8510,
      "äº¤æĪĺ": 8511,
      "èĴĭ": 8512,
      "æħĮå¼ł": 8513,
      "å½©éľŀ": 8514,
      "ĠBianca": 8515,
      "Ġworse": 8516,
      "æĳĩå¤´": 8517,
      "é¡½ç¬ĳ": 8518,
      "ä¸Ģæł·çļĦ": 8519,
      "æķ´çĲĨ": 8520,
      "æ¹ĺäºĳç¬ĳéģĵ": 8521,
      "ĠPom": 8522,
      "éĢĢåĩº": 8523,
      "Ġtook": 8524,
      "çĭ¬æľī": 8525,
      "ä¸ļçķľ": 8526,
      "èį£åĽ½åºľ": 8527,
      "è¿ĻçŃīè¯´": 8528,
      "Ġpoison": 8529,
      "å½±åĵį": 8530,
      "ç¢ĹæĿ¥": 8531,
      "é¥¶ä»ĸ": 8532,
      "Ġalong": 8533,
      "æĺ¯è°ģæĥ³": 8534,
      "Ġrich": 8535,
      "ä¸ĢçĤ¹åĦ¿": 8536,
      "Ġbreast": 8537,
      "çīµçĿĢ": 8538,
      "äºĶçĻ¾å¹´åīį": 8539,
      "ranio": 8540,
      "Ġconsul": 8541,
      "è¿Ļä¸¤æĹ¥": 8542,
      "éĢĤæīį": 8543,
      "RANDA": 8544,
      "éĺ¶åīį": 8545,
      "æ£ĢæŁ¥": 8546,
      "MIRANDA": 8547,
      "åĭ¾å½ĵ": 8548,
      "åŁĭæĢ¨": 8549,
      "æ¾Ħ": 8550,
      "twas": 8551,
      "twere": 8552,
      "Ġcheer": 8553,
      "Ġpatience": 8554,
      "èĹķå®ĺ": 8555,
      "äºĮéŃĶéģĵ": 8556,
      "å¤¯è´§": 8557,
      "Ġmerry": 8558,
      "Ġorder": 8559,
      "åĳĨåĳĨçļĦ": 8560,
      "etruchio": 8561,
      "ufidius": 8562,
      "Messenger": 8563,
      "SA": 8564,
      "SON": 8565,
      "Servant": 8566,
      "lst": 8567,
      "oin": 8568,
      "ting": 8569,
      "Ġä¸ī": 8570,
      "ãĢĤâĢľ": 8571,
      "ä»ĵ": 8572,
      "äºĨåĺĽ": 8573,
      "ä¸įçĶŁ": 8574,
      "ä¸įåıĹ": 8575,
      "æĺ¯ä»¥": 8576,
      "æĺ¯æĪĳçļĦ": 8577,
      "ä¸Ģå¸¦": 8578,
      "æĪĳä»Ĭ": 8579,
      "æĪĳä¸¤ä¸ª": 8580,
      "ä½łçŁ¥éģĵ": 8581,
      "ä½łå±ħçĦ¶": 8582,
      "æĹº": 8583,
      "è¿Ļä¹Łæĺ¯": 8584,
      "ä»ĸäºº": 8585,
      "ä»ĸæľī": 8586,
      "ä»ĸè§ģ": 8587,
      "éĤ£å±±": 8588,
      "éĤ£éŃĶ": 8589,
      "çİ²": 8590,
      "æľīéĴ±": 8591,
      "æĢĦ": 8592,
      "æĢĸ": 8593,
      "ï¼Ł(ï¿£âĸ½ï¿£;)": 8594,
      "Ġmouth": 8595,
      "Ġwed": 8596,
      "ä¹Łå¾Ĺ": 8597,
      "è¡¾": 8598,
      "Ġbad": 8599,
      "Ġbook": 8600,
      "è§ģè¯Ĩ": 8601,
      "å¥½è¡ĮèĢħ": 8602,
      "æĥŃ": 8603,
      "Ġfour": 8604,
      "è¡Įåĩ¶": 8605,
      "è¡ĮåĽĬ": 8606,
      "ä¸ĭæµģ": 8607,
      "ä¸ĭéĻį": 8608,
      "èĢģçİĭ": 8609,
      "èĢģé¼ł": 8610,
      "å¹ħ": 8611,
      "åĩºå¤´": 8612,
      "å¤ªå¤©çľŁ": 8613,
      "è´¾èĬ¹": 8614,
      "çľĭè§ģäºĨ": 8615,
      "åĴı": 8616,
      "éĥ½ç¬ĳéģĵ": 8617,
      "ä¹ĭåľ°": 8618,
      "çĽĶ": 8619,
      "è¿ĩæĿ¥äºĨ": 8620,
      "åīģ": 8621,
      "åīĥ": 8622,
      "åīĶ": 8623,
      "å°ıåŃ¦": 8624,
      "ĠIf": 8625,
      "åı«ä¸Ģå£°": 8626,
      "åı¯ä¸į": 8627,
      "æİ¼": 8628,
      "è°ķ": 8629,
      "Ġgave": 8630,
      "æĹłæĥħ": 8631,
      "æĹłç©·": 8632,
      "èĭĳ": 8633,
      "åīįéĹ¨": 8634,
      "çľŁå¿ĥ": 8635,
      "åĿĩ": 8636,
      "éĻ¡": 8637,
      "å£³": 8638,
      "éĽĩ": 8639,
      "åĲĥèį¯": 8640,
      "ä½ķåľ¨": 8641,
      "å±±å¤´": 8642,
      "æĻ¨": 8643,
      "æ°´çļĦ": 8644,
      "ä½ľä¸ª": 8645,
      "ä½ľä¸º": 8646,
      "åĢĴåľ¨åľ°": 8647,
      "èĤ¿": 8648,
      "chm": 8649,
      "èį«": 8650,
      "æ°ĶæŃ»": 8651,
      "å¤«å¦ĩ": 8652,
      "è¯·å¸ĪçĪ¶": 8653,
      "å£°éģĵ": 8654,
      "åĪ«åĨį": 8655,
      "èĭ¥å¹²": 8656,
      "Ġissue": 8657,
      "éĤ£éĩĮè¯Ŀ": 8658,
      "å¥³çĶŁ": 8659,
      "åĳ½ä»ĸ": 8660,
      "éħĮ": 8661,
      "ä¹Łä¸įè¿ĩ": 8662,
      "åıĺçļĦ": 8663,
      "æīĢåľ¨": 8664,
      "æľ¬å°ıå§Ĳ": 8665,
      "äº²äºĭ": 8666,
      "ash": 8667,
      "å©¢": 8668,
      "Ġliber": 8669,
      "æħİ": 8670,
      "ä»İå¤´": 8671,
      "çŀª": 8672,
      "çŀ»": 8673,
      "çĲĨè®º": 8674,
      "çģ«çļĦ": 8675,
      "å°ĳæĹ¶": 8676,
      "vern": 8677,
      "åŁŁ": 8678,
      "æļ®": 8679,
      "æĭľäºĨ": 8680,
      "å¤ľåıī": 8681,
      "çħĮ": 8682,
      "Ġself": 8683,
      "é¥ŃåĲİ": 8684,
      "ions": 8685,
      "è¿Ļæł·çļĦ": 8686,
      "çªĦ": 8687,
      "éĩįéĩį": 8688,
      "çŁ³ä¸Ĭ": 8689,
      "æķĳå¾Ĺ": 8690,
      "è¿ĻäºĽä¸ľè¥¿": 8691,
      "é¢Ĩåĳ½": 8692,
      "rows": 8693,
      "æ¯ıå¤©": 8694,
      "è·³ä¸ĭ": 8695,
      "åĩłä¸ªäºº": 8696,
      "çģ¯ç¬¼": 8697,
      "åģĩçļĦ": 8698,
      "å·®äºĨ": 8699,
      "æĵĤ": 8700,
      "æĹ§æĹ¶": 8701,
      "åĩĢçĵ¶": 8702,
      "åĮħåĦ¿": 8703,
      "éģĩåĪ°": 8704,
      "ally": 8705,
      "è¶ĬæĢ§": 8706,
      "ï¼ģðŁĺĴ": 8707,
      "ä¸¢å¼Ģ": 8708,
      "åĶ¬äºĨä¸Ģè·³": 8709,
      "åĳ¼åĶ¤": 8710,
      "æĴŀè§ģ": 8711,
      "éĻªç¬ĳ": 8712,
      "éĨĴæĿ¥": 8713,
      "è®¤å¾Ĺæĺ¯": 8714,
      "åıĸç»ıäºº": 8715,
      "å®ĪçĿĢ": 8716,
      "æŃ¢ä¸įä½ı": 8717,
      "ä¹Łè¦ģéĹ®åĲĹ": 8718,
      "çªĹæĪ·": 8719,
      "Ġoffice": 8720,
      "Ġalready": 8721,
      "åĵªéĩĮ": 8722,
      "é£ĺé£ĺ": 8723,
      "çĤ¹å¤´éģĵ": 8724,
      "è¿ĲåĬ¨": 8725,
      "Being": 8726,
      "èĪĮå¤´": 8727,
      "å·¡å±±": 8728,
      "çĶĦå®Ŀçİī": 8729,
      "Ġmove": 8730,
      "èŃ¦å¹»": 8731,
      "éĵĥåĦ¿": 8732,
      "çº³éĹ·": 8733,
      "éŃĦæķ£": 8734,
      "é¡·åĪ»": 8735,
      "åľ¨æīĭä¸Ń": 8736,
      "Ġvirtue": 8737,
      "Ġgiven": 8738,
      "ä½łè¿ŀè¿Ļä¸ª": 8739,
      "Ġbattle": 8740,
      "ĠHereford": 8741,
      "Ġmorning": 8742,
      "å¿»çĦ¶": 8743,
      "Ġfurther": 8744,
      "OHN": 8745,
      "è§Ĥä¸ĸéŁ³": 8746,
      ".&": 8747,
      "Make": 8748,
      "NT": 8749,
      "Since": 8750,
      "mber": 8751,
      "pes": 8752,
      "rist": 8753,
      "she": 8754,
      "uous": 8755,
      "ung": 8756,
      "uff": 8757,
      "used": 8758,
      "«æĩĴ": 8759,
      "äºļ": 8760,
      "äºĨç½¢": 8761,
      "è¿Ī": 8762,
      "ä¸įä¸º": 8763,
      "ä¸įå¯¹": 8764,
      "ä¸įåłª": 8765,
      "çļĦæ¯įäº²": 8766,
      "æĺ¯èĢģåŃĻ": 8767,
      "Ġta": 8768,
      "ä¸Ģå¤§": 8769,
      "ä¸ĢçĶŁ": 8770,
      "æĪĳåĦ¿": 8771,
      "æĪĳèĩªå·±": 8772,
      "æĪĳå¿ĥéĩĮ": 8773,
      "æĿ¥æīĵ": 8774,
      "ï¼ģ(ï¿£âĸ½ï¿£": 8775,
      "éĤĵ": 8776,
      "å¥¸": 8777,
      "å¾ª": 8778,
      "Ġac": 8779,
      "éĤ£å¦ĸéŃĶ": 8780,
      "è¯´åĪ°è¿ĻéĩĮ": 8781,
      "oun": 8782,
      "æľīæĦı": 8783,
      "Ġwise": 8784,
      "ä¹Łæĺ¯ä¸ª": 8785,
      "ä¼°": 8786,
      "çĿĢæīĭ": 8787,
      "åľ¨å±ĭéĩĮ": 8788,
      "Ġburn": 8789,
      "è§ģè¯´": 8790,
      "åıĪæĬĬ": 8791,
      "åıªæ¶Ī": 8792,
      "åıªéĹ»å¾Ĺ": 8793,
      "orge": 8794,
      "å¥½ä¼¼": 8795,
      "åĵĹ": 8796,
      "æĥ«æĩĴ": 8797,
      "Ġfrown": 8798,
      "Ġfeast": 8799,
      "è¡ĮäºĨ": 8800,
      "èĢģäºº": 8801,
      "å¹¢": 8802,
      "å¹ķ": 8803,
      "å®¶çļĦäºº": 8804,
      "Ġdire": 8805,
      "esh": 8806,
      "Ġlad": 8807,
      "çľĭèµ·æĿ¥": 8808,
      "éĢ¸": 8809,
      "Ġpay": 8810,
      "çŁ¥è¯Ĩ": 8811,
      "æŀ£": 8812,
      "å°ıå¼Ł": 8813,
      "è·ĥ": 8814,
      "åı«æĪĳä»¬": 8815,
      "åĥ®": 8816,
      "å®ĿçİīåıĪ": 8817,
      "çŃīè¯Ń": 8818,
      "anus": 8819,
      "Ġgro": 8820,
      "æīĵæŀ¶": 8821,
      "æ²¡æĦıæĢĿ": 8822,
      "æ²¡è¶£": 8823,
      "é¢Ī": 8824,
      "é¢ĳ": 8825,
      "æĹłå¿ĥ": 8826,
      "ats": 8827,
      "ä»Ĭè§ģ": 8828,
      "æģ³": 8829,
      "å°ĨæĪĳ": 8830,
      "æŃ£èµ°": 8831,
      "å£ĳ": 8832,
      "è¿Ľåİ»äºĨ": 8833,
      "è¿ĽåĽŃ": 8834,
      "ï½ŀâľ¨": 8835,
      "åĽłèĢĮ": 8836,
      "è½°": 8837,
      "å±±åĩ¹": 8838,
      "é©´": 8839,
      "é©¼": 8840,
      "æĢİä¹Īä¼ļ": 8841,
      "æĺİæĺ¾": 8842,
      "æ¸Ĭ": 8843,
      "å¤ĦæĿ¥": 8844,
      "ä½ľçļĦ": 8845,
      "æĦıåĦ¿": 8846,
      "äºĨä¸Ģä¸ĭ": 8847,
      "äºĨä¸Ģä¼ļåŃĲ": 8848,
      "ç¥ŀè¯Ŀ": 8849,
      "èĥŀ": 8850,
      "æŃ»ç½ª": 8851,
      "èĹıåľ¨": 8852,
      "ä¹Łä¸įå¿ħ": 8853,
      "èı¡": 8854,
      "ï¼ģðŁĮ": 8855,
      "ï¼ģðŁĲ": 8856,
      "è¢«ä½ł": 8857,
      "æĹ©äºĽ": 8858,
      "çĶļèĩ³": 8859,
      "çĶļåĸľ": 8860,
      "Ġred": 8861,
      "çıĳ": 8862,
      "ä»İéĤ£éĩĮ": 8863,
      "ä½¿éĵģæ£Ĵ": 8864,
      "Ġsoft": 8865,
      "ä½łä»¬éĥ½": 8866,
      "æĽ´å¤ļ": 8867,
      "æĢķä»Ģä¹Ī": 8868,
      "ä½ĨæģĲ": 8869,
      "çģ«çľ¼": 8870,
      "åŃĹçļĦ": 8871,
      "è§£ä¸ĭ": 8872,
      "çİĭå¤«äººåĲ¬äºĨ": 8873,
      "each": 8874,
      "æĢ§æĥħ": 8875,
      "çĻ¾èĪ¬": 8876,
      "çłĶ": 8877,
      "ä¼¼è¿ĻèĪ¬": 8878,
      "æĮĩå¤´": 8879,
      "æ¸ħåĩĢ": 8880,
      "Ġsucc": 8881,
      "èµ¶å¿Ļ": 8882,
      "åĵŃå¾Ĺ": 8883,
      "å¼łç½Ĺ": 8884,
      "æĪĳçļĦå¿ĥ": 8885,
      "åĽŃåŃĲéĩĮ": 8886,
      "è¿ĽæĿ¥è¯´": 8887,
      "æ¹ĸ": 8888,
      "å¾Īæĺ¯": 8889,
      "çķĻçĿĢ": 8890,
      "ä¹ĿéľĦ": 8891,
      "é¬¼ä½¿": 8892,
      "æ´»çļĦ": 8893,
      "icer": 8894,
      "å¥ĩæĢªçļĦäºĭæĥħ": 8895,
      "åĬŀäºĭ": 8896,
      "Ġblack": 8897,
      "Ġgoes": 8898,
      "éº¦": 8899,
      "éģĤæŃ¤": 8900,
      "Ġsworn": 8901,
      "åģ·äºĨ": 8902,
      "ĠSignior": 8903,
      "å¤±èī²": 8904,
      "åĬĿä»ĸ": 8905,
      "çľŁçļĦå¾Ī": 8906,
      "å©ĨåŃĲä»¬": 8907,
      "elcome": 8908,
      "çİ¯åĦ¿": 8909,
      "äºĮåįģåħ«": 8910,
      "æºº": 8911,
      "Ġprop": 8912,
      "åĿĹçİī": 8913,
      "åĢŁå®¿": 8914,
      "ï¼ģ(ï¿£âĸ½ï¿£)~*": 8915,
      "æ½º": 8916,
      "æĢĢéĩĮ": 8917,
      "åıĪä¸įæĺ¯ä»Ģä¹Ī": 8918,
      "æīĺçĿĢ": 8919,
      "Ġsons": 8920,
      "è®®è®º": 8921,
      "Ġfoe": 8922,
      "Ġext": 8923,
      "ç¦ħåłĤ": 8924,
      "æ¡ĤèĬ±": 8925,
      "å¤ªåŃĲéģĵ": 8926,
      "æ¨¡æł·åĦ¿": 8927,
      "ĠTower": 8928,
      "Before": 8929,
      "Ġtrou": 8930,
      "åĤ»åŃĲ": 8931,
      "åĨ³ä¸į": 8932,
      "æ³¨æĦı": 8933,
      "Ġbegg": 8934,
      "Ġbegin": 8935,
      "å»Ĭä¸ĭ": 8936,
      "ç¬¬äºĮä¸ª": 8937,
      "Ġconsent": 8938,
      "å»ºè®®": 8939,
      "èĭįèĿĩ": 8940,
      "èıĬèĬ±": 8941,
      "æħĮäºĨéģĵ": 8942,
      "é»ĺé»ĺ": 8943,
      "åĪģéĴ»": 8944,
      "âĢ¢Ì": 8945,
      "dden": 8946,
      "Ġsoldiers": 8947,
      "æ®·åĭ¤": 8948,
      "çģ«çĦ°å±±": 8949,
      "è¿ĺäºĨå¾Ĺ": 8950,
      "èĦ¾æ°Ķ": 8951,
      "Ġrequest": 8952,
      "ĠLucentio": 8953,
      "Ġbetween": 8954,
      "å¤©ç«ºåĽ½": 8955,
      "å©´åĦ¿": 8956,
      "Ġquarrel": 8957,
      "Ġsatisf": 8958,
      "chmond": 8959,
      "21": 8960,
      "23": 8961,
      "AI": 8962,
      "AS": 8963,
      "Call": 8964,
      "IR": 8965,
      "Must": 8966,
      "Re": 8967,
      "Sw": 8968,
      "Such": 8969,
      "gare": 8970,
      "ires": 8971,
      "ures": 8972,
      "Ġè´¾æĶ¿": 8973,
      "ĠFor": 8974,
      "Ġæ¬¡æĹ¥": 8975,
      "äºĨä¸¤ä¸ª": 8976,
      "ä¸įçŃĶ": 8977,
      "ä¸įä¸ĢæĹ¶": 8978,
      "ä¸įæĦ¿æĦı": 8979,
      "æĪĳè¿ľ": 8980,
      "hem": 8981,
      "ä½łå½ĵ": 8982,
      "ä½łèİ«": 8983,
      "åŃ£": 8984,
      "å¥ģ": 8985,
      "å¥ĳ": 8986,
      "éĤ£èĪ¬": 8987,
      "åĩ¿": 8988,
      "æľīä¸¤": 8989,
      "æľīç¼ĺ": 8990,
      "Ġservant": 8991,
      "å¿ĸ": 8992,
      "èµĭ": 8993,
      "éĩĮè¿ľè¿ĳ": 8994,
      "Ġbar": 8995,
      "ä¸ĬåĨĻçĿĢ": 8996,
      "å¤§å¨ĺ": 8997,
      "å¤§åŃĹ": 8998,
      "åıĪå¥½": 8999,
      "å¥½çľĭ": 9000,
      "ç»Ĵ": 9001,
      "è¡ĮçļĦ": 9002,
      "è¡ĮåĬ¨": 9003,
      "èĢģé¾Ļ": 9004,
      "åĩºçĶŁ": 9005,
      "å¤´æĪ´": 9006,
      "éĹ®å¥½": 9007,
      "éĹ®çĤ¹": 9008,
      "Ġdro": 9009,
      "Ġdark": 9010,
      "Ġcr": 9011,
      "Ġcase": 9012,
      "çŃ¹": 9013,
      "Ġthri": 9014,
      "aris": 9015,
      "ä¾¿ä¹Ł": 9016,
      "ä¾¿åľ¨": 9017,
      "çĽ¹": 9018,
      "ç§ĺ": 9019,
      "å¤©çĶŁ": 9020,
      "åĪ°å¤Ħ": 9021,
      "è¡ĮèĢħåľ¨": 9022,
      "æĹ¥å¤ľ": 9023,
      "éĴ¥": 9024,
      "ots": 9025,
      "stand": 9026,
      "owers": 9027,
      "æİı": 9028,
      "é¢Ĥ": 9029,
      "ä»Ĭå·²": 9030,
      "ç«Ń": 9031,
      "ä¸Ģä¸ªå°ı": 9032,
      "æŃ£çĦ¶": 9033,
      "åĥ§å®ĺ": 9034,
      "è¿ĽåĨħ": 9035,
      "ç®¸": 9036,
      "åĽłåĲĳ": 9037,
      "åĲİæĸĩ": 9038,
      "åĲİæĤĶ": 9039,
      "èĥ½ä¸įèĥ½": 9040,
      "æµ¸": 9041,
      "irm": 9042,
      "æĺİæĹ©": 9043,
      "æ°´æĿ¥": 9044,
      "éķ¿äºĨ": 9045,
      "åĪ«æĥ³": 9046,
      "äºĳç«¯": 9047,
      "ä¸ľæĸ¹": 9048,
      "èĩ³å°ĳ": 9049,
      "æĶ¾ä»ĸ": 9050,
      "ï¼ģðŁį": 9051,
      "çĽ¸åħ¬": 9052,
      "æ»Ķ": 9053,
      "æ»ŀ": 9054,
      "å¾Ģè¥¿": 9055,
      "æķ¢éĹ®": 9056,
      "äºĶæĹ¥": 9057,
      "é«ĺä½İ": 9058,
      "é»ĽçİīåĲ¬äºĨ": 9059,
      "çĲĨè§£": 9060,
      "æĢ¥å¾Ĺ": 9061,
      "éħĴæĿ¥": 9062,
      "å¹²äºĨ": 9063,
      "çĹħæĿ¥": 9064,
      "çĲıäºĮå¥¶å¥¶": 9065,
      "çħŀ": 9066,
      "ç¬¬äºĶåįģ": 9067,
      "æĢĿéĩı": 9068,
      "æ»¡å¤©": 9069,
      "Ġloves": 9070,
      "âķ®": 9071,
      "ĠCh": 9072,
      "æ¹¾": 9073,
      "ç´§ç´§": 9074,
      "ä¸įè¦ģèµ°": 9075,
      "ends": 9076,
      "è·³ä¸Ĭ": 9077,
      "é¡»è¦ģ": 9078,
      "Ġbless": 9079,
      "ä¸ĥåįģäºĮ": 9080,
      "empt": 9081,
      "åģĩèĭ¥": 9082,
      "æľ¨æ¯į": 9083,
      "Ġthence": 9084,
      "çĮªç¾Ĭ": 9085,
      "Ġworth": 9086,
      "è®²ç©¶": 9087,
      "ï¼ŁðŁ¤¢": 9088,
      "å°ĬèĢħ": 9089,
      "æķ´è¡£": 9090,
      "æĿİçº¨ç¬ĳéģĵ": 9091,
      "åª³å¦ĩä»¬": 9092,
      "å´©": 9093,
      "éĤªéŃĶ": 9094,
      "ĠAufidius": 9095,
      "æ½®": 9096,
      "æ½Ń": 9097,
      "CATES": 9098,
      "èĨĬ": 9099,
      "åĵĦæĪĳ": 9100,
      "æĬ±çĿĢ": 9101,
      "èİ²åı°": 9102,
      "Ġexp": 9103,
      "èħ¾äºĳ": 9104,
      "åıĺä½ľä¸ª": 9105,
      "å¼ĢäºĨéĹ¨": 9106,
      "åŃĺåľ¨": 9107,
      "awd": 9108,
      "Ġpresence": 9109,
      "åĸĤåĸĤ": 9110,
      "ä¸Ģä¸ĢçļĦ": 9111,
      "Ġpriv": 9112,
      "è¾ĵäºĨ": 9113,
      "ãģ¸": 9114,
      "å¾Ģè¥¿å¤©åıĸç»ı": 9115,
      "Unless": 9116,
      "ä¸įæīĵç´§": 9117,
      "Alas": 9118,
      "Ġwounds": 9119,
      "ä¹Łæľªåı¯çŁ¥": 9120,
      "Ġdangerous": 9121,
      "Because": 9122,
      "æ¤įçī©": 9123,
      "èĥŃèĦĤ": 9124,
      "éĢįéģ¥": 9125,
      "çİ²çıĳ": 9126,
      "garet": 9127,
      "CATESBY": 9128,
      "LY": 9129,
      "oll": 9130,
      "that": 9131,
      "Ġä¸ĢæĹ¥": 9132,
      "ĸåķ": 9133,
      "ï¼į": 9134,
      "äºĨåĳ¢": 9135,
      "ä½ĳ": 9136,
      "ä¸įä¸İ": 9137,
      "ä¸įçĽ¸": 9138,
      "ä¸įéĺ²": 9139,
      "ä¸įæĭĺ": 9140,
      "æĪ³": 9141,
      "è¯Ī": 9142,
      "æĺ¯ä¸Ģä¸ª": 9143,
      "åĲģ": 9144,
      "æĪĳæĺ¯ä¸ª": 9145,
      "æĪĳè®°å¾Ĺ": 9146,
      "æĿ¥è§ģ": 9147,
      "äººé©¬": 9148,
      "åŃŁ": 9149,
      "è¿Ļçķª": 9150,
      "æī¢": 9151,
      "éĤ£å°ı": 9152,
      "éĤ£æĸ¹": 9153,
      "éĤ£åĶĲåĥ§": 9154,
      "è¯´äºĽ": 9155,
      "è¯´æ³ķ": 9156,
      "Ġsigh": 9157,
      "åİ»è§ģ": 9158,
      "åİ»ä¹°": 9159,
      "ä¹Łç¬ĳéģĵ": 9160,
      "åľ¨ä¸Ĭ": 9161,
      "åľ¨æĹģè¾¹": 9162,
      "Ġble": 9163,
      "å¤§ç¬ĳ": 9164,
      "å¤§åıĳæħĪæĤ²": 9165,
      "è§ģä¸Ģ": 9166,
      "è§ģä½Ľ": 9167,
      "åıªæķĻ": 9168,
      "åıªæ±Ĥ": 9169,
      "åıªæģĲ": 9170,
      "æķ·": 9171,
      "ç»Ĭ": 9172,
      "ä¾®": 9173,
      "å°±åıª": 9174,
      "æĭĮ": 9175,
      "è¡Įèµ°": 9176,
      "å®Ŀä¸«å¤´": 9177,
      "ä¸ĭèĲ½": 9178,
      "ona": 9179,
      "onour": 9180,
      "çĪµ": 9181,
      "çĪ»": 9182,
      "éĹ®æĽ°": 9183,
      "çľĭåľ¨": 9184,
      "ç¬ĳæŃ»": 9185,
      "åĴĦ": 9186,
      "åĴĸåķ": 9187,
      "ä¾¿å°±": 9188,
      "ç§¤": 9189,
      "ç§½": 9190,
      "Ġhot": 9191,
      "è¿ĩå±±": 9192,
      "å¯ħ": 9193,
      "èµ·çļĦ": 9194,
      "èµ·ä¸ª": 9195,
      "å®ĿçİīåĽł": 9196,
      "ç½Ĳ": 9197,
      "ä¸īä¼Ĺ": 9198,
      "çŃīä½ł": 9199,
      "çŃīåĪ°": 9200,
      "ä¸¤å¤Ħ": 9201,
      "æİª": 9202,
      "Ġgot": 9203,
      "æĹłè¸ª": 9204,
      "æīįå¾Ĺ": 9205,
      "æģĴ": 9206,
      "å°Ĩå°±": 9207,
      "åĲĥå¾Ĺ": 9208,
      "å¤ļè°¢": 9209,
      "Ġinter": 9210,
      "ä½ķä»¥": 9211,
      "ä½ķå¹²": 9212,
      "ä½ķå°Ŀ": 9213,
      "æĢªæĪĳ": 9214,
      "å¦ĸçĮ´": 9215,
      "çĶ¨å¿ĥ": 9216,
      "æĢİä¹ĪäºĨ": 9217,
      "ä½ľçĶ¨": 9218,
      "çĥ¹": 9219,
      "å½ĵåĪĿ": 9220,
      "èĤ´": 9221,
      "ç²ĺ": 9222,
      "åĽĽæĹ¶": 9223,
      "å¼Ģæ°´": 9224,
      "å¼Ģè·¯": 9225,
      "Ġund": 9226,
      "æīĭä¸Ń": 9227,
      "æŃ»åİ»": 9228,
      "Ġev": 9229,
      "æľ¬ä¹¦": 9230,
      "æ³ķåĲį": 9231,
      "äºĶèī²": 9232,
      "åıĸæĿ¥": 9233,
      "èĩªå·±æĺ¯": 9234,
      "æĽ´ä¸įæĽ¾": 9235,
      "ä»Ļç«¥": 9236,
      "åħ¥äºĨ": 9237,
      "è§£æķ°": 9238,
      "æĿİæ°ı": 9239,
      "æĢ§æł¼": 9240,
      "åĮĸä¸º": 9241,
      "å¿µä¸ª": 9242,
      "çĹħçļĦ": 9243,
      "ç¬¬ä¸ī": 9244,
      "èİ«æĢķ": 9245,
      "ä¸ĸä¸Ĭ": 9246,
      "Ġsum": 9247,
      "çľŁæĺ¯ç¬¨èĽĭåĳ¢": 9248,
      "æĪĳçļĦè¯Ŀ": 9249,
      "çªĥ": 9250,
      "è®¤äºĨ": 9251,
      "âķŃ": 9252,
      "æľįäºĨ": 9253,
      "Ġneither": 9254,
      "æĬ¥ä¸İ": 9255,
      "Ġvict": 9256,
      "éĹ¹äºĨ": 9257,
      "éĹ¹åĩº": 9258,
      "æĻļäºĨ": 9259,
      "çķĻç¥ŀ": 9260,
      "ä½ĵç»Ł": 9261,
      "æģĲæĢĸ": 9262,
      "å¾ĦåĪ°": 9263,
      "å¾Ħè½¬": 9264,
      "é»Ħé£İ": 9265,
      "çıįå¤§çĪ·": 9266,
      "åĻª": 9267,
      "emn": 9268,
      "çģ¯åħī": 9269,
      "ĠLond": 9270,
      "çĨĻ": 9271,
      "çĥŁçģ«": 9272,
      "èĴ²": 9273,
      "æĸĭé¥Ń": 9274,
      "åģ·åģ·": 9275,
      "ĠSir": 9276,
      "æľĢå¤ļ": 9277,
      "åħ´å¤´": 9278,
      "çļ®èĤ¤": 9279,
      "ĠVols": 9280,
      "æ¥¼ä¸ĭ": 9281,
      "æ²³è¾¹": 9282,
      "cient": 9283,
      "æĿ¾æŀĹ": 9284,
      "æĸ½å¨ģ": 9285,
      "è·ªåľ¨": 9286,
      "æ²¹éĶħ": 9287,
      "é¸¡èĽĭ": 9288,
      "éĤ£èĢģéŃĶ": 9289,
      "çĻ»æĹ¶": 9290,
      "æ¸©æŁĶ": 9291,
      "åĩŃä½ł": 9292,
      "èĥĨæĪĺ": 9293,
      "Ġwars": 9294,
      "Ġflatter": 9295,
      "èĶ¬": 9296,
      "éļĶçĿĢ": 9297,
      "éĤ£æĹ¶èĬĤ": 9298,
      "è¯´å¾ĹæľīçĲĨ": 9299,
      "Ġmighty": 9300,
      "çķľçĶŁ": 9301,
      "Ġrespect": 9302,
      "Ġdread": 9303,
      "åĿłåĦ¿": 9304,
      "æĭ½å¼Ģ": 9305,
      "Ġbride": 9306,
      "Ġbrief": 9307,
      "åİ¨æĪ¿": 9308,
      "Ġthrone": 9309,
      "å°±å¥½åķ¦": 9310,
      "èį·åĮħ": 9311,
      "Ġemb": 9312,
      "Ġvoice": 9313,
      "èįĨæ£ĺ": 9314,
      "aptist": 9315,
      "Ġdeny": 9316,
      "Ġspoke": 9317,
      "Ġwater": 9318,
      "è¿Ļç§įæĹłèģĬçļĦéĹ®é¢ĺ": 9319,
      "Ġvisit": 9320,
      "æį»çĿĢè¯Ģ": 9321,
      "è¾ľè´Ł": 9322,
      "èī°éļ¾": 9323,
      "èĺħèĬľ": 9324,
      "åĴĸåķ¡": 9325,
      "ĠLondon": 9326,
      "Both": 9327,
      "BIAN": 9328,
      "JOHN": 9329,
      "Lest": 9330,
      "Rome": 9331,
      "REY": 9332,
      "Yes": 9333,
      "eorge": 9334,
      "ip": 9335,
      "iant": 9336,
      "mand": 9337,
      "ught": 9338,
      "çĢ": 9339,
      "Ġéĩĳ": 9340,
      "Ġåĵ¼": 9341,
      "Ġest": 9342,
      "ä¸įä¸ĭ": 9343,
      "ä¸įå¼Ģ": 9344,
      "ä¸įæŃ»": 9345,
      "ä¸įæŃ¢": 9346,
      "ä¹Ĵ": 9347,
      "çļĦæķħäºĭ": 9348,
      "æĪĪ": 9349,
      "å®¦": 9350,
      "ä¸Ģè¯´": 9351,
      "ä¸Ģèº«": 9352,
      "ä¸Ģä¸ĩ": 9353,
      "æĪĳä¸º": 9354,
      "æĪĳå¸Ī": 9355,
      "æĪĳæĿ¥äºĨ": 9356,
      "æĿ¥å¾Ĺ": 9357,
      "ä½łèĩªå·±": 9358,
      "éĤ£å®Ŀçİī": 9359,
      "éĤ£ä¸īä¸ª": 9360,
      "åĩĽ": 9361,
      "æľīåĲį": 9362,
      "æľīè¿Ļæł·": 9363,
      "Ġmal": 9364,
      "Ġmortal": 9365,
      "ä¹Łä¸įçŁ¥éģĵ": 9366,
      "çĿĢèĦ¸": 9367,
      "åľ¨èĢģå¤ªå¤ª": 9368,
      "Ġbow": 9369,
      "Ġbab": 9370,
      "è´¡": 9371,
      "å¤§åľ°": 9372,
      "åĦ¿åŃĻ": 9373,
      "å¾Ĺå¾Ī": 9374,
      "å¥½åķ¦": 9375,
      "Ġfra": 9376,
      "ern": 9377,
      "æĭ¢": 9378,
      "è¡Įèĩ³": 9379,
      "èĢģäºĨ": 9380,
      "æ²Ł": 9381,
      "è¦ģè§ģ": 9382,
      "çŁ®": 9383,
      "éĹ®ä¸ª": 9384,
      "éĹ®èµ·": 9385,
      "çľĭåİ»": 9386,
      "éĥ½ä¼ļ": 9387,
      "åĽŀåİ»ç½¢": 9388,
      "ä¾¿äºĨ": 9389,
      "ä¾¿å¿Ļ": 9390,
      "ä¾¿èµ·èº«": 9391,
      "ç§Ł": 9392,
      "Ġhur": 9393,
      "Ġtown": 9394,
      "æĹ¶çļĦ": 9395,
      "æĹ¥ä¹ħ": 9396,
      "èĩªè§ī": 9397,
      "äºĮéĹ¨": 9398,
      "äºĮèĢģçĪ·": 9399,
      "åı«ä½ľ": 9400,
      "å®Ŀçİīä¹Ł": 9401,
      "çŃīéĥ½": 9402,
      "çŃīä¼Ĺ": 9403,
      "Ġoften": 9404,
      "è°£": 9405,
      "è¾ĳ": 9406,
      "è¾Ķ": 9407,
      "è¾ĸ": 9408,
      "æīĵèµ·": 9409,
      "æīĵæŃ»äºĨ": 9410,
      "é¢¦": 9411,
      "é¢ĩ": 9412,
      "èĦĸ": 9413,
      "æĽľ": 9414,
      "åīįäºĭ": 9415,
      "æĬĬå¤´": 9416,
      "èĬ½": 9417,
      "ä»ĬæĹ©": 9418,
      "ä»ĬæľĿ": 9419,
      "æīįè¯´": 9420,
      "æīįåĪļ": 9421,
      "ä¸Ģä¸ªå¤§": 9422,
      "æŃ£æľĪ": 9423,
      "é£Ĵ": 9424,
      "åį´ä¸įçŁ¥": 9425,
      "åį´è¢«": 9426,
      "å¤ļå¤ļ": 9427,
      "å¤ļæĹ©æĻļ": 9428,
      "Ġhaving": 9429,
      "èµ°çļĦ": 9430,
      "æĸ¹åĽŀ": 9431,
      "æĸ¹çŁ¥": 9432,
      "ä½ķäºº": 9433,
      "æ¯įåŃĲ": 9434,
      "ä¸Ńåįİ": 9435,
      "å½ĵçĿĢ": 9436,
      "å½ĵéĵº": 9437,
      "æĤī": 9438,
      "åĨįä¸įæķ¢": 9439,
      "éĵĻ": 9440,
      "ä¸Ķä¸į": 9441,
      "åĺŁ": 9442,
      "éĤ£éĩĮè¿ĺ": 9443,
      "åĽĽæĽ´": 9444,
      "åĽĽå§ĳå¨ĺ": 9445,
      "ä¸įçŁ¥å¥½æŃ¹": 9446,
      "ç¥ŀå°Ĩ": 9447,
      "æį¡": 9448,
      "èĥĢ": 9449,
      "æŀľåĵģ": 9450,
      "åıĳçĭł": 9451,
      "åŃĻå¥³åĦ¿": 9452,
      "èĢĮè¡Į": 9453,
      "æ£ī": 9454,
      "æ£ļ": 9455,
      "éļ¾è¡Į": 9456,
      "éļ¾ç¦ģ": 9457,
      "çĭŃ": 9458,
      "right": 9459,
      "çĽ¸ä¼ļ": 9460,
      "å¾ĢéĤ£": 9461,
      "çľ¼åħī": 9462,
      "åĨħå¤ĸ": 9463,
      "åĽ½åħ¬": 9464,
      "åį³åĶ¤": 9465,
      "å§ĳçĪ·": 9466,
      "ided": 9467,
      "é«ĺå£°": 9468,
      "ï¼ŁðŁĴ": 9469,
      "æľĪçļĦ": 9470,
      "è¿ŀå¤ľ": 9471,
      "é¦Ļçģ«": 9472,
      "åıªè§ģå®Ŀçİī": 9473,
      "æ²¡æľīä»Ģä¹Ī": 9474,
      "æĴ¤": 9475,
      "æ¶¨": 9476,
      "å®ŀéĻħ": 9477,
      "æĢ¥åĽŀå¤´": 9478,
      "å¥¶å¥¶ä»¬": 9479,
      "æ´ŀå¤ĸ": 9480,
      "è·ŁæĪĳ": 9481,
      "åºľä¸Ĭ": 9482,
      "Ġsudden": 9483,
      "rum": 9484,
      "å¯»æŃ»": 9485,
      "åħ¶æĦı": 9486,
      "Ġancient": 9487,
      "è´¾çĲıç¬ĳéģĵ": 9488,
      "Ġspeech": 9489,
      "åħ³éĹ¨": 9490,
      "å¼Ħåĩº": 9491,
      "Ġvow": 9492,
      "é¼į": 9493,
      "å¾ĪæŃ£å¸¸": 9494,
      "åİŁæĿ¥æĺ¯ä¸ª": 9495,
      "ä¿¡åĦ¿": 9496,
      "çļĨæľī": 9497,
      "é¢ĨçĿĢ": 9498,
      "æł¹æį®": 9499,
      "èĦļä¸ĭ": 9500,
      "æ´»çĿĢ": 9501,
      "çĶµæ±ł": 9502,
      "ä»¤éĥİ": 9503,
      "æ¯ıå¹´": 9504,
      "æıĲçĿĢ": 9505,
      "å®³äºĨ": 9506,
      "éĻįé¾Ļ": 9507,
      "ĠGeorge": 9508,
      "çģ¯çģ«": 9509,
      "æĿĢäºº": 9510,
      "æĿĢæĪĳä¹Ł": 9511,
      "çĵ£": 9512,
      "äº¤ä¸İ": 9513,
      "ç¦»æĪĳè¿ľ": 9514,
      "Ġloved": 9515,
      "æ´ĹäºĨ": 9516,
      "Ġkings": 9517,
      "ĠBaptist": 9518,
      "çī¹åĪ«": 9519,
      "çī¹æ®Ĭ": 9520,
      "Ġworship": 9521,
      "LIA": 9522,
      "æĮīä¸ĭäºĳå¤´": 9523,
      "åĻ¨æ¢°": 9524,
      "åģıçĶŁ": 9525,
      "ĠParis": 9526,
      "Ġsafe": 9527,
      "è§ĴéĹ¨": 9528,
      "é¡¾ä¸įå¾Ĺ": 9529,
      "éĶ¦ç»£": 9530,
      "ä¸Ĭåīįéģĵ": 9531,
      "éĻ¤éĿŀ": 9532,
      "ç»Īèº«": 9533,
      "ired": 9534,
      "éĴ»é£İ": 9535,
      "éľ²åĩº": 9536,
      "å¤©çİĭéģĵ": 9537,
      "åħ¬ä¸»éģĵ": 9538,
      "åĴ¬çīĻ": 9539,
      "èº²è¿ĩ": 9540,
      "ä¸´åĩ¡": 9541,
      "åĲ«ç¬ĳ": 9542,
      "åĿıæİī": 9543,
      "ainted": 9544,
      "ç¥ŃèµĽ": 9545,
      "å¿½çĦ¶æĥ³èµ·": 9546,
      "BAL": 9547,
      "å°¸é¦ĸ": 9548,
      "å½¼æĹ¶": 9549,
      "ĠMargaret": 9550,
      "ç³Ĭæ¶ĤäºĨ": 9551,
      "Ġprincely": 9552,
      "BRA": 9553,
[...]
