{
  "version": "1.0",
  "truncation": null,
  "padding": null,
  "added_tokens": [
    {
      "id": 0,
      "content": "<|pad|>",
      "single_word": false,
      "lstrip": false,
      "rstrip": false,
      "normalized": false,
      "special": true
    },
    {
      "id": 1,
      "content": "<|unk|>",
      "single_word": false,
      "lstrip": false,
      "rstrip": false,
      "normalized": false,
      "special": true
    },
    {
      "id": 2,
      "content": "<|end|>",
      "single_word": false,
      "lstrip": false,
      "rstrip": false,
      "normalized": false,
      "special": true
    },
    {
      "id": 3,
      "content": "<|user|>",
      "single_word": false,
      "lstrip": false,
      "rstrip": false,
      "normalized": false,
      "special": true
    },
    {
      "id": 4,
      "content": "<|assistant|>",
      "single_word": false,
      "lstrip": false,
      "rstrip": false,
      "normalized": false,
      "special": true
    }
  ],
  "normalizer": {
    "type": "NFC"
  },
  "pre_tokenizer": {
    "type": "ByteLevel",
    "add_prefix_space": false,
    "trim_offsets": true,
    "use_regex": true
  },
  "post_processor": null,
  "decoder": {
    "type": "ByteLevel",
    "add_prefix_space": true,
    "trim_offsets": true,
    "use_regex": true
  },
  "model": {
    "type": "BPE",
    "dropout": null,
    "unk_token": "<|unk|>",
    "continuing_subword_prefix": null,
    "end_of_word_suffix": null,
    "fuse_unk": false,
    "byte_fallback": false,
    "ignore_merges": false,
    "vocab": {
      "<|pad|>": 0,
      "<|unk|>": 1,
      "<|end|>": 2,
      "<|user|>": 3,
      "<|assistant|>": 4,
      "!": 5,
      "\"": 6,
      "#": 7,
      "$": 8,
      "%": 9,
      "&": 10,
      "'": 11,
      "(": 12,
      ")": 13,
      "*": 14,
      "+": 15,
      ",": 16,
      "-": 17,
      ".": 18,
      "/": 19,
      "0": 20,
      "1": 21,
      "2": 22,
      "3": 23,
      "4": 24,
      "5": 25,
      "6": 26,
      "7": 27,
      "8": 28,
      "9": 29,
      ":": 30,
      ";": 31,
      "<": 32,
      "=": 33,
      ">": 34,
      "?": 35,
      "@": 36,
      "A": 37,
      "B": 38,
      "C": 39,
      "D": 40,
      "E": 41,
      "F": 42,
      "G": 43,
      "H": 44,
      "I": 45,
      "J": 46,
      "K": 47,
      "L": 48,
      "M": 49,
      "N": 50,
      "O": 51,
      "P": 52,
      "Q": 53,
      "R": 54,
      "S": 55,
      "T": 56,
      "U": 57,
      "V": 58,
      "W": 59,
      "X": 60,
      "Y": 61,
      "Z": 62,
      "[": 63,
      "\\": 64,
      "]": 65,
      "^": 66,
      "_": 67,
      "`": 68,
      "a": 69,
      "b": 70,
      "c": 71,
      "d": 72,
      "e": 73,
      "f": 74,
      "g": 75,
      "h": 76,
      "i": 77,
      "j": 78,
      "k": 79,
      "l": 80,
      "m": 81,
      "n": 82,
      "o": 83,
      "p": 84,
      "q": 85,
      "r": 86,
      "s": 87,
      "t": 88,
      "u": 89,
      "v": 90,
      "w": 91,
      "x": 92,
      "y": 93,
      "z": 94,
      "{": 95,
      "|": 96,
      "}": 97,
      "~": 98,
      "¡": 99,
      "¢": 100,
      "£": 101,
      "¤": 102,
      "¥": 103,
      "¦": 104,
      "§": 105,
      "¨": 106,
      "©": 107,
      "ª": 108,
      "«": 109,
      "¬": 110,
      "®": 111,
      "¯": 112,
      "°": 113,
      "±": 114,
      "²": 115,
      "³": 116,
      "´": 117,
      "µ": 118,
      "¶": 119,
      "·": 120,
      "¸": 121,
      "¹": 122,
      "º": 123,
      "»": 124,
      "¼": 125,
      "½": 126,
      "¾": 127,
      "¿": 128,
      "À": 129,
      "Á": 130,
      "Â": 131,
      "Ã": 132,
      "Ä": 133,
      "Å": 134,
      "Æ": 135,
      "Ç": 136,
      "È": 137,
      "É": 138,
      "Ê": 139,
      "Ë": 140,
      "Ì": 141,
      "Í": 142,
      "Î": 143,
      "Ï": 144,
      "Ð": 145,
      "Ñ": 146,
      "Ò": 147,
      "Ó": 148,
      "Ô": 149,
      "Õ": 150,
      "Ö": 151,
      "×": 152,
      "Ø": 153,
      "Ù": 154,
      "Ú": 155,
      "Û": 156,
      "Ü": 157,
      "Ý": 158,
      "Þ": 159,
      "ß": 160,
      "à": 161,
      "á": 162,
      "â": 163,
      "ã": 164,
      "ä": 165,
      "å": 166,
      "æ": 167,
      "ç": 168,
      "è": 169,
      "é": 170,
      "ê": 171,
      "ë": 172,
      "ì": 173,
      "í": 174,
      "î": 175,
      "ï": 176,
      "ð": 177,
      "ñ": 178,
      "ò": 179,
      "ó": 180,
      "ô": 181,
      "õ": 182,
      "ö": 183,
      "÷": 184,
      "ø": 185,
      "ù": 186,
      "ú": 187,
      "û": 188,
      "ü": 189,
      "ý": 190,
      "þ": 191,
      "ÿ": 192,
      "Ā": 193,
      "ā": 194,
      "Ă": 195,
      "ă": 196,
      "Ą": 197,
      "ą": 198,
      "Ć": 199,
      "ć": 200,
      "Ĉ": 201,
      "ĉ": 202,
      "Ċ": 203,
      "ċ": 204,
      "Č": 205,
      "č": 206,
      "Ď": 207,
      "ď": 208,
      "Đ": 209,
      "đ": 210,
      "Ē": 211,
      "ē": 212,
      "Ĕ": 213,
      "ĕ": 214,
      "Ė": 215,
      "ė": 216,
      "Ę": 217,
      "ę": 218,
      "Ě": 219,
      "ě": 220,
      "Ĝ": 221,
      "ĝ": 222,
      "Ğ": 223,
      "ğ": 224,
      "Ġ": 225,
      "ġ": 226,
      "Ģ": 227,
      "ģ": 228,
      "Ĥ": 229,
      "ĥ": 230,
      "Ħ": 231,
      "ħ": 232,
      "Ĩ": 233,
      "ĩ": 234,
      "Ī": 235,
      "ī": 236,
      "Ĭ": 237,
      "ĭ": 238,
      "Į": 239,
      "į": 240,
      "İ": 241,
      "ı": 242,
      "Ĳ": 243,
      "ĳ": 244,
      "Ĵ": 245,
      "ĵ": 246,
      "Ķ": 247,
      "ķ": 248,
      "ĸ": 249,
      "Ĺ": 250,
      "ĺ": 251,
      "Ļ": 252,
      "ļ": 253,
      "Ľ": 254,
      "ľ": 255,
      "Ŀ": 256,
      "ŀ": 257,
      "Ł": 258,
      "ł": 259,
      "Ń": 260,
      "ï¼": 261,
      "ï¼Į": 262,
      "ä¸": 263,
      "ãĢ": 264,
      "ãĢĤ": 265,
      "âĢ": 266,
      "Ġt": 267,
      "äº": 268,
      "he": 269,
      "å¤": 270,
      "åı": 271,
      "ï¼ļ": 272,
      "Ġa": 273,
      "ou": 274,
      "éģ": 275,
      "Ġs": 276,
      "ä»": 277,
      "ä½": 278,
      "âĢľ": 279,
      "âĢĿ": 280,
      "éģĵ": 281,
      "æĪ": 282,
      "ï¼ļâĢľ": 283,
      "Ġm": 284,
      "in": 285,
      "Ġw": 286,
      "ä¹": 287,
      "èĢ": 288,
      "re": 289,
      "ha": 290,
      "è¿": 291,
      "æĺ": 292,
      "ä¸į": 293,
      "åħ": 294,
      "æľ": 295,
      "å°": 296,
      "nd": 297,
      "Ġthe": 298,
      "ä¸Ģ": 299,
      "Ġb": 300,
      "æĿ": 301,
      "çļ": 302,
      "äºĨ": 303,
      "éĤ": 304,
      "åĲ": 305,
      "åį": 306,
      "éĤ£": 307,
      "is": 308,
      "åľ": 309,
      "å®": 310,
      "æĪĳ": 311,
      "or": 312,
      "çļĦ": 313,
      "æĹ": 314,
      "å¾": 315,
      "æĺ¯": 316,
      "è¡": 317,
      "Ġf": 318,
      "er": 319,
      "ll": 320,
      "è¯": 321,
      "æī": 322,
      "ï¼ģ": 323,
      "it": 324,
      "æĿ¥": 325,
      "on": 326,
      "ä»ĸ": 327,
      "ä¸ª": 328,
      "åŃ": 329,
      "ãĢĤâĢĿ": 330,
      "è¡Į": 331,
      "æĢ": 332,
      "ä½ł": 333,
      "Ġd": 334,
      "Ġc": 335,
      "åİ": 336,
      "éĩ": 337,
      "è§": 338,
      "es": 339,
      "éĹ": 340,
      "en": 341,
      "Ġn": 342,
      "Ġl": 343,
      "Ġy": 344,
      "èĢħ": 345,
      "å¦": 346,
      "æŃ": 347,
      "åĽ": 348,
      "Ġth": 349,
      "ar": 350,
      "æľī": 351,
      "åĪ": 352,
      "Ġh": 353,
      "Ġo": 354,
      "Ġto": 355,
      "Ġyou": 356,
      "åĩ": 357,
      "å¸": 358,
      "Ġp": 359,
      "å¤§": 360,
      "hat": 361,
      "ä¼": 362,
      "è¡ĮèĢħ": 363,
      "å¿": 364,
      "æķ": 365,
      "çİ": 366,
      "å¥": 367,
      "è¿Ļ": 368,
      "ĠI": 369,
      "çĶ": 370,
      "Ġhe": 371,
      "æĬ": 372,
      "çľ": 373,
      "ï¼Ł": 374,
      "ä¸Ĭ": 375,
      "å¾Ĺ": 376,
      "ve": 377,
      "ot": 378,
      "å¼": 379,
      "äºº": 380,
      "èµ": 381,
      "æĸ": 382,
      "åİ»": 383,
      "st": 384,
      "Ġand": 385,
      "ow": 386,
      "ing": 387,
      "an": 388,
      "Ġof": 389,
      "åľ¨": 390,
      "om": 391,
      "ä¸ī": 392,
      "Ġg": 393,
      "è§ģ": 394,
      "èĢģ": 395,
      "æĭ": 396,
      "at": 397,
      "ĥ§": 398,
      "åŃĲ": 399,
      "Ġbe": 400,
      "çĿ": 401,
      "ä¸ĭ": 402,
      "ä¹Ł": 403,
      "se": 404,
      "éĩĮ": 405,
      "åĥ§": 406,
      "ç»": 407,
      "å±": 408,
      "çĪ": 409,
      "ãĢģ": 410,
      "Ġmy": 411,
      "çİĭ": 412,
      "ï¼ŁâĢĿ": 413,
      "å¤©": 414,
      "Ġin": 415,
      "ce": 416,
      "ä¹ĭ": 417,
      "Ġha": 418,
      "åĳ": 419,
      "æ²": 420,
      "å¸Ī": 421,
      "le": 422,
      "çĿĢ": 423,
      "åıĪ": 424,
      "åĵ": 425,
      "ay": 426,
      "è¯´": 427,
      "åıª": 428,
      "å¯": 429,
      "çĽ": 430,
      "å¹": 431,
      "åī": 432,
      "åĩº": 433,
      "ï¼ģâĢĿ": 434,
      "åħ«": 435,
      "ld": 436,
      "ir": 437,
      "et": 438,
      "å¦ĸ": 439,
      "çŃ": 440,
      "è·": 441,
      "ed": 442,
      "ä¸İ": 443,
      "èĩ": 444,
      "åĬ": 445,
      "éĢ": 446,
      "ut": 447,
      "è®": 448,
      "åĶ": 449,
      "å¤´": 450,
      "Ħ¿": 451,
      "å°±": 452,
      "æŃ¤": 453,
      "åĨ": 454,
      "ç¥": 455,
      "æ°": 456,
      "çŁ": 457,
      "å±±": 458,
      "Ġme": 459,
      "im": 460,
      "ith": 461,
      "çľĭ": 462,
      "åį´": 463,
      "åĦ¿": 464,
      "'s": 465,
      "Ġnot": 466,
      "ch": 467,
      "çģ": 468,
      "æŀ": 469,
      "ä¸Ń": 470,
      "ĥ½": 471,
      "èº": 472,
      "åĸ": 473,
      "Ġthat": 474,
      "å°Ĩ": 475,
      "åģ": 476,
      "å½": 477,
      "Ġis": 478,
      "gh": 479,
      "é£": 480,
      "å¥½": 481,
      "And": 482,
      "æĪĴ": 483,
      "çĪ¶": 484,
      "å¦Ĥ": 485,
      "åīį": 486,
      "é©": 487,
      "Ġfor": 488,
      "æ³": 489,
      "å·": 490,
      "è´": 491,
      "éĹ¨": 492,
      "åº": 493,
      "ke": 494,
      "Ġu": 495,
      "åħ«æĪĴ": 496,
      "æĹł": 497,
      "çī": 498,
      "ç¬": 499,
      "å£": 500,
      "æĮ": 501,
      "our": 502,
      "æĹ¶": 503,
      "æĥ": 504,
      "Ġwe": 505,
      "oo": 506,
      "åľ£": 507,
      "æ¯": 508,
      "ill": 509,
      "æĬĬ": 510,
      "èĹ": 511,
      "Ġe": 512,
      "è¾": 513,
      "æĽ": 514,
      "éĿ": 515,
      "her": 516,
      "æīĵ": 517,
      "èº«": 518,
      "æĶ": 519,
      "åĴ": 520,
      "å°ı": 521,
      "Ġwith": 522,
      "çŃī": 523,
      "ä¾": 524,
      "ent": 525,
      "å¸ĪçĪ¶": 526,
      "ç½": 527,
      "èĹı": 528,
      "Ġit": 529,
      "çĮ": 530,
      "èĭ": 531,
      "è¡ĮèĢħéģĵ": 532,
      "å¿ĥ": 533,
      "Ġyour": 534,
      "éķ": 535,
      "éĻ": 536,
      "æĢª": 537,
      "ad": 538,
      "åįģ": 539,
      "ç©": 540,
      "åĽŀ": 541,
      "ï¼Ľ": 542,
      "ä¹Ī": 543,
      "åĪ°": 544,
      "ri": 545,
      "æ´": 546,
      "¦ģ": 547,
      "åı«": 548,
      "éĴ": 549,
      "åĶĲ": 550,
      "éĺ": 551,
      "Ġthou": 552,
      "æģ": 553,
      "Ġst": 554,
      "æł": 555,
      "æİ": 556,
      "æµ": 557,
      "ä½ķ": 558,
      "éķ¿": 559,
      "'d": 560,
      "¨Ģ": 561,
      "è¦ģ": 562,
      "æīĭ": 563,
      "éļ": 564,
      "åŃĻ": 565,
      "éĩĳ": 566,
      "Ġk": 567,
      "ome": 568,
      "æĹ¥": 569,
      "ç²": 570,
      "æĢİ": 571,
      "ä¿": 572,
      "çĶŁ": 573,
      "ä»¬": 574,
      "Ġhis": 575,
      "ä¸īèĹı": 576,
      "è¨Ģ": 577,
      "çŁ¥": 578,
      "ght": 579,
      "EN": 580,
      "è°": 581,
      "äºĮ": 582,
      "æŃ£": 583,
      "ä¸¤": 584,
      "éĽ": 585,
      "å®¶": 586,
      "ord": 587,
      "id": 588,
      "The": 589,
      "as": 590,
      "èĲ": 591,
      "ä¸Ģä¸ª": 592,
      "ç¥ŀ": 593,
      "åĮ": 594,
      "Ġre": 595,
      "ä¸º": 596,
      "èµ°": 597,
      "Ġhave": 598,
      "IN": 599,
      "éŃ": 600,
      "ly": 601,
      "ç«": 602,
      "åĢ": 603,
      "ra": 604,
      "Ġli": 605,
      "Ġhim": 606,
      "å¤Ħ": 607,
      "èĬ": 608,
      "å¤§åľ£": 609,
      "éĥ½": 610,
      "åĿ": 611,
      "ur": 612,
      "çĻ": 613,
      "Ġthis": 614,
      "è¿ĺ": 615,
      "æ±": 616,
      "al": 617,
      "IO": 618,
      "èĪ": 619,
      "æĸ¹": 620,
      "æĤ": 621,
      "è½": 622,
      "Ġso": 623,
      "é¡": 624,
      "ä½ı": 625,
      "ä¼Ĺ": 626,
      "Ġas": 627,
      "å£°": 628,
      "æ°´": 629,
      "Ġde": 630,
      "æķĻ": 631,
      "èĦ": 632,
      "å¼Ł": 633,
      "ç§": 634,
      "çĶļ": 635,
      "é©¬": 636,
      "çĦ": 637,
      "æ¸": 638,
      "Ġon": 639,
      "åĴĮ": 640,
      "è¢": 641,
      "åĽĽ": 642,
      "äºĳ": 643,
      "ç©º": 644,
      "æį": 645,
      "åľ°": 646,
      "çº": 647,
      "çľŁ": 648,
      "ore": 649,
      "æ²Ļ": 650,
      "¥¿": 651,
      "æ£": 652,
      "èĻ": 653,
      "èµ·": 654,
      "ro": 655,
      "AR": 656,
      "åį³": 657,
      "hi": 658,
      "è·¯": 659,
      "é£İ": 660,
      "ç²¾": 661,
      "ä»Ĭ": 662,
      "äºĽ": 663,
      "ould": 664,
      "éĵ": 665,
      "ood": 666,
      "æĦ": 667,
      "åģļ": 668,
      "è¥¿": 669,
      "èĩª": 670,
      "ç»ı": 671,
      "å¤ļ": 672,
      "åĲİ": 673,
      "ck": 674,
      "åı¯": 675,
      "ain": 676,
      "ç¬ĳ": 677,
      "åĲĥ": 678,
      "åĶĲåĥ§": 679,
      "ver": 680,
      "åĽ½": 681,
      "èĥ": 682,
      "äºĭ": 683,
      "é¦": 684,
      "éĿ¢": 685,
      "est": 686,
      "è¿ĩ": 687,
      "åĲ¬": 688,
      "Ġthy": 689,
      "Ġsha": 690,
      "æ¬": 691,
      "ess": 692,
      "çĽ¸": 693,
      "èİ": 694,
      "æĭ¿": 695,
      "ea": 696,
      "åıĺ": 697,
      "Ġdo": 698,
      "çķ": 699,
      "é¾": 700,
      "Ġwill": 701,
      "éĹ®": 702,
      "am": 703,
      "åı£": 704,
      "å¼Ģ": 705,
      "èı": 706,
      "åĪĨ": 707,
      "Ġno": 708,
      "èĭ¥": 709,
      "éŃĶ": 710,
      "çĦ¶": 711,
      "æĻ": 712,
      "ä»Ļ": 713,
      "èį": 714,
      "èĤ": 715,
      "æŀľ": 716,
      "ç®": 717,
      "é«": 718,
      "Ġbut": 719,
      "ä½Ľ": 720,
      "å½ĵ": 721,
      "us": 722,
      "åıĸ": 723,
      "é¾Ļ": 724,
      "æ»": 725,
      "ä½ľ": 726,
      "and": 727,
      "US": 728,
      "if": 729,
      "è¯·": 730,
      "çģ«": 731,
      "Ġse": 732,
      "å®Ŀ": 733,
      "ge": 734,
      "ç´": 735,
      "æīį": 736,
      "éĹ»": 737,
      "å¹´": 738,
      "æ®": 739,
      "æĳ": 740,
      "æ³ķ": 741,
      "å°ļ": 742,
      "Th": 743,
      "äºĶ": 744,
      "ä¸Ķ": 745,
      "Ġall": 746,
      "é«ĺ": 747,
      "çĭ": 748,
      "ake": 749,
      "Ġsu": 750,
      "æ´ŀ": 751,
      "To": 752,
      "è¿Ľ": 753,
      "æ²Ļåĥ§": 754,
      "éĶ": 755,
      "é¢": 756,
      "èı©": 757,
      "é¥": 758,
      "ru": 759,
      "Ġher": 760,
      "æľ¬": 761,
      "æĭľ": 762,
      "ion": 763,
      "æĺİ": 764,
      "åĴĮå°ļ": 765,
      "th": 766,
      "éĹ´": 767,
      "æĶ¾": 768,
      "èĲ¨": 769,
      "éļ¾": 770,
      "èı©èĲ¨": 771,
      "å®ĺ": 772,
      "å¾Ĵ": 773,
      "ä¾¿": 774,
      "Ġan": 775,
      "èĩ³": 776,
      "éĤ£éĩĮ": 777,
      "ter": 778,
      "ard": 779,
      "æĤŁ": 780,
      "åħī": 781,
      "Ġlo": 782,
      "han": 783,
      "æĢİä¹Ī": 784,
      "è¾¹": 785,
      "ç¬ĳéģĵ": 786,
      "èĬ±": 787,
      "ell": 788,
      "ear": 789,
      "Ġsp": 790,
      "ä¸įçŁ¥": 791,
      "å¤ª": 792,
      "ç½¢": 793,
      "é»": 794,
      "èİ«": 795,
      "å²": 796,
      "Ġthee": 797,
      "å¨": 798,
      "ç¦": 799,
      "ä¼ļ": 800,
      "çĶ¨": 801,
      "åĳ½": 802,
      "å¤ĸ": 803,
      "æĽ¾": 804,
      "åĵ©": 805,
      "æĪĳä»¬": 806,
      "Ġour": 807,
      "çĤ": 808,
      "æķ¢": 809,
      "Ġfa": 810,
      "å¥³": 811,
      "Ġshall": 812,
      "Ġby": 813,
      "æĦı": 814,
      "UC": 815,
      "åĲĮ": 816,
      "åĩł": 817,
      "åĲį": 818,
      "åħ¬": 819,
      "åĸľ": 820,
      "ä¸ĩ": 821,
      "åįĥ": 822,
      "il": 823,
      "ç¼": 824,
      "éª": 825,
      "Ġare": 826,
      "ING": 827,
      "å¾Ģ": 828,
      "ĠC": 829,
      "ä¸ľ": 830,
      "rom": 831,
      "èĥ½": 832,
      "ä»¥": 833,
      "Ġne": 834,
      "çĥ": 835,
      "âĢĺ": 836,
      "âĢĻ": 837,
      "æħ": 838,
      "ho": 839,
      "èĢĮ": 840,
      "çĮ´": 841,
      "Ġkn": 842,
      "AN": 843,
      "ĠR": 844,
      "That": 845,
      "æŁ": 846,
      "Ġv": 847,
      "åŁ": 848,
      "ç¤": 849,
      "è¢«": 850,
      "ER": 851,
      "éķ¿èĢģ": 852,
      "OR": 853,
      "ast": 854,
      "åİŁ": 855,
      "ct": 856,
      "ous": 857,
      "æ°Ķ": 858,
      "Ġwhat": 859,
      "èħ": 860,
      "å®«": 861,
      "åħ¥": 862,
      "ä½¿": 863,
      "åĿĲ": 864,
      "åĢĴ": 865,
      "ight": 866,
      "èī": 867,
      "æ·": 868,
      "Ġsh": 869,
      "å¦ĸç²¾": 870,
      "åĮĸ": 871,
      "æ£Ĵ": 872,
      "ul": 873,
      "ET": 874,
      "é½": 875,
      "Ġ'": 876,
      "ant": 877,
      "æ²¡": 878,
      "ES": 879,
      "æĹ©": 880,
      "èĢģåŃĻ": 881,
      "å¯¹": 882,
      "çİī": 883,
      "Ġup": 884,
      "éħ": 885,
      "sel": 886,
      "æĪĲ": 887,
      "æ¶": 888,
      "æľĿ": 889,
      "qu": 890,
      "But": 891,
      "ç¾": 892,
      "è§Ĥ": 893,
      "art": 894,
      "ä¸¤ä¸ª": 895,
      "æŃ»": 896,
      "Ġgood": 897,
      "æķĳ": 898,
      "çī©": 899,
      "row": 900,
      "è¯Ŀ": 901,
      "èĪ¬": 902,
      "ine": 903,
      "ath": 904,
      "ä¹ĥ": 905,
      "æ¡": 906,
      "Ġlord": 907,
      "æı": 908,
      "æĴ": 909,
      "åħĦ": 910,
      "hich": 911,
      "nt": 912,
      "ust": 913,
      "æĢ¥": 914,
      "åħ«æĪĴéģĵ": 915,
      "åĵ¥": 916,
      "å®ļ": 917,
      "'ll": 918,
      "one": 919,
      "Ġpr": 920,
      "Ġcom": 921,
      "Ġat": 922,
      "æĶ¶": 923,
      "ä¸»": 924,
      "æĤŁç©º": 925,
      "Ġman": 926,
      "What": 927,
      "ĠM": 928,
      "çĪ·": 929,
      "åĨį": 930,
      "åĲĦ": 931,
      "Ġwhe": 932,
      "åľŁ": 933,
      "ç¤¼": 934,
      "çĻ¾": 935,
      "å¯»": 936,
      "ĠE": 937,
      "å¿µ": 938,
      "æĲ": 939,
      "KING": 940,
      "éľ": 941,
      "æĺŁ": 942,
      "çĶļä¹Ī": 943,
      "Ġam": 944,
      "end": 945,
      "è§£": 946,
      "åĽł": 947,
      "ic": 948,
      "Ġcon": 949,
      "åĬ¨": 950,
      "çĻ½": 951,
      "ble": 952,
      "ä½Ĩ": 953,
      "ry": 954,
      "åħŃ": 955,
      "æĸĩ": 956,
      "åħĪ": 957,
      "é½Ĳ": 958,
      "å¾Ħ": 959,
      "è£": 960,
      "æĢ§": 961,
      "æµ·": 962,
      "ç¿": 963,
      "ä¸įæĺ¯": 964,
      "ong": 965,
      "ie": 966,
      "æĪĺ": 967,
      "å®ī": 968,
      "ive": 969,
      "Ġbl": 970,
      "Ġfrom": 971,
      "ä¼¼": 972,
      "çľ¼": 973,
      "ven": 974,
      "æĮĩ": 975,
      "åĺ": 976,
      "ĠG": 977,
      "æĥ³": 978,
      "For": 979,
      "Ġshe": 980,
      "em": 981,
      "Ġgo": 982,
      "are": 983,
      "âĢĶ": 984,
      "æĸĹ": 985,
      "Ġmore": 986,
      "IC": 987,
      "out": 988,
      "Ġthem": 989,
      "åįĬ": 990,
      "è§ģéĤ£": 991,
      "ç¬¬": 992,
      "åŁİ": 993,
      "au": 994,
      "Ġwas": 995,
      "éĢģ": 996,
      "æļ": 997,
      "è¡£": 998,
      "oth": 999,
      "other": 1000,
      "æ®¿": 1001,
      "He": 1002,
      "Ġsir": 1003,
      "çł": 1004,
      "ol": 1005,
      "å§": 1006,
      "è½¬": 1007,
      "æ¢": 1008,
      "åħµ": 1009,
      "Ġnow": 1010,
      "æĥĬ": 1011,
      "ĠL": 1012,
      "Ġhat": 1013,
      "åĲĽ": 1014,
      "ost": 1015,
      "Ġif": 1016,
      "å°½": 1017,
      "éĢļ": 1018,
      "è¶": 1019,
      "åĨħ": 1020,
      "LO": 1021,
      "åĳĨ": 1022,
      "çĲ": 1023,
      "ind": 1024,
      "Ġthere": 1025,
      "å·²": 1026,
      "åĽ½çİĭ": 1027,
      "Ġwould": 1028,
      "Ġknow": 1029,
      "Ġcan": 1030,
      "é£ŀ": 1031,
      "é¦Ļ": 1032,
      "ä¹Ŀ": 1033,
      "ers": 1034,
      "ä¼ł": 1035,
      "è°¢": 1036,
      "å¿«": 1037,
      "IUS": 1038,
      "ä¸ĥ": 1039,
      "æ»¡": 1040,
      "ep": 1041,
      "åĬĽ": 1042,
      "éĻį": 1043,
      "self": 1044,
      "ARD": 1045,
      "æľĽ": 1046,
      "ather": 1047,
      "fe": 1048,
      "ãĢĬ": 1049,
      "ãĢĭ": 1050,
      "ond": 1051,
      "åıĳ": 1052,
      "res": 1053,
      "æĬ¥": 1054,
      "ate": 1055,
      "éĥ": 1056,
      "åł": 1057,
      "Ġsay": 1058,
      "åįĹ": 1059,
      "ä¸īèĹıéģĵ": 1060,
      "Ġhere": 1061,
      "éĵģ": 1062,
      "Ġlove": 1063,
      "Ġsw": 1064,
      "æľĪ": 1065,
      "Ġtheir": 1066,
      "è®¤": 1067,
      "Ġbr": 1068,
      "pp": 1069,
      "Ġor": 1070,
      "éŁ": 1071,
      "æĽ´": 1072,
      "äºİ": 1073,
      "ä»İ": 1074,
      "--": 1075,
      "all": 1076,
      "ĠS": 1077,
      "éĤ£æĢª": 1078,
      "Ġthan": 1079,
      "æķħ": 1080,
      "æł·": 1081,
      "å¾Ĵå¼Ł": 1082,
      "Ġthen": 1083,
      "è¯Ń": 1084,
      "Ġking": 1085,
      "Ġus": 1086,
      "äºĨä¸Ģ": 1087,
      "ĠO": 1088,
      "çģµ": 1089,
      "è¿ĻéĩĮ": 1090,
      "ĠB": 1091,
      "Ġthey": 1092,
      "ï¼Ī": 1093,
      "ï¼ī": 1094,
      "Ġar": 1095,
      "åĳĨåŃĲ": 1096,
      "æīĢ": 1097,
      "çŁ³": 1098,
      "od": 1099,
      "My": 1100,
      "æĸĭ": 1101,
      "é»Ħ": 1102,
      "é¸": 1103,
      "Ġlet": 1104,
      "æĥħ": 1105,
      "Ġun": 1106,
      "å¤ľ": 1107,
      "å¸Ŀ": 1108,
      "éļı": 1109,
      "éĹ»è¨Ģ": 1110,
      "ç§°": 1111,
      "]ï¼Į": 1112,
      "ig": 1113,
      "è¿ĳ": 1114,
      "åŃĹ": 1115,
      "æ¸ħ": 1116,
      "Ġwor": 1117,
      "ure": 1118,
      "æĢķ": 1119,
      "åķ": 1120,
      "ä¸İä»ĸ": 1121,
      "æľª": 1122,
      "çĸ": 1123,
      "ink": 1124,
      "ĠH": 1125,
      "å®ŀ": 1126,
      "é¹": 1127,
      "ort": 1128,
      "å¤§çİĭ": 1129,
      "hy": 1130,
      "ĠV": 1131,
      "ame": 1132,
      "fore": 1133,
      "æĹ¢": 1134,
      "è¿Ļä¸ª": 1135,
      "å¼Ħ": 1136,
      "è·³": 1137,
      "çĤ¹": 1138,
      "As": 1139,
      "ä¸įå¾Ĺ": 1140,
      "åĲĪ": 1141,
      "Ġmay": 1142,
      "é¼": 1143,
      "ä¸įæķ¢": 1144,
      "å°ĳ": 1145,
      "åĳµ": 1146,
      "el": 1147,
      "æĿĢ": 1148,
      "Ġqu": 1149,
      "Ġcome": 1150,
      "é¬": 1151,
      "ä¹±": 1152,
      "ook": 1153,
      "éŁ³": 1154,
      "Whe": 1155,
      "ç¢": 1156,
      "ish": 1157,
      "åĸĦ": 1158,
      "é¡»": 1159,
      "åİŁæĿ¥": 1160,
      "å¿½": 1161,
      "èĲ½": 1162,
      "LI": 1163,
      "Ġwell": 1164,
      "å©": 1165,
      "åĲĳ": 1166,
      "å¦Ĥä½ķ": 1167,
      "çĮª": 1168,
      "KE": 1169,
      "ä¸įæĽ¾": 1170,
      "èµ¶": 1171,
      "ves": 1172,
      "ä¸ĸ": 1173,
      "Ġj": 1174,
      "å¨ĺ": 1175,
      "Ġone": 1176,
      "çı": 1177,
      "èī²": 1178,
      "çĬ": 1179,
      "äº²": 1180,
      "Ġhath": 1181,
      "irst": 1182,
      "è¿İ": 1183,
      "æĺ¯ä¸ª": 1184,
      "åıĹ": 1185,
      "çº¢": 1186,
      "æ¨": 1187,
      "å¾ħ": 1188,
      "è¿ľ": 1189,
      "èĻİ": 1190,
      "You": 1191,
      "çª": 1192,
      "ç®¡": 1193,
      "æ¯į": 1194,
      "Ġmake": 1195,
      "é©¾": 1196,
      "çħ": 1197,
      "å¿ħ": 1198,
      "reat": 1199,
      "ak": 1200,
      "gain": 1201,
      "è§ģäºĨ": 1202,
      "æŃ£æĺ¯": 1203,
      "Ġmust": 1204,
      "æłĳ": 1205,
      "åĥ": 1206,
      "ound": 1207,
      "å¹²": 1208,
      "ng": 1209,
      "å°ıå¦ĸ": 1210,
      "èĭ¦": 1211,
      "åĻ": 1212,
      "çĹ": 1213,
      "Ġgra": 1214,
      "å¯º": 1215,
      "æ±Ĥ": 1216,
      "æĿ¡": 1217,
      "åıªæĺ¯": 1218,
      "åĬŁ": 1219,
      "åı«éģĵ": 1220,
      "Ġwere": 1221,
      "æİ¥": 1222,
      "Ġho": 1223,
      "ci": 1224,
      "çĽ´": 1225,
      "åĩºæĿ¥": 1226,
      "ç½Ĺ": 1227,
      "æł¹": 1228,
      "Ġsee": 1229,
      "ä½į": 1230,
      "Ġlike": 1231,
      "ue": 1232,
      "èĦļ": 1233,
      "æļĹ": 1234,
      "ä¾Ŀ": 1235,
      "eak": 1236,
      "æħĮ": 1237,
      "éħĴ": 1238,
      "TIO": 1239,
      "è¿ŀ": 1240,
      "åħ³": 1241,
      "Ġshould": 1242,
      "æĵ": 1243,
      "èĮ": 1244,
      "ity": 1245,
      "èĦ±": 1246,
      "åĺ´": 1247,
      "Ġpro": 1248,
      "ĠP": 1249,
      "Ġsa": 1250,
      "Ġmad": 1251,
      "ç»Ĩ": 1252,
      "um": 1253,
      "æľ¨": 1254,
      "Ġpl": 1255,
      "çİ°": 1256,
      "ä¿±": 1257,
      "Ġfather": 1258,
      "RO": 1259,
      "AU": 1260,
      "æĿİ": 1261,
      "æĹ¨": 1262,
      "Ġhad": 1263,
      "åı¤": 1264,
      "Ġdid": 1265,
      "pe": 1266,
      "å¸¦": 1267,
      "ime": 1268,
      "åĸĿ": 1269,
      "å·®": 1270,
      "Ġupon": 1271,
      "çŃīæĪĳ": 1272,
      "åĭ": 1273,
      "æķ°": 1274,
      "èĴ": 1275,
      "é¢Ĩ": 1276,
      "ice": 1277,
      "å¸¸": 1278,
      "éĴ¯": 1279,
      "ç«ĭ": 1280,
      "æ²³": 1281,
      "åģĩ": 1282,
      "ON": 1283,
      "Ġtoo": 1284,
      "æ¥": 1285,
      "çĿ¡": 1286,
      "é¬¼": 1287,
      "å®¹": 1288,
      "æĢĿ": 1289,
      "ence": 1290,
      "å¿Ļ": 1291,
      "æ¼": 1292,
      "ĠW": 1293,
      "æľīä¸Ģ": 1294,
      "ä¼¤": 1295,
      "æģĲ": 1296,
      "åĶ¤": 1297,
      "çīĽ": 1298,
      "æ¬¢": 1299,
      "åıĸç»ı": 1300,
      "ward": 1301,
      "ist": 1302,
      "æ¯Ľ": 1303,
      "éĽ¨": 1304,
      "éĩį": 1305,
      "æŃ¥": 1306,
      "å¥ī": 1307,
      "Ġdeath": 1308,
      "èĢ³": 1309,
      "å£«": 1310,
      "own": 1311,
      "å¥ı": 1312,
      "man": 1313,
      "ose": 1314,
      "Ġen": 1315,
      "åĪĢ": 1316,
      "çķĮ": 1317,
      "çĲĨ": 1318,
      "åĥı": 1319,
      "æī¯": 1320,
      "èįī": 1321,
      "un": 1322,
      "å¼ł": 1323,
      "éĺ´": 1324,
      "æĳĩ": 1325,
      "IS": 1326,
      "ä¸īä¸ª": 1327,
      "çķĻ": 1328,
      "ç´§": 1329,
      "ful": 1330,
      "nce": 1331,
      "ä¸İä½ł": 1332,
      "éĿĴ": 1333,
      "æµģ": 1334,
      "Ġr": 1335,
      "Ġpo": 1336,
      "çľŁä¸ª": 1337,
      "Ġspeak": 1338,
      "de": 1339,
      "ä¹¦": 1340,
      "entle": 1341,
      "io": 1342,
      "Ġout": 1343,
      "ä¸Ģå£°": 1344,
      "è´Ŀ": 1345,
      "ç©¿": 1346,
      "æģ©": 1347,
      "ä¿Ŀ": 1348,
      "pt": 1349,
      "Ġwhich": 1350,
      "ICH": 1351,
      "è±": 1352,
      "Ġfri": 1353,
      "å°±æĺ¯": 1354,
      "åºľ": 1355,
      "å®³": 1356,
      "OL": 1357,
      "DU": 1358,
      "Ġagain": 1359,
      "åħ¶": 1360,
      "ä¼ı": 1361,
      "èĥľ": 1362,
      "DUKE": 1363,
      "Ġhow": 1364,
      "å½Ĵ": 1365,
      "åºĶ": 1366,
      "å®Ŀè´Ŀ": 1367,
      "ä¸¹": 1368,
      "åº§": 1369,
      "æ¯ķ": 1370,
      "åħĦå¼Ł": 1371,
      "EL": 1372,
      "è¸": 1373,
      "åħĥ": 1374,
      "ick": 1375,
      "ĠA": 1376,
      "Ġtru": 1377,
      "Ġheart": 1378,
      "ç½ª": 1379,
      "åĪ«": 1380,
      "è¿ĻçŃī": 1381,
      "æĬ¬": 1382,
      "æ¸¸": 1383,
      "ä»¤": 1384,
      "ä»ĬæĹ¥": 1385,
      "åłĤ": 1386,
      "å´": 1387,
      "Ġyet": 1388,
      "åĩĢ": 1389,
      "Ġhand": 1390,
      "ä¿®": 1391,
      "é¥Ń": 1392,
      "CA": 1393,
      "éĽ·": 1394,
      "Thou": 1395,
      "åĳ¼": 1396,
      "very": 1397,
      "è¡ĮèĢħç¬ĳéģĵ": 1398,
      "ç¥ĸ": 1399,
      "ICHARD": 1400,
      "æĪĳçŃī": 1401,
      "ENTIO": 1402,
      "With": 1403,
      "ä¸¾": 1404,
      "ä¹Łä¸į": 1405,
      "æ¯Ķ": 1406,
      "åĲ¬å¾Ĺ": 1407,
      "ign": 1408,
      "ç«¥": 1409,
      "ç¨": 1410,
      "Ġsome": 1411,
      "ance": 1412,
      "çĵ": 1413,
      "éģĤ": 1414,
      "Ġwho": 1415,
      "Which": 1416,
      "éĤ£ä¸ª": 1417,
      "æ·±": 1418,
      "If": 1419,
      "Ġwhen": 1420,
      "ies": 1421,
      "Ġmar": 1422,
      "è¿Ļä¸Ģ": 1423,
      "ire": 1424,
      "ä¸Ĭåīį": 1425,
      "Ġmine": 1426,
      "Ġhon": 1427,
      "è®°": 1428,
      "æŀĹ": 1429,
      "é¡¶": 1430,
      "èĦ¸": 1431,
      "har": 1432,
      "orn": 1433,
      "æĿ¥äºĨ": 1434,
      "Ġoff": 1435,
      "ince": 1436,
      "ä¼ĳ": 1437,
      "åľ¨æŃ¤": 1438,
      "å·¦": 1439,
      "INC": 1440,
      "In": 1441,
      "ack": 1442,
      "ĠY": 1443,
      "æĺ¯æĪĳ": 1444,
      "Ġson": 1445,
      "å°Ĭ": 1446,
      "Ġdis": 1447,
      "æķ£": 1448,
      "åį´è¯´": 1449,
      "Ġal": 1450,
      "'t": 1451,
      "åħ¨": 1452,
      "æĬ¤": 1453,
      "è½»": 1454,
      "å¦Ĥä»Ĭ": 1455,
      "We": 1456,
      "æĿ¾": 1457,
      "çļĩ": 1458,
      "ä½łçľĭ": 1459,
      "çł´": 1460,
      "å¼ķ": 1461,
      "å¹³": 1462,
      "ç£": 1463,
      "ä»¶": 1464,
      "è®¸": 1465,
      "uch": 1466,
      "wn": 1467,
      "åľº": 1468,
      "Ġhea": 1469,
      "æĸ½": 1470,
      "First": 1471,
      "oy": 1472,
      "åıĮ": 1473,
      "çļĨ": 1474,
      "åĳĬ": 1475,
      "æİĴ": 1476,
      "å¡": 1477,
      "Ġtime": 1478,
      "Ġhear": 1479,
      "åİ»äºĨ": 1480,
      "AB": 1481,
      "ec": 1482,
      "Ġsuch": 1483,
      "ness": 1484,
      "è¿ĻèĪ¬": 1485,
      "âĢĶâĢĶ": 1486,
      "LA": 1487,
      "éĺ³": 1488,
      "Ġbrother": 1489,
      "çģ¯": 1490,
      "å½¢": 1491,
      "Of": 1492,
      "åıªè§ģ": 1493,
      "æįī": 1494,
      "èĻ½": 1495,
      "æ¥¼": 1496,
      "èĵ": 1497,
      "çĽĺ": 1498,
      "éªĤ": 1499,
      "åĲĥäºĨ": 1500,
      "æ¬²": 1501,
      "Ġblood": 1502,
      "ä¸Ī": 1503,
      "ither": 1504,
      "æ³¼": 1505,
      "Ġab": 1506,
      "è®¡": 1507,
      "UE": 1508,
      "Why": 1509,
      "Ġthese": 1510,
      "åŃĻè¡ĮèĢħ": 1511,
      "No": 1512,
      "Ġgive": 1513,
      "ç®į": 1514,
      "çĥ§": 1515,
      "éģĩ": 1516,
      "æīĩ": 1517,
      "æĢİçļĦ": 1518,
      "é»ĳ": 1519,
      "æĴŀ": 1520,
      "èµ·æĿ¥": 1521,
      "åĻ¨": 1522,
      "å³": 1523,
      "Ġfo": 1524,
      "Ġday": 1525,
      "åıªè§ģéĤ£": 1526,
      "çºµ": 1527,
      "æ£į": 1528,
      "éĺµ": 1529,
      "çļ®": 1530,
      "ĠII": 1531,
      "åĵį": 1532,
      "Ġear": 1533,
      "æĽ°": 1534,
      "æ´»": 1535,
      "ĠRICHARD": 1536,
      "TER": 1537,
      "Ġro": 1538,
      "ise": 1539,
      "è¯Ĺ": 1540,
      "Ġex": 1541,
      "Ġlife": 1542,
      "è¥¿å¤©": 1543,
      "This": 1544,
      "eet": 1545,
      "Ġtell": 1546,
      "åı³": 1547,
      "éĤ£èĢģ": 1548,
      "ç¦»": 1549,
      "So": 1550,
      "Ġlook": 1551,
      "Ġthink": 1552,
      "æĮģ": 1553,
      "UCH": 1554,
      "ãĢĢ": 1555,
      "å¤«": 1556,
      "oul": 1557,
      "æĪ¿": 1558,
      "Ġword": 1559,
      "å¾¡": 1560,
      "å¼º": 1561,
      "Ġey": 1562,
      "éĽ¾": 1563,
      "Ġwhere": 1564,
      "å©Ĩ": 1565,
      "è´¼": 1566,
      "éĵģæ£Ĵ": 1567,
      "ag": 1568,
      "age": 1569,
      "een": 1570,
      "ther": 1571,
      "ä»ĸçļĦ": 1572,
      "å¯¿": 1573,
      "èĪį": 1574,
      "GLO": 1575,
      "ç±": 1576,
      "çĨ": 1577,
      "Ġtake": 1578,
      "ä¸įä½ı": 1579,
      "è§ī": 1580,
      "ä¸İæĪĳ": 1581,
      "èĤ¯": 1582,
      "UCES": 1583,
      "Ġfriend": 1584,
      "GLOUCES": 1585,
      "GLOUCESTER": 1586,
      "ef": 1587,
      "erv": 1588,
      "æĻļ": 1589,
      "å¢": 1590,
      "ï¼ļâĢĺ": 1591,
      "éĤª": 1592,
      "å½©": 1593,
      "å®Ĺ": 1594,
      "åĵŃ": 1595,
      "ady": 1596,
      "æģ¶": 1597,
      "rown": 1598,
      "Ġdes": 1599,
      "ings": 1600,
      "ave": 1601,
      "not": 1602,
      "æĿ¥çļĦ": 1603,
      "å¦ĸæĢª": 1604,
      "ä¸įè¦ģ": 1605,
      "æķ´": 1606,
      "Ġgentle": 1607,
      "å¤©çİĭ": 1608,
      "urse": 1609,
      "é¾Ļçİĭ": 1610,
      "è®¤å¾Ĺ": 1611,
      "èģ": 1612,
      "ä¸įèĥ½": 1613,
      "ä½łè¿Ļ": 1614,
      "ç»³": 1615,
      "ç»ĵ": 1616,
      "æĮī": 1617,
      "èĮ¶": 1618,
      "How": 1619,
      "RY": 1620,
      "Ġri": 1621,
      "æ¶Ī": 1622,
      "ase": 1623,
      "åįİ": 1624,
      "ç§į": 1625,
      "èį¯": 1626,
      "å¤ªåŃĲ": 1627,
      "å»": 1628,
      "åĩ¡": 1629,
      "å¸Īå¾Ĵ": 1630,
      "å¦ĤæĿ¥": 1631,
      "QUE": 1632,
      "way": 1633,
      "æ±ī": 1634,
      "éĵ¶": 1635,
      "INCENTIO": 1636,
      "QUEEN": 1637,
      "çĳ": 1638,
      "å¤į": 1639,
      "ä»£": 1640,
      "Ġlea": 1641,
      "åĩ¶": 1642,
      "ä¿¡": 1643,
      "ä¸ľåľŁ": 1644,
      "tis": 1645,
      "åı°": 1646,
      "æĿĸ": 1647,
      "èĩ£": 1648,
      "åģ·": 1649,
      "ĠOF": 1650,
      "æĹģ": 1651,
      "è¯Ĩ": 1652,
      "çİĦ": 1653,
      "æŀľçĦ¶": 1654,
      "Ġart": 1655,
      "åŀ": 1656,
      "Ġmost": 1657,
      "æľį": 1658,
      "æĢĴ": 1659,
      "æĸŃ": 1660,
      "ä½ĵ": 1661,
      "éĴ»": 1662,
      "åħ¬ä¸»": 1663,
      "Where": 1664,
      "Ġhonour": 1665,
      "LAN": 1666,
      "ãĢĤâĢĻ": 1667,
      "Ġmuch": 1668,
      "å¿į": 1669,
      "Ġsl": 1670,
      "âĢĿãĢĤ": 1671,
      "Ġwar": 1672,
      "æľīäºĽ": 1673,
      "åį·": 1674,
      "Ġfl": 1675,
      "è®²": 1676,
      "urn": 1677,
      "è¿Ľåİ»": 1678,
      "ä¸¢": 1679,
      "å¤±": 1680,
      "è§ģä»ĸ": 1681,
      "çī¹": 1682,
      "æĻĵ": 1683,
      "æĢ§åĳ½": 1684,
      "Ġmade": 1685,
      "ment": 1686,
      "åħ¢": 1687,
      "æĪĳå¸ĪçĪ¶": 1688,
      "åŃĻå¤§åľ£": 1689,
      "çħ§": 1690,
      "Now": 1691,
      "æĪĳçļĦ": 1692,
      "Ġhast": 1693,
      "Ġtw": 1694,
      "Ġfear": 1695,
      "é¦ĸ": 1696,
      "åļ": 1697,
      "éŀ": 1698,
      "ĠT": 1699,
      "å¾·": 1700,
      "æ»ļ": 1701,
      "éĥ¨": 1702,
      "Ġ*": 1703,
      "å¦ĸéŃĶ": 1704,
      "æŀª": 1705,
      "æ®µ": 1706,
      "é¢ĺ": 1707,
      "ç¿»": 1708,
      "Ġbet": 1709,
      "ENRY": 1710,
      "æĳĨ": 1711,
      "çĥŁ": 1712,
      "aught": 1713,
      "ä¸įè§ģ": 1714,
      "èĢģçĪ·": 1715,
      "è´«": 1716,
      "åĴĴ": 1717,
      "æ¬¡": 1718,
      "Is": 1719,
      "LE": 1720,
      "ber": 1721,
      "ff": 1722,
      "æĪĸ": 1723,
      "æŃ¦": 1724,
      "äºĮåįģ": 1725,
      "éĶ¦": 1726,
      "å²ģ": 1727,
      "ĠGod": 1728,
      "åıī": 1729,
      "ough": 1730,
      "ä»ĸä¸Ģ": 1731,
      "ved": 1732,
      "ç¥ŀéĢļ": 1733,
      "ç¦ħ": 1734,
      "èħ°": 1735,
      "çİīå¸Ŀ": 1736,
      "Ġbre": 1737,
      "åİ®": 1738,
      "å¥Ī": 1739,
      "éĢł": 1740,
      "æ¡ĥ": 1741,
      "cc": 1742,
      "äººå®¶": 1743,
      "ower": 1744,
      "è´¤": 1745,
      "éĥ½æĺ¯": 1746,
      "Ġnever": 1747,
      "çĮ´çİĭ": 1748,
      "è§Ĥçľĭ": 1749,
      "ĠVINCENTIO": 1750,
      "Be": 1751,
      "ap": 1752,
      "igh": 1753,
      "ĠK": 1754,
      "éģį": 1755,
      "ä¹ħ": 1756,
      "æī§": 1757,
      "æľīä¸ª": 1758,
      "Ġgreat": 1759,
      "æ³ª": 1760,
      "æ²Ļåĥ§éģĵ": 1761,
      "Ġfair": 1762,
      "Who": 1763,
      "]ãĢĤ": 1764,
      "ee": 1765,
      "tle": 1766,
      "Ġmen": 1767,
      "orrow": 1768,
      "Ġcou": 1769,
      "å¼ŁåŃĲ": 1770,
      "Ġnew": 1771,
      "ĠRome": 1772,
      "aster": 1773,
      "uke": 1774,
      "åĪĻ": 1775,
      "å¹Į": 1776,
      "è·Ł": 1777,
      "iz": 1778,
      "éĤ£åĳĨåŃĲ": 1779,
      "æĭħ": 1780,
      "åıĺä½ľ": 1781,
      "old": 1782,
      "çŃĶ": 1783,
      "ORK": 1784,
      "ä½łä»¬": 1785,
      "æİ¨": 1786,
      "èĻļ": 1787,
      "èĽ": 1788,
      "äºī": 1789,
      "è¯¥": 1790,
      "åĶ¬": 1791,
      "åı«åģļ": 1792,
      "å§ĵ": 1793,
      "å´ĸ": 1794,
      "èŁ": 1795,
      "éģĵå£«": 1796,
      "åħ»": 1797,
      "Ġpart": 1798,
      "å¾ĹéĤ£": 1799,
      "ation": 1800,
      "å¹¶": 1801,
      "å¹¿": 1802,
      "é¥¶": 1803,
      "å®¿": 1804,
      "çŃĭ": 1805,
      "è·ĳ": 1806,
      "è®©": 1807,
      "INIUS": 1808,
      "åĢŁ": 1809,
      "ç´ł": 1810,
      "ss": 1811,
      "å«": 1812,
      "ree": 1813,
      "æ¯«": 1814,
      "ide": 1815,
      "éŃĤ": 1816,
      "ç¾¤": 1817,
      "Or": 1818,
      "éĨ": 1819,
      "åıĬ": 1820,
      "æĹ§": 1821,
      "è¯¸": 1822,
      "Ġcall": 1823,
      "å¸ĥ": 1824,
      "æķĻä»ĸ": 1825,
      "ple": 1826,
      "èĳ": 1827,
      "åı·": 1828,
      "âĢĿï¼Į": 1829,
      "éĢĢ": 1830,
      "éĻ¢": 1831,
      "Ġany": 1832,
      "Ġheaven": 1833,
      "Ġad": 1834,
      "éĹ®éģĵ": 1835,
      "ç´¢": 1836,
      "åĵ¥åĵ¥": 1837,
      "åľŁåľ°": 1838,
      "é£Ł": 1839,
      "è´¥": 1840,
      "åŃĻæĤŁç©º": 1841,
      "Ġcomm": 1842,
      "It": 1843,
      "Your": 1844,
      "Ľä¸ĭ": 1845,
      "åľ¨éĤ£": 1846,
      "å±Ĥ": 1847,
      "Ġstand": 1848,
      "è¶³": 1849,
      "Ġcannot": 1850,
      "Ġtrue": 1851,
      "DW": 1852,
      "èķ": 1853,
      "ä¹Ĳ": 1854,
      "Ġname": 1855,
      "Ġbeen": 1856,
      "çĽĸ": 1857,
      "æŀ¶": 1858,
      "åºĦ": 1859,
      "æĮĤ": 1860,
      "ears": 1861,
      "DWARD": 1862,
      "è¹": 1863,
      "éº": 1864,
      "æĺ¾": 1865,
      "Ġcl": 1866,
      "Ġpre": 1867,
      "ç¾İ": 1868,
      "Ġsweet": 1869,
      ",--": 1870,
      "Ġdoth": 1871,
      "å¸ĪåħĦ": 1872,
      "æ³¢": 1873,
      "ç«¯": 1874,
      "Ġpray": 1875,
      "æ¨¡": 1876,
      "hing": 1877,
      "èĢį": 1878,
      "ä¸Ģé½Ĳ": 1879,
      "ä¸īåįģ": 1880,
      "éĹ¨å¤ĸ": 1881,
      "å£ģ": 1882,
      "æį¢": 1883,
      "èĤī": 1884,
      "éª¨": 1885,
      "ä¹ĥæĺ¯": 1886,
      "æ¬¢åĸľ": 1887,
      "PET": 1888,
      "UM": 1889,
      "åĪ©": 1890,
      "å¦ĸçİĭ": 1891,
      "è·Į": 1892,
      "èĬĤ": 1893,
      "Ġnoble": 1894,
      "å¤ªå®Ĺ": 1895,
      "å¨ģ": 1896,
      "LUC": 1897,
      "MEN": 1898,
      "TH": 1899,
      "äº¤": 1900,
      "Ġown": 1901,
      "Ġple": 1902,
      "çīĻ": 1903,
      "ass": 1904,
      "æĦ¿": 1905,
      "ĠD": 1906,
      "ouse": 1907,
      "Ġper": 1908,
      "æ±Ł": 1909,
      "Ay": 1910,
      "Come": 1911,
      "li": 1912,
      "ull": 1913,
      "æº": 1914,
      "ä»ĺ": 1915,
      "è¡ĮæĿİ": 1916,
      "åľ¨éĤ£éĩĮ": 1917,
      "è·ª": 1918,
      "åºķ": 1919,
      "æİĮ": 1920,
      "è°ģ": 1921,
      "There": 1922,
      "åĮħ": 1923,
      "è´«åĥ§": 1924,
      "Ġwr": 1925,
      "Ġdone": 1926,
      "åĪĹ": 1927,
      "ä¸Ģä¸ªä¸ª": 1928,
      "äºĳå¤´": 1929,
      "ife": 1930,
      "aw": 1931,
      "Ġtr": 1932,
      "å°ĺ": 1933,
      "åģľ": 1934,
      "éĻĽä¸ĭ": 1935,
      "ç³": 1936,
      "äº¦": 1937,
      "Ġway": 1938,
      "Ġother": 1939,
      "Ġhead": 1940,
      "éĿŀ": 1941,
      "éĻĪ": 1942,
      "èĥĮ": 1943,
      "åĩ¤": 1944,
      "Ġmean": 1945,
      "æĮĳ": 1946,
      "æĢİçĶŁ": 1947,
      "ï¼īï¼ļ": 1948,
      "red": 1949,
      "åĲ¾": 1950,
      "åľ£åĥ§": 1951,
      "When": 1952,
      "dward": 1953,
      "è¡¨": 1954,
      "Ġnor": 1955,
      "åĳĢ": 1956,
      "å¹¸": 1957,
      "èĻ«": 1958,
      "EO": 1959,
      "MEO": 1960,
      "åıĤ": 1961,
      "Ġsc": 1962,
      "Ġsoul": 1963,
      "éĹª": 1964,
      "Ġpres": 1965,
      "åº¦": 1966,
      "å¤ļå°ĳ": 1967,
      "åıĺåĮĸ": 1968,
      "ROMEO": 1969,
      "10": 1970,
      "ace": 1971,
      "ving": 1972,
      "æ¦": 1973,
      "éĤ£å¦ĸç²¾": 1974,
      "Ġnight": 1975,
      "åĪĩ": 1976,
      "Ġbear": 1977,
      "éĢĴ": 1978,
      "ä¾Ľ": 1979,
      "éĩĳç®į": 1980,
      "ENIUS": 1981,
      "aint": 1982,
      "ĠCl": 1983,
      "Ġworld": 1984,
      "MENENIUS": 1985,
      "ger": 1986,
      "æĭĽ": 1987,
      "Ġbefore": 1988,
      "éĴī": 1989,
      "èµ°äºĨ": 1990,
      "æ±Ŀ": 1991,
      "ç©ºä¸Ń": 1992,
      "åıĺåģļ": 1993,
      "èħ¾": 1994,
      "ause": 1995,
      "åļ·": 1996,
      "Īè£": 1997,
      "ä¸įå¥½": 1998,
      "Ġboth": 1999,
      "çļĦæĺ¯": 2000,
      "éĹ¹": 2001,
      "åĩłä¸ª": 2002,
      "Ġqueen": 2003,
      "per": 2004,
      "èľ": 2005,
      "è§Ĵ": 2006,
      "åĽŃ": 2007,
      "Then": 2008,
      "è¢Īè£": 2009,
      "åħµåĻ¨": 2010,
      "aughter": 2011,
      "è¢Īè£Ł": 2012,
      "RUCH": 2013,
      "ock": 2014,
      "çŀ": 2015,
      "é²": 2016,
      "æĺ¥": 2017,
      "Ġchi": 2018,
      "åĨĻ": 2019,
      "ç¥¥": 2020,
      "å¦ĤæŃ¤": 2021,
      "éĹ»å¾Ĺ": 2022,
      "çĪ·çĪ·": 2023,
      "Here": 2024,
      "åķĬ": 2025,
      "PETRUCH": 2026,
      "PETRUCHIO": 2027,
      "OM": 2028,
      "able": 2029,
      "Ġvery": 2030,
      "ä¸įé¢ĺ": 2031,
      "çĪ±": 2032,
      "æģ¼": 2033,
      "Ġdead": 2034,
      "æıŃ": 2035,
      "æīĢä»¥": 2036,
      "çĸ¼": 2037,
      "æ¨¡æł·": 2038,
      "TES": 2039,
      "âĢ¦": 2040,
      "èĢģèĢħ": 2041,
      "å¯Ĵ": 2042,
      "ä¾į": 2043,
      "å²¸": 2044,
      "ç¦ı": 2045,
      "æĥ³æĺ¯": 2046,
      "èĴĻ": 2047,
      "By": 2048,
      "æ½": 2049,
      "Ġra": 2050,
      "éģŃ": 2051,
      "ite": 2052,
      "åįģåĪĨ": 2053,
      "çĮªåħ«æĪĴ": 2054,
      "Than": 2055,
      "the": 2056,
      "Ġke": 2057,
      "åİ¢": 2058,
      "æĸ°": 2059,
      "èĥĨ": 2060,
      "11": 2061,
      "ab": 2062,
      "les": 2063,
      "ĠF": 2064,
      "åıį": 2065,
      "Ġdown": 2066,
      "åīĳ": 2067,
      "åĬ©": 2068,
      "å¿ĥä¸Ń": 2069,
      "çĭ®": 2070,
      "é¼ĵ": 2071,
      "to": 2072,
      "Ġapp": 2073,
      "Ġmyself": 2074,
      "åĪ°äºĨ": 2075,
      "ä¼Ĺåĥ§": 2076,
      "æ¶§": 2077,
      "Ġcont": 2078,
      "GR": 2079,
      "HA": 2080,
      "Ġwh": 2081,
      "è¯ļ": 2082,
      "çĽ®": 2083,
      "è®¾": 2084,
      "éĴ±": 2085,
      "Ġrem": 2086,
      "ĠLord": 2087,
      "Ġarm": 2088,
      "æĺı": 2089,
      "åĲ¹": 2090,
      "Ġthus": 2091,
      "åĵĦ": 2092,
      "çŁ£": 2093,
      "åį´åıĪ": 2094,
      "çīµ": 2095,
      "IOLAN": 2096,
      "ilt": 2097,
      "æħ¢": 2098,
      "ORIOLAN": 2099,
      "ORIOLANUS": 2100,
      "CORIOLANUS": 2101,
      "Sec": 2102,
      "ä¸įåı¯": 2103,
      "æĿ¥ä¹Ł": 2104,
      "ä½łæĢİä¹Ī": 2105,
      "åĽ´": 2106,
      "èĥ¡": 2107,
      "Ġleave": 2108,
      "Second": 2109,
      "ä¸ĢèĪ¬": 2110,
      "Ġbeing": 2111,
      "é£ĺ": 2112,
      "å¤ļæĹ¶": 2113,
      "éŃĶçİĭ": 2114,
      "ction": 2115,
      "ĠEdward": 2116,
      "Nor": 2117,
      "sw": 2118,
      "åŃ¦": 2119,
      "Ġunt": 2120,
      "åĮĹ": 2121,
      "èį¡": 2122,
      "ress": 2123,
      "Ġgrace": 2124,
      "less": 2125,
      "éĤ£äºĽ": 2126,
      "Ġbeg": 2127,
      "åıªå¾Ĺ": 2128,
      "çľĭè§ģ": 2129,
      "å¡Ķ": 2130,
      "Ġeyes": 2131,
      "BA": 2132,
      "land": 2133,
      "Ġmother": 2134,
      "å¦Ļ": 2135,
      "æģ¯": 2136,
      "åĢĻ": 2137,
      "ran": 2138,
      "åĤ": 2139,
      "Ġma": 2140,
      "æĪĳä¹Ł": 2141,
      "Ġold": 2142,
      "åĩºåİ»": 2143,
      "Ġim": 2144,
      "å®¢": 2145,
      "éĩİ": 2146,
      "åĬ³": 2147,
      "æīĭæ®µ": 2148,
      "INA": 2149,
      "ç«¹": 2150,
      "çķª": 2151,
      "æıĲ": 2152,
      "ĠEDWARD": 2153,
      "ä½İ": 2154,
      "ä¸ĢæĿ¡": 2155,
      "itiz": 2156,
      "çľĭçľĭ": 2157,
      "èº«ä¸Ģ": 2158,
      "åĪ°æŃ¤": 2159,
      "çĻ»": 2160,
      "ç´«": 2161,
      "çĥ¦": 2162,
      "itizen": 2163,
      "ps": 2164,
      "è²": 2165,
      "ä»ĸå°±": 2166,
      "Ġlong": 2167,
      "æĬ¡": 2168,
      "åĨĽ": 2169,
      "çģ¾": 2170,
      "Ġever": 2171,
      "ç¼ĺ": 2172,
      "æŁ³": 2173,
      "ĠMar": 2174,
      "åı©": 2175,
      "ä½łæĺ¯": 2176,
      "å¤§ä»Ļ": 2177,
      "æ²¹": 2178,
      "å°ıçļĦ": 2179,
      "Ġlive": 2180,
      "è£ħ": 2181,
      "è¿ĳåīį": 2182,
      "è±¡": 2183,
      "Ġchild": 2184,
      "Let": 2185,
      "me": 2186,
      "ç¯": 2187,
      "ç°": 2188,
      "Ġwife": 2189,
      "å¥Ķ": 2190,
      "éĩĮéĿ¢": 2191,
      "çŃĳ": 2192,
      "è®º": 2193,
      "éĺģ": 2194,
      "é¦Ģ": 2195,
      "å²Ń": 2196,
      "æĶ¶äºĨ": 2197,
      "è¡£æľį": 2198,
      "She": 2199,
      "±¼": 2200,
      "é±¼": 2201,
      "Ġaway": 2202,
      "åŃ©": 2203,
      "éĩı": 2204,
      "æ¯ı": 2205,
      "éĻ¤": 2206,
      "Ġrep": 2207,
      "é¥®": 2208,
      "ç¿ł": 2209,
      "ĠIII": 2210,
      "åı¥": 2211,
      "Ġwom": 2212,
      "å®Ī": 2213,
      "éĴŁ": 2214,
      "æģ¨": 2215,
      "éĽĦ": 2216,
      "è¥¿æ¸¸": 2217,
      "å¨ĺå¨ĺ": 2218,
      "Ġpoor": 2219,
      "Ġfriends": 2220,
      "come": 2221,
      "for": 2222,
      "wick": 2223,
      "Ġaf": 2224,
      "Ġmight": 2225,
      "å®´": 2226,
      "çĤ¼": 2227,
      "æĵĴ": 2228,
      "åĹ": 2229,
      "æľķ": 2230,
      "nder": 2231,
      "éĢ¢": 2232,
      "Ġstay": 2233,
      "æĦŁ": 2234,
      "eace": 2235,
      "å¥³åŃĲ": 2236,
      "12": 2237,
      "ks": 2238,
      "oud": 2239,
      "Ġdie": 2240,
      "æŃ¢": 2241,
      "æĬĸ": 2242,
      "atch": 2243,
      "led": 2244,
      "çģŃ": 2245,
      "éĿĻ": 2246,
      "é¡¿": 2247,
      "æħĪ": 2248,
      "ĠJ": 2249,
      "Ġru": 2250,
      "ä¹°": 2251,
      "éĹ²": 2252,
      "å¦ĩ": 2253,
      "arwick": 2254,
      "ç»Ŀ": 2255,
      "æŀģ": 2256,
      "è¾ŀ": 2257,
      "èĤļ": 2258,
      "Ġcomes": 2259,
      "Ġcons": 2260,
      "éĥİ": 2261,
      "éªĤéģĵ": 2262,
      "Ġcrown": 2263,
      "ows": 2264,
      "äºĽåĦ¿": 2265,
      "åĪĨä»ĺ": 2266,
      "Ġmany": 2267,
      "Ġpe": 2268,
      "å¤§åĶĲ": 2269,
      "çĶ²": 2270,
      "è§ĤéŁ³": 2271,
      "çĨŁ": 2272,
      "è²Į": 2273,
      "Tis": 2274,
      "hall": 2275,
      "ison": 2276,
      "Ġle": 2277,
      "çĿĽ": 2278,
      "çŁŃ": 2279,
      "æĤ²": 2280,
      "è¥¿æĸ¹": 2281,
      "æ¢¦": 2282,
      "çĹħ": 2283,
      "ĠYORK": 2284,
      "lo": 2285,
      "uck": 2286,
      "åįĸ": 2287,
      "iss": 2288,
      "ä½łåİ»": 2289,
      "Ġhouse": 2290,
      "Ġhar": 2291,
      "Ġthought": 2292,
      "æİ£": 2293,
      "Ġrest": 2294,
      "æ¬º": 2295,
      "éĶģ": 2296,
      "éľĦ": 2297,
      "é½Ĳå¤©": 2298,
      "ISAB": 2299,
      "ELLA": 2300,
      "å·¦åı³": 2301,
      "ISABELLA": 2302,
      "ian": 2303,
      "erc": 2304,
      "Ġcour": 2305,
      "çīĮ": 2306,
      "æīĵæŃ»": 2307,
      "çĮ¿": 2308,
      "RAN": 2309,
      "Ġent": 2310,
      "Ķç»Ĩ": 2311,
      "ä¸ĳ": 2312,
      "ä»Ķç»Ĩ": 2313,
      "æīĳ": 2314,
      "åŃ¤": 2315,
      "ç»£": 2316,
      "å½±": 2317,
      "ç¬¼": 2318,
      "Ġlie": 2319,
      "èĪŀ": 2320,
      "æį»": 2321,
      "ç¢İ": 2322,
      "che": 2323,
      "ä¸ļ": 2324,
      "Ġset": 2325,
      "åħ±": 2326,
      "æĿŁ": 2327,
      "ä½łçļĦ": 2328,
      "èı©èĲ¨éģĵ": 2329,
      "JU": 2330,
      "well": 2331,
      "ors": 2332,
      "atter": 2333,
      "å¤©å®«": 2334,
      "åĳĺ": 2335,
      "åĨ²": 2336,
      "LIET": 2337,
      "ONTES": 2338,
      "ĠWarwick": 2339,
      "LEONTES": 2340,
      "éĩĳç®įæ£Ĵ": 2341,
      "JULIET": 2342,
      "Nay": 2343,
      "åı¶": 2344,
      "int": 2345,
      "è¿Ł": 2346,
      "ittle": 2347,
      "ä»ĸä¸¤ä¸ª": 2348,
      "Ġdaughter": 2349,
      "å¤§å°ı": 2350,
      "Ġgone": 2351,
      "æ²»": 2352,
      "æ²ī": 2353,
      "åĨ·": 2354,
      "æ°ĳ": 2355,
      "åı«å£°": 2356,
      "åĽĽä¼Ĺ": 2357,
      "æĦıæĢĿ": 2358,
      "Ġbetter": 2359,
      "MI": 2360,
      "rant": 2361,
      "ought": 2362,
      "å®£": 2363,
      "åĪĿ": 2364,
      "åİ»ä¹Ł": 2365,
      "èº²": 2366,
      "æĳ¸": 2367,
      "Ġprince": 2368,
      "åĸĿéģĵ": 2369,
      "å¸Īå¾Ĵä»¬": 2370,
      "DY": 2371,
      "His": 2372,
      "Ġtong": 2373,
      "Ġwit": 2374,
      "äºĨä»ĸ": 2375,
      "çĪ¬": 2376,
      "Ġnothing": 2377,
      "è°ĥ": 2378,
      "åĶĲåĥ§éģĵ": 2379,
      "CE": 2380,
      "VOL": 2381,
      "äºŃ": 2382,
      "åħ½": 2383,
      "åĪļ": 2384,
      "åĸ·": 2385,
      "çĮ®": 2386,
      "è¨Ģè¯Ń": 2387,
      "ENCE": 2388,
      "çĦ°": 2389,
      "çıł": 2390,
      "çıŃ": 2391,
      "LADY": 2392,
      "BR": 2393,
      "TA": 2394,
      "cl": 2395,
      "ied": 2396,
      "å¤ĩ": 2397,
      "åĲ¯": 2398,
      "å¦»": 2399,
      "å¸ħ": 2400,
      "ç¥¸": 2401,
      "ç®Ĺ": 2402,
      "å²Ĥ": 2403,
      "ç¼ł": 2404,
      "è¸ı": 2405,
      "Ġkeep": 2406,
      "æĢľ": 2407,
      "å±ħ": 2408,
      "åĵģ": 2409,
      "åĬ¿": 2410,
      "åĮ»": 2411,
      "æĻ¯": 2412,
      "åİŁæĿ¥æĺ¯": 2413,
      "æĻĵå¾Ĺ": 2414,
      "Go": 2415,
      "Well": 2416,
      "ces": 2417,
      "ious": 2418,
      "os": 2419,
      "èĨ": 2420,
      "Ġsle": 2421,
      "æīĺ": 2422,
      "åİ»ç½¢": 2423,
      "æĬĬéĤ£": 2424,
      "æ´Ĺ": 2425,
      "ç²Ĺ": 2426,
      "éĽª": 2427,
      "Ġres": 2428,
      "æ¸Ĳ": 2429,
      "åĲ¬è§ģ": 2430,
      "æ´ŀéĩĮ": 2431,
      "å®īæİĴ": 2432,
      "hard": 2433,
      "å¥Īä½ķ": 2434,
      "Ġnews": 2435,
      "SIC": 2436,
      "ft": 2437,
      "ier": 2438,
      "Ġtri": 2439,
      "Ġmo": 2440,
      "ret": 2441,
      "ont": 2442,
      "Ġthose": 2443,
      "Ġgri": 2444,
      "åıªåĲ¬å¾Ĺ": 2445,
      "ool": 2446,
      "ç«Ł": 2447,
      "åĽĽåįģ": 2448,
      "æ¡¥": 2449,
      "une": 2450,
      "è¥¿æ¸¸è®°": 2451,
      "SICINIUS": 2452,
      "13": 2453,
      "Not": 2454,
      "ä¸Ŀ": 2455,
      "äº®": 2456,
      "æĪĳè¿Ļ": 2457,
      "æĢĢ": 2458,
      "Ġlittle": 2459,
      "èĢģéŃĶ": 2460,
      "å±ķ": 2461,
      "é©®": 2462,
      "åĴ¬": 2463,
      "èİ²": 2464,
      "Ġlords": 2465,
      "æķħæŃ¤": 2466,
      "Ġagainst": 2467,
      "ford": 2468,
      "ä¸ĢæĬĬ": 2469,
      "Ġbest": 2470,
      "æŃĩ": 2471,
      "Ġhour": 2472,
      "Ġhence": 2473,
      "åĮ¹": 2474,
      "æ±ł": 2475,
      "æĸ¹æīį": 2476,
      "å½ĵæĹ¶": 2477,
      "ardon": 2478,
      "è¢«ä»ĸ": 2479,
      "akes": 2480,
      "çľŁä¸ªæĺ¯": 2481,
      "çĵ¶": 2482,
      "lse": 2483,
      "Ġacc": 2484,
      "æľŁ": 2485,
      "ä¸īäºº": 2486,
      "sed": 2487,
      "è¾°": 2488,
      "äºĶçĻ¾": 2489,
      "æĭľä½Ľ": 2490,
      "Ġface": 2491,
      "ult": 2492,
      "è®¸å¤ļ": 2493,
      "Ġfoll": 2494,
      "åı©å¤´": 2495,
      "On": 2496,
      "ew": 2497,
      "ud": 2498,
      "è¡Ģ": 2499,
      "ark": 2500,
      "Ġyoung": 2501,
      "å¥½å¤§åľ£": 2502,
      "Ġend": 2503,
      "é¡º": 2504,
      "åıĸåĩº": 2505,
      "çĭ¼": 2506,
      "åĸľéģĵ": 2507,
      "åħ³æĸĩ": 2508,
      "äºı": 2509,
      "ork": 2510,
      "è¯ģ": 2511,
      "Ġthing": 2512,
      "æĬĺ": 2513,
      "åİ»æĿ¥": 2514,
      "çľĭæĹ¶": 2515,
      "Ġstill": 2516,
      "éļĲ": 2517,
      "Ġkind": 2518,
      "è½¯": 2519,
      "éĵº": 2520,
      "ield": 2521,
      "èĴ¸": 2522,
      "èĵ¬": 2523,
      "å³°": 2524,
      "ST": 2525,
      "æĥ§": 2526,
      "ä¸ĢæĹ¶": 2527,
      "æī«": 2528,
      "å¦Ĩ": 2529,
      "æľīä½ķ": 2530,
      "æľīçĶļ": 2531,
      "Ġpri": 2532,
      "Ġpur": 2533,
      "å¥ĺ": 2534,
      "çĶ·": 2535,
      "ä¹Łæĺ¯": 2536,
      "èµ°è·¯": 2537,
      "alk": 2538,
      "æĭ¿ä½ı": 2539,
      "Thy": 2540,
      "Ġcomp": 2541,
      "ç¨ĭ": 2542,
      "éĨĴ": 2543,
      "LUCIO": 2544,
      "éĴīéĴ¯": 2545,
      "ale": 2546,
      "ins": 2547,
      "ä¹Į": 2548,
      "ert": 2549,
      "æī¾": 2550,
      "åİĨ": 2551,
      "Ġput": 2552,
      "Ġpower": 2553,
      "ĠIV": 2554,
      "æĬ«": 2555,
      "èµĮ": 2556,
      "é«ĺåı«éģĵ": 2557,
      "ichard": 2558,
      "çļĩå¸Ŀ": 2559,
      "Ġtwo": 2560,
      "æ¯«æ¯Ľ": 2561,
      "ä¸Ģåº§": 2562,
      "æĪĳæĺ¯": 2563,
      "Ġcha": 2564,
      "ä¹Łç½¢": 2565,
      "åĬĪ": 2566,
      "åį´æīį": 2567,
      "èĭ±": 2568,
      "Ġhimself": 2569,
      "é¡¾": 2570,
      "èĢĮåİ»": 2571,
      "ç£ķ": 2572,
      "çİĦå¥ĺ": 2573,
      "Pro": 2574,
      "éģ®": 2575,
      "iness": 2576,
      "æĹĹ": 2577,
      "Ġfirst": 2578,
      "æī¶": 2579,
      "Ġpeace": 2580,
      "èµĲ": 2581,
      "Ġgu": 2582,
      "å¦ĸéĤª": 2583,
      "åį´ä¸į": 2584,
      "Ġelse": 2585,
      "ried": 2586,
      "éĴ¦": 2587,
      "èĬ¦": 2588,
      "Ġdear": 2589,
      "è¢ĸ": 2590,
      "åĲ¬è¯´": 2591,
      "èĭ¥æĺ¯": 2592,
      "æ²¡æľī": 2593,
      "è¶ģ": 2594,
      "é¼»": 2595,
      "cious": 2596,
      "Sir": 2597,
      "ail": 2598,
      "ty": 2599,
      "åı¸": 2600,
      "å®½": 2601,
      "çļĦäºº": 2602,
      "æľīäºº": 2603,
      "éĢĥ": 2604,
      "æµª": 2605,
      "ason": 2606,
      "hile": 2607,
      "Ġsub": 2608,
      "æĲŃ": 2609,
      "éĻįå¦ĸ": 2610,
      "Ġunto": 2611,
      "ile": 2612,
      "ray": 2613,
      "Ġtill": 2614,
      "äºķ": 2615,
      "Ġsm": 2616,
      "åĲĬ": 2617,
      "å¾®": 2618,
      "åĪ¹": 2619,
      "å¸ĺ": 2620,
      "æķ¬": 2621,
      "æķĮ": 2622,
      "èµ´": 2623,
      "èĢģåĲĽ": 2624,
      "uty": 2625,
      "åĨ³": 2626,
      "åĸĬ": 2627,
      "åĿ¡": 2628,
      "ç§ĭ": 2629,
      "åģļä¸ª": 2630,
      "çĤī": 2631,
      "çĸĳ": 2632,
      "çĹĽ": 2633,
      "RI": 2634,
      "ZAB": 2635,
      "ect": 2636,
      "Ġtra": 2637,
      "Ġbid": 2638,
      "Ġback": 2639,
      "çļĦä¸Ģ": 2640,
      "Ġdre": 2641,
      "Ġhus": 2642,
      "æĭ¾": 2643,
      "éĴ¢": 2644,
      "èĥİ": 2645,
      "ETH": 2646,
      "æĴĴ": 2647,
      "ç¤¼éģĵ": 2648,
      "ĠELI": 2649,
      "Ġtherefore": 2650,
      "ä½łçľĭä»ĸ": 2651,
      "Ġearth": 2652,
      "Ġwords": 2653,
      "åŀĤ": 2654,
      "Ġcount": 2655,
      "çŃĭæĸĹ": 2656,
      "ZABETH": 2657,
      "ĠELIZABETH": 2658,
      "Have": 2659,
      "band": 2660,
      "ius": 2661,
      "men": 2662,
      "ople": 2663,
      "yal": 2664,
      "éĤ£éķ¿èĢģ": 2665,
      "éĤ£åĽ½çİĭ": 2666,
      "Ġfind": 2667,
      "Ġcould": 2668,
      "ä¼¸": 2669,
      "ä¼Ļ": 2670,
      "å¹½": 2671,
      "åĩºéĹ¨": 2672,
      "åį´æĺ¯": 2673,
      "æŀĿ": 2674,
      "ä¿Ĺ": 2675,
      "é¹¿": 2676,
      "ç±»": 2677,
      "æ±ĿçŃī": 2678,
      "Ġtongue": 2679,
      "ä¸įå°½": 2680,
      "orse": 2681,
      "è¡Ĺ": 2682,
      "åİĭ": 2683,
      "Ġlady": 2684,
      "Ġthine": 2685,
      "æĬķ": 2686,
      "æĭĶ": 2687,
      "æŃ¤æĹ¶": 2688,
      "æ¯Ĵ": 2689,
      "åĽŀå¤´": 2690,
      "éĺ¿": 2691,
      "æįĨ": 2692,
      "ä¸ĶåĲ¬": 2693,
      "Ġneed": 2694,
      "æĪĺåħ¢": 2695,
      "çłį": 2696,
      "ĠYork": 2697,
      "æĪĺåħ¢åħ¢": 2698,
      "HENRY": 2699,
      "get": 2700,
      "tw": 2701,
      "ä¸´": 2702,
      "Ġtre": 2703,
      "å¤Ł": 2704,
      "æľµ": 2705,
      "å°ģ": 2706,
      "æĿ¯": 2707,
      "Ġfell": 2708,
      "æī¿": 2709,
      "enry": 2710,
      "åĪ»": 2711,
      "Ġhigh": 2712,
      "å¥ĩ": 2713,
      "ä¹ĭäºĭ": 2714,
      "Ġforth": 2715,
      "åįģäºĮ": 2716,
      "äºĮäºº": 2717,
      "åĿĹ": 2718,
      "èĪ¹": 2719,
      "éľŀ": 2720,
      "Ġhope": 2721,
      "é½Ĳå¤©å¤§åľ£": 2722,
      "MER": 2723,
      "St": 2724,
      "lp": 2725,
      "èĿ": 2726,
      "ä¸ģ": 2727,
      "Ġhome": 2728,
      "vere": 2729,
      "ä¸īå¹´": 2730,
      "ä¸ĭåĽŀ": 2731,
      "eth": 2732,
      "å·¡": 2733,
      "è¿ĺæľī": 2734,
      "åĪĨè§£": 2735,
      "Ġseem": 2736,
      "çĬ¶": 2737,
      "æĬ¬å¤´": 2738,
      "eech": 2739,
      "ĠRomeo": 2740,
      "åŃ©åĦ¿": 2741,
      "Ġhusband": 2742,
      "14": 2743,
      "CL": 2744,
      "æĺ¨": 2745,
      "Ġduke": 2746,
      "çĶ±": 2747,
      "ä¸Ĭæľī": 2748,
      "äººçļĦ": 2749,
      "æĶ¹": 2750,
      "ç²¾ç¥ŀ": 2751,
      "éĵĥ": 2752,
      "çĭ¬": 2753,
      "æĺİæĹ¥": 2754,
      "å¾Ħèĩ³": 2755,
      "æī¯ä½ı": 2756,
      "Ġright": 2757,
      "éĢĴä¸İ": 2758,
      "ä¸ĶåĲ¬ä¸ĭåĽŀ": 2759,
      "ä¸ĶåĲ¬ä¸ĭåĽŀåĪĨè§£": 2760,
      "GE": 2761,
      "WAR": 2762,
      "WIC": 2763,
      "fort": 2764,
      "é³": 2765,
      "ĠWhat": 2766,
      "rer": 2767,
      "ä¸Ģåıª": 2768,
      "Ġban": 2769,
      "åĩŃ": 2770,
      "å¼Ĥ": 2771,
      "èµ¤": 2772,
      "åľ¨åľ°": 2773,
      "ä¸ĭæĿ¥": 2774,
      "ä¹ĭä¸ĭ": 2775,
      "uth": 2776,
      "æŃ¤å¤Ħ": 2777,
      "åĽŀæĿ¥": 2778,
      "Ġthough": 2779,
      "çķľ": 2780,
      "éĶħ": 2781,
      "æŁ¥": 2782,
      "ĠVI": 2783,
      "æ¯ķç«Ł": 2784,
      "WARWIC": 2785,
      "WARWICK": 2786,
      "UT": 2787,
      "ach": 2788,
      "ix": 2789,
      "Ġmind": 2790,
      "æľ¯": 2791,
      "Ġbra": 2792,
      "äºĨæĪĳ": 2793,
      "ister": 2794,
      "ä½łä¸Ķ": 2795,
      "Ġche": 2796,
      "Ġchar": 2797,
      "æµĳ": 2798,
      "æ¸©": 2799,
      "æ²ĻåĴĮå°ļ": 2800,
      "hip": 2801,
      "åı£éĩĮ": 2802,
      "èī¯": 2803,
      "é¸£": 2804,
      "é¸Ł": 2805,
      "ĠHENRY": 2806,
      "Ġpeople": 2807,
      "Nurse": 2808,
      "ds": 2809,
      "ged": 2810,
      "æĩ": 2811,
      "ä¸ĢæĹ¥": 2812,
      "æī¬": 2813,
      "åĩºå®¶": 2814,
      "æĽ¿": 2815,
      "çĮĽ": 2816,
      "åĶĲçİĭ": 2817,
      "æĳĦ": 2818,
      "ĠCitizen": 2819,
      "éľ²": 2820,
      "å¿įä¸įä½ı": 2821,
      "ren": 2822,
      "è¯¯": 2823,
      "å¸Ń": 2824,
      "èµĽ": 2825,
      "åĬł": 2826,
      "å¤´ä¸Ĭ": 2827,
      "æµİ": 2828,
      "They": 2829,
      "çº·": 2830,
      "æĭ¿äºĨ": 2831,
      "éĶĻ": 2832,
      "æĶ¾å¿ĥ": 2833,
      "æĬ¥éģĵ": 2834,
      "ĠHenry": 2835,
      "æħĮå¾Ĺ": 2836,
      "åį´è¯´éĤ£": 2837,
      "HAM": 2838,
      "IAN": 2839,
      "LET": 2840,
      "PU": 2841,
      "eed": 2842,
      "ä¸ŀ": 2843,
      "åıĻ": 2844,
      "éģ¥": 2845,
      "å°ĸ": 2846,
      "Ġbri": 2847,
      "è¯Ģ": 2848,
      "æĢ»": 2849,
      "Ġchan": 2850,
      "Ġlaw": 2851,
      "ä¸ŃéĹ´": 2852,
      "æ´²": 2853,
      "è°Ľ": 2854,
      "åĢ¼": 2855,
      "ĠRichard": 2856,
      "åĿĲåľ¨": 2857,
      "Ġshow": 2858,
      "Ġconf": 2859,
      "Ġhands": 2860,
      "çī¹æĿ¥": 2861,
      "PULET": 2862,
      "EY": 2863,
      "be": 2864,
      "æĪ´": 2865,
      "Ġmaster": 2866,
      "Ġwhy": 2867,
      "å°¾": 2868,
      "Ġco": 2869,
      "Ġcause": 2870,
      "è¡ĮèĢħéĹ»è¨Ģ": 2871,
      "Ġgl": 2872,
      "èº¬": 2873,
      "æ³ī": 2874,
      "æĬĬä»ĸ": 2875,
      "ç²ī": 2876,
      "Ġonce": 2877,
      "çĭĤ": 2878,
      "ç¾Ĭ": 2879,
      "Ġsaid": 2880,
      "ç±³": 2881,
      "Ġimp": 2882,
      "Good": 2883,
      "MIO": 2884,
      "Shall": 2885,
      "æĪ·": 2886,
      "ä¹ĺ": 2887,
      "åħ´": 2888,
      "Ġbod": 2889,
      "Ġnone": 2890,
      "åĳ¨": 2891,
      "çĽĽ": 2892,
      "å·§": 2893,
      "æ±¤": 2894,
      "éĵľ": 2895,
      "æľ¬äºĭ": 2896,
      "ç½¢äºĨ": 2897,
      "ousin": 2898,
      "Ġjoy": 2899,
      "ervant": 2900,
      "15": 2901,
      "All": 2902,
      "bt": 2903,
      "äººéģĵ": 2904,
      "ç»ķ": 2905,
      "Ġfort": 2906,
      "å·ŀ": 2907,
      "åĿı": 2908,
      "æ»´": 2909,
      "èĬ±æŀľ": 2910,
      "æĶ¶æĭ¾": 2911,
      "Ġbring": 2912,
      "å¥ıéģĵ": 2913,
      "çŀĴ": 2914,
      "Yet": 2915,
      "ä»»": 2916,
      "Ġdou": 2917,
      "æľīä¸Ģä¸ª": 2918,
      "æĭ³": 2919,
      "ates": 2920,
      "é©¿": 2921,
      "éĹ¨åīį": 2922,
      "Ġevery": 2923,
      "è½¦": 2924,
      "ä½ĽæķĻ": 2925,
      "UCKING": 2926,
      "å¾Ģè¥¿å¤©": 2927,
      "ä¸ľè¥¿": 2928,
      "é¸¡": 2929,
      "å°ıçļĦä»¬": 2930,
      "BRUT": 2931,
      "UCKINGHAM": 2932,
      "BRUTUS": 2933,
      "BRO": 2934,
      "BUCKINGHAM": 2935,
      "From": 2936,
      "TRAN": 2937,
      "iet": 2938,
      "«èĬ¦": 2939,
      "Ġmist": 2940,
      "åĲŁ": 2941,
      "åĪĺ": 2942,
      "Ġpass": 2943,
      "çİ¯": 2944,
      "èĢģçĮª": 2945,
      "åĵī": 2946,
      "è¯´è¯Ŀ": 2947,
      "ird": 2948,
      "è¨Ģéģĵ": 2949,
      "Ġlight": 2950,
      "INGBRO": 2951,
      "ESS": 2952,
      "ĠBOL": 2953,
      "ç¢Ĺ": 2954,
      "èĵĿ": 2955,
      "èĳ«èĬ¦": 2956,
      "TRANIO": 2957,
      "INGBROKE": 2958,
      "ĠBOLINGBROKE": 2959,
      "Do": 2960,
      "Will": 2961,
      "lt": 2962,
      "vost": 2963,
      "ç¡": 2964,
      "Ġwo": 2965,
      "ä¸Ģåı£": 2966,
      "åĲī": 2967,
      "åįĩ": 2968,
      "åľĨ": 2969,
      "çļĦæĦıæĢĿ": 2970,
      "Ġnat": 2971,
      "Ġthr": 2972,
      "æĭ¥": 2973,
      "èĩ´": 2974,
      "éĻª": 2975,
      "ç«Ļ": 2976,
      "è°¢äºĨ": 2977,
      "Ġroyal": 2978,
      "å£ģåİ¢": 2979,
      "swer": 2980,
      "PER": 2981,
      "TIS": 2982,
      "cle": 2983,
      "æ¹": 2984,
      "Ġtears": 2985,
      "æľ±": 2986,
      "å¾ģ": 2987,
      "æĺ¯éĤ£": 2988,
      "its": 2989,
      "Ġcame": 2990,
      "éĩĬ": 2991,
      "æŃ¹": 2992,
      "åĽ¢": 2993,
      "ary": 2994,
      "åıĪè§ģ": 2995,
      "å¯Ĩ": 2996,
      "åºĬ": 2997,
      "èĭį": 2998,
      "è½®": 2999,
      "è·¯ä¸Ĭ": 3000,
      "å¨ĩ": 3001,
      "ĠMAR": 3002,
      "æĲĢ": 3003,
      "åķ¼": 3004,
      "æľªæĽ¾": 3005,
      "Ġwhose": 3006,
      "éĢłåĮĸ": 3007,
      "éº»": 3008,
      "Ġplease": 3009,
      "lf": 3010,
      "vy": 3011,
      "ä¸įèĤ¯": 3012,
      "æĿĳ": 3013,
      "å®Į": 3014,
      "ory": 3015,
      "éĹŃ": 3016,
      "Ġpardon": 3017,
      "æŃ¤è¨Ģ": 3018,
      "è´Ł": 3019,
      "æ´ª": 3020,
      "æĤĦ": 3021,
      "roke": 3022,
      "ä½Ľç¥ĸ": 3023,
      "çĶ¨æīĭ": 3024,
      "å¿½è§ģ": 3025,
      "ĠAn": 3026,
      "Cl": 3027,
      "GAR": 3028,
      "NE": 3029,
      "pose": 3030,
      "Ġbes": 3031,
      "Ġboy": 3032,
      "Ġfull": 3033,
      "éĩĩ": 3034,
      "arry": 3035,
      "å¤§æĥĬ": 3036,
      "Ġheard": 3037,
      "æĬĽ": 3038,
      "ç»Ī": 3039,
      "Ġhapp": 3040,
      "åıªç®¡": 3041,
      "è®¨": 3042,
      "çīĩ": 3043,
      "é¡½": 3044,
      "Ġdev": 3045,
      "çķ¥": 3046,
      "å¼ĢéĹ¨": 3047,
      "çĥŃ": 3048,
      "âĢĻï¼Į": 3049,
      "çĻ½é©¬": 3050,
      "Ġjust": 3051,
      "Ġwrong": 3052,
      "Ġpresent": 3053,
      "ĠMARGAR": 3054,
      "ĠMARGARET": 3055,
      "ATH": 3056,
      "eel": 3057,
      "ä¸ĵ": 3058,
      "Ġsince": 3059,
      "ä»ĩ": 3060,
      "Ġmis": 3061,
      "ä¸ĢåĪĻ": 3062,
      "çļĦåĴĮå°ļ": 3063,
      "ens": 3064,
      "Ġland": 3065,
      "Ġlast": 3066,
      "æĬ¢": 3067,
      "æĭ½": 3068,
      "å¤©åľ°": 3069,
      "å¹¼": 3070,
      "åĨ°": 3071,
      "éĹ¨éĩĮ": 3072,
      "Ġere": 3073,
      "åĽŀåİ»": 3074,
      "Ġstate": 3075,
      "è°Ī": 3076,
      "ç§Ģ": 3077,
      "éĹ®ä»ĸ": 3078,
      "æ¢ģ": 3079,
      "æ±Ĥç»ı": 3080,
      "Ġplace": 3081,
      "MIL": 3082,
      "16": 3083,
      "bl": 3084,
      "sand": 3085,
      "ãĢĤâĢĶâĢĶ": 3086,
      "è¿Ĳ": 3087,
      "å°º": 3088,
      "éĤ£å¦ĸ": 3089,
      "ä¼¯": 3090,
      "æ°¸": 3091,
      "Ġmeet": 3092,
      "åį´ä¹Ł": 3093,
      "å·¥": 3094,
      "Ġunder": 3095,
      "æĮ£": 3096,
      "Ġkill": 3097,
      "æķĻæĪĳ": 3098,
      "æį§": 3099,
      "é¦Ĩ": 3100,
      "çİ°äºĨ": 3101,
      "ç¨³": 3102,
      "è¯ĹæĽ°": 3103,
      "çĳŀ": 3104,
      "Ġafter": 3105,
      "ç£ķå¤´": 3106,
      "HOR": 3107,
      "cent": 3108,
      "Ġsorrow": 3109,
      "æĺĵ": 3110,
      "å°¸": 3111,
      "çļĦä¸Ģå£°": 3112,
      "ition": 3113,
      "Ġcare": 3114,
      "æľīä¸ī": 3115,
      "çĶ°": 3116,
      "åľ¨è¿ĻéĩĮ": 3117,
      "åĶ±": 3118,
      "Ġthousand": 3119,
      "éĩĳåħī": 3120,
      "æĦģ": 3121,
      "å¤ļå®ĺ": 3122,
      "esty": 3123,
      "äºĶåįģ": 3124,
      "çĭł": 3125,
      "éĶĭ": 3126,
      "ANGE": 3127,
      "ORD": 3128,
      "çĬ¯": 3129,
      "çĬ¹": 3130,
      "Ġhold": 3131,
      "ç½ĹåĪ¹": 3132,
      "GRE": 3133,
      "èĬ±æŀľå±±": 3134,
      "ANGELO": 3135,
      "CU": 3136,
      "Our": 3137,
      "å¤º": 3138,
      "éģ¿": 3139,
      "éģĵäºº": 3140,
      "è¿·": 3141,
      "ä¸įè¿ĩ": 3142,
      "åħį": 3143,
      "åĽ¾": 3144,
      "Ġhelp": 3145,
      "èĢģå¦ĸ": 3146,
      "ç»¿": 3147,
      "ä¹ĭéĹ´": 3148,
      "åĳ³": 3149,
      "è¯´å¾Ĺ": 3150,
      "éĢĶ": 3151,
      "æĽ¹": 3152,
      "èº«ä¸Ĭ": 3153,
      "æ£®": 3154,
      "ARINA": 3155,
      "æĳ©": 3156,
      "çĮ´åŃĲ": 3157,
      "ç¤¼æĭľ": 3158,
      "arence": 3159,
      "æ¨µ": 3160,
      "ç£¨": 3161,
      "å½¢å®¹": 3162,
      "æıŃè°Ľ": 3163,
      "èĢģèĢħéģĵ": 3164,
      "Ġwhom": 3165,
      "Ġfollow": 3166,
      "æ¯ķç«Łä¸įçŁ¥": 3167,
      "KATH": 3168,
      "day": 3169,
      "ä¹ī": 3170,
      "ä¸įè§ī": 3171,
      "æľĢ": 3172,
      "Ġfar": 3173,
      "Ġless": 3174,
      "å¦Ī": 3175,
      "Ġhither": 3176,
      "è¿Ļå¤§åľ£": 3177,
      "ä¸ĬæĿ¥": 3178,
      "æĭĸ": 3179,
      "ceive": 3180,
      "ä¹ĭå¤Ħ": 3181,
      "irt": 3182,
      "åĦ¿åŃĲ": 3183,
      "è´¢": 3184,
      "Ġweep": 3185,
      "éĺİ": 3186,
      "æµ®": 3187,
      "åĢļ": 3188,
      "æ¸¡": 3189,
      "Ġshame": 3190,
      "é½¿": 3191,
      "selves": 3192,
      "åıĹçĶ¨": 3193,
      "cius": 3194,
      "æ¼Ķ": 3195,
      "Ġenem": 3196,
      "Ġabout": 3197,
      "Ġeye": 3198,
      "èĽĩ": 3199,
      "å¹¿å¤§": 3200,
      "èº«ä¸Ģåıĺ": 3201,
      "KATHARINA": 3202,
      "iol": 3203,
      "ä¸įæľŁ": 3204,
      "æľº": 3205,
      "Ġfal": 3206,
      "Ġfool": 3207,
      "ons": 3208,
      "åĽ°": 3209,
      "Ġpat": 3210,
      "çĿĢä¸Ģä¸ª": 3211,
      "åĵª": 3212,
      "åħ«æĪĴç¬ĳéģĵ": 3213,
      "éķĩ": 3214,
      "æĢªçī©": 3215,
      "éĺ¶": 3216,
      "éĩĳæĺŁ": 3217,
      "urde": 3218,
      "è¿ĺä¸į": 3219,
      "åı¯æĢľ": 3220,
      "è¿ĩäºĨ": 3221,
      "Ġsun": 3222,
      "Ġanswer": 3223,
      "åħĪçĶŁ": 3224,
      "åįĹæĹł": 3225,
      "éĽ·éŁ³": 3226,
      "å¾¡å¼Ł": 3227,
      "èģļ": 3228,
      "èķĬ": 3229,
      "air": 3230,
      "æ§": 3231,
      "çį": 3232,
      "åĲĴ": 3233,
      "ä»ĸåį´": 3234,
      "ä½łä¸į": 3235,
      "Ġch": 3236,
      "åĪº": 3237,
      "çľī": 3238,
      "çĿĢä»ĸ": 3239,
      "è®¿": 3240,
      "asure": 3241,
      "åĽĽä¸ª": 3242,
      "Ġfall": 3243,
      "âĢĻãĢĤ": 3244,
      "æĽ´æĹł": 3245,
      "èµ¶ä¸Ĭ": 3246,
      "æĳĩèº«ä¸Ģåıĺ": 3247,
      "Ġmaid": 3248,
      "LUS": 3249,
      "Un": 3250,
      "Up": 3251,
      "ç¦ģ": 3252,
      "ount": 3253,
      "Ġbus": 3254,
      "åŃĺ": 3255,
      "Ġcousin": 3256,
      "å¯¡": 3257,
      "éĢĤ": 3258,
      "ä½ķå¦Ĥ": 3259,
      "æ³ķåĬĽ": 3260,
      "è¿ĽæĿ¥": 3261,
      "thy": 3262,
      "æŁ´": 3263,
      "ESCA": 3264,
      "æĸĩæŃ¦": 3265,
      "Ġhate": 3266,
      "ç¢§": 3267,
      "Ġgracious": 3268,
      "Ġgentleman": 3269,
      "åĴĴè¯Ń": 3270,
      "ĠKing": 3271,
      "Ġgrief": 3272,
      "ESCALUS": 3273,
      "An": 3274,
      "ject": 3275,
      "ove": 3276,
      "æª": 3277,
      "Ġmakes": 3278,
      "åħ·": 3279,
      "åİī": 3280,
      "è¿Ļæĺ¯": 3281,
      "æĬµ": 3282,
      "çĿģ": 3283,
      "Ġinto": 3284,
      "åĬŀ": 3285,
      "imes": 3286,
      "å°ĨæĿ¥": 3287,
      "æĬĬæĪĳ": 3288,
      "éĴµ": 3289,
      "Ġstri": 3290,
      "è¿ĺæĺ¯": 3291,
      "å§ĭ": 3292,
      "ç¥ĸå¸Ī": 3293,
      "å¢ĥ": 3294,
      "åĶ¬å¾Ĺ": 3295,
      "Hath": 3296,
      "iv": 3297,
      "ild": 3298,
      "çĩ": 3299,
      "å¥¶": 3300,
      "ç»ĳ": 3301,
      "ä¹ĭæĦı": 3302,
      "è¯´æĺ¯": 3303,
      "åıªåĽł": 3304,
      "çĽĳ": 3305,
      "Ġstre": 3306,
      "æĸ¹ä¾¿": 3307,
      "ä½ıäºĨ": 3308,
      "ç§¯": 3309,
      "èħ¹": 3310,
      "ç¾ŀ": 3311,
      "ĠEng": 3312,
      "éĥ¡": 3313,
      "åĲĪæİĮ": 3314,
      "åĭĴ": 3315,
      "æ¼«": 3316,
      "åĶ¤åģļ": 3317,
      "ç«¥åŃĲ": 3318,
      "âĢ¦âĢ¦": 3319,
      "Ġwoman": 3320,
      "åİīå£°": 3321,
      "DUCH": 3322,
      "Ġturn": 3323,
      "èĢ¶": 3324,
      "ä¸įåĲĮ": 3325,
      "ä¸Ģæł¹": 3326,
      "è¯ķ": 3327,
      "Ġhum": 3328,
      "å¼¥": 3329,
      "æĸĻ": 3330,
      "Ġbel": 3331,
      "ä¸ĭé©¬": 3332,
      "å±±ä¸Ń": 3333,
      "åĸı": 3334,
      "çĪ¶æ¯į": 3335,
      "åĶĲæľĿ": 3336,
      "alt": 3337,
      "è½½": 3338,
      "èĩªå®¶": 3339,
      "åı¯ä»¥": 3340,
      "èĥ¸": 3341,
      "Ġdost": 3342,
      "æ®ĭ": 3343,
      "Ġcomfort": 3344,
      "ices": 3345,
      "æ¨ª": 3346,
      "èĢ³æľµ": 3347,
      "ä¸¢äºĨ": 3348,
      "Ġcoun": 3349,
      "ĠDuke": 3350,
      "è·ªä¸ĭ": 3351,
      "ç°ĩ": 3352,
      "Ġcourt": 3353,
      "Ġsleep": 3354,
      "urderer": 3355,
      "DUCHESS": 3356,
      "Lord": 3357,
      "pher": 3358,
      "çĺ": 3359,
      "Ġtalk": 3360,
      "itor": 3361,
      "Ġover": 3362,
      "å¿ĺ": 3363,
      "çŃµ": 3364,
      "è°¨": 3365,
      "è¿ĩåİ»": 3366,
      "æĲħ": 3367,
      "éĤ£æĢªéģĵ": 3368,
      "æħĮäºĨ": 3369,
      "æľ¨åıī": 3370,
      "èĢįåŃĲ": 3371,
      "Ġbody": 3372,
      "åĵªåĲĴ": 3373,
      "morrow": 3374,
      "Ġwilt": 3375,
      "ä¹¾": 3376,
      "Ġbu": 3377,
      "çļĪ": 3378,
      "éĤ£åĴĮå°ļ": 3379,
      "å®ĩ": 3380,
      "åŃĶ": 3381,
      "æĬĵ": 3382,
      "Ġgr": 3383,
      "å±ĭ": 3384,
      "çİĭåŃĲ": 3385,
      "åĬĿ": 3386,
      "ute": 3387,
      "æĮ¡": 3388,
      "èĹ¤": 3389,
      "éĿ¢åīį": 3390,
      "gelo": 3391,
      "èī³": 3392,
      "éħį": 3393,
      "æ¡Į": 3394,
      "æĤŁç©ºéģĵ": 3395,
      "é¹¤": 3396,
      "å¸¸è¨Ģéģĵ": 3397,
      "çīĽçİĭ": 3398,
      "deed": 3399,
      "ĠMarcius": 3400,
      "IA": 3401,
      "ience": 3402,
      "Ġi": 3403,
      "äº¡": 3404,
      "ised": 3405,
      "æĬ±": 3406,
      "Ġbed": 3407,
      "çĽı": 3408,
      "èĩ¾": 3409,
      "å·±": 3410,
      "è´µ": 3411,
      "æĥŁ": 3412,
      "è¾¨": 3413,
      "è¾ĥ": 3414,
      "éĺ»": 3415,
      "ä½ķå¤Ħ": 3416,
      "èĬŃ": 3417,
      "ä¼Ĺç¥ŀ": 3418,
      "èµ·èº«": 3419,
      "æĻ®": 3420,
      "Ġfault": 3421,
      "Ġatt": 3422,
      "ieve": 3423,
      "æ®¿ä¸Ĭ": 3424,
      "å§Ĳ": 3425,
      "è¶Ĭ": 3426,
      "åĽ½çİĭéģĵ": 3427,
      "çģµå±±": 3428,
      "é¡»èĩ¾": 3429,
      "Ġprove": 3430,
      "Ġplay": 3431,
      "CAMIL": 3432,
      "ä¸ľåľŁå¤§åĶĲ": 3433,
      "ĠClarence": 3434,
      "CAMILLO": 3435,
      "God": 3436,
      "ere": 3437,
      "ily": 3438,
      "èĸ": 3439,
      "Ġsound": 3440,
      "æĺł": 3441,
      "åĲŀ": 3442,
      "éĤ£å¤§åľ£": 3443,
      "ä»ĸéĤ£": 3444,
      "Ġdra": 3445,
      "åĪ¤": 3446,
      "ans": 3447,
      "omet": 3448,
      "ä¸ĭåİ»": 3449,
      "Ġinst": 3450,
      "å¯¸": 3451,
      "å¯ĩ": 3452,
      "å·´": 3453,
      "Ġwel": 3454,
      "æĶĴ": 3455,
      "ade": 3456,
      "Ġret": 3457,
      "Ġdeed": 3458,
      "çľŁæĺ¯": 3459,
      "ç®Ģ": 3460,
      "æĤŁèĥ½": 3461,
      "Ġthank": 3462,
      "çĽ´èĩ³": 3463,
      "åĪĹä½į": 3464,
      "17": 3465,
      "TEN": 3466,
      "Ġser": 3467,
      "ä¹¡": 3468,
      "ä¸įåĬ¨": 3469,
      "Ġbo": 3470,
      "åĲĨ": 3471,
      "æĪĳå°±": 3472,
      "æĺ¯ä»ĸ": 3473,
      "Ġfight": 3474,
      "å¿§": 3475,
      "å¾Ĺä»ĸ": 3476,
      "Ġindeed": 3477,
      "åıĪè§ģéĤ£": 3478,
      "åī¥": 3479,
      "åīįåĲİ": 3480,
      "æĹłç¤¼": 3481,
      "illain": 3482,
      "å¿ĥæĥĬ": 3483,
      "çº¸": 3484,
      "ä¾¿æĺ¯": 3485,
      "éĤ£éĩĮåİ»": 3486,
      "æĤŁåĩĢ": 3487,
      "ç¦½": 3488,
      "çĥĤ": 3489,
      "hold": 3490,
      "Ġvo": 3491,
      "æ··": 3492,
      "Ġsword": 3493,
      "è¸ª": 3494,
      "ä¿®è¡Į": 3495,
      "éŀĭ": 3496,
      "ĠAngelo": 3497,
      "HORTEN": 3498,
      "Ġfalse": 3499,
      "HORTENS": 3500,
      "FRI": 3501,
      "Sh": 3502,
      "É¡": 3503,
      "åıł": 3504,
      "æĪĳåİ»": 3505,
      "æĪĳè¿ĻéĩĮ": 3506,
      "æķ²": 3507,
      "å¥Ĺ": 3508,
      "çĶ»": 3509,
      "çĽĹ": 3510,
      "æŃ¤éĹ´": 3511,
      "åĨł": 3512,
      "å¥½æŃ¹": 3513,
      "Ġuse": 3514,
      "Ġeven": 3515,
      "éķ¿çĶŁ": 3516,
      "ä¸īèĹıéĹ»è¨Ģ": 3517,
      "èĪĮ": 3518,
      "Ġsovere": 3519,
      "é©¬åĮ¹": 3520,
      "åį³åĳ½": 3521,
      "ç´¯": 3522,
      "æľ¬çĽ¸": 3523,
      "Ġanother": 3524,
      "åħŃåįģ": 3525,
      "ç¿ħ": 3526,
      "æ¢ħ": 3527,
      "ä¼łæĹ¨": 3528,
      "æ¯įäº²": 3529,
      "Ġgrave": 3530,
      "ä¿ĿæĬ¤": 3531,
      "æīĩåŃĲ": 3532,
      "Ġadv": 3533,
      "éĹ¹å¤©å®«": 3534,
      "Provost": 3535,
      "Ġfellow": 3536,
      "Upon": 3537,
      "HORTENSIO": 3538,
      "FRIAR": 3539,
      ",'": 3540,
      "PTIS": 3541,
      "eal": 3542,
      "èļ": 3543,
      "ä½łåı¯": 3544,
      "Ġcur": 3545,
      "å¿Ĺ": 3546,
      "è¿Ļåİ®": 3547,
      "æĸ§": 3548,
      "åľ¨æĹģ": 3549,
      "æĭ±": 3550,
      "Ġhas": 3551,
      "åĬ«": 3552,
      "éĢī": 3553,
      "çľĭå¤Ħ": 3554,
      "è´¹": 3555,
      "Ġem": 3556,
      "è¾Ī": 3557,
      "æĽ²": 3558,
      "æł¡": 3559,
      "è°ĵ": 3560,
      "ury": 3561,
      "èĦĳ": 3562,
      "éĤ£æĢªçī©": 3563,
      "pect": 3564,
      "åıĮæīĭ": 3565,
      "èŁł": 3566,
      "èķī": 3567,
      "BAPTIS": 3568,
      "Ġbanish": 3569,
      "Ġfortune": 3570,
      "BAPTISTA": 3571,
      "CUS": 3572,
      "COM": 3573,
      "TOL": 3574,
      "YCUS": 3575,
      "pl": 3576,
      "pen": 3577,
      "ouch": 3578,
      "Ġmerc": 3579,
      "Ġmatter": 3580,
      "Ġwant": 3581,
      "æĺĤ": 3582,
      "ä¸įåĪĨ": 3583,
      "ä¸įè¯Ĩ": 3584,
      "ä½łè¿Ļä¸ª": 3585,
      "åľ¨å±±": 3586,
      "éĢı": 3587,
      "å°±æīĵ": 3588,
      "æ³¨": 3589,
      "çŃīèĢģåŃĻ": 3590,
      "æĢªéģĵ": 3591,
      "Ġreven": 3592,
      "æĤ¬": 3593,
      "Ġass": 3594,
      "èıľ": 3595,
      "å½ĵå¹´": 3596,
      "Ġsend": 3597,
      "é¢ľ": 3598,
      "æŁľ": 3599,
      "Ġprison": 3600,
      "ä½Ĩè§ģ": 3601,
      "fect": 3602,
      "ãĢĭï¼Į": 3603,
      "AUTOL": 3604,
      "Ġrather": 3605,
      "ç¾¤å¦ĸ": 3606,
      "Ġcountry": 3607,
      "æĺ¨æĹ¥": 3608,
      "Ġdoubt": 3609,
      "èĬŃèķī": 3610,
      "COMINIUS": 3611,
      "AUTOLYCUS": 3612,
      ".'": 3613,
      "Are": 3614,
      "Even": 3615,
      "More": 3616,
      "æ¿": 3617,
      "é¥¿": 3618,
      "ä¸ĺ": 3619,
      "åı¹": 3620,
      "æĪı": 3621,
      "Ġwish": 3622,
      "è¿¹": 3623,
      "ä¸įæīĵ": 3624,
      "åįł": 3625,
      "æĢ¨": 3626,
      "Ġyears": 3627,
      "çĶµ": 3628,
      "èµı": 3629,
      "åıĪæľī": 3630,
      "ç¥Ń": 3631,
      "çĪ¶çİĭ": 3632,
      "è´§": 3633,
      "æĹłäºº": 3634,
      "æĬĬä¸ª": 3635,
      "çŁ¥éģĵ": 3636,
      "èĲ¥": 3637,
      "Ġreason": 3638,
      "ä¸ºè¯ģ": 3639,
      "Ġlies": 3640,
      "é¡·": 3641,
      "æķĻä½ł": 3642,
      "Ġonly": 3643,
      "ARENCE": 3644,
      "åģļäºĨ": 3645,
      "Third": 3646,
      "åįĥéĩĮ": 3647,
      "Ġvirt": 3648,
      "éķ¿èĢģéģĵ": 3649,
      "å¾ħæĪĳ": 3650,
      "æħĮå¾ĹéĤ£": 3651,
      "åĭ¾": 3652,
      "å»Ĭ": 3653,
      "çĳ¶": 3654,
      "éŀŃ": 3655,
      "Ġtruth": 3656,
      "ç³»": 3657,
      "Would": 3658,
      "ior": 3659,
      "ms": 3660,
      "of": 3661,
      "rance": 3662,
      "ĠBut": 3663,
      "è¿½": 3664,
      "ä¸įäºĨ": 3665,
      "ä¸Ģè·¯": 3666,
      "åĲĵ": 3667,
      "éĤ£åİ®": 3668,
      "åľĪ": 3669,
      "Ġdan": 3670,
      "Ġpers": 3671,
      "å¤§è·¯": 3672,
      "any": 3673,
      "æĭ´": 3674,
      "æĭĲ": 3675,
      "å¯Ĥ": 3676,
      "éĴĪ": 3677,
      "éķ¿å®ī": 3678,
      "æīĭä¸Ń": 3679,
      "çĽ¸è§ģ": 3680,
      "æĭ¿ä»ĸ": 3681,
      "æ³ķå¸Ī": 3682,
      "çªĿ": 3683,
      "åı¤ä»£": 3684,
      "è±¹": 3685,
      "ç¥ŀéĢļå¹¿å¤§": 3686,
      "Ġbreath": 3687,
      "ç¥¥äºĳ": 3688,
      "Ġarms": 3689,
      "Ġdream": 3690,
      "CLARENCE": 3691,
      "åĩºå®¶äºº": 3692,
      "pherd": 3693,
      "BEN": 3694,
      "MAR": 3695,
      "NOR": 3696,
      "dd": 3697,
      "der": 3698,
      "¸é©¬": 3699,
      "Ġsent": 3700,
      "ä¸Ģéĺµ": 3701,
      "ä»ĸæĺ¯": 3702,
      "ener": 3703,
      "å¸½": 3704,
      "Ġgi": 3705,
      "é©¸é©¬": 3706,
      "éĹ¨é¦ĸ": 3707,
      "è¾Ľ": 3708,
      "è¾Ł": 3709,
      "Ġstra": 3710,
      "äºĮéŃĶ": 3711,
      "ç¥ŀåĥ§": 3712,
      "Ġshalt": 3713,
      "æĻº": 3714,
      "åįĹæµ·": 3715,
      "åķĨ": 3716,
      "Ġdisc": 3717,
      "æ¦ľ": 3718,
      "VOLIO": 3719,
      "Clown": 3720,
      "Ġbusiness": 3721,
      "BENVOLIO": 3722,
      "Al": 3723,
      "At": 3724,
      "PRO": 3725,
      "SPER": 3726,
      "by": 3727,
      "hed": 3728,
      "Ġsen": 3729,
      "ä¹İ": 3730,
      "åħĶ": 3731,
      "éĤ£è¡ĮèĢħ": 3732,
      "æĪĳä¸į": 3733,
      "æĪĳä¸Ģ": 3734,
      "Ġprom": 3735,
      "æĬ½": 3736,
      "å¾ĹäºĨ": 3737,
      "ä¸ĭæĭľ": 3738,
      "ä¸ĭçķĮ": 3739,
      "å±ı": 3740,
      "åĩºäºĨ": 3741,
      "æīĵæĿĢ": 3742,
      "éĻ©": 3743,
      "åįģåħ«": 3744,
      "éĴ©": 3745,
      "è¢į": 3746,
      "å¼ĢäºĨ": 3747,
      "æ´ŀåı£": 3748,
      "é¥¥": 3749,
      "æľ¬æĺ¯": 3750,
      "ä¸įçŁ¥æĺ¯": 3751,
      "æ·»": 3752,
      "Ġholy": 3753,
      "Ġenough": 3754,
      "éĽ·åħ¬": 3755,
      "erving": 3756,
      "å¢Ļ": 3757,
      "Ġcommand": 3758,
      "UMIO": 3759,
      "GRUMIO": 3760,
      "èĥ¡è¯´": 3761,
      "èº¬èº«": 3762,
      "PROSPER": 3763,
      "PROSPERO": 3764,
      "ia": 3765,
      "ken": 3766,
      "æ¤": 3767,
      "å¤¸": 3768,
      "Ġsea": 3769,
      "Ġwind": 3770,
      "itt": 3771,
      "æĿ¥æŃ¤": 3772,
      "ä½łè¯´": 3773,
      "Ġcra": 3774,
      "Ġlay": 3775,
      "å¦ĥ": 3776,
      "ars": 3777,
      "Ġpity": 3778,
      "ator": 3779,
      "Ġbea": 3780,
      "Ġhang": 3781,
      "Ġstran": 3782,
      "éĩĳåĪļ": 3783,
      "èµ°åĩº": 3784,
      "éŃı": 3785,
      "åĿ¤": 3786,
      "Ġsold": 3787,
      "é¡¹": 3788,
      "é©¬ä¸Ĭ": 3789,
      "è¢±": 3790,
      "åĽĽå¤§": 3791,
      "çº¦": 3792,
      "èĩªåľ¨": 3793,
      "éŃĶå¤´": 3794,
      "Ġspir": 3795,
      "Ġfare": 3796,
      "Ġproud": 3797,
      "ĠMurderer": 3798,
      "è½¬èº«": 3799,
      "æĥĬåĬ¨": 3800,
      "Ġswear": 3801,
      "è¿İæİ¥": 3802,
      "åı¤äºº": 3803,
      "åĮħè¢±": 3804,
      "Ġcontent": 3805,
      "MERCU": 3806,
      "æĩĴ": 3807,
      "MERCUTIO": 3808,
      "com": 3809,
      "ike": 3810,
      "åµ": 3811,
      "ç¨Ģ": 3812,
      "èĶ": 3813,
      "ï¼ĮâĢĶâĢĶ": 3814,
      "åı²": 3815,
      "ä¸įçĦ¶": 3816,
      "äºĨä½ł": 3817,
      "å®ģ": 3818,
      "æĪĳä¸İä½ł": 3819,
      "ä»ĸä¹Ł": 3820,
      "ä»ĸè¯´": 3821,
      "ä½łæĹ¢": 3822,
      "Ġdare": 3823,
      "åĪ®": 3824,
      "æĬ¹": 3825,
      "å¤©å°Ĭ": 3826,
      "çĽĤ": 3827,
      "eter": 3828,
      "è´ª": 3829,
      "ç©·": 3830,
      "Ġlives": 3831,
      "Ġdep": 3832,
      "æĦļ": 3833,
      "èĤł": 3834,
      "Ġsec": 3835,
      "å®Ŀæ®¿": 3836,
      "çĭĲ": 3837,
      "Ġvillain": 3838,
      "ä½¿ä¸ª": 3839,
      "ä½Ĩè§ģéĤ£": 3840,
      "è®¤ä¸º": 3841,
      "é¹°": 3842,
      "gainst": 3843,
      "ĠKate": 3844,
      "çŃĶåºĶ": 3845,
      "LUCENTIO": 3846,
      "Ġremem": 3847,
      "çĥ¦æģ¼": 3848,
      "Ġnature": 3849,
      "Ġwelcome": 3850,
      "POM": 3851,
      "Tw": 3852,
      "sh": 3853,
      "unt": 3854,
      "ä¸Ľ": 3855,
      "Ġtend": 3856,
      "ham": 3857,
      "ä¸įå¤ļæĹ¶": 3858,
      "å°ī": 3859,
      "ä¸Ģä¸Ģ": 3860,
      "æĿ¿": 3861,
      "äºĨä¸Ģä¸ª": 3862,
      "Ġfree": 3863,
      "è¯į": 3864,
      "ä½łåį´": 3865,
      "ä½łè¿ĺ": 3866,
      "å¦¹": 3867,
      "å¸Ĳ": 3868,
      "å¸ĸ": 3869,
      "è¿ĻäºĽ": 3870,
      "æĸ©": 3871,
      "Ġgre": 3872,
      "Ġget": 3873,
      "ç»Ļ": 3874,
      "Ġint": 3875,
      "åĨĴ": 3876,
      "åĸĩ": 3877,
      "Ġwithin": 3878,
      "çĮ¢": 3879,
      "Ġkiss": 3880,
      "åĲİéĿ¢": 3881,
      "ester": 3882,
      "é¥±": 3883,
      "ĠCome": 3884,
      "è¯Ŀè¯´": 3885,
      "æ¡Ī": 3886,
      "æıª": 3887,
      "Ġgods": 3888,
      "è¶ħ": 3889,
      "çıį": 3890,
      "çªĹ": 3891,
      "å¹²åĩĢ": 3892,
      "Ġsaw": 3893,
      "Ġmadam": 3894,
      "å©Ĩå©Ĩ": 3895,
      "LAND": 3896,
      "Ġhappy": 3897,
      "Ġsovereign": 3898,
      "èŁłæ¡ĥ": 3899,
      "POMP": 3900,
      "LINA": 3901,
      "PAU": 3902,
      "apt": 3903,
      "éģµ": 3904,
      "Ġserv": 3905,
      "Ġsister": 3906,
      "Ġsomet": 3907,
      "hal": 3908,
      "ä¸Ģå®ļ": 3909,
      "ä¸Ģä»¶": 3910,
      "Ġfoul": 3911,
      "Ġcity": 3912,
      "åİ¿": 3913,
      "èĢģåĦ¿": 3914,
      "æĭ¦": 3915,
      "ä¹ĭè¨Ģ": 3916,
      "åıĪæĿ¥": 3917,
      "åĨ¤": 3918,
      "åºĻ": 3919,
      "è¾ī": 3920,
      "æĶ¯": 3921,
      "æģķ": 3922,
      "åĿļ": 3923,
      "vers": 3924,
      "çĭ²": 3925,
      "éªĹ": 3926,
      "åŁĭ": 3927,
      "åĢĴæį¢": 3928,
      "åįĬç©ºä¸Ń": 3929,
      "åłª": 3930,
      "åłĨ": 3931,
      "äºĨä¸Ģéģį": 3932,
      "Were": 3933,
      "éĤ£èĢģèĢħ": 3934,
      "å»º": 3935,
      "ç¥¥åħī": 3936,
      "Ġbeseech": 3937,
      "PAULINA": 3938,
      "YORK": 3939,
      "ient": 3940,
      "use": 3941,
      "åıĭ": 3942,
      "ä¸įå¿ħ": 3943,
      "åħľ": 3944,
      "æĪĳæĿ¥": 3945,
      "ery": 3946,
      "Ġden": 3947,
      "Ġyield": 3948,
      "Ġthree": 3949,
      "Ġoath": 3950,
      "å¸Ĥ": 3951,
      "å¿Ĵ": 3952,
      "çİ©": 3953,
      "çľģ": 3954,
      "ä¸Ĭä¸Ģ": 3955,
      "å¼¼": 3956,
      "åģı": 3957,
      "åīįè¿Ľ": 3958,
      "å£®": 3959,
      "æĮ¯": 3960,
      "Ġyours": 3961,
      "éĻĢ": 3962,
      "åĶĲä¸īèĹı": 3963,
      "å¤§åľ£éģĵ": 3964,
      "è½¿": 3965,
      "çĦ¦": 3966,
      "æįı": 3967,
      "èĩªæľī": 3968,
      "æĶ¾ä¸ĭ": 3969,
      "åħīèķĬ": 3970,
      "ç¼ļ": 3971,
      "åĿĲä¸ĭ": 3972,
      "åŁİä¸Ń": 3973,
      "onder": 3974,
      "æĹ¨æĦı": 3975,
      "çĵ¦": 3976,
      "ague": 3977,
      "Ġbreak": 3978,
      "æºľ": 3979,
      "Ġmeans": 3980,
      "Ġsubject": 3981,
      "gether": 3982,
      "GREMIO": 3983,
      "POMPEY": 3984,
      "NIA": 3985,
      "OLI": 3986,
      "POLI": 3987,
      "XEN": 3988,
      "balt": 3989,
      "ybalt": 3990,
      "ĠNor": 3991,
      "äº«": 3992,
      "Ġaw": 3993,
      "ä»°": 3994,
      "Ġmer": 3995,
      "Ġwhile": 3996,
      "Ġborn": 3997,
      "åĲ«": 3998,
      "åĲĲ": 3999,
      "æŃĮ": 4000,
      "Ġthings": 4001,
      "Ġhorse": 4002,
      "å¤§æĢĴ": 4003,
      "è¿ĻåĴĮå°ļ": 4004,
      "anc": 4005,
      "åľ¨ç©ºä¸Ń": 4006,
      "å¤©ä¸ĭ": 4007,
      "å°±æľī": 4008,
      "å°±è¦ģ": 4009,
      "åīįéĿ¢": 4010,
      "å·į": 4011,
      "è´´": 4012,
      "åºĹ": 4013,
      "çīĴ": 4014,
      "æĥ¹": 4015,
      "ç½ĳ": 4016,
      "æŃ£æŀľ": 4017,
      "éĥ½æĿ¥": 4018,
      "æĸ¹ä¸Ī": 4019,
      "usic": 4020,
      "ANT": 4021,
      "æŁ±": 4022,
      "æŁĦ": 4023,
      "èīº": 4024,
      "æĲ¬": 4025,
      "éľľ": 4026,
      "æĽ´ä¸į": 4027,
      "è·³åĩº": 4028,
      "æĿİå¤©çİĭ": 4029,
      "çĵľ": 4030,
      "Ġbloody": 4031,
      "Ġlooks": 4032,
      "eft": 4033,
      "å»¶": 4034,
      "UMNIA": 4035,
      "like": 4036,
      "ches": 4037,
      "VOLUMNIA": 4038,
      "çĮ¢çĭ²": 4039,
      "POLIXEN": 4040,
      "POLIXENES": 4041,
      "GON": 4042,
      "Her": 4043,
      "rong": 4044,
      "up": 4045,
      "ues": 4046,
      "¤Ĳ": 4047,
      "ä¸§": 4048,
      "Ġtem": 4049,
      "Ġwin": 4050,
      "Ġwound": 4051,
      "éĤ£æĹ¶": 4052,
      "æĪĳè¯´": 4053,
      "Ġfire": 4054,
      "ä½łä¸¤ä¸ª": 4055,
      "åİħ": 4056,
      "enger": 4057,
      "ä¸Ĭé©¬": 4058,
      "å¤©éĹ¨": 4059,
      "çĿĢå¤´": 4060,
      "åıªæľī": 4061,
      "ä¸İåħ«æĪĴ": 4062,
      "æ³¥": 4063,
      "è´º": 4064,
      "Ġyourself": 4065,
      "æ´ĭ": 4066,
      "è°·": 4067,
      "äºĮéĥİ": 4068,
      "ç¥ŀä»Ļ": 4069,
      "éŃĦ": 4070,
      "ä½ıéģĵ": 4071,
      "èįĴ": 4072,
      "èĤ©": 4073,
      "Ġsupp": 4074,
      "Ġspo": 4075,
      "ç¦Ħ": 4076,
      "Ġfaith": 4077,
      "INGS": 4078,
      "çĥĪ": 4079,
      "ç¤º": 4080,
      "è£Ļ": 4081,
      "ä¸ĥåħ«": 4082,
      "ä¸ĥåįģ": 4083,
      "ĠServing": 4084,
      "èĦ±äºĨ": 4085,
      "åĶ¬å¾ĹéĤ£": 4086,
      "å¿ĥä¸ŃæļĹ": 4087,
      "Ġmaj": 4088,
      "STINGS": 4089,
      "Ġtraitor": 4090,
      "ç¡¬": 4091,
      "centio": 4092,
      "å¯¡äºº": 4093,
      "ĠServingman": 4094,
      "RENCE": 4095,
      "Say": 4096,
      "bs": 4097,
      "broke": 4098,
      "é¤Ĳ": 4099,
      "rem": 4100,
      "çļĦéģĵ": 4101,
      "è¯»": 4102,
      "Ġdru": 4103,
      "Ġlam": 4104,
      "åĽĬ": 4105,
      "æľīè¯Ĺ": 4106,
      "åĪ¶": 4107,
      "åĩī": 4108,
      "ä¼½": 4109,
      "è¿Ļè¡ĮèĢħ": 4110,
      "åľ¨ä»ĸ": 4111,
      "èĢģå¸ĪçĪ¶": 4112,
      "å±ŀ": 4113,
      "ä¸İæ²Ļåĥ§": 4114,
      "åį´æĢİä¹Ī": 4115,
      "æŀ¯": 4116,
      "åĸ§": 4117,
      "æĮº": 4118,
      "æĹ¥æľĪ": 4119,
      "éĽĨ": 4120,
      "å£°éŁ³": 4121,
      "æ°´å¸ĺ": 4122,
      "èĦī": 4123,
      "ç§»": 4124,
      "æįŁ": 4125,
      "èĩªå·±": 4126,
      "è¿ĩæĿ¥": 4127,
      "essenger": 4128,
      "å®ĿæĿĸ": 4129,
      "èİ«æĥ³": 4130,
      "ĠLAU": 4131,
      "å¿½çĦ¶": 4132,
      "ä¿ĿåĶĲåĥ§": 4133,
      "Ġmark": 4134,
      "ä½łçľĭéĤ£": 4135,
      "ç®įåĦ¿": 4136,
      "æĮīèĲ½": 4137,
      "éŀį": 4138,
      "Ġcommon": 4139,
      "HASTINGS": 4140,
      "Ġchildren": 4141,
      "ertain": 4142,
      "çŃĭæĸĹäºĳ": 4143,
      "Ġmistress": 4144,
      "å¼¼é©¬": 4145,
      "ĠLAURENCE": 4146,
      "BY": 4147,
      "BER": 4148,
      "éĬ": 4149,
      "äº§": 4150,
      "åįķ": 4151,
      "æĪĳèĢģåŃĻ": 4152,
      "Ġcond": 4153,
      "åĩ¹": 4154,
      "çĶĺ": 4155,
      "æĬ¼": 4156,
      "åİ»å¤Ħ": 4157,
      "ä¸īåįĥ": 4158,
      "Ġbeat": 4159,
      "åĥ§äºº": 4160,
      "ä¹ĭäºº": 4161,
      "åĵĪ": 4162,
      "å±±éĹ¨": 4163,
      "å¦ĤæĦı": 4164,
      "æĹ¶è¾°": 4165,
      "è¾¾": 4166,
      "æīĵä¸ª": 4167,
      "æł¼": 4168,
      "ä¸¤è¾¹": 4169,
      "Ġrequ": 4170,
      "éĥ½åľ¨": 4171,
      "Ġdef": 4172,
      "ç§ģ": 4173,
      "æį£": 4174,
      "çľŁåĲĽ": 4175,
      "æŀľæĺ¯": 4176,
      "çģ«çĦ°": 4177,
      "çĭ±": 4178,
      "æ´ŀä¸Ń": 4179,
      "å¤ĸéĿ¢": 4180,
      "Ġval": 4181,
      "æıĴ": 4182,
      "æĴĳ": 4183,
      "æĲ§": 4184,
      "åĽłæŃ¤": 4185,
      "ä¼łè¯´": 4186,
      "çģµéľĦ": 4187,
      "Ġuncle": 4188,
      "çĸ¾": 4189,
      "åĳµåĳµ": 4190,
      "é©¾äºĳ": 4191,
      "è¿Ļä¸Ģåľº": 4192,
      "è½»è½»": 4193,
      "å³»": 4194,
      "Therefore": 4195,
      "form": 4196,
      "åİīå£°é«ĺåı«éģĵ": 4197,
      "ä¹¾åĿ¤": 4198,
      "Ġmajesty": 4199,
      "éĬ®": 4200,
      "CLI": 4201,
      "FF": 4202,
      "Look": 4203,
      "Was": 4204,
      "æ¾": 4205,
      "åı®": 4206,
      "Ġaff": 4207,
      "Ġsin": 4208,
      "ä½³": 4209,
      "Ġmet": 4210,
      "ä¸įæĪĲ": 4211,
      "æĿĤ": 4212,
      "Ġlate": 4213,
      "Ġleft": 4214,
      "æľīæŃ¤": 4215,
      "Ġtold": 4216,
      "åĩĨ": 4217,
      "æĭī": 4218,
      "å¤©ä¸Ĭ": 4219,
      "ä¹ĭæĹ¶": 4220,
      "å°±èµ°": 4221,
      "åį´ä¸įæĺ¯": 4222,
      "å°Ĩä»ĸ": 4223,
      "åĪ°éĤ£": 4224,
      "æİĪ": 4225,
      "Ġsoon": 4226,
      "è·¯æĹģ": 4227,
      "æ¬ł": 4228,
      "èİ·": 4229,
      "èĭ¥ä¸į": 4230,
      "èĤ¡": 4231,
      "æŀľåŃĲ": 4232,
      "Ġseen": 4233,
      "éĤ£éĩĮæĿ¥çļĦ": 4234,
      "æ·ĭ": 4235,
      "è¿İçĿĢ": 4236,
      "çªģ": 4237,
      "å°ıå¦ĸéģĵ": 4238,
      "Ġsave": 4239,
      "åĭ¿": 4240,
      "æ³¼çĮ´": 4241,
      "Ġdays": 4242,
      "æ³ªéģĵ": 4243,
      "é¥¶ä½ł": 4244,
      "UMBER": 4245,
      "THUMBER": 4246,
      "æħĪæĤ²": 4247,
      "äºĶçĻ¾å¹´": 4248,
      "Ġwoe": 4249,
      "ĠEngland": 4250,
      "NORTHUMBER": 4251,
      "Ġtender": 4252,
      "CLIFF": 4253,
      "NORTHUMBERLAND": 4254,
      "18": 4255,
      "ID": 4256,
      "Take": 4257,
      "bed": 4258,
      "ever": 4259,
      "ring": 4260,
      "ten": 4261,
      "å¤¯": 4262,
      "åı¬": 4263,
      "Ġsight": 4264,
      "Ġmon": 4265,
      "ä¸Ģé¡¿": 4266,
      "æĿ¨": 4267,
      "åį°": 4268,
      "è¯µ": 4269,
      "ä»ĸåıĪ": 4270,
      "åŃ½": 4271,
      "äººéĹ´": 4272,
      "èµ¢": 4273,
      "Ġgener": 4274,
      "çĿĢä¸Ģ": 4275,
      "éĢĲ": 4276,
      "çľĭäºĨ": 4277,
      "çģ¼": 4278,
      "å¥½æĿĢ": 4279,
      "ä¾¯": 4280,
      "éĩĳçĿĽ": 4281,
      "ides": 4282,
      "idow": 4283,
      "ä¸ºä½ķ": 4284,
      "åĴĮä½ł": 4285,
      "æį®": 4286,
      "çĽ¸è²Į": 4287,
      "Ġdoes": 4288,
      "å¨¥": 4289,
      "åĩłæĹ¶": 4290,
      "ä¸ĩæľĽ": 4291,
      "éªĳ": 4292,
      "è§£äºĨ": 4293,
      "ç¬¬äºĮ": 4294,
      "è°¢æģ©": 4295,
      "æĹ¢å¦ĤæŃ¤": 4296,
      "ç½Ĺæ±ī": 4297,
      "åħĦå¼Łä»¬": 4298,
      "Though": 4299,
      "èĻ½çĦ¶": 4300,
      "èĭ±éĽĦ": 4301,
      "å¤§æĥĬéģĵ": 4302,
      "Ġreturn": 4303,
      "Ġmercy": 4304,
      "Ġfarewell": 4305,
      "ac": 4306,
      "dom": 4307,
      "mp": 4308,
      "nÉ¡": 4309,
      "ĠAN": 4310,
      "hes": 4311,
      "Ġsit": 4312,
      "Ġsad": 4313,
      "ä¹ĸ": 4314,
      "rel": 4315,
      "è¿¸": 4316,
      "æĺ¼": 4317,
      "ä¸įä¼ļ": 4318,
      "åį¦": 4319,
      "æĺ¯å¥½": 4320,
      "ä½łéĤ£": 4321,
      "å¸®": 4322,
      "å¾Ĺä¸ª": 4323,
      "å¤©æĻļ": 4324,
      "åıĪéĹ®": 4325,
      "åĵ¼": 4326,
      "åıªåı«": 4327,
      "å¯Į": 4328,
      "å°Ĩèº«ä¸Ģ": 4329,
      "åºŃ": 4330,
      "æĬĬè¿Ļ": 4331,
      "ç½©": 4332,
      "å¿ĥçĮ¿": 4333,
      "éĺ²": 4334,
      "éĺĻ": 4335,
      "çĶŁå¾Ĺ": 4336,
      "åĢĺ": 4337,
      "Ġdeep": 4338,
      "çľŁç»ı": 4339,
      "ç®Ń": 4340,
      "äºĶè¡Į": 4341,
      "æĶ¾åľ¨": 4342,
      "ters": 4343,
      "ç¤¾": 4344,
      "åİŁæĺ¯": 4345,
      "æ·¡": 4346,
      "æŃ»äºĨ": 4347,
      "åĲĦåĲĦ": 4348,
      "Ġgold": 4349,
      "æŃ£æĺ¯éĤ£": 4350,
      "åĺ´èĦ¸": 4351,
      "unes": 4352,
      "Ġmarry": 4353,
      "Ġheavy": 4354,
      "Ġfoot": 4355,
      "Ġwarrant": 4356,
      "ĠJul": 4357,
      "è§ĤéŁ³èı©èĲ¨": 4358,
      "Ġpurpose": 4359,
      "Ġthrough": 4360,
      "åĪ¤å®ĺ": 4361,
      "åĲĨåĸĿ": 4362,
      "Ġdanger": 4363,
      "æľīè¯Ĺä¸ºè¯ģ": 4364,
      "ĠANNE": 4365,
      "Ah": 4366,
      "Did": 4367,
      "Give": 4368,
      "PR": 4369,
      "aim": 4370,
      "ict": 4371,
      "mer": 4372,
      "so": 4373,
      "und": 4374,
      "vent": 4375,
      "çĴ": 4376,
      "Ġill": 4377,
      "ä»į": 4378,
      "éģĵæķĻ": 4379,
      "è¿Ķ": 4380,
      "ä¸įæĿ¥": 4381,
      "äºĨä¸ª": 4382,
      "å®µ": 4383,
      "æīŃ": 4384,
      "Ġcho": 4385,
      "Ġcold": 4386,
      "Ġnurse": 4387,
      "æľīå¤ļå°ĳ": 4388,
      "Ġtogether": 4389,
      "åĩĮ": 4390,
      "Ġgrow": 4391,
      "ä¹ĭä¸Ĭ": 4392,
      "ä¸ŃçļĦ": 4393,
      "ours": 4394,
      "èº«æ³ķ": 4395,
      "å°ıé¾Ļ": 4396,
      "éĩĳéĵ¶": 4397,
      "ä¿Ĭ": 4398,
      "æŃ£åľ¨": 4399,
      "åĿł": 4400,
      "è¿ĺæĪĳ": 4401,
      "çº¿": 4402,
      "ä»Ļæ°Ķ": 4403,
      "ifford": 4404,
      "ä¸Ķèİ«": 4405,
      "Ġsure": 4406,
      "earn": 4407,
      "åħ¬åħ¬": 4408,
      "ä¸ĩå²ģ": 4409,
      "æĴĩ": 4410,
      "ä¸»åħ¬": 4411,
      "æĲº": 4412,
      "æĥ³éģĵ": 4413,
      "å¯ºéĩĮ": 4414,
      "CAPULET": 4415,
      "æ¯Ķä¸ĺ": 4416,
      "ignior": 4417,
      "INCE": 4418,
      "èĻ½æĺ¯": 4419,
      "Ġdeser": 4420,
      "ments": 4421,
      "é²ľ": 4422,
      "çĭĤé£İ": 4423,
      "å¼¼é©¬æ¸©": 4424,
      "PRINCE": 4425,
      "az": 4426,
      "aid": 4427,
      "ca": 4428,
      "oint": 4429,
      "ä¸¥": 4430,
      "Ġtimes": 4431,
      "éģ£": 4432,
      "ä¸įçĶ¨": 4433,
      "ä¸įæ¶Ī": 4434,
      "éĤ¦": 4435,
      "oriol": 4436,
      "è¡¥": 4437,
      "è¡Ļ": 4438,
      "ä»ĸä»¬": 4439,
      "ä½łä¹Ł": 4440,
      "æľīåĩł": 4441,
      "æĸ¤": 4442,
      "ingbroke": 4443,
      "å¤©èī²": 4444,
      "ceed": 4445,
      "çĿĢéĤ£": 4446,
      "çĽĪ": 4447,
      "å°±å¦Ĥ": 4448,
      "çľĭä»ĸ": 4449,
      "å°Ĩèµ·æĿ¥": 4450,
      "æĶĢ": 4451,
      "å°ıåĦ¿": 4452,
      "å°ıåĴĮå°ļ": 4453,
      "Ġwithout": 4454,
      "enty": 4455,
      "Ġask": 4456,
      "åľ°æĸ¹": 4457,
      "èĻĳ": 4458,
      "ross": 4459,
      "èĩªçĦ¶": 4460,
      "æĭ¿æĿ¥": 4461,
      "ush": 4462,
      "æĳĺ": 4463,
      "æĺİçĻ½": 4464,
      "Ġlost": 4465,
      "å¥³çİĭ": 4466,
      "èħ®": 4467,
      "åĵ¥åĳµ": 4468,
      "åĬ¨æīĭ": 4469,
      "arewell": 4470,
      "åįĬç©º": 4471,
      "æ®¿ä¸ĭ": 4472,
      "olingbroke": 4473,
      "æĢķä»ĸ": 4474,
      "Ġpluck": 4475,
      "æľīä¸Ģåº§": 4476,
      "åıĸç»ıçļĦ": 4477,
      "åħ¶å®ŀ": 4478,
      "åıĺåģļä¸ª": 4479,
      "Ġreport": 4480,
      "Ġliege": 4481,
      "åĳĺå¤ĸ": 4482,
      "æ¨µåŃĲ": 4483,
      "Ġbelieve": 4484,
      "Ġspirit": 4485,
      "ling": 4486,
      "xt": 4487,
      "Ġair": 4488,
      "Ġage": 4489,
      "outh": 4490,
      "ä»ª": 4491,
      "Ġwat": 4492,
      "ä¹ŀ": 4493,
      "åįĪ": 4494,
      "æĺ¯çĶļä¹Ī": 4495,
      "ä½łå¸ĪçĪ¶": 4496,
      "éĹ¯": 4497,
      "éĹ·": 4498,
      "Ġheir": 4499,
      "å¼ĵ": 4500,
      "èĢģå¸Ī": 4501,
      "å¤©æĺİ": 4502,
      "å¤©åħµ": 4503,
      "ä¹ĭåĲİ": 4504,
      "åĩºåŁİ": 4505,
      "ets": 4506,
      "å°±ä¸į": 4507,
      "åĨ¬": 4508,
      "æŀī": 4509,
      "éĹ¨ä¸Ĭ": 4510,
      "æĮ¨": 4511,
      "éĻħ": 4512,
      "éĺĶ": 4513,
      "æİ¢": 4514,
      "æįŀ": 4515,
      "ains": 4516,
      "Ġthyself": 4517,
      "æĻ¦": 4518,
      "ift": 4519,
      "éĶ¡": 4520,
      "Ġloss": 4521,
      "å¥³åĦ¿": 4522,
      "æŁı": 4523,
      "åĮĸæĸĭ": 4524,
      "éħ¬": 4525,
      "ĠMont": 4526,
      "æĺŁå®ĺ": 4527,
      "ç¿ģ": 4528,
      "Ġsays": 4529,
      "ĠBolingbroke": 4530,
      "é¼ĭ": 4531,
      "ãĢĢãĢĢ": 4532,
      "èħ°éĹ´": 4533,
      "Whose": 4534,
      "å¹Įä¸Ģ": 4535,
      "èĢģéŃĶéģĵ": 4536,
      "One": 4537,
      "èµĮæĸĹ": 4538,
      "ä¸ŀçĽ¸": 4539,
      "ä¼¯éĴ¦": 4540,
      "éĺİçİĭ": 4541,
      "Ġstrange": 4542,
      "æ°´å¸ĺæ´ŀ": 4543,
      "ALO": 4544,
      "Had": 4545,
      "ial": 4546,
      "no": 4547,
      "ner": 4548,
      "åħ¸": 4549,
      "å°Ŀ": 4550,
      "Ġbat": 4551,
      "äºĨåĩł": 4552,
      "å®ħ": 4553,
      "æĺ¯ä¸Ģ": 4554,
      "æīİ": 4555,
      "ä½łæĿ¥": 4556,
      "Ġcry": 4557,
      "è§Ĩ": 4558,
      "Ġlearn": 4559,
      "å¤§åĵ¥": 4560,
      "å¤§éĹ¹å¤©å®«": 4561,
      "å¾ĹæĪĳ": 4562,
      "äººåıĤ": 4563,
      "å¤©å¸Ī": 4564,
      "ced": 4565,
      "ä¹ĭå¤ĸ": 4566,
      "è¯´ä¸įäºĨ": 4567,
      "ä¸İéĤ£": 4568,
      "å½»": 4569,
      "çī¢": 4570,
      "å°ıå§Ĳ": 4571,
      "è¦ģåĲĥ": 4572,
      "æĢİæķ¢": 4573,
      "è¿ĺè¦ģ": 4574,
      "ä¼Ĺå¦ĸ": 4575,
      "è¥¿åİ»": 4576,
      "åĲİè¾¹": 4577,
      "ä¸Ķä¼ĳ": 4578,
      "Ġsuff": 4579,
      "å²©": 4580,
      "çĥĽ": 4581,
      "æľĿä¸Ĭ": 4582,
      "éľŃ": 4583,
      "åħĪéĶĭ": 4584,
      "çłĤ": 4585,
      "æł·åŃĲ": 4586,
      "æ¸ħé£İ": 4587,
      "aking": 4588,
      "æłĳä¸Ĭ": 4589,
      "æħĮå¿Ļ": 4590,
      "æĵŀ": 4591,
      "æ£įåŃĲ": 4592,
      "Ġears": 4593,
      "Ġhaste": 4594,
      "åĪ©å®³": 4595,
      "ĠClifford": 4596,
      "å¦ĩäºº": 4597,
      "Ġentreat": 4598,
      "æĭľä½Ľæ±Ĥç»ı": 4599,
      "Ġdevil": 4600,
      "Ġground": 4601,
      "Should": 4602,
      "Ġperson": 4603,
      "åĢĴæį¢åħ³æĸĩ": 4604,
      "ĠJuliet": 4605,
      "Like": 4606,
      "Wh": 4607,
      "ges": 4608,
      "night": 4609,
      "Ġmur": 4610,
      "ined": 4611,
      "äºĨåİ»": 4612,
      "éĤ£åħ«æĪĴ": 4613,
      "éĤ£å¥³åŃĲ": 4614,
      "Ġfly": 4615,
      "Ġtoward": 4616,
      "Ġpast": 4617,
      "æķĸ": 4618,
      "åľ¨é©¬ä¸Ĭ": 4619,
      "oman": 4620,
      "ä¸īæĹ¥": 4621,
      "æĭĺ": 4622,
      "çĪª": 4623,
      "å¤©ç«": 4624,
      "ä¹ĭçī©": 4625,
      "let": 4626,
      "åıªæĢķ": 4627,
      "å¯Ŀ": 4628,
      "ç¥Ŀ": 4629,
      "æĥł": 4630,
      "æĬĬåĶĲåĥ§": 4631,
      "è¾ĵ": 4632,
      "åįģä¸ĩ": 4633,
      "åĢ¾": 4634,
      "çĦļ": 4635,
      "è¢ĭ": 4636,
      "çºª": 4637,
      "çº³": 4638,
      "æĭ¿åĩº": 4639,
      "èį¤": 4640,
      "åħīæĺİ": 4641,
      "Ġfast": 4642,
      "åĲįåŃĹ": 4643,
      "Ġvis": 4644,
      "æ²¡å¥Īä½ķ": 4645,
      "è£°": 4646,
      "åįĬä¸ª": 4647,
      "aud": 4648,
      "ĠLu": 4649,
      "å¿«åİ»": 4650,
      "å¿«æĹ©": 4651,
      "é¸¾": 4652,
      "å©¿": 4653,
      "ä¸ĸå¾·": 4654,
      "çĹ´": 4655,
      "çĽ´è£°": 4656,
      "ä¾Ŀè¨Ģ": 4657,
      "æ¼Ĩ": 4658,
      "æ¼ı": 4659,
      "Ġpoint": 4660,
      "ç©¿äºĨ": 4661,
      "Ġfriar": 4662,
      "é¡¶ä¸Ĭ": 4663,
      "Ġdisp": 4664,
      "å¡ŀ": 4665,
      "Ġslain": 4666,
      "Ġbetw": 4667,
      "è´¤å¼Ł": 4668,
      "æ¬¢åĸľéģĵ": 4669,
      "æĮĳçĿĢ": 4670,
      "ĠFrance": 4671,
      "æĬĸæĵŀ": 4672,
      "ixt": 4673,
      "Ġjustice": 4674,
      "Ġstraight": 4675,
      "æĬ½èº«": 4676,
      "éŃıå¾ģ": 4677,
      "Ġremember": 4678,
      "å¤©ç«º": 4679,
      "ä¸ĸå¾·åłĤ": 4680,
      "APULET": 4681,
      "FL": 4682,
      "FID": 4683,
      "IZ": 4684,
      "May": 4685,
      "Some": 4686,
      "Ġord": 4687,
      "Ġsil": 4688,
      "ina": 4689,
      "ä¸įåľ¨": 4690,
      "ä¸įçŀĴ": 4691,
      "Ġbold": 4692,
      "åĲ¦": 4693,
      "åį¿": 4694,
      "ä¸ªå¤§": 4695,
      "Ġcurse": 4696,
      "Ġnear": 4697,
      "å¤§æµ·": 4698,
      "è¿Ļåľº": 4699,
      "ä¸Ĭä¸ĭ": 4700,
      "æĸľ": 4701,
      "ä¹Łæľī": 4702,
      "å±¥": 4703,
      "çĽĨ": 4704,
      "ution": 4705,
      "æ°ı": 4706,
      "å±±åĿ¡": 4707,
      "å°ĨéĤ£": 4708,
      "åģ¥": 4709,
      "çĪ¶åŃĲ": 4710,
      "ä¾§": 4711,
      "Ġstrong": 4712,
      "ä½ķä¹Ł": 4713,
      "These": 4714,
      "ä¸Ģä¸ªæĺ¯": 4715,
      "ä¼Ĺå®ĺ": 4716,
      "åı£ä¸Ń": 4717,
      "èįĨ": 4718,
      "æ»ĳ": 4719,
      "åįĥä¸ĩ": 4720,
      "ĠCAPULET": 4721,
      "çĥĺ": 4722,
      "ORIZ": 4723,
      "èħ¿": 4724,
      "æĥ³å¿ħ": 4725,
      "æļĸ": 4726,
      "éļıåĲİ": 4727,
      "Ġworthy": 4728,
      "æĹ¢æĺ¯": 4729,
      "Ġquick": 4730,
      "åĲĳåīį": 4731,
      "çħ®": 4732,
      "AUFID": 4733,
      "çŃīæĪĳåİ»": 4734,
      "entleman": 4735,
      "å®³æĢķ": 4736,
      "ä¼ıä¾į": 4737,
      "åħĥå¸ħ": 4738,
      "Ġtrust": 4739,
      "Ġalone": 4740,
      "Ġdesire": 4741,
      "éĵ¶åŃĲ": 4742,
      "ä¼Ĺåĥ§éģĵ": 4743,
      "èĤļéĩĮ": 4744,
      "åı©å¤´éģĵ": 4745,
      "è¶ģæĹ©": 4746,
      "Ġinstru": 4747,
      "Ġbeauty": 4748,
      "Ġservice": 4749,
      "FLORIZ": 4750,
      "AUFIDIUS": 4751,
      "FLORIZEL": 4752,
      "Can": 4753,
      "SE": 4754,
      "Tell": 4755,
      "VER": 4756,
      "gs": 4757,
      "ning": 4758,
      "ship": 4759,
      "with": 4760,
      "Ġtouch": 4761,
      "èĢĲ": 4762,
      "ä¸Ģè¡Į": 4763,
      "éĤ£å¸ĪçĪ¶": 4764,
      "æĺ¯ä½ķ": 4765,
      "è¡¬": 4766,
      "Ġfound": 4767,
      "ithe": 4768,
      "ä»ĸåİ»": 4769,
      "åŃĿ": 4770,
      "æľīçĶļä¹Ī": 4771,
      "ĠIs": 4772,
      "ä¸Ĭå¤©": 4773,
      "ä¸ĬçķĮ": 4774,
      "å¾Ĺèĥľ": 4775,
      "ä¹ĭä¸Ń": 4776,
      "ä¹ĭåĨħ": 4777,
      "ä¹ĭæģ©": 4778,
      "çĿĢå®ŀ": 4779,
      "åĵĢ": 4780,
      "è¯´åĩº": 4781,
      "åĬª": 4782,
      "åĶ¿": 4783,
      "å±±ä¸Ĭ": 4784,
      "å±±ç¥ŀ": 4785,
      "èº«åŃĲ": 4786,
      "çĮľ": 4787,
      "adam": 4788,
      "æ´¾": 4789,
      "åı«ä»ĸ": 4790,
      "Ġready": 4791,
      "ION": 4792,
      "æ¸´": 4793,
      "éĹ»è¯´": 4794,
      "åİŁèº«": 4795,
      "å°½çļĨ": 4796,
      "Ġbrought": 4797,
      "æĸĭåĥ§": 4798,
      "ured": 4799,
      "ä¸ĸçķĮ": 4800,
      "çªŁ": 4801,
      "éĺ´éĺ³": 4802,
      "Ġposs": 4803,
      "æĸ½ä¸»": 4804,
      "èģĮ": 4805,
      "ĠTybalt": 4806,
      "ç«¯çļĦ": 4807,
      "ä¸įå¥½äºĨ": 4808,
      "æ½ľ": 4809,
      "çīµé©¬": 4810,
      "Ġrun": 4811,
      "Ġhard": 4812,
      "æį»çĿĢ": 4813,
      "Ġenemy": 4814,
      "éĴµçĽĤ": 4815,
      "çļĪä¾Ŀ": 4816,
      "Ġrevenge": 4817,
      "æĮīèĲ½äºĳå¤´": 4818,
      "Ġgeneral": 4819,
      "audio": 4820,
      "!'": 4821,
      "Ha": 4822,
      "ible": 4823,
      "vo": 4824,
      "ĠHere": 4825,
      "ä¸°": 4826,
      "å¤ı": 4827,
      "Ġwoo": 4828,
      "ä¸Ģåľº": 4829,
      "æĪĳå®¶": 4830,
      "æī®": 4831,
      "ä½łèĭ¥": 4832,
      "Ġduty": 4833,
      "enator": 4834,
      "åĪģ": 4835,
      "è¡ĮèĢħåıĪ": 4836,
      "Ġgrant": 4837,
      "èĢģæĢª": 4838,
      "ä¸ĭäºĳå¤´": 4839,
      "éĩĮè¾¹": 4840,
      "Ġinf": 4841,
      "cept": 4842,
      "ä¹ĭç±»": 4843,
      "åıĪä¸į": 4844,
      "åıªä¸º": 4845,
      "åĨ¥": 4846,
      "è´¯": 4847,
      "ç¬¦": 4848,
      "æĹ¶éĹ´": 4849,
      "Ġitself": 4850,
      "æŃ£è¡Į": 4851,
      "åĮ£": 4852,
      "ä¼Ĺäºº": 4853,
      "ä¼ĹçĮ´": 4854,
      "ç§ī": 4855,
      "æ¸º": 4856,
      "çľŁåģĩ": 4857,
      "amill": 4858,
      "æ®·": 4859,
      "æĶ¾äºĨ": 4860,
      "å®ĺåĳĺ": 4861,
      "Ġlose": 4862,
      "éľİ": 4863,
      "aunt": 4864,
      "Ġknows": 4865,
      "Ġcanst": 4866,
      "ĠSenator": 4867,
      "äºĨä¸Ģå£°": 4868,
      "ç§°ä¸º": 4869,
      "inks": 4870,
      "çĤ¹å¤´": 4871,
      "åİŁæĿ¥éĤ£": 4872,
      "è¿ľè¿ĳ": 4873,
      "umber": 4874,
      "åĭĩ": 4875,
      "Ġmarried": 4876,
      "çļĩåĲİ": 4877,
      "ç¦»äºĨ": 4878,
      "åľŁåľ°éģĵ": 4879,
      "ç¾İçĮ´çİĭ": 4880,
      "Ġthoughts": 4881,
      "Ġcharge": 4882,
      "ç¥ĸå¸Īéģĵ": 4883,
      "Against": 4884,
      "Bec": 4885,
      "CIUS": 4886,
      "RICHARD": 4887,
      "Sp": 4888,
      "cester": 4889,
      "eep": 4890,
      "gu": 4891,
      "lou": 4892,
      "sue": 4893,
      "ua": 4894,
      "ĠYou": 4895,
      "ä¸½": 4896,
      "Ġmorn": 4897,
      "è¿¦": 4898,
      "ä¸įé¡»": 4899,
      "ä¸Ģå¤Ħ": 4900,
      "åĲ¼": 4901,
      "æĿ¥åĪ°": 4902,
      "ä»ĸæĿ¥": 4903,
      "æľīçĲĨ": 4904,
      "ä¹ĭå¿ĥ": 4905,
      "å¸Īå¼Ł": 4906,
      "åĨµ": 4907,
      "åį´å°±": 4908,
      "å°ĨæŃ¤": 4909,
      "å·Ŀ": 4910,
      "Ġwear": 4911,
      "riage": 4912,
      "ç²®": 4913,
      "äºĮåĵ¥": 4914,
      "äºĮçĻ¾": 4915,
      "Ġread": 4916,
      "Ġdeli": 4917,
      "æį½": 4918,
      "åĽ½å¸Ī": 4919,
      "é¾Ł": 4920,
      "åı£ä»Ļæ°Ķ": 4921,
      "èĭ¥è¦ģ": 4922,
      "é«ĺå±±": 4923,
      "Ġspeed": 4924,
      "ä¸ĩéĩĮ": 4925,
      "åįĥå¹´": 4926,
      "æĪĲç²¾": 4927,
      "æ¡©": 4928,
      "å¾Ħåħ¥": 4929,
      "åĺ»": 4930,
      "ç¬¬ä¹Ŀ": 4931,
      "æĽ´æĹ¶": 4932,
      "å¾Ĵå¼Łåĳµ": 4933,
      "è¿ĻéĩĮæĮĩ": 4934,
      "Ġquar": 4935,
      "å¿½åĲ¬å¾Ĺ": 4936,
      "å¿ħå®ļ": 4937,
      "åĬŁæĽ¹": 4938,
      "è¿ŀå¿Ļ": 4939,
      "æĵħ": 4940,
      "Ġprof": 4941,
      "åıĸç»ıäºº": 4942,
      "åħ¨æĹł": 4943,
      "æŀľçĦ¶æĺ¯": 4944,
      "Ġtwenty": 4945,
      "Ġstands": 4946,
      "æºĲ": 4947,
      "BAST": 4948,
      "Shepherd": 4949,
      "ched": 4950,
      "Ġhours": 4951,
      "é³ŀ": 4952,
      "Ġconfess": 4953,
      "Ġstreng": 4954,
      "åľĪåŃĲ": 4955,
      "SEBAST": 4956,
      "ithee": 4957,
      "SEBASTIAN": 4958,
      "19": 4959,
      "OW": 4960,
      "cess": 4961,
      "è¤": 4962,
      "ĠN": 4963,
      "Ġmock": 4964,
      "ä¸įçĿĢ": 4965,
      "ä¸įåĲĥ": 4966,
      "ä¸įè§ģäºĨ": 4967,
      "åħ°": 4968,
      "ä¸Ģå®¶": 4969,
      "çļĤ": 4970,
      "äºĨä¸ī": 4971,
      "åį«": 4972,
      "å®°": 4973,
      "æĺ¯çĶļ": 4974,
      "Ġfur": 4975,
      "Ġfore": 4976,
      "Ġfield": 4977,
      "ones": 4978,
      "æĢł": 4979,
      "ä½łä¸įçŁ¥": 4980,
      "Ġdiv": 4981,
      "Ġcar": 4982,
      "åİļ": 4983,
      "æľīåĽĽ": 4984,
      "æľīäºĶ": 4985,
      "Ġyouth": 4986,
      "Ġpost": 4987,
      "è¡ĮèĢħæļĹ": 4988,
      "å¿»": 4989,
      "å¥´": 4990,
      "è¿Ļæł·": 4991,
      "Ġhell": 4992,
      "äººçŃī": 4993,
      "èµĸ": 4994,
      "èµŀ": 4995,
      "ingham": 4996,
      "è§ģæĪĳ": 4997,
      "èĢģéģĵ": 4998,
      "Ġhalf": 4999,
      "åħ«çĻ¾": 5000,
      "ä¸İè¡ĮèĢħ": 5001,
      "çģ°": 5002,
      "å°Ĩåİ»": 5003,
      "å½¼": 5004,
      "å¥½éģĵ": 5005,
      "å·¨": 5006,
      "è´¬": 5007,
      "å£¶": 5008,
      "oop": 5009,
      "æģŃ": 5010,
      "äºĮæĿ¥": 5011,
      "åĿĽ": 5012,
      "æ¸Ķ": 5013,
      "çľŁè¨Ģ": 5014,
      "åį³å°Ĩ": 5015,
      "çĽ¸è¿İ": 5016,
      "éĹ®ä½ł": 5017,
      "Thus": 5018,
      "å²³": 5019,
      "å¤ĸåħ¬": 5020,
      "ĠRi": 5021,
      "è¢«è¡ĮèĢħ": 5022,
      "çĻ¾åįģ": 5023,
      "ç¬¬ä¸īåįģ": 5024,
      "olk": 5025,
      "fection": 5026,
      "ĠHast": 5027,
      "Ġjud": 5028,
      "æİ¥äºĨ": 5029,
      "ä¾ĿçĦ¶": 5030,
      "ump": 5031,
      "çİ°åĩº": 5032,
      "çīĽéŃĶçİĭ": 5033,
      "éĺ´åı¸": 5034,
      "éģĩçĿĢ": 5035,
      "Ġexec": 5036,
      "Ġfearful": 5037,
      "æĮĳæĭħ": 5038,
      "åĪĩèİ«": 5039,
      "ç¥¸äºĭ": 5040,
      "æĬ«æĮĤ": 5041,
      "é©¿ä¸ŀ": 5042,
      "Ġcounsel": 5043,
      "å¹Įä¸Ģå¹Į": 5044,
      "amillo": 5045,
      "BION": 5046,
      "Com": 5047,
      "DEL": 5048,
      "Till": 5049,
      "most": 5050,
      "pare": 5051,
      "Äģ": 5052,
      "Ġter": 5053,
      "ä»Ĺ": 5054,
      "Ġmin": 5055,
      "Ġwret": 5056,
      "ä¸Ģåıĳ": 5057,
      "Ġbos": 5058,
      "æĿĥ": 5059,
      "æī³": 5060,
      "ä½łéģĵ": 5061,
      "åĪ·": 5062,
      "Ġpar": 5063,
      "å¤§çļĦ": 5064,
      "ä¸ĬéĿ¢": 5065,
      "å¾Ĺå¥½": 5066,
      "äººçī©": 5067,
      "åİ»å¯»": 5068,
      "Ġbehold": 5069,
      "ä¸ĭä¸Ģ": 5070,
      "ä¸ĭæīĭ": 5071,
      "ç»°": 5072,
      "çİĭæ¯į": 5073,
      "Ġinc": 5074,
      "åıªè¯´": 5075,
      "åīĬ": 5076,
      "è®®": 5077,
      "åį´å¥½": 5078,
      "å¥½å¤Ħ": 5079,
      "å·¢": 5080,
      "åº¶": 5081,
      "Ġeach": 5082,
      "æīĵçł´": 5083,
      "ads": 5084,
      "æłª": 5085,
      "æµĨ": 5086,
      "æµĵ": 5087,
      "éĩĳä¸¹": 5088,
      "è°ĭ": 5089,
      "éĽķ": 5090,
      "Ġrec": 5091,
      "ç«ĸ": 5092,
      "æ±¡": 5093,
      "Ġdel": 5094,
      "å¼ŁåħĦ": 5095,
      "åį³å¿Ļ": 5096,
      "åı¯æĺ¯": 5097,
      "åĲ¬è¨Ģ": 5098,
      "æ´ŀéĹ¨": 5099,
      "èĬ±åĽŃ": 5100,
      "é»ĺ": 5101,
      "ĠCoriol": 5102,
      "åŁº": 5103,
      "åĢĴåľ¨åľ°": 5104,
      "æĪĲçļĦ": 5105,
      "æĢ¥çºµ": 5106,
      "å®īæŃĩ": 5107,
      "ç¬¬äºĮåįģ": 5108,
      "ols": 5109,
      "åĲĽçİĭ": 5110,
      "çĲĥ": 5111,
      "æķħäºĭ": 5112,
      "Ġwork": 5113,
      "çĸı": 5114,
      "é¹ħ": 5115,
      "ortal": 5116,
      "çĬ¬": 5117,
      "Ġhearts": 5118,
      "åĳ¼åĳ¼": 5119,
      "Ġmarriage": 5120,
      "è®¡è¾ĥ": 5121,
      "Ġdesp": 5122,
      "æŃ¦èīº": 5123,
      "å«Ĥ": 5124,
      "è¹Ħ": 5125,
      "ĠClaudio": 5126,
      "itizens": 5127,
      "å¤§ä»Ļéģĵ": 5128,
      "ç°¿": 5129,
      "uckingham": 5130,
      "Ġresol": 5131,
      "æī¾å¯»": 5132,
      "ä¸Ģåıªæīĭ": 5133,
      "å¦Īå¦Ī": 5134,
      "éĥ¡ä¾¯": 5135,
      "âĢ¦âĢ¦âĢĿ": 5136,
      "MARCIUS": 5137,
      "ĠMontague": 5138,
      "ä¸ĸå¾·åłĤæľ¬": 5139,
      "loucester": 5140,
      "BIONDEL": 5141,
      "Ġbosom": 5142,
      "BIONDELLO": 5143,
      "Away": 5144,
      "MON": 5145,
      "Madam": 5146,
      "bly": 5147,
      "folk": 5148,
      "iers": 5149,
      "now": 5150,
      "ĠThe": 5151,
      "Ġï¼Ī": 5152,
      "Ġtit": 5153,
      "Ġten": 5154,
      "Ġtale": 5155,
      "ä¸įå¦Ĥ": 5156,
      "å°¼": 5157,
      "Ġbound": 5158,
      "éĤĢ": 5159,
      "éĤ£å¦ĸçİĭ": 5160,
      "éĤ£éŃĶçİĭ": 5161,
      "æĪĳæĬĬ": 5162,
      "çļĦæł·åŃĲ": 5163,
      "Ġdam": 5164,
      "Ġcut": 5165,
      "ench": 5166,
      "Ġye": 5167,
      "æľīçļĦ": 5168,
      "Ġopen": 5169,
      "å¤§å®¶": 5170,
      "æķķ": 5171,
      "ç»µ": 5172,
      "ä¹ĭå£°": 5173,
      "ä¹ĭç½ª": 5174,
      "å¤´æĿ¥": 5175,
      "å°Ĩè¿Ľåİ»": 5176,
      "åīįæĿ¥": 5177,
      "æ³°": 5178,
      "åºĨ": 5179,
      "ç¬Ķ": 5180,
      "æĥ¨": 5181,
      "èĭı": 5182,
      "éĻ·": 5183,
      "æİ©": 5184,
      "æµħ": 5185,
      "rah": 5186,
      "alm": 5187,
      "åĲİæĿ¥": 5188,
      "èĤĿ": 5189,
      "å®Ŀåīĳ": 5190,
      "èİ«å¿µ": 5191,
      "åĩłå¹´": 5192,
      "ĠCap": 5193,
      "âĢĻãĢĤâĢĿ": 5194,
      "èĢĮæĿ¥": 5195,
      "æŁĵ": 5196,
      "è¢«æĪĳ": 5197,
      "Ġshort": 5198,
      "å¯¹ä¼Ĺ": 5199,
      "è¯ĿåĦ¿": 5200,
      "åĵ¥åķĬ": 5201,
      "ç¬¬ä¸Ģ": 5202,
      "Ġknown": 5203,
      "æ»¡å¿ĥ": 5204,
      "ĠBuckingham": 5205,
      "æīĢè°ĵ": 5206,
      "é¡»æĺ¯": 5207,
      "Ġseek": 5208,
      "æµģæ²Ļ": 5209,
      "è±ª": 5210,
      "è®°å¾Ĺ": 5211,
      "æĸ½ç¤¼éģĵ": 5212,
      "èŁ¹": 5213,
      "Ġharm": 5214,
      "æīĳçļĦ": 5215,
      "æ¸Ĳæ¸Ĳ": 5216,
      "Ġcompany": 5217,
      "Ġguilt": 5218,
      "Ġhighness": 5219,
      "æī¯ä½ıéģĵ": 5220,
      "çįĲ": 5221,
      "Ġstrike": 5222,
      "è·ªä¸ĭéģĵ": 5223,
      "Ġattend": 5224,
      "èĸĦ": 5225,
      "Ġserve": 5226,
      "éĶ¡æĿĸ": 5227,
      "Ġmurder": 5228,
      "ĠHastings": 5229,
      "20": 5230,
      "Farewell": 5231,
      "HER": 5232,
      "OP": 5233,
      "chan": 5234,
      "hood": 5235,
      "åª": 5236,
      "Ġve": 5237,
      "ĠHe": 5238,
      "ĠAU": 5239,
      "ä¸«": 5240,
      "Ġag": 5241,
      "Ġsat": 5242,
      "Ġside": 5243,
      "Ġwhi": 5244,
      "Ġwatch": 5245,
      "rest": 5246,
      "ä¸įè®¸": 5247,
      "ä¸Ģæĭ¥": 5248,
      "ä¸Ģå£ģåİ¢": 5249,
      "åĲ¸": 5250,
      "åį§": 5251,
      "ished": 5252,
      "æĪĳæīį": 5253,
      "æĹĭ": 5254,
      "å¾Ī": 5255,
      "Ġfeel": 5256,
      "ä¸ªä¸ª": 5257,
      "Ġdish": 5258,
      "Ġdist": 5259,
      "è¿ĻæŃ£æĺ¯": 5260,
      "å¼¹": 5261,
      "æĭ¨": 5262,
      "æĭĤ": 5263,
      "åīª": 5264,
      "åħ«åįģ": 5265,
      "åĶĩ": 5266,
      "æŃ¤å±±": 5267,
      "æ³Ľ": 5268,
      "æĹłäºĭ": 5269,
      "æīĵä»ĸ": 5270,
      "èº«ä½ĵ": 5271,
      "ents": 5272,
      "ç©´": 5273,
      "æİĢ": 5274,
      "éļĶ": 5275,
      "ç²Ĵ": 5276,
      "æĤļ": 5277,
      "åį³æĹ¶": 5278,
      "é¦į": 5279,
      "ander": 5280,
      "æīįæĺ¯": 5281,
      "Ġsuit": 5282,
      "è¿ĽåŁİ": 5283,
      "éĶ¤": 5284,
      "æĺİæľĪ": 5285,
      "Ġloving": 5286,
      "èİ«è¦ģ": 5287,
      "ç¼°": 5288,
      "æķĳæĪĳ": 5289,
      "æĢ¥æĢ¥": 5290,
      "çĻ½çİī": 5291,
      "æĪĺæĪĺåħ¢åħ¢": 5292,
      "çĬĢ": 5293,
      "ONIO": 5294,
      "çĿ¡çĿĢ": 5295,
      "å®¹æĺĵ": 5296,
      "è¿Ļä¸Ģåİ»": 5297,
      "Ġhonest": 5298,
      "éĥ¨æ´²": 5299,
      "Ġheavens": 5300,
      "æºª": 5301,
      "çĭ®åŃĲ": 5302,
      "åĲ¹åı£ä»Ļæ°Ķ": 5303,
      "åĹĶ": 5304,
      "Ġtrib": 5305,
      "é¼»åŃĲ": 5306,
      "MERLE": 5307,
      "Ġdraw": 5308,
      "Ġvoices": 5309,
      "Ġsomething": 5310,
      "ANTONIO": 5311,
      "Ġstrength": 5312,
      "ĠAUMERLE": 5313,
      "Marry": 5314,
      "Pray": 5315,
      "See": 5316,
      "ZALO": 5317,
      "]ï¼ģ": 5318,
      "]ãĢĤâĢĿ": 5319,
      "fid": 5320,
      "ging": 5321,
      "su": 5322,
      "åıĶ": 5323,
      "Ġact": 5324,
      "Ġsake": 5325,
      "Ġwast": 5326,
      "Ġwonder": 5327,
      "Ġwidow": 5328,
      "ä¸Ģéĥ¨": 5329,
      "Ġbit": 5330,
      "æĿı": 5331,
      "éĤ£ä¸¤ä¸ª": 5332,
      "æĺ¯ä½ł": 5333,
      "è¯³": 5334,
      "ä½łå®¶": 5335,
      "Ġcor": 5336,
      "åĩĿ": 5337,
      "å¤§ä¼Ĺ": 5338,
      "è¿Ļå¦ĸç²¾": 5339,
      "å¼ĥ": 5340,
      "åİ»å¾Ĺ": 5341,
      "åľ¨éĩĮéĿ¢": 5342,
      "ä¸īä½į": 5343,
      "ä¹Łä¸įæĽ¾": 5344,
      "å¤©æ²³": 5345,
      "çĿĢæĪĳ": 5346,
      "åıªåľ¨": 5347,
      "çľĭå®Ī": 5348,
      "ä¸Ńæľī": 5349,
      "åĸ»": 5350,
      "å·¾": 5351,
      "æĬĬéĹ¨": 5352,
      "æīĵå¼Ģ": 5353,
      "åĴ¦": 5354,
      "çŃīåĢĻ": 5355,
      "æ´Ĵ": 5356,
      "Ġsto": 5357,
      "Ġstir": 5358,
      "æīĭä¸ĭ": 5359,
      "æīĭèĦļ": 5360,
      "éĩĳéĬ®": 5361,
      "æŃ£è¯´": 5362,
      "éĽĢ": 5363,
      "åĽĽåĽŀ": 5364,
      "åį³ä¾¿": 5365,
      "çĦ¶åĲİ": 5366,
      "ä¸Ķä¸į": 5367,
      "èİ«è¯´": 5368,
      "å¥³å©¿": 5369,
      "éªĮ": 5370,
      "å¾ĢæĿ¥": 5371,
      "ä»¥ä¸º": 5372,
      "çİīçļĩ": 5373,
      "æķĳä»ĸ": 5374,
      "åĺ¤": 5375,
      "ĠGentleman": 5376,
      "ĠGloucester": 5377,
      "æļ´": 5378,
      "ĠLanc": 5379,
      "åłķ": 5380,
      "å©´": 5381,
      "çħİ": 5382,
      "å¿ħçĦ¶": 5383,
      "åħ³äºĨ": 5384,
      "æĵİ": 5385,
      "èĦ±èº«": 5386,
      "Ġdidst": 5387,
      "å¤«å¦»": 5388,
      "å¯¿æĺŁ": 5389,
      "Ġgentlemen": 5390,
      "åŀ¢": 5391,
      "å«Į": 5392,
      "è¯¸å¤©": 5393,
      "Ġcloud": 5394,
      "é²ģ": 5395,
      "Ġwomen": 5396,
      "ä¹°åįĸ": 5397,
      "åĲ¯å¥ı": 5398,
      "ç²Ĺç»Ĩ": 5399,
      "ethinks": 5400,
      "çº·çº·": 5401,
      "æĤĦæĤĦ": 5402,
      "çİ°äºĨæľ¬çĽ¸": 5403,
      "Ġenemies": 5404,
      "èĬŃèķīæīĩ": 5405,
      "åı¤äººäºĳ": 5406,
      "GONZALO": 5407,
      "ç®įåĦ¿åĴĴ": 5408,
      "ĠLancaster": 5409,
      "Unt": 5410,
      "ives": 5411,
      "Ġsing": 5412,
      "æĪŁ": 5413,
      "Ġmusic": 5414,
      "ä¹ł": 5415,
      "rew": 5416,
      "æľĹ": 5417,
      "ä¸Ģäºº": 5418,
      "ä¸Ģä¼ļ": 5419,
      "Ġbreat": 5420,
      "æĿĲ": 5421,
      "äºĨè¿Ļ": 5422,
      "éĤ£ä¸Ģ": 5423,
      "å®ľ": 5424,
      "æĢ¯": 5425,
      "Ġdr": 5426,
      "åĪĳ": 5427,
      "Ġpra": 5428,
      "Ġpie": 5429,
      "Ġpale": 5430,
      "å¤§èĥĨ": 5431,
      "è¡ĮèĢħè§ģäºĨ": 5432,
      "ä¸Ĭåİ»": 5433,
      "ä¸Ĭæ®¿": 5434,
      "ä¸Ĭè¥¿å¤©": 5435,
      "å¼±": 5436,
      "èµ¦": 5437,
      "Ġgates": 5438,
      "æĭĻ": 5439,
      "å¤©èĵ¬": 5440,
      "çĿĢé©¬": 5441,
      "è¯´éģĵ": 5442,
      "çŃĸ": 5443,
      "ä¸İæĪĳä»¬": 5444,
      "èĩĤ": 5445,
      "å°ĨåĨĽ": 5446,
      "å¥½äºº": 5447,
      "æĹłè¾¹": 5448,
      "oose": 5449,
      "æ¯Ĺ": 5450,
      "æīĵæī®": 5451,
      "åĪ°äºİ": 5452,
      "ä½ķæĿ¥": 5453,
      "éķ¿åĺ´": 5454,
      "çŁ¥ä¹ĭ": 5455,
      "äºĮåĪĻ": 5456,
      "race": 5457,
      "æ±ª": 5458,
      "çº±": 5459,
      "åĽ½ä¸Ī": 5460,
      "çĽ¸æĮģ": 5461,
      "äºĶæĸ¹": 5462,
      "éĶ£": 5463,
      "ils": 5464,
      "ĠCamillo": 5465,
      "Ġnext": 5466,
      "æħ§": 5467,
      "çĮ´å¤´": 5468,
      "Ġknew": 5469,
      "æľĿå¤©": 5470,
      "Ġcoming": 5471,
      "å¿µåĬ¨": 5472,
      "ä½Ĩåıªæĺ¯": 5473,
      "åħŃä¸ª": 5474,
      "è£¹": 5475,
      "ç¬¬åįģ": 5476,
      "éŁµ": 5477,
      "Ġthanks": 5478,
      "çªį": 5479,
      "åĻ«": 5480,
      "å¯ºéĻ¢": 5481,
      "èĥľè´Ł": 5482,
      "ä»¶å®Ŀè´Ŀ": 5483,
      "é¾Ļçİĭéģĵ": 5484,
      "è¹¬": 5485,
      "Ġclose": 5486,
      "Ġpleasure": 5487,
      "åºķä¸ĭ": 5488,
      "Ġsouls": 5489,
      "ä¾Ľåħ»": 5490,
      "ianca": 5491,
      "Ġcourse": 5492,
      "Ġenter": 5493,
      "åĨ²æĴŀ": 5494,
      "Ġwithal": 5495,
      "åĨ³ä¸į": 5496,
      "Ġbrave": 5497,
      "Ġchee": 5498,
      "çĳŀæ°Ķ": 5499,
      "ceived": 5500,
      "éĽ·éŁ³å¯º": 5501,
      "å¥¶å¥¶": 5502,
      "æĻ¦æ°Ķ": 5503,
      "Ġtitle": 5504,
      "DIO": 5505,
      "fter": 5506,
      "ne": 5507,
      "vour": 5508,
      "you": 5509,
      "Ġty": 5510,
      "Ġwa": 5511,
      "ä¸įä¸Ĭ": 5512,
      "ä¸įåĩº": 5513,
      "ä¸ĢçĻ¾": 5514,
      "Ġbur": 5515,
      "äºĨä»ĸçļĦ": 5516,
      "éĤ£ä¸Ģä¸ª": 5517,
      "æĪĳæľī": 5518,
      "Ġfit": 5519,
      "ä½łåıª": 5520,
      "ä½łè¦ģ": 5521,
      "åĽº": 5522,
      "å¤§åĸľ": 5523,
      "å¤§åĸľéģĵ": 5524,
      "è¡ĮèĢħåľ¨": 5525,
      "è¿ĻåĳĨåŃĲ": 5526,
      "æĸŁ": 5527,
      "oward": 5528,
      "Ġgar": 5529,
      "æĭĨ": 5530,
      "Ġbecome": 5531,
      "åī²": 5532,
      "etch": 5533,
      "etru": 5534,
      "ä¸İä¼Ĺ": 5535,
      "éĢŀ": 5536,
      "åīįæĹ¥": 5537,
      "Ġforg": 5538,
      "éĹ¨æĿ¥": 5539,
      "çīĪ": 5540,
      "Ġweak": 5541,
      "Ġeither": 5542,
      "æīĵå¾Ĺ": 5543,
      "å°ıè¯´": 5544,
      "éķ¿çŁŃ": 5545,
      "çŁ¥æĺ¯": 5546,
      "éĽħ": 5547,
      "Ġlips": 5548,
      "æ²ĻéĹ¨": 5549,
      "èĻ¾": 5550,
      "èĻĶ": 5551,
      "åĪĨæĺİ": 5552,
      "å½ĵéĿ¢": 5553,
      "rust": 5554,
      "ä¾¿ç½¢": 5555,
      "æĢİä¹Īå°±": 5556,
      "å¥³æĢª": 5557,
      "åħ¥éĩĮéĿ¢": 5558,
      "ç¾½": 5559,
      "æĲľ": 5560,
      "å¾ĦåĽŀ": 5561,
      "æµ·é¾Ļçİĭ": 5562,
      "åŁİæ±ł": 5563,
      "å§¿": 5564,
      "åĲĽèĩ£": 5565,
      "ä¸ĥä¸ª": 5566,
      "ä¸ĥåĽŀ": 5567,
      "ä¸ĥåįģäºĮ": 5568,
      "æľĽç©º": 5569,
      "é»Ħéĩĳ": 5570,
      "els": 5571,
      "å©ļ": 5572,
      "Ġjest": 5573,
      "èĻİè±¹": 5574,
      "Ġplain": 5575,
      "AUDIO": 5576,
      "çĿ¡è§ī": 5577,
      "æ¼ł": 5578,
      "åĪ«äºº": 5579,
      "è¿ĻçŃīè¯´": 5580,
      "Ġabs": 5581,
      "æ»ļæ»ļ": 5582,
      "è®©ä»ĸ": 5583,
      "è´¥éĺµ": 5584,
      "Ġpret": 5585,
      "å¦ĸçİĭéģĵ": 5586,
      "æ¦Ĥ": 5587,
      "åĤ¬": 5588,
      "ä½İå¤´": 5589,
      "æŀģä¹Ĳ": 5590,
      "claim": 5591,
      "èĨ³": 5592,
      "Ġgrie": 5593,
      "èİ²èĬ±": 5594,
      "çļĦä¸Ģç§į": 5595,
      "CLAUDIO": 5596,
      "Ġchange": 5597,
      "MIONE": 5598,
      "æªĲ": 5599,
      "æģķç½ª": 5600,
      "ĠNorfolk": 5601,
      "CLIFFORD": 5602,
      "æĺ¼å¤ľ": 5603,
      "çĴĥ": 5604,
      "Ġsuffer": 5605,
      "Ġdeliver": 5606,
      "HERMIONE": 5607,
      "DA": 5608,
      "EDWARD": 5609,
      "LORD": 5610,
      "Most": 5611,
      "cher": 5612,
      "kes": 5613,
      "ses": 5614,
      "ufid": 5615,
      "Ãł": 5616,
      "èª": 5617,
      "ĠTh": 5618,
      "Ġsk": 5619,
      "Ġsame": 5620,
      "Ġsick": 5621,
      "Ġsign": 5622,
      "Ġwis": 5623,
      "Ġwall": 5624,
      "ready": 5625,
      "ä¸ĢåĽŀ": 5626,
      "ä¸ĢçĽ´": 5627,
      "äºĨå¸ĪçĪ¶": 5628,
      "äºĨäºĽ": 5629,
      "éĤ£èı©èĲ¨": 5630,
      "isf": 5631,
      "æĪĳéĤ£": 5632,
      "æĪĳèĩª": 5633,
      "æĹı": 5634,
      "å¾ĭ": 5635,
      "æĺ¯è°ģ": 5636,
      "è¯ī": 5637,
      "ä»ĸèĭ¥": 5638,
      "ä½łå°±": 5639,
      "Ġcast": 5640,
      "åľ¨æ°´": 5641,
      "åĥ§éģĵ": 5642,
      "åıªæ¶Ī": 5643,
      "irth": 5644,
      "ç¥ĩ": 5645,
      "å±±å¤´": 5646,
      "åį´ä¼¼": 5647,
      "chio": 5648,
      "å¥½çĶŁ": 5649,
      "Ġforb": 5650,
      "Ġforget": 5651,
      "æĹłæķ°": 5652,
      "oof": 5653,
      "æīĵäºĨ": 5654,
      "å°ıç¥ŀ": 5655,
      "ä¾µ": 5656,
      "å¸ĪçĪ¶åĳµ": 5657,
      "ries": 5658,
      "æµ´": 5659,
      "æīĭéģĵ": 5660,
      "ä¿¯": 5661,
      "ç¥ŀåħµ": 5662,
      "Ġreg": 5663,
      "ç«¿": 5664,
      "urp": 5665,
      "è¿ĺæľª": 5666,
      "èĦĬ": 5667,
      "ä»Ĭå¤ľ": 5668,
      "east": 5669,
      "åıĺäºĨ": 5670,
      "å¼Ģåı£": 5671,
      "æ³ķåĦ¿": 5672,
      "æ´ŀåºľ": 5673,
      "æľ¬åĥı": 5674,
      "èĩ³æŃ¤": 5675,
      "éĤ£éĩĮèµ°": 5676,
      "ç¼ĵ": 5677,
      "Ġven": 5678,
      "æĹ©å·²": 5679,
      "æĪĲåĬŁ": 5680,
      "æĴº": 5681,
      "Ġthemselves": 5682,
      "ç¬¬åĽĽåįģ": 5683,
      "è¿ĻéĩĮæĺ¯": 5684,
      "ĠBianca": 5685,
      "Ġworse": 5686,
      "ĠPom": 5687,
      "åĭ¤": 5688,
      "Ġtook": 5689,
      "Ġpoison": 5690,
      "è¸¢": 5691,
      "å´Ķ": 5692,
      "Ġalong": 5693,
      "Ġrich": 5694,
      "æĸŃçĦ¶": 5695,
      "Ġbreast": 5696,
      "å¨ģé£İ": 5697,
      "äº¤æĪĺ": 5698,
      "åģľå½ĵ": 5699,
      "èľľ": 5700,
      "èį¡èį¡": 5701,
      "ranio": 5702,
      "Ġconsul": 5703,
      "æİ£åĩº": 5704,
      "RANDA": 5705,
      "ä¸ļçķľ": 5706,
      "MIRANDA": 5707,
      "éĴ¦å·®": 5708,
      "twas": 5709,
      "twere": 5710,
      "Ġcheer": 5711,
      "è¯´å¾Ĺæĺ¯": 5712,
      "Ġpatience": 5713,
      "æ¿Ģ": 5714,
      "äºĮéŃĶéģĵ": 5715,
      "Ġmerry": 5716,
      "äºĶçĻ¾å¹´åīį": 5717,
      "å¤¯è´§": 5718,
      "äººåıĤæŀľ": 5719,
      "Ġorder": 5720,
      "etruchio": 5721,
      "ufidius": 5722,
      "HN": 5723,
      "Messenger": 5724,
      "OHN": 5725,
      "SA": 5726,
      "SON": 5727,
      "Servant": 5728,
      "lst": 5729,
      "oin": 5730,
      "ting": 5731,
      "è¥": 5732,
      "èŀ": 5733,
      "å¤·": 5734,
      "å¤¹": 5735,
      "åı¦": 5736,
      "Ġmouth": 5737,
      "Ġwed": 5738,
      "èĢĢ": 5739,
      "è¿Ŀ": 5740,
      "ä¸įæµİ": 5741,
      "ä¸ĢåıĮ": 5742,
      "ä¸Ģç§į": 5743,
      "Ġbad": 5744,
      "Ġbook": 5745,
      "æĿµ": 5746,
      "éĤ»": 5747,
      "éĤ£éŃĶ": 5748,
      "æĺ¯èĢģåŃĻ": 5749,
      "è¡Ķ": 5750,
      "Ġfour": 5751,
      "æīĽ": 5752,
      "Ġdu": 5753,
      "åĩĦ": 5754,
      "å¤§å¾Ĵå¼Ł": 5755,
      "ĠIf": 5756,
      "åİ»è¯·": 5757,
      "åľ¨æīĭä¸Ń": 5758,
      "Ġgave": 5759,
      "å±Ī": 5760,
      "å¤©ç¥ŀ": 5761,
      "åıªè¦ģ": 5762,
      "éĢį": 5763,
      "è®«": 5764,
      "è®¯": 5765,
      "å¤´ä¸Ģ": 5766,
      "å±±åĩ¹": 5767,
      "åį´å°Ĩ": 5768,
      "chm": 5769,
      "Ġissue": 5770,
      "å¥½è¡ĮèĢħ": 5771,
      "åºµ": 5772,
      "æīĵåĲ¬": 5773,
      "åĴ½": 5774,
      "ç½®": 5775,
      "éĻĲ": 5776,
      "åı«ä¸Ģå£°": 5777,
      "æİ¼": 5778,
      "ä½ķåľ¨": 5779,
      "éĽ¶": 5780,
      "ash": 5781,
      "Ġliber": 5782,
      "èĬ³": 5783,
      "æĸ¹åı¯": 5784,
      "æ£Ģ": 5785,
      "èµ·åİ»": 5786,
      "åģļçĶļ": 5787,
      "åı¯æĽ¾": 5788,
      "vern": 5789,
      "æĭ¿çĿĢ": 5790,
      "éĹ®è®¯": 5791,
      "é«»": 5792,
      "ä½ľèĢħ": 5793,
      "Ġself": 5794,
      "é¥¼": 5795,
      "æĭľè°¢": 5796,
      "ions": 5797,
      "æĢİä¹Īè¯´": 5798,
      "ç¼Ŀ": 5799,
      "rows": 5800,
      "ç¤¼æ¯ķ": 5801,
      "å¾Ħå¾Ģ": 5802,
      "çłĸ": 5803,
      "æľĽè§ģ": 5804,
      "ally": 5805,
      "ç§°è°¢": 5806,
      "åĸĦåĵī": 5807,
      "åģĩèĭ¥": 5808,
      "åĩĢçĵ¶": 5809,
      "Ġoffice": 5810,
      "Ġalready": 5811,
      "å¤«äºº": 5812,
      "æ¶Īæģ¯": 5813,
      "Being": 5814,
      "æī§çĿĢ": 5815,
      "å«Ķ": 5816,
      "æĹ§æĹ¶": 5817,
      "Ġmove": 5818,
      "éĢĥçĶŁ": 5819,
      "åĩºéĹ¨æĿ¥": 5820,
      "æįĨäºĨ": 5821,
      "éĵĥåĦ¿": 5822,
      "é¡·åĪ»": 5823,
      "Ġvirtue": 5824,
      "Ġgiven": 5825,
      "è¾Ľèĭ¦": 5826,
      "Ġbattle": 5827,
      "å¤©ç«ºåĽ½": 5828,
      "åĬªåĬĽ": 5829,
      "ĠHereford": 5830,
      "Ġmorning": 5831,
      "Ġfurther": 5832,
      "å¿»çĦ¶": 5833,
      "Make": 5834,
      "Since": 5835,
      "mber": 5836,
      "nk": 5837,
      "pes": 5838,
      "rist": 5839,
      "she": 5840,
      "uous": 5841,
      "used": 5842,
      "ä¸¸": 5843,
      "Ġta": 5844,
      "åı¨": 5845,
      "Ġac": 5846,
      "oun": 5847,
      "Ġwise": 5848,
      "èĢ¸": 5849,
      "æĺ§": 5850,
      "ä¸įå½ĵ": 5851,
      "ä¸įå·²": 5852,
      "ä¸įå®¹": 5853,
      "åħħ": 5854,
      "Ġburn": 5855,
      "éĤ£å¦ĸéŃĶ": 5856,
      "éĤ£éģĵå£«": 5857,
      "æĪĳåĦ¿": 5858,
      "orge": 5859,
      "Ġfrown": 5860,
      "Ġfeast": 5861,
      "ï¼ģâĢĻ": 5862,
      "æĿ¥è¯·": 5863,
      "è¡Įåĩ¶": 5864,
      "è¡ĮåĽĬ": 5865,
      "Ġdire": 5866,
      "esh": 5867,
      "Ġlad": 5868,
      "Ġpay": 5869,
      "ä¼¶": 5870,
      "anus": 5871,
      "åľ¨æĪĳ": 5872,
      "ä¸īçĻ¾": 5873,
      "Ġgro": 5874,
      "æĭĪ": 5875,
      "ats": 5876,
      "ä¸ĭäºĨ": 5877,
      "å¤©å°Ĩ": 5878,
      "åıĪéģĵ": 5879,
      "åıĪå°Ĩ": 5880,
      "èº¯": 5881,
      "åīįéĹ¨": 5882,
      "éķľ": 5883,
      "åįģæķ°": 5884,
      "éĺŁ": 5885,
      "ä½ķæĸ¹": 5886,
      "è¦ģæīĵ": 5887,
      "è°¦": 5888,
      "äºĮä½į": 5889,
      "åĮł": 5890,
      "Ġred": 5891,
      "å¤Ħå¤Ħ": 5892,
      "Ġsoft": 5893,
      "æ£ĺ": 5894,
      "æĦĪ": 5895,
      "åı¯æľī": 5896,
      "æĭ¿åĩºæĿ¥": 5897,
      "each": 5898,
      "çģ«åħī": 5899,
      "Ġsucc": 5900,
      "å¤ªä¸Ĭ": 5901,
      "åħ¥æľĿ": 5902,
      "ä½¿éĵģæ£Ĵ": 5903,
      "è§Ĥä¸ĸ": 5904,
      "æıı": 5905,
      "è§£éĩĬ": 5906,
      "åĽłä¸º": 5907,
      "icer": 5908,
      "Ġblack": 5909,
      "æĮĩéģĵ": 5910,
      "Ġgoes": 5911,
      "æ¢¢": 5912,
      "æĬ¥ä»ĩ": 5913,
      "Ġsworn": 5914,
      "ĠSignior": 5915,
      "elcome": 5916,
      "ä¸ĸéĹ´": 5917,
      "å¿ħæľī": 5918,
      "åĥ®": 5919,
      "Ġprop": 5920,
      "éģĤæŃ¤": 5921,
      "æĺ¯æĪĳçļĦ": 5922,
      "Ġsons": 5923,
      "æķ£äºĨ": 5924,
      "æĿ¾æŀĹ": 5925,
      "Ġfoe": 5926,
      "Ġext": 5927,
      "çĨ¬": 5928,
      "å¤ªåŃĲéģĵ": 5929,
      "ĠTower": 5930,
      "ç¿»èº«": 5931,
      "Before": 5932,
      "åıĺä½ľä¸ª": 5933,
      "éŃĤé£ŀ": 5934,
      "Ġtrou": 5935,
      "Ġbegg": 5936,
      "Ġbegin": 5937,
      "åĤ²": 5938,
      "Ġconsent": 5939,
      "éĺ¶åīį": 5940,
      "æħĮäºĨéģĵ": 5941,
      "dden": 5942,
      "Ġsoldiers": 5943,
      "Ġrequest": 5944,
      "æ¬łèº«": 5945,
      "ĠLucentio": 5946,
      "Ġbetween": 5947,
      "Ġquarrel": 5948,
      "Ġsatisf": 5949,
      "chmond": 5950,
      "AS": 5951,
      "Call": 5952,
      "IR": 5953,
      "Must": 5954,
      "NT": 5955,
      "Re": 5956,
      "Sw": 5957,
      "Such": 5958,
      "gare": 5959,
      "ires": 5960,
      "ures": 5961,
      "ung": 5962,
      "uff": 5963,
      "«æĩĴ": 5964,
      "ĠFor": 5965,
      "hem": 5966,
      "Ġservant": 5967,
      "ä»ģ": 5968,
      "æĪª": 5969,
      "ä¸įåİ»": 5970,
      "ä¸įæĶ¾": 5971,
      "ä¸įåıĹ": 5972,
      "ä¸Ģåįĥ": 5973,
      "Ġbar": 5974,
      "äºĨæĪĳçļĦ": 5975,
      "äºĨå¤ļå°ĳ": 5976,
      "æĪĳåį´": 5977,
      "çļĦå°ı": 5978,
      "æĹĮ": 5979,
      "ä»ĸéģĵ": 5980,
      "ä»ĸä¸īäºº": 5981,
      "ä½łèİ«": 5982,
      "ä½łåĢĴ": 5983,
      "Ġdro": 5984,
      "Ġdark": 5985,
      "Ġcr": 5986,
      "Ġcase": 5987,
      "Ġthri": 5988,
      "aris": 5989,
      "ots": 5990,
      "æĸ¯": 5991,
      "stand": 5992,
      "owers": 5993,
      "åľ¨è¿Ļ": 5994,
      "ä¸īåĽŀ": 5995,
      "èĢģé¾Ļ": 5996,
      "ä¹Łä¸įçŁ¥": 5997,
      "ä¹ŁæĽ¾": 5998,
      "åĥ§å®ĺ": 5999,
      "çĪ½": 6000,
      "irm": 6001,
      "éĢ¼": 6002,
      "çģ¶": 6003,
      "æĮ½": 6004,
      "æĥ«æĩĴ": 6005,
      "æł¸": 6006,
      "è°İ": 6007,
      "ä¸ºäºº": 6008,
      "åĲİæĸĩ": 6009,
      "èĥĸ": 6010,
      "éĹ®æĽ°": 6011,
      "èį£": 6012,
      "è¯·å¸ĪçĪ¶": 6013,
      "çģ«çľ¼": 6014,
      "çĭ¸": 6015,
      "é¢ł": 6016,
      "å®ĺåĦ¿": 6017,
      "Ġloves": 6018,
      "æĢİä¹ĪåıĪ": 6019,
      "å¤ªå¸Ī": 6020,
      "åĸľæ¬¢": 6021,
      "ç¼¸": 6022,
      "ĠCh": 6023,
      "åŁĥ": 6024,
      "æ¶¯": 6025,
      "æ¶Į": 6026,
      "æķĳå¾Ĺ": 6027,
      "åĨįåİ»": 6028,
      "ends": 6029,
      "å¾ĦåĪ°": 6030,
      "Ġbless": 6031,
      "empt": 6032,
      "åŁİéĩĮ": 6033,
      "è¶£": 6034,
      "Ġthence": 6035,
      "é¸¦": 6036,
      "Ġworth": 6037,
      "è·³ä¸ĭ": 6038,
      "é¬ĵ": 6039,
      "çĮªç¾Ĭ": 6040,
      "æľ¨æ¯į": 6041,
      "ĠAufidius": 6042,
      "CATES": 6043,
      "å°ĬèĢħ": 6044,
      "åĳĬéģĵ": 6045,
      "çĽĺç¼ł": 6046,
      "Ġexp": 6047,
      "çĨĬ": 6048,
      "ä¸įè¦ģèµ°": 6049,
      "åıĺä½ľä¸Ģä¸ª": 6050,
      "åĢŁå®¿": 6051,
      "å«©": 6052,
      "awd": 6053,
      "Ġpresence": 6054,
      "èħ¾äºĳ": 6055,
      "ä¾įç«ĭ": 6056,
      "æ½º": 6057,
      "ç¯®": 6058,
      "Ġpriv": 6059,
      "å·¡å±±": 6060,
      "å¾Ģè¥¿å¤©åıĸç»ı": 6061,
      "Unless": 6062,
      "åĭ¾å½ĵ": 6063,
      "Alas": 6064,
      "Ġwounds": 6065,
      "çģ«çĦ°å±±": 6066,
      "Ġdangerous": 6067,
      "çĦļé¦Ļ": 6068,
      "Because": 6069,
      "æĢłæħ¢": 6070,
      "è§Ĥä¸ĸéŁ³": 6071,
      "garet": 6072,
      "CATESBY": 6073,
      "21": 6074,
      "LY": 6075,
      "oll": 6076,
      "that": 6077,
      "Ġsigh": 6078,
      "ä»·": 6079,
      "ä¸įä¿¡": 6080,
      "Ġble": 6081,
      "æĿĨ": 6082,
      "äºĨæĢ§åĳ½": 6083,
      "éĤĵ": 6084,
      "éĤ£äººéģĵ": 6085,
      "æĪĳä¸¤ä¸ª": 6086,
      "çļĦè¯Ŀ": 6087,
      "çļĦå°ıå¦ĸ": 6088,
      "æī¢": 6089,
      "ona": 6090,
      "onour": 6091,
      "ä»ĸè§ģ": 6092,
      "å¦¨": 6093,
      "æľīåĩłä¸ª": 6094,
      "Ġhot": 6095,
      "çľł": 6096,
      "æĸĳ": 6097,
      "ä¸īä¼Ĺ": 6098,
      "Ġgot": 6099,
      "è§ģä½Ľ": 6100,
      "éĩĮè¿ľè¿ĳ": 6101,
      "ç»¦": 6102,
      "Ġinter": 6103,
      "åĵ¨": 6104,
      "è¯´çĶļä¹Ī": 6105,
      "è¯´äºĨä¸Ģéģį": 6106,
      "åıªæķĻ": 6107,
      "å¯Ł": 6108,
      "çĽĶ": 6109,
      "åī¯": 6110,
      "å¦ĸçĮ´": 6111,
      "å°±æĬĬ": 6112,
      "æŃ¤åİ»": 6113,
      "åĨ»": 6114,
      "ç¥·": 6115,
      "çľĭçĿĢ": 6116,
      "åĦ¿å¥³": 6117,
      "åģ¶": 6118,
      "å¥½äºĨ": 6119,
      "Ġund": 6120,
      "æĹłçŁ¥": 6121,
      "æĥ¶": 6122,
      "Ġev": 6123,
      "æĶ»": 6124,
      "éĻ¡": 6125,
      "ä¿ĥ": 6126,
      "æŃ£æ¬²": 6127,
      "èĬĿ": 6128,
      "èĪĴ": 6129,
      "äºĳç«¯": 6130,
      "ä»Ĭå¹´": 6131,
      "èĩªå¹¼": 6132,
      "åĶĲåĥ§çļĦ": 6133,
      "è¿ĩå±±": 6134,
      "ä»Ļç«¥": 6135,
      "æ³ķåĲį": 6136,
      "Ġsum": 6137,
      "é¢Ĺ": 6138,
      "é»İ": 6139,
      "èİ«æĢķ": 6140,
      "ç¼ĸ": 6141,
      "å¾Ģåīį": 6142,
      "ä¸ľæĸ¹": 6143,
      "Ġneither": 6144,
      "çĮ´åĦ¿": 6145,
      "Ġvict": 6146,
      "æĴ®": 6147,
      "å¿µä¸ª": 6148,
      "è§£ä¸ĭ": 6149,
      "è§£æķ°": 6150,
      "ä½Ĩåıª": 6151,
      "ä½ĨæģĲ": 6152,
      "å¾Ħè½¬": 6153,
      "ä¼¼è¿ĻèĪ¬": 6154,
      "emn": 6155,
      "æļĳ": 6156,
      "ĠLond": 6157,
      "åįĹå¤©": 6158,
      "æĽ´ä¸įæĽ¾": 6159,
      "ĠSir": 6160,
      "æĸĭé¥Ń": 6161,
      "é»Ħé£İ": 6162,
      "ĠVols": 6163,
      "ç¢į": 6164,
      "åĻĻ": 6165,
      "cient": 6166,
      "èĮ«": 6167,
      "æ¥ļ": 6168,
      "å·¦æīĭ": 6169,
      "æ¥¼åı°": 6170,
      "éĤ£èĢģéŃĶ": 6171,
      "å¼ºçĽĹ": 6172,
      "Ġwars": 6173,
      "Ġflatter": 6174,
      "å¤±èī²": 6175,
      "æĪĸèĢħ": 6176,
      "ç¦ħåłĤ": 6177,
      "å°ĺåŁĥ": 6178,
      "ç³Ĭ": 6179,
      "èĥĨæĪĺ": 6180,
      "åĤį": 6181,
      "Ġmighty": 6182,
      "Ġrespect": 6183,
      "å±ķå¼Ģ": 6184,
      "èİ²åı°": 6185,
      "Ġdread": 6186,
      "èĿī": 6187,
      "åľ¨åľ°ä¸ĭ": 6188,
      "Ġbride": 6189,
      "Ġbrief": 6190,
      "Ġthrone": 6191,
      "æĭ½å¼Ģ": 6192,
      "æªĢ": 6193,
      "Ġvoice": 6194,
      "Ġemb": 6195,
      "aptist": 6196,
      "Ġdeny": 6197,
      "éŃĦæķ£": 6198,
      "Ġspoke": 6199,
      "Ġwater": 6200,
      "Ġvisit": 6201,
      "æį»çĿĢè¯Ģ": 6202,
      "æµģæ²Ļæ²³": 6203,
      "ĠLondon": 6204,
      "Both": 6205,
      "BIAN": 6206,
      "JOHN": 6207,
      "Lest": 6208,
      "Rome": 6209,
      "REY": 6210,
      "Yes": 6211,
      "eorge": 6212,
      "ip": 6213,
      "iant": 6214,
      "mand": 6215,
      "ught": 6216,
      "Ġest": 6217,
      "éģĹ": 6218,
      "Ġmal": 6219,
      "Ġmortal": 6220,
      "æĺĨ": 6221,
      "ä¸įèĢģ": 6222,
      "ä¸įè¿ľ": 6223,
      "æľĭ": 6224,
      "ä¸Ģæł·": 6225,
      "ä¸ĢåĲĳ": 6226,
      "Ġbow": 6227,
      "Ġbab": 6228,
      "äºĨä¸¤": 6229,
      "åĲµ": 6230,
      "å®ĥ": 6231,
      "æĪĳèĭ¥": 6232,
      "æĪĳåĴĮä½ł": 6233,
      "å¾Ĳ": 6234,
      "Ġfra": 6235,
      "ern": 6236,
      "æī£": 6237,
      "ä»ĸéĤ£éĩĮ": 6238,
      "è§Ħ": 6239,
      "Ġhur": 6240,
      "Ġtown": 6241,
      "å¤§ä¼ļ": 6242,
      "è¿Ļä¸Ģä¸ª": 6243,
      "Ġoften": 6244,
      "è§ģè¯´": 6245,
      "ä¹ĭåĬŁ": 6246,
      "Ġhaving": 6247,
      "åıªéĹ»å¾Ĺ": 6248,
      "åīĸ": 6249,
      "åĬ¡": 6250,
      "æŃ¤çī©": 6251,
      "ä¸Ńåįİ": 6252,
      "åīįåİ»": 6253,
      "é©¼": 6254,
      "è´ŀ": 6255,
      "æĹłå¥Ī": 6256,
      "æĽľ": 6257,
      "åĴĦ": 6258,
      "éĻĦ": 6259,
      "éĻĭ": 6260,
      "right": 6261,
      "æŃ£çĦ¶": 6262,
      "ä¸¤çıŃ": 6263,
      "ided": 6264,
      "èĲĿ": 6265,
      "æĤł": 6266,
      "åĽĽæĹ¶": 6267,
      "çºł": 6268,
      "éĹ®æĪĳ": 6269,
      "æĻ´": 6270,
      "æĻĥ": 6271,
      "ä»Ļå¥³": 6272,
      "éĹ»æŃ¤è¨Ģ": 6273,
      "äºĶåĽŀ": 6274,
      "Ġsudden": 6275,
      "æ´ŀå¤ĸ": 6276,
      "é¢Ī": 6277,
      "rum": 6278,
      "Ġancient": 6279,
      "æĢİä¹Īä¸į": 6280,
      "Ġspeech": 6281,
      "çĶ¨çļĦ": 6282,
      "åĩłæĹ¥": 6283,
      "åĲįåĶ¤": 6284,
      "ç¼©": 6285,
      "å¾ĢéĤ£éĩĮåİ»": 6286,
      "Ġvow": 6287,
      "éħ¥": 6288,
      "æĢ¥åĽŀå¤´": 6289,
      "é½Ĳæķ´": 6290,
      "ĠGeorge": 6291,
      "ä¹ĿéľĦ": 6292,
      "éĻįé¾Ļ": 6293,
      "éĥģ": 6294,
      "Ġloved": 6295,
      "Ġkings": 6296,
      "ĠBaptist": 6297,
      "Ġworship": 6298,
      "æĹ¢çĦ¶": 6299,
      "é¼į": 6300,
      "æĿĢæĪĳä¹Ł": 6301,
      "LIA": 6302,
      "ĠParis": 6303,
      "Ġsafe": 6304,
      "ired": 6305,
      "ä¸Ĭåīįéģĵ": 6306,
      "ä¸Īå¤«": 6307,
      "çĥ§çģ«": 6308,
      "æĪ¿éĩĮ": 6309,
      "å¤©çİĭéģĵ": 6310,
      "è®¤å¾Ĺæĺ¯": 6311,
      "æĮīä¸ĭäºĳå¤´": 6312,
      "éĴ»é£İ": 6313,
      "åħ¬ä¸»éģĵ": 6314,
      "æ¬¡æĹ¥": 6315,
      "äºĮåįģåħ«": 6316,
      "èŁĴ": 6317,
      "è®©æĪĳ": 6318,
      "èĳĽ": 6319,
      "å±Ĥå±Ĥ": 6320,
      "ainted": 6321,
      "æ½Ń": 6322,
      "BAL": 6323,
      "ĠMargaret": 6324,
      "Ġprincely": 6325,
      "BRA": 6326,
      "Ġchamber": 6327,
      "èĿĩ": 6328,
      "Ġseems": 6329,
      "bey": 6330,
      "çŃµå®´": 6331,
      "Ġbuy": 6332,
      "Ġdeeds": 6333,
      "ç¥ŃèµĽ": 6334,
      "éĤ£æĹ¶èĬĤ": 6335,
      "Whom": 6336,
      "æĥłå²¸": 6337,
      "VERS": 6338,
      "ĠRichmond": 6339,
      "æĤļæĥ§": 6340,
      "Ġbitter": 6341,
      "éĢįéģ¥": 6342,
      "BIANCA": 6343,
      "BOW": 6344,
      "Welcome": 6345,
      "king": 6346,
      "ls": 6347,
      "lish": 6348,
      "mb": 6349,
      "rt": 6350,
      "sp": 6351,
      "ura": 6352,
      "Çİ": 6353,
      "çĢ": 6354,
      "ĠThou": 6355,
      "ĠThis": 6356,
      "ä¹Ĵ": 6357,
      "ä¸Ģè§ģ": 6358,
      "éĤ£æĸ¹": 6359,
      "æĪĳä¸Ķ": 6360,
      "Ġfres": 6361,
      "Ġfetch": 6362,
      "ä¸ªäºº": 6363,
      "ä½łåıĪ": 6364,
      "Ġcol": 6365,
      "Ġcross": 6366,
      "Ġcoward": 6367,
      "essed": 6368,
      "Ġlim": 6369,
      "æľīä¸¤ä¸ª": 6370,
      "åĪĥ": 6371,
      "åĩ»": 6372,
      "Ġpen": 6373,
      "å¤§å¼Ģ": 6374,
      "ä¼ĺ": 6375,
      "çİĩ": 6376,
      "ä¸ĬçļĦ": 6377,
      "otion": 6378,
      "äººé©¬": 6379,
      "åľ¨æīĭ": 6380,
      "åľ¨äºİ": 6381,
      "è§ģä¸Ģ": 6382,
      "ated": 6383,
      "ä¸ĭéĻį": 6384,
      "ä¹Łä¸įæķ¢": 6385,
      "ä¹ĭæ³ķ": 6386,
      "æ²¿": 6387,
      "çĿĢæīĭ": 6388,
      "åıĪè¦ģ": 6389,
      "åıĪè¢«": 6390,
      "å¹¢": 6391,
      "è·¨": 6392,
      "ä¸İèĢģåŃĻ": 6393,
      "éĢŁ": 6394,
      "æ³Ħ": 6395,
      "æĹłç©·": 6396,
      "æĥĳ": 6397,
      "è¾ĩ": 6398,
      "éĿł": 6399,
      "æīĵçĿĢ": 6400,
      "èº«ç©¿": 6401,
      "ä½ķä¸º": 6402,
      "éĩĳå±±": 6403,
      "è°Ĳ": 6404,
      "ä¸¤åıª": 6405,
      "ç«ł": 6406,
      "åĿĬ": 6407,
      "urch": 6408,
      "èĪŁ": 6409,
      "æĤ¦": 6410,
      "ç§ĳ": 6411,
      "åį³åĶ¤": 6412,
      "é£İåĵį": 6413,
      "éĵĻ": 6414,
      "åĲİéĹ¨": 6415,
      "æ¬¾": 6416,
      "åıĺå¾Ĺ": 6417,
      "æĻ¶": 6418,
      "å½ĵä¸Ń": 6419,
      "äºĶåįĥ": 6420,
      "é«ĺèĢģ": 6421,
      "çĭĹ": 6422,
      "é¢Ŀ": 6423,
      "æľ¬èº«": 6424,
      "æĺİæĹ©": 6425,
      "éļ¾è¡Į": 6426,
      "èĩ³ä»Ĭ": 6427,
      "å¤ªä¿Ŀ": 6428,
      "å¾Ģå¤ĸ": 6429,
      "Ġknock": 6430,
      "åŁŁ": 6431,
      "å®«ä¸Ń": 6432,
      "antage": 6433,
      "æĴŃ": 6434,
      "oney": 6435,
      "Ġprot": 6436,
      "åħŃåĽŀ": 6437,
      "ĠGAU": 6438,
      "éĢģä½ł": 6439,
      "å§Ķ": 6440,
      "ĠLady": 6441,
      "çĲ¼": 6442,
      "æ»¡å¤©": 6443,
      "ãĢĭãĢĤ": 6444,
      "ĠSaint": 6445,
      "ĠServant": 6446,
      "Ġkingdom": 6447,
      "çŁ³å´ĸ": 6448,
      "é»Ħè¢į": 6449,
      "è·³ä¸Ĭ": 6450,
      "ĠPl": 6451,
      "Ġsac": 6452,
      "æ²³è¾¹": 6453,
      "æĢĿéĩı": 6454,
      "è±Ĩ": 6455,
      "ELBOW": 6456,
      "ç«¥åĦ¿": 6457,
      "æĸ½å¨ģ": 6458,
      "å¢ŀ": 6459,
      "å¤ªå®Ĺéģĵ": 6460,
      "Ġheads": 6461,
      "Ġscorn": 6462,
      "Ġrage": 6463,
      "Ġappear": 6464,
      "æ²¹éĶħ": 6465,
      "æŃ¢ä¸įä½ı": 6466,
      "å¦ĩäººéģĵ": 6467,
      "Ġlead": 6468,
      "Ġwitness": 6469,
      "RIVERS": 6470,
      "ä¸´åĩ¡": 6471,
      "å¤ŁäºĨ": 6472,
      "æľ±ç´«": 6473,
      "èĢģå¦ĸéģĵ": 6474,
      "æ£®ç½Ĺ": 6475,
      "Ġpatient": 6476,
      "éĢĤæīį": 6477,
      "çĺ¦": 6478,
      "Ġpromise": 6479,
      "Ġlament": 6480,
      "ä¼½èĵĿ": 6481,
      "Ġvaliant": 6482,
      "ĠIsab": 6483,
      "Speak": 6484,
      "Ġsuccess": 6485,
      "ĠBaptista": 6486,
      "ĠGAUNT": 6487,
      "Bes": 6488,
      "Ere": 6489,
      "GUE": 6490,
      "Hold": 6491,
      "TY": 6492,
      "cy": 6493,
      "coun": 6494,
      "nown": 6495,
      "sper": 6496,
      "will": 6497,
      "xford": 6498,
      "Ġä¸ī": 6499,
      "ĠKING": 6500,
      "Ġign": 6501,
      "åıŁ": 6502,
      "Ġaction": 6503,
      "ä¸įæĢķ": 6504,
      "Ġbro": 6505,
      "Ġbawd": 6506,
      "åįľ": 6507,
      "éĤ£å°ıå¦ĸ": 6508,
      "æĪĳå·²": 6509,
      "æĪĳå¼ŁåŃĲ": 6510,
      "è¡«": 6511,
      "æī°": 6512,
      "ities": 6513,
      "ä»ĸæĢİä¹Ī": 6514,
      "è¡Įèĩ³": 6515,
      "ä½łå¥½": 6516,
      "Ġcle": 6517,
      "Ġcreat": 6518,
      "Ġcap": 6519,
      "åİ¨": 6520,
      "Ġlack": 6521,
      "Ġthrow": 6522,
      "Ġow": 6523,
      "Ġopp": 6524,
      "åĩĽ": 6525,
      "å¤§åĬĽ": 6526,
      "ä¸ĬäºĨ": 6527,
      "å¼¯": 6528,
      "å¼ı": 6529,
      "äººä¹Ł": 6530,
      "åľ¨åĲİ": 6531,
      "Ġgall": 6532,
      "åĵĳ": 6533,
      "è¯´äºĨ": 6534,
      "åīģ": 6535,
      "åĩºèº«": 6536,
      "è·ĥ": 6537,
      "ä¸İåĶĲåĥ§": 6538,
      "è®¢": 6539,
      "å¤´æĪ´": 6540,
      "å°ĨæĪĳ": 6541,
      "Ġforward": 6542,
      "è´±": 6543,
      "å£ĳ": 6544,
      "Ġeat": 6545,
      "è¾Ķ": 6546,
      "æĢªæĪĳ": 6547,
      "æł½": 6548,
      "Ġkins": 6549,
      "Their": 6550,
      "å£°éģĵ": 6551,
      "æ°´çģ«": 6552,
      "ç§¦": 6553,
      "äºĳéĽ¾": 6554,
      "èµ·éģĵ": 6555,
      "ä»Ĭå·²": 6556,
      "åıĺçļĦ": 6557,
      "åĪĨè¯´": 6558,
      "æĻĴ": 6559,
      "iff": 6560,
      "å¹´çºª": 6561,
      "é«ĺå¾Ĵ": 6562,
      "é«ĺä½İ": 6563,
      "ä¾¿äºĨ": 6564,
      "ä¾¿å°±": 6565,
      "Ġang": 6566,
      "Ġviol": 6567,
      "åĢĴä¹Ł": 6568,
      "antag": 6569,
      "æĹ©æĻļ": 6570,
      "æŃ»ç½ª": 6571,
      "æķĳå¸ĪçĪ¶": 6572,
      "çī©ä»¶": 6573,
      "åħĦéķ¿": 6574,
      "Ġprin": 6575,
      "Ġprithee": 6576,
      "ĠMy": 6577,
      "æĺŁåĲĽ": 6578,
      "è§£èĦ±": 6579,
      "åħŃä¸ģ": 6580,
      "æĥ³çĿĢ": 6581,
      "åįĬæĹ¥": 6582,
      "ç¬¬åħŃåįģ": 6583,
      "Ġwash": 6584,
      "æ¢Ĩ": 6585,
      "åĨħæľī": 6586,
      "ä¹ĿåĽŀ": 6587,
      "çŁ³å¤´": 6588,
      "å¤ľåıī": 6589,
      "ortens": 6590,
      "aken": 6591,
      "æĵ¦": 6592,
      "æĵĤ": 6593,
      "ĠPetruchio": 6594,
      "åı¤æĢª": 6595,
      "é¬¼ä½¿": 6596,
      "å¥īæĹ¨": 6597,
      "éĺ´é£İ": 6598,
      "ç´§ç®įåĦ¿åĴĴ": 6599,
      "åĪ«äºĨ": 6600,
      "æĬ¬åĩº": 6601,
      "æ¯Ķåĸ»": 6602,
      "ç¨į": 6603,
      "Ġoffer": 6604,
      "çģ¯çģ«": 6605,
      "æ¥¼ä¸Ĭ": 6606,
      "è®¤å¾ĹæĪĳ": 6607,
      "èģĶ": 6608,
      "Ġleast": 6609,
      "Ġslave": 6610,
      "Ġflesh": 6611,
      "ĠTranio": 6612,
      "çŃĶéģĵ": 6613,
      "èĽŁ": 6614,
      "é¥¶ä»ĸ": 6615,
      "éĻ¢ä¸»": 6616,
      "è¹²": 6617,
      "Ġprepare": 6618,
      "Ġprayers": 6619,
      "æį¢äºĨ": 6620,
      "èĻ«åĦ¿": 6621,
      "åļ·éģĵ": 6622,
      "éĹ»å¾ĹæŃ¤è¨Ģ": 6623,
      "then": 6624,
      "Ġappro": 6625,
      "é¥®éħĴ": 6626,
      "çĪ¬èµ·æĿ¥": 6627,
      "TAGUE": 6628,
      "Ġtriump": 6629,
      "Ġmoon": 6630,
      "Ġcompl": 6631,
      "èĭįèĿĩ": 6632,
      "è¯´å¾ĹæľīçĲĨ": 6633,
      "ä¸įæīĵç´§": 6634,
      "itted": 6635,
      "å¤§æĢĴéģĵ": 6636,
      "èįĨæ£ĺ": 6637,
      "æ»¡å¿ĥæ¬¢åĸľ": 6638,
      "Ġtribunes": 6639,
      "Ġdrink": 6640,
      "ĠChrist": 6641,
      "äºĳç«¯éĩĮ": 6642,
      "Romeo": 6643,
      "ortensio": 6644,
      "Yea": 6645,
      "bit": 6646,
      "but": 6647,
      "ees": 6648,
      "joy": 6649,
      "ler": 6650,
      "oor": 6651,
      "ohem": 6652,
      "vest": 6653,
      "µ®": 6654,
      "Ã¡": 6655,
      "çµ®": 6656,
      "Ġid": 6657,
      "ï¼ĮãĢĬ": 6658,
      "Ġsur": 6659,
      "Ġmid": 6660,
      "ines": 6661,
      "ä¸įéĢļ": 6662,
      "åħĭ": 6663,
      "æľ¦": 6664,
      "ä¸Ģéģĵ": 6665,
      "ä¸Ģä¸ĭ": 6666,
      "ä¸ĢåĲĮ": 6667,
      "ä¸Ģæ£Ĵ": 6668,
      "ä¸ĢçĤ¹": 6669,
      "ä¸Ģé¢Ĩ": 6670,
      "ä¸Ģçīĩ": 6671,
      "éĤ£å±±": 6672,
      "éĤ£èĪ¬": 6673,
      "éĤ£ä¸īä¸ª": 6674,
      "æĪĳçİĭ": 6675,
      "æĪĳå¸Ī": 6676,
      "æĪĳçľĭ": 6677,
      "æĪĳåĽ½": 6678,
      "Ġfie": 6679,
      "ä»ĸä¹Łä¸į": 6680,
      "ä»ĸæĢİçļĦ": 6681,
      "Ġdest": 6682,
      "Ġnay": 6683,
      "å¦Ħ": 6684,
      "æŃª": 6685,
      "Ġthither": 6686,
      "æľīç¼ĺ": 6687,
      "Ġhide": 6688,
      "æķĽ": 6689,
      "ä¸ĬåĿĲ": 6690,
      "å¾ĹåĬ¨": 6691,
      "åľ¨ä½ķå¤Ħ": 6692,
      "ä¸īäºĶ": 6693,
      "è§ģä½ł": 6694,
      "èĢģå¤§": 6695,
      "athar": 6696,
      "Ġbeast": 6697,
      "ä¸ĭéĽ¨": 6698,
      "ä¹Łä¸įæĺ¯": 6699,
      "ç»Ł": 6700,
      "çĪ¹": 6701,
      "å¤©æĻĵ": 6702,
      "ley": 6703,
      "åıĪåı«": 6704,
      "åĵ®": 6705,
      "åıªå¥½": 6706,
      "åıªæģĲ": 6707,
      "åĩºå¤´": 6708,
      "åĩºä¸Ģä¸ª": 6709,
      "å°±æĿ¥": 6710,
      "åį´æĿ¥": 6711,
      "çģĮ": 6712,
      "å°Ĩèº«": 6713,
      "åīįäºĭ": 6714,
      "æĮĿ": 6715,
      "æ¯Ĥ": 6716,
      "æīĵåıĳ": 6717,
      "çŃīä¼Ĺ": 6718,
      "å¸ĪçĪ¶çļĦ": 6719,
      "åįģä¸īå¹´": 6720,
      "æłı": 6721,
      "çĶŁçļĦ": 6722,
      "å®¶çģ«": 6723,
      "èĲ§": 6724,
      "Ġreb": 6725,
      "èµ°ä¸Ĭåīį": 6726,
      "raw": 6727,
      "als": 6728,
      "alth": 6729,
      "ä¼Ĺèĩ£": 6730,
      "å£°åı«éģĵ": 6731,
      "èĦĵ": 6732,
      "çĶļåĸľ": 6733,
      "æįķ": 6734,
      "æ£µ": 6735,
      "ä»Ĭçķª": 6736,
      "è¥¿æĿ¥": 6737,
      "èĩªåı¤": 6738,
      "cks": 6739,
      "åĲĥäºº": 6740,
      "å¼Ģè·¯": 6741,
      "åıĸäºĨ": 6742,
      "è¯·åĶĲåĥ§": 6743,
      "çģ«å¾·": 6744,
      "é«ĺåı«": 6745,
      "thumber": 6746,
      "éĤ£éĩĮè¯Ŀ": 6747,
      "æĪĳä»¬çļĦ": 6748,
      "æĪĳä»¬æĺ¯": 6749,
      "ç¼º": 6750,
      "âĢĻï¼ŁâĢĿ": 6751,
      "host": 6752,
      "èĢĮèµ°": 6753,
      "asters": 6754,
      "æ²¡äºº": 6755,
      "å®ļè¦ģ": 6756,
      "ä¸»äºº": 6757,
      "å¿µå¿µ": 6758,
      "åħŃçĶ²": 6759,
      "æĸĩä¹¦": 6760,
      "åħĪåİ»": 6761,
      "çłĮ": 6762,
      "è½¬è¿ĩ": 6763,
      "æ¢°": 6764,
      "feit": 6765,
      "å¾Ĵå¼ŁåĳĢ": 6766,
      "éļıèº«": 6767,
      "æĹ¢æľī": 6768,
      "å¿½æĬ¬å¤´": 6769,
      "æĺ¯ä¸ªçĶļä¹Ī": 6770,
      "èĻİçļ®": 6771,
      "é©¾ä¸ĭ": 6772,
      "aked": 6773,
      "pey": 6774,
      "å¥īä¸Ĭ": 6775,
      "ä¼ıèĻİ": 6776,
      "åħĥç¥ŀ": 6777,
      "Ġalmost": 6778,
      "æįīå¼Ħ": 6779,
      "æ³¼éŃĶ": 6780,
      "åĻ¨æ¢°": 6781,
      "å¢¨": 6782,
      "æķ´è¡£": 6783,
      "èģĴ": 6784,
      "åĩ¡èĥİ": 6785,
      "æŀªåĪĢ": 6786,
      "éĶ¦ç»£": 6787,
      "é¥¶åĳ½": 6788,
      "éĨī": 6789,
      "æ±Łå±±": 6790,
      "ully": 6791,
      "Ġscar": 6792,
      "åıĺåģļä¸Ģä¸ª": 6793,
      "èħ¾èħ¾": 6794,
      "çĪ·çĪ·åĳĢ": 6795,
      "åįģåĪĨæ¬¢åĸľ": 6796,
      "ç¯·": 6797,
      "é¦ĢéĩĮ": 6798,
      "ä¸ĳéĻĭ": 6799,
      "èº²è¿ĩ": 6800,
      "åĲ¯å¥ıéģĵ": 6801,
      "ç®Ĺè®¡": 6802,
      "è¢ĸä¸Ń": 6803,
      "Ġsmall": 6804,
      "Ġpresently": 6805,
      "ç½ĹåĪ¹å¥³": 6806,
      "éĢĶä¸Ń": 6807,
      "åĪºåı²": 6808,
      "çĩ¥": 6809,
      "Ġfaults": 6810,
      "Ġdepart": 6811,
      "Ġsecret": 6812,
      "Ġsubjects": 6813,
      "Ġdefend": 6814,
      "è½»è½»çļĦ": 6815,
      "æĿ¨æŁ³": 6816,
      "åģ¥å°Ĩ": 6817,
      "Ġpossess": 6818,
      "å¤ªä¸ĬèĢģåĲĽ": 6819,
      "atharina": 6820,
      "thumberland": 6821,
      "Con": 6822,
      "DI": 6823,
      "GI": 6824,
      "IEL": 6825,
      "Pl": 6826,
      "VIR": 6827,
      "Whi": 6828,
      "aul": 6829,
      "hind": 6830,
      "ying": 6831,
      "īçĴĥ": 6832,
      "ãĢĤâĢľ": 6833,
      "Ġtear": 6834,
      "äº¬": 6835,
      "äºļ": 6836,
      "Ġwert": 6837,
      "ä¹ĵ": 6838,
      "rey": 6839,
      "ä¸Ģèº«": 6840,
      "ä¸Ģå¼ł": 6841,
      "ä¸Ģå®µ": 6842,
      "Ġben": 6843,
      "Ġbase": 6844,
      "Ġbirth": 6845,
      "åį¯": 6846,
      "éĤ£åĶĲåĥ§": 6847,
      "æĪĳå¥½": 6848,
      "æĪĳä½Ľ": 6849,
      "Ġfill": 6850,
      "Ġfond": 6851,
      "æĿ¥ç²Ĺç»Ĩ": 6852,
      "æĢģ": 6853,
      "è§ħ": 6854,
      "Ġlab": 6855,
      "arl": 6856,
      "Ġpain": 6857,
      "å¤§åľ°": 6858,
      "å¤§åĵŃ": 6859,
      "ä¼´": 6860,
      "çľ·": 6861,
      "ä¸ĬåĨĻ": 6862,
      "inger": 6863,
      "è§ģé©¾": 6864,
      "èĢģå®ŀ": 6865,
      "Ġbec": 6866,
      "ä¹ĭçĲĨ": 6867,
      "ä¹ĭéĻħ": 6868,
      "çĿĢåĶĲåĥ§": 6869,
      "åıĪåĲ¬å¾Ĺ": 6870,
      "å¹¡": 6871,
      "æŃ¤æĺ¯": 6872,
      "æŀ£": 6873,
      "å°Ĩåĩºåİ»": 6874,
      "å¥½ä¸ª": 6875,
      "çĪ¶äº²": 6876,
      "Ġform": 6877,
      "æĹłä¸į": 6878,
      "æĹłè¸ª": 6879,
      "ç¬ĭ": 6880,
      "æĥľ": 6881,
      "åľ£æĹ¨": 6882,
      "æĬĬè¡ĮèĢħ": 6883,
      "Ġeas": 6884,
      "è¾ĺ": 6885,
      "èº«è¾¹": 6886,
      "ä¾ĭ": 6887,
      "Ġstru": 6888,
      "éķ¿æŀª": 6889,
      "æīĭæĮģ": 6890,
      "æŃ£èĩª": 6891,
      "éĽģ": 6892,
      "åĮº": 6893,
      "Ġliving": 6894,
      "éĥ½éģĵ": 6895,
      "éĥ½è¦ģ": 6896,
      "ä¼Ĺä»Ļ": 6897,
      "æ°´éĿ¢": 6898,
      "æ°´æĻ¶": 6899,
      "çĶļæĺ¯": 6900,
      "æį±": 6901,
      "æį¶": 6902,
      "è¥¿è¡Į": 6903,
      "ç»ıè¿ĩ": 6904,
      "çĽ¸éĢ¢": 6905,
      "æĭ¿åİ»": 6906,
      "çĦ¶ä¸į": 6907,
      "èĤ²": 6908,
      "ä½Ľè¡£": 6909,
      "å½ĵé©¾": 6910,
      "æ»Ķ": 6911,
      "è¯·èı©èĲ¨": 6912,
      "çģ«çĥ§": 6913,
      "äºĶåºĦ": 6914,
      "é«ĺåĥ§": 6915,
      "é¥°": 6916,
      "rue": 6917,
      "though": 6918,
      "æĶ¾ä»ĸ": 6919,
      "å¤ªçĽĳ": 6920,
      "å²Ľ": 6921,
      "åĩłåı¥": 6922,
      "ç¼ķ": 6923,
      "ä¸ľåįĹ": 6924,
      "ä¸ľæ´ĭ": 6925,
      "æ·¹": 6926,
      "åĮĸä½ľ": 6927,
      "æ²¡äºĨ": 6928,
      "æ¶¦": 6929,
      "Ġgoodly": 6930,
      "æķĳä½ł": 6931,
      "è¯Ŀè¡¨": 6932,
      "Ġwhence": 6933,
      "ĠGREY": 6934,
      "éĢģä»ĸ": 6935,
      "æ®¿åīį": 6936,
      "çĲīçĴĥ": 6937,
      "ä¹Ŀé½¿": 6938,
      "åıĳæĢĴ": 6939,
      "å¾Ĵå¼Łä»¬": 6940,
      "Ġusurp": 6941,
      "æĥħæĦ¿": 6942,
      "é¼ł": 6943,
      "åİŁæĿ¥æĺ¯ä¸ª": 6944,
      "çĹĴ": 6945,
      "cience": 6946,
      "ä¾ĿæĹ§": 6947,
      "çİ°åľ¨": 6948,
      "é¬¼çİĭ": 6949,
      "ä¼¤äºº": 6950,
      "æģĲæĢķ": 6951,
      "æ¯ĽèĦ¸": 6952,
      "çķĻä¸ĭ": 6953,
      "Ġtrump": 6954,
      "çļĩå®«": 6955,
      "Ġhearing": 6956,
      "æ¥¼ä¸ĭ": 6957,
      "æĴŀè§ģ": 6958,
      "åĵįäº®": 6959,
      "èĮ¶é¥Ń": 6960,
      "åģ·äºĨ": 6961,
      "Ġslaughter": 6962,
      "æĳĨåĪĹ": 6963,
      "çĥŁçģ«": 6964,
      "Ġperform": 6965,
      "Ġwrit": 6966,
      "æĢİçĶŁæĺ¯å¥½": 6967,
      "perate": 6968,
      "çĸ¼çĹĽ": 6969,
      "åĹĸ": 6970,
      "ledge": 6971,
      "æ¬ºå¿ĥ": 6972,
      "ç»£çĲĥ": 6973,
      "èĨĬ": 6974,
      "æīĺå¡Ķ": 6975,
      "Stay": 6976,
      "Stand": 6977,
      "è¯¯äºĨ": 6978,
      "Ġchance": 6979,
      "æ»´æ³ªéģĵ": 6980,
      "åĪĺæ´ª": 6981,
      "PERDI": 6982,
      "æ¹¾": 6983,
      "æ¹ĸ": 6984,
      "åĲĪæİĮéģĵ": 6985,
      "å¼¥éĻĢ": 6986,
      "é¡»èĩ¾éĹ´": 6987,
      "Ġvirtuous": 6988,
      "å°Ĩèº«ä¸Ģçºµ": 6989,
      "Ġquickly": 6990,
      "åĶ¿åĸĩ": 6991,
      "ç¬¬ä¹Ŀåįģ": 6992,
      "MONTAGUE": 6993,
      "Ġdamn": 6994,
      "å©´åĦ¿": 6995,
      "äºĶæĸ¹æıŃè°Ľ": 6996,
      "äºĮåįģåħ«å®¿": 6997,
      "ural": 6998,
      "ohemia": 6999,
      "GILIA": 7000,
      "VIRGILIA": 7001,
      "äºĶåºĦè§Ĥ": 7002,
      "PERDITA": 7003,
      "Ab": 7004,
      "Doth": 7005,
      "Peace": 7006,
      "SET": 7007,
      "SLY": 7008,
      "ding": 7009,
      "eem": 7010,
      "gg": 7011,
      "iest": 7012,
      "over": 7013,
      "oss": 7014,
      "ror": 7015,
      "your": 7016,
      "ze": 7017,
      "èĺ": 7018,
      "Ġut": 7019,
      "Ġå¿ĥçĮ¿": 7020,
      "Ġtor": 7021,
      "Ġay": 7022,
      "ä»ĭ": 7023,
      "éģĵçļĦ": 7024,
      "æĪĪ": 7025,
      "ï¼ļâĢľâĢĺ": 7026,
      "Ġmatch": 7027,
      "Ġmild": 7028,
      "Ġwild": 7029,
      "read": 7030,
      "ä¸Ģéļ¾": 7031,
      "åĲı": 7032,
      "éĤ£æĿ¡": 7033,
      "éĤ£è´¼": 7034,
      "éĤ£åİ¢": 7035,
      "isure": 7036,
      "å®¡": 7037,
      "æĪĳè¿ĺ": 7038,
      "æĪĳåĽł": 7039,
      "æĺ¯ä¸Ģä¸ª": 7040,
      "è¡°": 7041,
      "Ġfier": 7042,
      "æĿ¥çľĭ": 7043,
      "æĿ¥æīĵ": 7044,
      "ony": 7045,
      "è¡Įæ»¡": 7046,
      "ä½łçŃī": 7047,
      "Ġca": 7048,
      "Ġcertain": 7049,
      "arn": 7050,
      "Ġpu": 7051,
      "Ġpit": 7052,
      "è¡ĮèĢħä¸Ĭåīį": 7053,
      "ä¸Ĭå±±": 7054,
      "å¾Ĺä¸Ģ": 7055,
      "å¾Ĺç´§": 7056,
      "äººäºĭ": 7057,
      "åİ»çļĦ": 7058,
      "ingly": 7059,
      "åľ¨å®¶": 7060,
      "åľ¨åįĬç©º": 7061,
      "ä¸īå®«": 7062,
      "æĭĦ": 7063,
      "åŃĲéĩĮ": 7064,
      "sem": 7065,
      "Ġinj": 7066,
      "Ġins": 7067,
      "Ġinno": 7068,
      "ä¹ĭåīį": 7069,
      "çĿĢéĵģæ£Ĵ": 7070,
      "åıĪä¸Ģ": 7071,
      "åĵĹ": 7072,
      "eds": 7073,
      "edant": 7074,
      "èĩŃ": 7075,
      "ç¥Ī": 7076,
      "çľĭå¾Ĺ": 7077,
      "åĦ¿æĿ¥": 7078,
      "å°ĨåĩºæĿ¥": 7079,
      "å¥½æ±ī": 7080,
      "Ġur": 7081,
      "æĹ¶åĢĻ": 7082,
      "æĥ¯": 7083,
      "æĬĬå¸ĪçĪ¶": 7084,
      "éĿ´": 7085,
      "å°ıéĴ»é£İ": 7086,
      "æİ¬": 7087,
      "éļľ": 7088,
      "éĩĳèĿī": 7089,
      "æŃ£èµ°": 7090,
      "èĬ½": 7091,
      "æ±Ĺ": 7092,
      "èĪħ": 7093,
      "é£İåĲ¹": 7094,
      "ä»ĬæĹ©": 7095,
      "èĩªä»İ": 7096,
      "åĲĥåĵ©": 7097,
      "Ġshad": 7098,
      "æ®Ĭ": 7099,
      "Think": 7100,
      "ä¸Ķåİ»": 7101,
      "éļ¾ç¦ģ": 7102,
      "ä¾¿ä¼¼": 7103,
      "å¤ªå°ī": 7104,
      "èİ«æĢª": 7105,
      "å¥³èı©èĲ¨": 7106,
      "åĸľåĸľæ¬¢": 7107,
      "ä¸ĩéģĵ": 7108,
      "å¾ĢéĤ£éĩĮ": 7109,
      "èĢĮåĽŀ": 7110,
      "Ġknee": 7111,
      "Ġkneel": 7112,
      "astard": 7113,
      "åĿĲäºĨ": 7114,
      "åĮĸä¸º": 7115,
      "æ²¡äºĭ": 7116,
      "çİīåħĶ": 7117,
      "æĪĲäºĨ": 7118,
      "æŃ»çļĦ": 7119,
      "æı£": 7120,
      "ustom": 7121,
      "æĢ¥å¿Ļ": 7122,
      "å®ļæĺ¯": 7123,
      "å¿µå£°": 7124,
      "æĸĩåŃĹ": 7125,
      "Ġblows": 7126,
      "æ¢µ": 7127,
      "å·²æĺ¯": 7128,
      "å·²æŃ¤": 7129,
      "é¦Ļçģ«": 7130,
      "ä¹ĿæĽľ": 7131,
      "ĠSt": 7132,
      "ĠOxford": 7133,
      "æĿĢäºĨ": 7134,
      "Ġquiet": 7135,
      "è¿ľæĿ¥": 7136,
      "åĻª": 7137,
      "Ġproceed": 7138,
      "ĠPaul": 7139,
      "Ġhadst": 7140,
      "é¬¼ç¥ŀ": 7141,
      "èĥľè´¥": 7142,
      "æŀĹä¸Ń": 7143,
      "Ġoffence": 7144,
      "åľ¨æŃ¤éĹ´": 7145,
      "æ³¼æĢª": 7146,
      "åį·å¸ĺ": 7147,
      "çĮ´çİĭéģĵ": 7148,
      "å§ĵåĲį": 7149,
      "è¯¸ç¥ŀ": 7150,
      "Ġadm": 7151,
      "ç´¢æĪĺ": 7152,
      "èĢįèĢį": 7153,
      "Ġpleas": 7154,
      "è·ªåľ¨": 7155,
      "é²¤": 7156,
      "ç¦ıåľ°": 7157,
      "æ½ĩ": 7158,
      "é£ĺé£ĺ": 7159,
      "ç¯ĩ": 7160,
      "force": 7161,
      "Ġaffection": 7162,
      "å¸ħä¼Ĺ": 7163,
      "Ġslew": 7164,
      "æĪĺåħ¢åħ¢çļĦ": 7165,
      "æľ¯è¯Ń": 7166,
      "IANA": 7167,
      "Ġlawful": 7168,
      "Ġglad": 7169,
      "åĿıäºĨ": 7170,
      "è½®åĽŀ": 7171,
      "bling": 7172,
      "Ġweeping": 7173,
      "æĻ®éĻĢ": 7174,
      "MARIANA": 7175,
      "æ¤ħ": 7176,
      "Ġsoldier": 7177,
      "Ġawhile": 7178,
      "æ¾Ħ": 7179,
      "ç¬¬äºĮä¸ª": 7180,
      "Ġdeserved": 7181,
      "æĽ´æĹ¶åĪĨ": 7182,
      "Ġexecution": 7183,
      "ĠCoriolanus": 7184,
      "Ġguilty": 7185,
      "Ġpretty": 7186,
      "ĠPompey": 7187,
      "çģ«çľ¼éĩĳçĿĽ": 7188,
      "æĭ½å¼ĢæŃ¥": 7189,
      "Ġangry": 7190,
      "æĵĤé¼ĵ": 7191,
      "åĸľåĸľæ¬¢æ¬¢": 7192,
      "23": 7193,
      "Fa": 7194,
      "Mar": 7195,
      "Master": 7196,
      "PAR": 7197,
      "RA": 7198,
      "VINCENTIO": 7199,
      "awn": 7200,
      "dge": 7201,
      "fully": 7202,
      "gue": 7203,
      "ked": 7204,
      "med": 7205,
      "ual": 7206,
      "vol": 7207,
      "zen": 7208,
      "èł": 7209,
      "Ġap": 7210,
      "Ġshi": 7211,
      "Ġsho": 7212,
      "Ġmed": 7213,
      "Ġmod": 7214,
      "Ġwalk": 7215,
      "ä¸įç®¡": 7216,
      "ä¸įåıĬ": 7217,
      "å°Ħ": 7218,
      "ä¸ĢçĶŁ": 7219,
      "ä¸Ģå¤ľ": 7220,
      "ä¸Ģé¡¶": 7221,
      "äºĨäºĽåĦ¿": 7222,
      "éĤ£åħ¬ä¸»": 7223,
      "éĤ£å¨ĺå¨ĺ": 7224,
      "æĪĳåıĪ": 7225,
      "Ġfam": 7226,
      "Ġfled": 7227,
      "è¯Ī": 7228,
      "æĿ¥æĹ¶": 7229,
      "è¡Įç¤¼": 7230,
      "ä½łäºĨ": 7231,
      "eness": 7232,
      "Ġyear": 7233,
      "æľīäºĭ": 7234,
      "æľīéļ¾": 7235,
      "æľīä¸īä¸ª": 7236,
      "Ġob": 7237,
      "Ġocc": 7238,
      "å¤§éģĵ": 7239,
      "è¡ĮèĢħè§ģ": 7240,
      "å¿ł": 7241,
      "è¿Ļè¯Ŀ": 7242,
      "è¿Ļä¸įæĺ¯": 7243,
      "è§ģå¾Ĺ": 7244,
      "ä¸ĭæ°´": 7245,
      "å¤©æ°Ķ": 7246,
      "Ġhap": 7247,
      "æ²¾": 7248,
      "çĿĢä½ł": 7249,
      "åıĪæĺ¯": 7250,
      "è¯´ä»ĸ": 7251,
      "å°±åİ»": 7252,
      "Ġmeasure": 7253,
      "é£Ĵ": 7254,
      "Ġforsw": 7255,
      "å·½": 7256,
      "æĹłéĩı": 7257,
      "èº«ä¸ĭæĭľ": 7258,
      "ç½ķ": 7259,
      "adua": 7260,
      "ä½ķä»¥": 7261,
      "ä½ķå¹²": 7262,
      "æīĭæī§": 7263,
      "éĩĳåľ£": 7264,
      "å®¶åŃĲ": 7265,
      "ç¥ŀå°Ĩ": 7266,
      "Ġreign": 7267,
      "åĢ¦": 7268,
      "æ°´æĿ¥": 7269,
      "èĦı": 7270,
      "ç§½": 7271,
      "äºĳåħī": 7272,
      "è·¯ç¨ĭ": 7273,
      "åĲĥå¾Ĺ": 7274,
      "çĽ¸ä¼ļ": 7275,
      "Ġdoom": 7276,
      "ames": 7277,
      "åĪĨå¼Ģ": 7278,
      "Ġnob": 7279,
      "èĭ¥æľī": 7280,
      "èĭ¥è®º": 7281,
      "èĤ´": 7282,
      "é¾Ļé©¬": 7283,
      "ä½ľç¤¼éģĵ": 7284,
      "ä¸Ķä½ı": 7285,
      "æ´ŀå¤©": 7286,
      "rupt": 7287,
      "æĭľäºĨ": 7288,
      "è¾¹åīį": 7289,
      "å¤ªå¹³": 7290,
      "å¤ĸè¾¹": 7291,
      "Ġourselves": 7292,
      "Ġfavour": 7293,
      "Ġneck": 7294,
      "èĢĮè¡Į": 7295,
      "åĿĲçĿĢ": 7296,
      "èī°": 7297,
      "Ġshows": 7298,
      "èĢģåŃĻçļĦ": 7299,
      "å¯¹å¯¹": 7300,
      "æŃ»æ´»": 7301,
      "åĨįä¸į": 7302,
      "åĲĦæī§": 7303,
      "å¿µä½Ľ": 7304,
      "æĲł": 7305,
      "ended": 7306,
      "è£Ĥ": 7307,
      "æĪĺç»ı": 7308,
      "Ġblow": 7309,
      "Ġgovern": 7310,
      "ç¬¬ä¸ĥåįģ": 7311,
      "ç¬¬åħ«åįģ": 7312,
      "å§»": 7313,
      "æ¢³": 7314,
      "Ġwouldst": 7315,
      "é£ŀç¦½": 7316,
      "æĬ¥ä¸İ": 7317,
      "çģµåĲī": 7318,
      "Ġletters": 7319,
      "Ġunc": 7320,
      "Ġunk": 7321,
      "Ġworst": 7322,
      "é¹Ĭ": 7323,
      "ä¹±æīĵ": 7324,
      "åĸĦæŀľ": 7325,
      "ä¸įæĽ¾è§ģ": 7326,
      "èµ¶æĿ¥": 7327,
      "èµ¶åĪ°": 7328,
      "ç®¡å¾ħ": 7329,
      "æļĹä¸Ń": 7330,
      "å·®äºĨ": 7331,
      "ç«ĭåľ¨": 7332,
      "åĥıä¸ª": 7333,
      "ç´§éĹŃ": 7334,
      "Ġspeaks": 7335,
      "åĳ¼åĶ¤": 7336,
      "ä¸¾éĴ¯": 7337,
      "Ġmarch": 7338,
      "åħ¨çľŁ": 7339,
      "æĬ¤æĮģ": 7340,
      "çł´äºĨ": 7341,
      "ç£¬": 7342,
      "æįīä½ı": 7343,
      "ä¸įä½ıçļĦ": 7344,
      "éĤªéŃĶ": 7345,
      "ç»³åŃĲ": 7346,
      "ç»³ç´¢": 7347,
      "ä¸¢ä¸ĭ": 7348,
      "åļ¼": 7349,
      "ç¦ħå¸Ī": 7350,
      "éĥ½æĺ¯äºĽ": 7351,
      "ighb": 7352,
      "ĠKatharina": 7353,
      "Ġgreater": 7354,
      "åĬ©åĬĽ": 7355,
      "åĤ©": 7356,
      "é¡¿é¦ĸ": 7357,
      "è¾ŀäºĨ": 7358,
      "Ġleisure": 7359,
      "å²Ĥæľī": 7360,
      "osition": 7361,
      "çĶ·å¥³": 7362,
      "åĬĪå¤´": 7363,
      "æĭĶä¸ĭ": 7364,
      "éĺ¿åĤ©": 7365,
      "Ġtreason": 7366,
      "åĢ¼åĬŁæĽ¹": 7367,
      "å¤§æĥĬå¤±èī²": 7368,
      "ä¸įè§īçļĦ": 7369,
      "çĩķ": 7370,
      "ĠEnglish": 7371,
      "åĵªåĲĴå¤ªåŃĲ": 7372,
      "æĮ¡ä½ı": 7373,
      "æł¡å°ī": 7374,
      "Ġbanishment": 7375,
      "ä¸įåĪĨèĥľè´Ł": 7376,
      "Ġsense": 7377,
      "éĽ·åħ¬åĺ´": 7378,
      "remio": 7379,
      "Ġcondemn": 7380,
      "ointed": 7381,
      "éľİæĹ¶": 7382,
      "Ġdishonour": 7383,
      "çĬĢçīĽ": 7384,
      "æŃ£è¯´å¤Ħ": 7385,
      "Ġclouds": 7386,
      "Ġbreathe": 7387,
      "Ġforbid": 7388,
      "Ġliberty": 7389,
      "Ġladies": 7390,
      "Ġtrouble": 7391,
      "æľĭåıĭ": 7392,
      "rumio": 7393,
      "ĠIsabel": 7394,
      "counter": 7395,
      "antagen": 7396,
      "æ°´æĻ¶å®«": 7397,
      "PARIS": 7398,
      "22": 7399,
      ":'": 7400,
      "Int": 7401,
      "Out": 7402,
      "Too": 7403,
      "While": 7404,
      "aves": 7405,
      "acle": 7406,
      "dle": 7407,
      "house": 7408,
      "rim": 7409,
      "rous": 7410,
      "zh": 7411,
      "ĠX": 7412,
      "Ġsort": 7413,
      "éģĵå£°": 7414,
      "éģĵè·¯": 7415,
      "Ġmorrow": 7416,
      "Ġwon": 7417,
      "è¿°": 7418,
      "å°¿": 7419,
      "ä¸Ģå¤´": 7420,
      "ä¸Ģè¾¹": 7421,
      "ä¸Ģæ¯«": 7422,
      "äºĨé©¬": 7423,
      "æĪĳåĵ©": 7424,
      "æĪĳä¸įæĺ¯": 7425,
      "æĪĳæĻĵå¾Ĺ": 7426,
      "çļĦäºĭ": 7427,
      "è¯Ľ": 7428,
      "æĿ¥å¾Ģ": 7429,
      "Ġdry": 7430,
      "Ġcru": 7431,
      "Ġlan": 7432,
      "Ġlist": 7433,
      "Ġlaid": 7434,
      "aring": 7435,
      "Ġobey": 7436,
      "è¡ĮèĢħåį´": 7437,
      "è¡ĮèĢħåį³": 7438,
      "è¿Ļä¸¤ä¸ª": 7439,
      "è¿Ļçķª": 7440,
      "è¿Ļæīįæĺ¯": 7441,
      "Ġheld": 7442,
      "ä¸ĬéĹ¨": 7443,
      "vel": 7444,
      "å¼¦": 7445,
      "äººæĿ¥": 7446,
      "ster": 7447,
      "ä¸īæ¸ħ": 7448,
      "ators": 7449,
      "Ġbehind": 7450,
      "ä¸ĭéĿ¢": 7451,
      "set": 7452,
      "ç»Ĵ": 7453,
      "å¤©ç½Ĺ": 7454,
      "æ²Ĳ": 7455,
      "çĿĢåĺ´": 7456,
      "åıĪæĹł": 7457,
      "åĵı": 7458,
      "åıªéģĵ": 7459,
      "åıªåĲ¬": 7460,
      "çĽ¼": 7461,
      "åī¿": 7462,
      "ä¸İå¸ĪçĪ¶": 7463,
      "æŃ¤ä¹ĥ": 7464,
      "Ġnote": 7465,
      "åĸĤ": 7466,
      "åĸĺ": 7467,
      "åīįèĢħ": 7468,
      "åīįè¾¹": 7469,
      "æīĵåĩº": 7470,
      "å°ıä»Ļ": 7471,
      "èĹıåľ¨": 7472,
      "éĻĨ": 7473,
      "åįģçİĭ": 7474,
      "Ġstor": 7475,
      "è¦ģèµ°": 7476,
      "éĩĳèº«": 7477,
      "æĹ¥ä¹ħ": 7478,
      "ä¿Ĳ": 7479,
      "çĶŁæŃ»": 7480,
      "æŃ£å¥½": 7481,
      "æŃ£å½ĵ": 7482,
      "ä¸¤äºº": 7483,
      "ä¸¤å®¶": 7484,
      "ider": 7485,
      "Ġref": 7486,
      "Ġlived": 7487,
      "éĥ½æľī": 7488,
      "urs": 7489,
      "æĸ¹è¨Ģ": 7490,
      "æĤĶ": 7491,
      "è½©": 7492,
      "ä¼ĹçĶŁ": 7493,
      "Ġaside": 7494,
      "ç§¤": 7495,
      "çĶļå¥½": 7496,
      "çľŁçļĦ": 7497,
      "çľŁäºº": 7498,
      "çľŁä»Ļ": 7499,
      "æ£ĭ": 7500,
      "è·¯è¿ĩ": 7501,
      "ä»ĬæľĿ": 7502,
      "åĲĥéħĴ": 7503,
      "Ġdog": 7504,
      "Ġnoise": 7505,
      "èĤ¥": 7506,
      "é¾ĻåºĬ": 7507,
      "è¯·ä»ĸ": 7508,
      "è¯·èµ·": 7509,
      "Ġseat": 7510,
      "é¢Ħ": 7511,
      "æĶ¾åħī": 7512,
      "å¤ªéĺ³": 7513,
      "å¤ªå²ģ": 7514,
      "èİ«èĥ½": 7515,
      "çĶ¨å¿ĥ": 7516,
      "çĤ®": 7517,
      "åĲĮåİ»": 7518,
      "åħ¬éģĵ": 7519,
      "ä¸ĩåįĥ": 7520,
      "iles": 7521,
      "Ġvain": 7522,
      "åĢĴäºĨ": 7523,
      "æ£ĴæĿ¥": 7524,
      "æ²¡å¤Ħ": 7525,
      "æĢ¥æĬ½èº«": 7526,
      "æĶ¶ä¼ı": 7527,
      "ĠMerc": 7528,
      "å¯»ä»ĸ": 7529,
      "å¿µç»ı": 7530,
      "ä½Ĩä¸įçŁ¥": 7531,
      "æµ·é¾Ļ": 7532,
      "çľ¼ä¸Ń": 7533,
      "ç¬¬äºĶåįģ": 7534,
      "éĢģåĩº": 7535,
      "ä¹Ŀå¤´": 7536,
      "åįĹåĮĹ": 7537,
      "ĠBohemia": 7538,
      "Ġletter": 7539,
      "çĤ¹èµ·": 7540,
      "Ġjoin": 7541,
      "åıĹäºĨ": 7542,
      "å¾ħèĢģåŃĻ": 7543,
      "èĻİçĭ¼": 7544,
      "çª¿": 7545,
      "çªĦ": 7546,
      "ounds": 7547,
      "å¹²äºĭ": 7548,
      "åĬŁæŀľ": 7549,
      "æļĹæļĹ": 7550,
      "èĮħ": 7551,
      "Ġprosper": 7552,
      "ä¿±æĺ¯": 7553,
      "åĸĿå£°": 7554,
      "Ġrough": 7555,
      "èĦ¸ä¸Ĭ": 7556,
      "ç£·": 7557,
      "å¡Į": 7558,
      "æįīäºĨ": 7559,
      "Ġabove": 7560,
      "é»ĳé£İ": 7561,
      "å³¨": 7562,
      "æķ´çĲĨ": 7563,
      "å¦ĤæĿ¥éģĵ": 7564,
      "æĹģè¾¹": 7565,
      "ç¿»æ³¢": 7566,
      "ize": 7567,
      "æĺ¾ç¥ŀéĢļ": 7568,
      "éĻĪå®¶": 7569,
      "åĩ¤ä»Ļ": 7570,
      "æĢİçĶŁæ¨¡æł·": 7571,
      "éĹªè¿ĩ": 7572,
      "èľĤ": 7573,
      "çŀ»": 7574,
      "å²¸ä¸Ĭ": 7575,
      "æ½®": 7576,
      "Ġremain": 7577,
      "æģ¯æĢĴ": 7578,
      "Ġlonger": 7579,
      "Ġwomb": 7580,
      "åŃ¤æĭĲ": 7581,
      "å¤ĩè¨Ģ": 7582,
      "å±ħä½ı": 7583,
      "å¹½åĨ¥": 7584,
      "Ġneeds": 7585,
      "åĩŃä½ł": 7586,
      "ç²īç¢İ": 7587,
      "ç¢ĹæĿ¥ç²Ĺç»Ĩ": 7588,
      "èĩ´ä»¤": 7589,
      "é¦Ĩé©¿": 7590,
      "çĳŀéľŃ": 7591,
      "å°¸é¦ĸ": 7592,
      "æ£®æ£®": 7593,
      "æĭĸçĿĢ": 7594,
      "Ġchoose": 7595,
      "Ġchurch": 7596,
      "æĸĩæŃ¦å¤ļå®ĺ": 7597,
      "ä¸ĭé©¬æĿ¥": 7598,
      "Ġprisoner": 7599,
      "Ġsecond": 7600,
      "å»¶å¯¿": 7601,
      "Ġtemp": 7602,
      "å¿ĥä¸ŃæļĹæĥ³éģĵ": 7603,
      "åŃ½çķľ": 7604,
      "Ġgolden": 7605,
      "undred": 7606,
      "éħ¬è°¢": 7607,
      "Ġdispatch": 7608,
      "çªŁçª¿": 7609,
      "Ġpiece": 7610,
      "èªĵ": 7611,
      "ä¿¯ä¼ı": 7612,
      "è¥ķ": 7613,
      "ä¼¶ä¿Ĳ": 7614,
      "å¿µä¸ªåĴĴè¯Ń": 7615,
      "Ġfresh": 7616,
      "Ġignor": 7617,
      "Ġbecause": 7618,
      "antagenet": 7619,
      "!--": 7620,
      "Am": 7621,
      "De": 7622,
      "DOR": 7623,
      "EW": 7624,
      "En": 7625,
      "Hark": 7626,
      "LAR": 7627,
      "Pr": 7628,
      "Su": 7629,
      "TIUS": 7630,
      "bb": 7631,
      "ban": 7632,
      "cal": 7633,
      "ffect": 7634,
      "him": 7635,
      "iled": 7636,
      "ny": 7637,
      "ts": 7638,
      "under": 7639,
      "ulet": 7640,
      "¥åµ": 7641,
      "ºåĢĻ": 7642,
      "èĥ§": 7643,
      "ĠNow": 7644,
      "Ġtent": 7645,
      "Ġsch": 7646,
      "Ġsus": 7647,
      "Ġsaint": 7648,
      "ä»Ĩ": 7649,
      "Ġmut": 7650,
      "inius": 7651,
      "ä¹Ļ": 7652,
      "ä¸įçĶŁ": 7653,
      "ä¸įå®ī": 7654,
      "ä¸įç»Ŀ": 7655,
      "æľĶ": 7656,
      "ä¸ĢåĿĹ": 7657,
      "Ġbig": 7658,
      "Ġbroke": 7659,
      "Ġbones": 7660,
      "æĿ°": 7661,
      "åį¢": 7662,
      "åį±": 7663,
      "éĤ£ä¸īèĹı": 7664,
      "éĤ£ä¼Ļ": 7665,
      "æĪĳä»Ĭ": 7666,
      "æĪĳä¸įæĽ¾": 7667,
      "æĪĳæĺ¯ä¸ª": 7668,
      "æĺ¯ä¹Ł": 7669,
      "æĺ¯ä»¥": 7670,
      "æĺ¯å¿ħ": 7671,
      "Ġfat": 7672,
      "Ġfine": 7673,
      "Ġfive": 7674,
      "erle": 7675,
      "itors": 7676,
      "åŃ£": 7677,
      "ä½łéĤ£éĩĮ": 7678,
      "Ġdrown": 7679,
      "Ġcitizens": 7680,
      "Ġlen": 7681,
      "Ġlow": 7682,
      "Ġlust": 7683,
      "Ġlau": 7684,
      "Ġthreat": 7685,
      "æľīå¤ļ": 7686,
      "æľīåįĥ": 7687,
      "æľīä¸īåįģ": 7688,
      "Ġhundred": 7689,
      "Ġobed": 7690,
      "Ġpet": 7691,
      "å¤§ç¬ĳéģĵ": 7692,
      "ä¼ºåĢĻ": 7693,
      "è¡ĮèĢħæīį": 7694,
      "çİ²": 7695,
      "è¿ĻçĮ´åŃĲ": 7696,
      "çĶ³": 7697,
      "å¾ĹåĪ°": 7698,
      "vey": 7699,
      "ang": 7700,
      "Ġoft": 7701,
      "ä¸īå±Ĥ": 7702,
      "èĢģæ¯į": 7703,
      "èĢģæĸ½ä¸»": 7704,
      "Ġbend": 7705,
      "Ġbell": 7706,
      "ç»ĩ": 7707,
      "å¤©æ¶¯": 7708,
      "Ġind": 7709,
      "ceit": 7710,
      "ä¹ĭæĥħ": 7711,
      "lease": 7712,
      "çĿĢåħ«æĪĴ": 7713,
      "çĿĢå¸ĪçĪ¶": 7714,
      "åĵĿ": 7715,
      "åıªçŃī": 7716,
      "å¯Ħ": 7717,
      "åħ«åį¦": 7718,
      "ety": 7719,
      "å°±è¡Į": 7720,
      "æŃ¤äºĭ": 7721,
      "åį´ä¸įçŁ¥": 7722,
      "åį´è¢«": 7723,
      "å¥½çļĦ": 7724,
      "å¥½åĴĮå°ļ": 7725,
      "åīįè¡Į": 7726,
      "åº·": 7727,
      "åºĵ": 7728,
      "åºļ": 7729,
      "æĮŁ": 7730,
      "æĬĬå¤´": 7731,
      "Ġeffect": 7732,
      "èº«èº¯": 7733,
      "å°ıå¼Ł": 7734,
      "ç½¡": 7735,
      "çĮİ": 7736,
      "å¿ĥèĤĿ": 7737,
      "Ġyourselves": 7738,
      "åĽŀåĲĪ": 7739,
      "æģ³": 7740,
      "Ġstood": 7741,
      "Ġstain": 7742,
      "Ġsteel": 7743,
      "Ġsteal": 7744,
      "æİ§": 7745,
      "éķ¿çļĦ": 7746,
      "éķ¿å®ĺ": 7747,
      "éļį": 7748,
      "éĽĮ": 7749,
      "ords": 7750,
      "asion": 7751,
      "ç¥ŀæ´²": 7752,
      "Ġrevere": 7753,
      "èµ°èµ°": 7754,
      "èµ°è¿ĩ": 7755,
      "èµ°åħ½": 7756,
      "è¿ĺéŃĤ": 7757,
      "æĸ¹å¾Ĺ": 7758,
      "æĤ¯": 7759,
      "Ġsole": 7760,
      "æ°´åºľ": 7761,
      "åĽĽéĿ¢": 7762,
      "åĽĽçĻ¾": 7763,
      "åĽĽä½į": 7764,
      "æįİ": 7765,
      "ARIEL": 7766,
      "ç²¾çģµ": 7767,
      "éĵ²": 7768,
      "è¥¿åŁŁ": 7769,
      "é¦¥": 7770,
      "çĽ¸åĬ©": 7771,
      "ease": 7772,
      "ä½Ľåĥı": 7773,
      "å½ĵå¤´": 7774,
      "å½ĵæĹ¥": 7775,
      "æ»ŀ": 7776,
      "æīįå¥½": 7777,
      "äºĶä¸ª": 7778,
      "é«ĺå³°": 7779,
      "æ²Ļåĥ§ç¬ĳéģĵ": 7780,
      "éĶĢ": 7781,
      "æĭľæ¯ķ": 7782,
      "åĩłçķª": 7783,
      "ä¸ľèĥľ": 7784,
      "Ġknees": 7785,
      "ular": 7786,
      "çİīåįİ": 7787,
      "éħ±": 7788,
      "æıĿ": 7789,
      "åĲĦèĩª": 7790,
      "icious": 7791,
      "Ġconqu": 7792,
      "ieu": 7793,
      "Ġblessed": 7794,
      "æĮĩå®ļ": 7795,
      "ĠGaunt": 7796,
      "ĠGremio": 7797,
      "Ġshed": 7798,
      "æĸĹçīĽ": 7799,
      "åŁİéļį": 7800,
      "ĠLet": 7801,
      "ĠLEW": 7802,
      "å¿«å¿«": 7803,
      "æ»¡åłĤ": 7804,
      "éĻįäºĨ": 7805,
      "éĻįéŃĶ": 7806,
      "åıĳçĭł": 7807,
      "Ġswift": 7808,
      "äºİæŃ¤": 7809,
      "ï¼īãĢĤ": 7810,
      "ï¼īãĢģ": 7811,
      "é»ĦéĹ¨": 7812,
      "å¸Ŀçİĭ": 7813,
      "ĠHortensio": 7814,
      "ä¸įå¾ĹæĪĳ": 7815,
      "å¨ĺåŃĲ": 7816,
      "è¿İé£İ": 7817,
      "çħĮ": 7818,
      "Ġgrand": 7819,
      "å¯ºåĥ§": 7820,
      "èĮĤ": 7821,
      "Ġproclaim": 7822,
      "ĠPr": 7823,
      "ĠPadua": 7824,
      "Ġsaf": 7825,
      "ume": 7826,
      "åĭĺ": 7827,
      "ç«ĭäºİ": 7828,
      "å¿Ļå¿Ļ": 7829,
      "ĠWatch": 7830,
      "ä¼¤äºĨ": 7831,
      "istress": 7832,
      "éĩįéĩį": 7833,
      "ç´§ç´§": 7834,
      "å´©": 7835,
      "åĳ¼éģĵ": 7836,
      "æĬ¤æķĻ": 7837,
      "æĬ¤æ³ķ": 7838,
      "å³¥åµ": 7839,
      "Ġexc": 7840,
      "éĤ£èĢģåĦ¿": 7841,
      "å½©äºĳ": 7842,
      "Ġdesperate": 7843,
      "éĴ»åħ¥": 7844,
      "Ġslander": 7845,
      "éĶ¦è¡£": 7846,
      "å´ĸåīį": 7847,
      "ç¾¤çĮ´": 7848,
      "è¶³ä¸ĭ": 7849,
      "Ġprecious": 7850,
      "Ġbears": 7851,
      "Ġappare": 7852,
      "æĺıåĲĽ": 7853,
      "åĽ´ç»ķ": 7854,
      "èĤļåŃĲ": 7855,
      "Ġconscience": 7856,
      "Ġentertain": 7857,
      "ä»Ķç»Ĩè§Ĥçľĭ": 7858,
      "ontent": 7859,
      "çĭ¼èĻ«": 7860,
      "Ġpride": 7861,
      "çĶ·åŃĲ": 7862,
      "åĬĪèĦ¸": 7863,
      "Sirrah": 7864,
      "æĲŃåĮħ": 7865,
      "éĻįå¦ĸæĿĸ": 7866,
      "çĹĽåĵŃ": 7867,
      "ä¼¸æīĭ": 7868,
      "å¤Łå¤ļæĹ¶": 7869,
      "éľŀåħī": 7870,
      "æĬ¬å¤´è§Ĥçľĭ": 7871,
      "uthor": 7872,
      "çķľçĶŁ": 7873,
      "æµĳèº«": 7874,
      "Ġglory": 7875,
      "Ġdouble": 7876,
      "atesby": 7877,
      "åĪĺåħ¨": 7878,
      "Ġwoes": 7879,
      "å¯Ĩå¯Ĩ": 7880,
      "posed": 7881,
      "Ġlands": 7882,
      "éķĩåħĥ": 7883,
      "ç»ĳåľ¨": 7884,
      "åī¥çļ®": 7885,
      "åľ¨æĹģè¾¹": 7886,
      "çĳ¶èįī": 7887,
      "çĳ¶æ±ł": 7888,
      "Ġsentence": 7889,
      "å¼ĢäºĨéĹ¨": 7890,
      "ĠNorthumberland": 7891,
      "å·įå·į": 7892,
      "Ġdrunk": 7893,
      "åĸ§åĵĹ": 7894,
      "åĢĺæĪĸ": 7895,
      "Ġtowards": 7896,
      "è¾ĵèµ¢": 7897,
      "åħ«çĻ¾éĩĮ": 7898,
      "ç¥¸äºĭäºĨ": 7899,
      "ä½łéģĵä»ĸ": 7900,
      "æĢ¥çºµèº«": 7901,
      "ĠCapulet": 7902,
      "æĤĦæĤĦçļĦ": 7903,
      "Unto": 7904,
      "Ġforgot": 7905,
      "Ġwisdom": 7906,
      "Ġvenge": 7907,
      "å«Ķå¦ĥ": 7908,
      "éŃĤé£ŀéŃĦæķ£": 7909,
      "Sweet": 7910,
      "Ġvictory": 7911,
      "Ġkinsman": 7912,
      "æľ¦èĥ§": 7913,
      "æ¯Ĥè¾ĺ": 7914,
      "ĠXI": 7915,
      "LARTIUS": 7916,
      "ĠLEWIS": 7917,
      "ĠWatchman": 7918,
      "å³¥åµĺ": 7919,
      ";'": 7920,
      "Bel": 7921,
      "Could": 7922,
      "Hear": 7923,
      "MP": 7924,
      "Me": 7925,
      "Pardon": 7926,
      "Pedant": 7927,
      "RTIS": 7928,
      "bray": 7929,
      "den": 7930,
      "gment": 7931,
      "hn": 7932,
      "iance": 7933,
      "ohn": 7934,
      "pir": 7935,
      "ude": 7936,
      "vail": 7937,
      "which": 7938,
      "ï¼ĮâĢľ": 7939,
      "head": 7940,
      "Ġauthor": 7941,
      "Ġsour": 7942,
      "Ġmount": 7943,
      "Ġmethinks": 7944,
      "Ġmoney": 7945,
      "Ġmasters": 7946,
      "èĢĥ": 7947,
      "rent": 7948,
      "rence": 7949,
      "æĺĶ": 7950,
      "ä¸įåĪ°": 7951,
      "ä¸įçĽ¸": 7952,
      "ä¸įä¸ĢæĹ¶": 7953,
      "ä¸įç¨³": 7954,
      "ä¸įç¾ŀ": 7955,
      "æľŃ": 7956,
      "ä¸ĢäºĮ": 7957,
      "ä¸ĢæŃ¥": 7958,
      "ä¸Ģåį·": 7959,
      "éĤ£å£ģåİ¢": 7960,
      "å®Ļ": 7961,
      "Ġfe": 7962,
      "Ġfru": 7963,
      "Ġfought": 7964,
      "Ġfew": 7965,
      "è¯¦": 7966,
      "è¯ı": 7967,
      "æĿ¥å¾Ĺ": 7968,
      "æĿ¥æĬ¥": 7969,
      "æĿ¥åİĨ": 7970,
      "è¡Įç»ı": 7971,
      "ä½łèĢģ": 7972,
      "ä½łä»Ĭ": 7973,
      "ä½łåĵ©": 7974,
      "Ġdied": 7975,
      "Ġdeter": 7976,
      "Ġcapt": 7977,
      "æľīäºĮ": 7978,
      "æľīäºĮåįģ": 7979,
      "æľīè®¸å¤ļ": 7980,
      "å¸ļ": 7981,
      "Ġpun": 7982,
      "å¥ĸ": 7983,
      "è¿Ļå±±": 7984,
      "è¿ĻæĢª": 7985,
      "è¿Ļéķ¿èĢģ": 7986,
      "æĬŁ": 7987,
      "å¾Ĺä¸Ģä¸ª": 7988,
      "owbray": 7989,
      "åľ¨åįĬç©ºä¸Ń": 7990,
      "ä¸īçķĮ": 7991,
      "è§ģçİīå¸Ŀ": 7992,
      "èĢģçİĭ": 7993,
      "èĢģæĢªéģĵ": 7994,
      "èĢģå®ĺåĦ¿": 7995,
      "ä¸ĭçļĦ": 7996,
      "ä¸ĭå±±": 7997,
      "ä¹Łè¦ģ": 7998,
      "ä¹Łä½ľ": 7999,
      "ç»«": 8000,
      "å±ł": 8001,
      "Ġhair": 8002,
      "çĿĢä¸¤ä¸ª": 8003,
      "çĿĢèĦļ": 8004,
      "è¯´æ³ķ": 8005,
      "åĩºå¾Ĺ": 8006,
      "åħ«ä¹Ŀ": 8007,
      "irl": 8008,
      "ä¸İå¤§åľ£": 8009,
      "åĶµ": 8010,
      "å¤´åĦ¿": 8011,
      "ç¥ł": 8012,
      "çģ¿": 8013,
      "å°ĨæĻļ": 8014,
      "å·ħ": 8015,
      "è´£": 8016,
      "åºı": 8017,
      "åħ«æĪĴéĹ»è¨Ģ": 8018,
      "æĹłå¤Ħ": 8019,
      "æĹłå½±": 8020,
      "æĹ¶çļĦ": 8021,
      "Ġeld": 8022,
      "ä¾®": 8023,
      "å¿ĥä¸Ĭ": 8024,
      "éĻµ": 8025,
      "åĽŀçĶŁ": 8026,
      "åĶĲéķ¿èĢģ": 8027,
      "æģĭ": 8028,
      "Ġstud": 8029,
      "éķ¿èĢħ": 8030,
      "çŁ¥ä»ĸ": 8031,
      "ä¸¤åı£": 8032,
      "å®¶çļĦ": 8033,
      "ç¥ŀå¨ģ": 8034,
      "èµ°åĪ°": 8035,
      "ç«Ń": 8036,
      "éĥ½åİ»": 8037,
      "æ°´ä¸Ń": 8038,
      "èĦĤ": 8039,
      "æ¸Ĭ": 8040,
      "åĽĽä¸ĭ": 8041,
      "åľ°ä¸Ĭ": 8042,
      "åľ°ç½ĳ": 8043,
      "åľ°çĭ±": 8044,
      "åĲĥä»ĸ": 8045,
      "estion": 8046,
      "èİ±": 8047,
      "Ġdoing": 8048,
      "æĻĭ": 8049,
      "ä»ĻåŃĲ": 8050,
      "iful": 8051,
      "Ġseal": 8052,
      "å®Ŀæĸ¹": 8053,
      "å®Ŀå¡Ķ": 8054,
      "äºĶèī²": 8055,
      "é¢Ĥ": 8056,
      "èı©æıĲ": 8057,
      "æĺİçıł": 8058,
      "æĶ¾å£°": 8059,
      "åħīç¦Ħ": 8060,
      "å¤ªçĻ½": 8061,
      "å¤ªä¹Ļ": 8062,
      "å¥³ç«¥": 8063,
      "ility": 8064,
      "ĠCa": 8065,
      "æŁ¯": 8066,
      "cted": 8067,
      "å®«å¨¥": 8068,
      "åĢĴèº«ä¸ĭæĭľ": 8069,
      "ETER": 8070,
      "æĹ©æľī": 8071,
      "å¯¹è¡ĮèĢħéģĵ": 8072,
      "éħ¸": 8073,
      "æ¶ī": 8074,
      "æ¡¶": 8075,
      "Ġmanner": 8076,
      "ĠEarl": 8077,
      "å¾ĦæĿ¥": 8078,
      "å¾Ħå¥Ķ": 8079,
      "ĠGo": 8080,
      "ĠGrumio": 8081,
      "æĸĹç»ı": 8082,
      "ç¬¬ä¸īä¸ª": 8083,
      "åŁİéĹ¨": 8084,
      "æļĤ": 8085,
      "å°½æĺ¯": 8086,
      "å·²æ¯ķ": 8087,
      "Ġknowledge": 8088,
      "ä¼łä»¤": 8089,
      "æĬ¥æĢ¨": 8090,
      "åįĹå±±": 8091,
      "éĤ£æĢªéĹ»è¨Ģ": 8092,
      "äºĨä¸Ģä¸ĭ": 8093,
      "æĸĭä¾Ľ": 8094,
      "éļıçĿĢ": 8095,
      "å®ŀæĺ¯": 8096,
      "å°ĳé¡·": 8097,
      "åĸĦè´¢": 8098,
      "èĲ½ä¸ĭ": 8099,
      "å©¢": 8100,
      "åĲĳåĲİ": 8101,
      "çıĳ": 8102,
      "èĻİåĬĽ": 8103,
      "umerle": 8104,
      "Ġenjoy": 8105,
      "æĳĩæĳĩ": 8106,
      "çķĻä»ĸ": 8107,
      "Ġran": 8108,
      "ĠAnt": 8109,
      "Within": 8110,
      "Ġalive": 8111,
      "Ġabro": 8112,
      "åı³æīĭ": 8113,
      "å¾¡èĬ±åĽŃ": 8114,
      "å»·": 8115,
      "å¸Īå¾ĴåĽĽä¼Ĺ": 8116,
      "ways": 8117,
      "çĳĢ": 8118,
      "è¯Ĩå¾Ĺ": 8119,
      "Ġhonours": 8120,
      "Ġwarm": 8121,
      "å¤±è¿İ": 8122,
      "çĥŁéľŀ": 8123,
      "æİ¨åĢĴ": 8124,
      "ations": 8125,
      "æŀ¶ä½ı": 8126,
      "èĤīçľ¼": 8127,
      "æĢİçĶŁæīĵæī®": 8128,
      "Ġdeadly": 8129,
      "Ġkept": 8130,
      "çĭ®é©¼": 8131,
      "Ġcontr": 8132,
      "Ġcontin": 8133,
      "Ġarmy": 8134,
      "çīµçĿĢé©¬": 8135,
      "éĤ£äºĽäºº": 8136,
      "ä½łæĺ¯éĤ£éĩĮæĿ¥çļĦ": 8137,
      "å²Ńä¸Ĭ": 8138,
      "åŃ©åŃĲ": 8139,
      "åĴ¬çĿĢ": 8140,
      "Ġlordship": 8141,
      "Ġguest": 8142,
      "Ġguess": 8143,
      "éĴ¢åĪĢ": 8144,
      "è¡Ĺä¸Ĭ": 8145,
      "éĢĴä¸İè¡ĮèĢħ": 8146,
      "é³ĸ": 8147,
      "é³ľ": 8148,
      "æĽ¿ä½ł": 8149,
      "éĻªç¬ĳéģĵ": 8150,
      "é¡½èĢį": 8151,
      "å·¥å¤«": 8152,
      "CURTIS": 8153,
      "æ¨µå¤«": 8154,
      "éĩĳæĺŁéģĵ": 8155,
      "çĿģçĿĽ": 8156,
      "å®ĩå®Ļ": 8157,
      "èī³èī³": 8158,
      "ä¿ĿæĬ¤åĶĲåĥ§": 8159,
      "èļģ": 8160,
      "Ġpromised": 8161,
      "comes": 8162,
      "åŁĭæĢ¨": 8163,
      "åħľçİĩ": 8164,
      "éŀįè¾Ķ": 8165,
      "åĵĪåĵĪ": 8166,
      "åĪģéĴ»": 8167,
      "æ®·åĭ¤": 8168,
      "eeper": 8169,
      "è¿¦åı¶": 8170,
      "åĺ»åĺ»": 8171,
      "Ġwretched": 8172,
      "Ġdespair": 8173,
      "Ġcheeks": 8174,
      "SAMP": 8175,
      "åħŃä¸ģåħŃçĶ²": 8176,
      "Ġlabour": 8177,
      "Ġstruck": 8178,
      "Faith": 8179,
      "Ġdeterm": 8180,
      "åħīç¦Ħå¯º": 8181,
      "SAMPSON": 8182,
      "'re": 8183,
      ":--": 8184,
      "BU": 8185,
      "Br": 8186,
      "Citizens": 8187,
      "Dis": 8188,
      "EX": 8189,
      "Either": 8190,
      "IGON": 8191,
      "bury": 8192,
      "ey": 8193,
      "good": 8194,
      "mit": 8195,
      "take": 8196,
      "¾æ²³": 8197,
      "Ä«": 8198,
      "Ġéĩĳ": 8199,
      "Ġtry": 8200,
      "Ġteach": 8201,
      "å¤®": 8202,
      "Ġaid": 8203,
      "ounce": 8204,
      "éģģ": 8205,
      "Ġsim": 8206,
      "èĢ½": 8207,
      "reed": 8208,
      "ä¸įèĥľ": 8209,
      "ä¸įå¿į": 8210,
      "åħģ": 8211,
      "æľ«": 8212,
      "ä¸Ģå¤©": 8213,
      "Ġbastard": 8214,
      "æĿł": 8215,
      "åĲ´": 8216,
      "åįĴ": 8217,
      "éĤ£ä¸ī": 8218,
      "éĤ£å¤ªåŃĲ": 8219,
      "éĤ£å¦ĩäºº": 8220,
      "æĪĳéĹ¨": 8221,
      "æĪĳåģļ": 8222,
      "orious": 8223,
      "çļĦä¸Ģä¸ª": 8224,
      "llow": 8225,
      "ited": 8226,
      "æĿ¥æĪĳ": 8227,
      "è¡Įèµ°": 8228,
      "Ġdance": 8229,
      "Ġcorn": 8230,
      "Ġcred": 8231,
      "Ġcried": 8232,
      "åİĦ": 8233,
      "æľīæĹ¶": 8234,
      "æľīè¿ĻèĪ¬": 8235,
      "åĩĳ": 8236,
      "Ġpal": 8237,
      "å¤§åŃĹ": 8238,
      "ä¼Ĳ": 8239,
      "è¡ĮèĢħæĬĬ": 8240,
      "è¡ĮèĢħéªĤéģĵ": 8241,
      "è¿Ļæ¬¡": 8242,
      "Ġhel": 8243,
      "Ġhealth": 8244,
      "å¾ĹçŁ¥": 8245,
      "èµ¡": 8246,
      "èµļ": 8247,
      "stant": 8248,
      "è§ģè¡ĮèĢħ": 8249,
      "è§ģéĿ¢": 8250,
      "èĢģåĴĮå°ļ": 8251,
      "èĢģèĻİ": 8252,
      "èĢģé¼ĭ": 8253,
      "æĭ¢": 8254,
      "æĭ¯": 8255,
      "ç»´": 8256,
      "å¤©äºķ": 8257,
      "ä¹ĭåľ°": 8258,
      "ä¹ĭæķ°": 8259,
      "ä¹ĭè¾Ī": 8260,
      "åĳ¢": 8261,
      "åĳĲ": 8262,
      "åıĪæķĻ": 8263,
      "åıĪæģĲ": 8264,
      "åıªæĥħ": 8265,
      "åīĶ": 8266,
      "åĩºåħ¥": 8267,
      "åħ«åĽŀ": 8268,
      "utio": 8269,
      "å¤´çĸ¼": 8270,
      "å¤´çĽ®": 8271,
      "å°±æŃ¤": 8272,
      "å±±åīį": 8273,
      "çľĭç»ı": 8274,
      "æŀķ": 8275,
      "ä¸ŃåĽ½": 8276,
      "å¥½ä¼¼": 8277,
      "å¥½ä¾¿ä¼¼": 8278,
      "æ³¾æ²³": 8279,
      "è´¨": 8280,
      "éĹ¨ä¸ĭ": 8281,
      "å£³": 8282,
      "ourn": 8283,
      "æĬĬèħ°": 8284,
      "è¾ĸ": 8285,
      "å°ıå¿ĥ": 8286,
      "å°ıæĢª": 8287,
      "å¸ĪçĪ¶è¯´": 8288,
      "å¸ĪçĪ¶æĶ¾å¿ĥ": 8289,
      "å¿ĥéĩĮ": 8290,
      "åįģä¸ª": 8291,
      "æ´ģ": 8292,
      "éĴĵ": 8293,
      "æłĩ": 8294,
      "ä½ķä¸į": 8295,
      "ä½ķå¾Ģ": 8296,
      "éĩĳéĵĻ": 8297,
      "æŃ£è¦ģ": 8298,
      "ä¸¤éĵ¶åŃĲ": 8299,
      "ç«ŀ": 8300,
      "Ġliest": 8301,
      "éĥ½åĪ°": 8302,
      "åĿĩ": 8303,
      "è¿ĺä¸įæĽ¾": 8304,
      "ä¼ĹæĢª": 8305,
      "æ°´çļĦ": 8306,
      "Ġdeg": 8307,
      "Ġdemand": 8308,
      "äºĳæ´ŀ": 8309,
      "åľ°åºľ": 8310,
      "åį³ä»¤": 8311,
      "åį³ä¼łæĹ¨": 8312,
      "å¤ļå¿ĥ": 8313,
      "ç¬ĳåĲŁ": 8314,
      "åĽ½ä¹ĭ": 8315,
      "Ġshake": 8316,
      "çĽ¸éĢģ": 8317,
      "çĽ¸è¿ĳ": 8318,
      "eaven": 8319,
      "ament": 8320,
      "åı£ç§°": 8321,
      "èĭ¥ä¸įæĺ¯": 8322,
      "èĭ¥èĤ¯": 8323,
      "æĻĮ": 8324,
      "èį·": 8325,
      "ç®ĵ": 8326,
      "åıĸèĥľ": 8327,
      "é¾ĻåŃĲ": 8328,
      "Ġsever": 8329,
      "å¹´å¹´": 8330,
      "Ġherself": 8331,
      "æľ¬å¯º": 8332,
      "æĭľä¸º": 8333,
      "ä¾¿éĹ®": 8334,
      "ä¾¿ç½¢äºĨ": 8335,
      "éĤ£éĩĮæľī": 8336,
      "éĤ£éĩĮè¾¹": 8337,
      "Ġspent": 8338,
      "ä¸ĩå¹´": 8339,
      "åįĥå±±": 8340,
      "ç¼¥": 8341,
      "ç¼´": 8342,
      "ä»¥æĿ¥": 8343,
      "æ·«": 8344,
      "æ·¬": 8345,
      "å¦ĸç²¾éģĵ": 8346,
      "åĮĸäºĨ": 8347,
      "çİīéĿ¢": 8348,
      "æķĳäºº": 8349,
      "æķĳåĩº": 8350,
      "èĪ¬èĭ¥": 8351,
      "æ¡ĳ": 8352,
      "ĠMaster": 8353,
      "ĠMowbray": 8354,
      "Ġwhether": 8355,
      "å¯»çĿĢ": 8356,
      "Ġamong": 8357,
      "çĻ½æĹ¥": 8358,
      "é½ĲæĿ¥": 8359,
      "è£³": 8360,
      "Ġshepherd": 8361,
      "æļ®": 8362,
      "othing": 8363,
      "æĥĬæģĲ": 8364,
      "å°½æĥħ": 8365,
      "éĢļæĺİ": 8366,
      "é£ŀèħ¾": 8367,
      "å¿«èµ°": 8368,
      "ppy": 8369,
      "ä»İå¤´": 8370,
      "ï¼īï¼Į": 8371,
      "çŁ³éĹ¨": 8372,
      "æĥħèĬĤ": 8373,
      "Ġunp": 8374,
      "Ġunw": 8375,
      "å¤ľéĹ´": 8376,
      "éļıåį³": 8377,
      "è¿ĳä¾į": 8378,
      "ĠHow": 8379,
      "è·³åľ¨ç©ºä¸Ń": 8380,
      "Ġquoth": 8381,
      "é¡»è¦ģ": 8382,
      "åĲĳåįĹ": 8383,
      "èµ¶æĹ©": 8384,
      "çıª": 8385,
      "å¾ħè¦ģ": 8386,
      "è§ģäºĨéģĵ": 8387,
      "Ġprov": 8388,
      "umb": 8389,
      "Ġplant": 8390,
      "åĸĿä¸Ģå£°": 8391,
      "å·®æĿ¥": 8392,
      "é¢ĨçĿĢ": 8393,
      "é¢Ĩåĳ½": 8394,
      "æĢĿåĩ¡": 8395,
      "ĠWill": 8396,
      "ĠWhy": 8397,
      "osed": 8398,
      "Ġencounter": 8399,
      "Ġrot": 8400,
      "å½ĴæŃ£": 8401,
      "è¸µ": 8402,
      "ä»¤éĥİ": 8403,
      "è®°è½½": 8404,
      "Ġofficer": 8405,
      "å·¦è¾¹": 8406,
      "Ġbrothers": 8407,
      "çĥ§äºĨ": 8408,
      "Ġearly": 8409,
      "éĤ£èĢģå¦ĸ": 8410,
      "çĨı": 8411,
      "ç»³åĦ¿": 8412,
      "Ġhonourable": 8413,
      "æľīäºĽåĦ¿": 8414,
      "Ġflowers": 8415,
      "LEY": 8416,
      "éĶ¦è¥ķ": 8417,
      "å§ĵåŃĻ": 8418,
      "è¯¸ä½Ľ": 8419,
      "Ġcalls": 8420,
      "ç´¢æĢ§": 8421,
      "è¶³è¸ı": 8422,
      "æ³¢ç½Ĺ": 8423,
      "éª¨éĥ½": 8424,
      "ç³ĸ": 8425,
      "æ¶§è¾¹": 8426,
      "Ġwhite": 8427,
      "Ġremed": 8428,
      "åĵĦæĪĳ": 8429,
      "æħ¢æħ¢": 8430,
      "ç´«éĩĳ": 8431,
      "åĨ·ç¬ĳéģĵ": 8432,
      "Ġmoved": 8433,
      "Ġaccount": 8434,
      "ewis": 8435,
      "Ġkindred": 8436,
      "èĵ¬èİ±": 8437,
      "Ġpriest": 8438,
      "éĨĴæĿ¥": 8439,
      "Ġguard": 8440,
      "åĲĬåľ¨": 8441,
      "çĤīä¸Ń": 8442,
      "éĴ¢åıī": 8443,
      "éĺ¿å¼¥éĻĢ": 8444,
      "å¥ĩèĬ±": 8445,
      "Ġcharity": 8446,
      "åĲīåĩ¶": 8447,
      "Ġunderstand": 8448,
      "ç£ķå¤´éģĵ": 8449,
      "Ġfoolish": 8450,
      "åĭĴé©¬": 8451,
      "Ġhumble": 8452,
      "åĸıéģĵ": 8453,
      "Ġcounter": 8454,
      "å¿ĺäºĨ": 8455,
      "åŃĶéĽĢ": 8456,
      "è¶Ĭåıĳ": 8457,
      "ç®Ģå¸ĸ": 8458,
      "æķ²çĿĢ": 8459,
      "å»Ĭä¸ĭ": 8460,
      "Ġdreams": 8461,
      "åķĨè®®": 8462,
      "éĻ©å³»": 8463,
      "Ġgreet": 8464,
      "ANTIGON": 8465,
      "Ġvalour": 8466,
      "çģµéľĦå®Ŀæ®¿": 8467,
      "æ·ĭæ·ĭ": 8468,
      "çģ¼çģ¼": 8469,
      "åįģä¸ĩåħ«": 8470,
      "åįĬä¸ªæĹ¶è¾°": 8471,
      "æĬĸæĵŀç²¾ç¥ŀ": 8472,
      "è¡ĮèĢħæļĹç¬ĳéģĵ": 8473,
      "å·¨çģµ": 8474,
      "Ġjudge": 8475,
      "Ġwretch": 8476,
      "æİĢç¿»": 8477,
      "é¦įé¦į": 8478,
      "ç¼°ç»³": 8479,
      "æ¯ĹèĵĿ": 8480,
      "éķ¿åĺ´å¤§": 8481,
      "æııåĨĻ": 8482,
      "Ġbeggar": 8483,
      "æĹĮæĹĹ": 8484,
      "è§Ĥä¸ĸéŁ³èı©èĲ¨": 8485,
      "Ġsummer": 8486,
      "çĢĽ": 8487,
      "ä¹Ĵä¹ĵ": 8488,
      "æĴŃåľŁ": 8489,
      "æľ±ç´«åĽ½": 8490,
      "Ġtriumph": 8491,
      "èĲ§çĳĢ": 8492,
      "è¢ĸä¸Ńåıĸåĩº": 8493,
      "Ġcruel": 8494,
      "çİ²çıĳ": 8495,
      "BURY": 8496,
      "éĺ¿å¼¥éĻĢä½Ľ": 8497,
      "ANTIGONUS": 8498,
      "Bet": 8499,
      "Fear": 8500,
      "Lo": 8501,
      "Mine": 8502,
      "Made": 8503,
      "TCLIFF": 8504,
      "True": 8505,
      "fall": 8506,
      "mon": 8507,
      "rison": 8508,
      "Ã¨": 8509,
      "Ã¬": 8510,
      "æ©": 8511,
      "éī": 8512,
      "ĠAnd": 8513,
      "ŃèŁ": 8514,
      "heart": 8515,
      "éģĵçĲĨ": 8516,
      "ining": 8517,
      "Ġwail": 8518,
      "ä¸įèµ·": 8519,
      "ä¸ĢçĽĺ": 8520,
      "ä¸Ģçķª": 8521,
      "ä¸ĢæĿŁ": 8522,
      "ä¸ĢæĿ¯": 8523,
      "ä¸ĢæŁĦ": 8524,
      "çļ±": 8525,
      "çļİ": 8526,
      "éĤ£çĮ´åŃĲ": 8527,
      "å®¤": 8528,
      "æĪĳéĹ®ä½ł": 8529,
      "orthy": 8530,
      "çļĦç¥ŀ": 8531,
      "æĺ¯ä¸ľåľŁå¤§åĶĲ": 8532,
      "Ġfart": 8533,
      "Ġfaint": 8534,
      "è¯º": 8535,
      "è¯ĳ": 8536,
      "ites": 8537,
      "ä½łåľ¨": 8538,
      "Ġdin": 8539,
      "Ġdwell": 8540,
      "Ġyea": 8541,
      "Ġthro": 8542,
      "Ġhung": 8543,
      "åĩ³": 8544,
      "Ġpack": 8545,
      "å¤§äºº": 8546,
      "å¤§ç¬ĳ": 8547,
      "å¤§æħĪ": 8548,
      "è¡ĮèĢħå°Ĩ": 8549,
      "è¡ĮèĢħè¿ĳåīį": 8550,
      "è¡ĮèĢħåĸĿéģĵ": 8551,
      "è¿Ļç§į": 8552,
      "è¿Ļæ³¼çĮ´": 8553,
      "ï¼ŁâĢĶâĢĶ": 8554,
      "ä¸Ĭè·¯": 8555,
      "äººåŃĲ": 8556,
      "äººèº«": 8557,
      "èµĥ": 8558,
      "èµĦ": 8559,
      "åľ¨ä½ł": 8560,
      "åľ¨è·¯": 8561,
      "åľ¨èº«ä¸Ĭ": 8562,
      "ä¸īåĲĪ": 8563,
      "Ġga": 8564,
      "Ġgent": 8565,
      "è§ģæľī": 8566,
      "è§ģå¸ĪçĪ¶": 8567,
      "è§ģä¸Ģä¸ª": 8568,
      "è§ģä¸Ģåº§": 8569,
      "èĢģé¾Ļçİĭ": 8570,
      "åŃĲä¸Ĭ": 8571,
      "å¤©åħī": 8572,
      "ä¹ĭä¸Ģ": 8573,
      "ä¹ĭå®Ŀ": 8574,
      "ä¹ĭåĸľ": 8575,
      "æ²Į": 8576,
      "leep": 8577,
      "çĿĢäºĨ": 8578,
      "åıĪå¿µ": 8579,
      "è¯´çļĦ": 8580,
      "çĽ¹": 8581,
      "çĽĲ": 8582,
      "åīĥ": 8583,
      "è··": 8584,
      "å¤´åıĳ": 8585,
      "å°±åľ¨": 8586,
      "å°±äºİ": 8587,
      "å±±å·Ŀ": 8588,
      "çľĭèĮ¶": 8589,
      "çľĭä¸įå°½": 8590,
      "åį´å¦Ĥ": 8591,
      "åį´åıªæĺ¯": 8592,
      "åĸī": 8593,
      "å°Ĩä¸ĭæĿ¥": 8594,
      "å°Ĩèµ·åİ»": 8595,
      "å½¹": 8596,
      "å¥½çĮ´çİĭ": 8597,
      "å¦ĤéĽ·": 8598,
      "åīįå¹´": 8599,
      "Ġforce": 8600,
      "å·³": 8601,
      "æĹłæĸ¹": 8602,
      "æĹłè®¡": 8603,
      "çī²": 8604,
      "æĮ¥": 8605,
      "Ġweary": 8606,
      "è¾£": 8607,
      "æīĵçļĦ": 8608,
      "å°ıå¾Ĵ": 8609,
      "å°ıçĮ´": 8610,
      "èĹıäºĨ": 8611,
      "èĭĶ": 8612,
      "å¿ĥçĦ¦": 8613,
      "åįģåħŃ": 8614,
      "åĽŀå®¶": 8615,
      "åĽŀèĩ³": 8616,
      "åĽŀè¯Ŀ": 8617,
      "åı«åĶ¤": 8618,
      "Ġstone": 8619,
      "Ġstars": 8620,
      "æłĸ": 8621,
      "æµ¸": 8622,
      "è¦ģåİ»": 8623,
      "ä¿ı": 8624,
      "äºĮæĢª": 8625,
      "ask": 8626,
      "éŃħ": 8627,
      "èĬĴ": 8628,
      "è¿ĺä½ł": 8629,
      "æĸ¹æ³ķ": 8630,
      "æĤ£": 8631,
      "è½°": 8632,
      "ä¼Ĺå°ıå¦ĸ": 8633,
      "æ¸İ": 8634,
      "åľ°ä¸ĭ": 8635,
      "çº§": 8636,
      "çľŁå®ŀ": 8637,
      "roy": 8638,
      "åį³åıĺåģļ": 8639,
      "åģļçĶļä¹Ī": 8640,
      "è¥¿æ¢ģ": 8641,
      "åĲĥçļĦ": 8642,
      "åĲĥäºĽ": 8643,
      "åĲĥäºĨä¸Ģ": 8644,
      "çĽ¸éļı": 8645,
      "åĪĨæ¯«": 8646,
      "èį«": 8647,
      "èĤĥ": 8648,
      "æŀľæľī": 8649,
      "Ġbutcher": 8650,
      "ä½Ľæ³ķ": 8651,
      "ä½ľæĢª": 8652,
      "ify": 8653,
      "çģ«æĿ¥": 8654,
      "Ġseven": 8655,
      "å®Ŀéĺģ": 8656,
      "æīįå¾Ĺ": 8657,
      "é«ĺä¸ĭ": 8658,
      "é«ĺåĿĲ": 8659,
      "è¿ĽäºĨ": 8660,
      "è¿ĽéĹ¨": 8661,
      "æľ¬å¤Ħ": 8662,
      "æĺİä»£": 8663,
      "æĶ¾çģ«": 8664,
      "Ġanon": 8665,
      "å¤ªéĺ´": 8666,
      "èİ«åĵŃ": 8667,
      "æĪĳä»¬ä¹Ł": 8668,
      "Ġours": 8669,
      "æķ¢æĿ¥": 8670,
      "åĩłä½ķ": 8671,
      "åįĥèĪ¬": 8672,
      "éª¸": 8673,
      "å¾ĢéĩĮ": 8674,
      "å¾Ģè¥¿": 8675,
      "ĠCom": 8676,
      "Ġneighb": 8677,
      "èĢĮéĢĢ": 8678,
      "çĮ´ç²¾": 8679,
      "ĠRoman": 8680,
      "Ġvie": 8681,
      "èħĲ": 8682,
      "èħĶ": 8683,
      "å®«æ®¿": 8684,
      "æ²¡çĶļ": 8685,
      "æĹ©éĹ´": 8686,
      "å¯¹åĶĲåĥ§": 8687,
      "æ¶Ĥ": 8688,
      "è§ĤéĩĮ": 8689,
      "æķĳæĪĳä¸Ģ": 8690,
      "èĪ¬åħµåĻ¨": 8691,
      "åĨįæĭľ": 8692,
      "åĨįä¸įæķ¢": 8693,
      "åĲĦäºº": 8694,
      "çĻ¾å§ĵ": 8695,
      "æĺŁè¾°": 8696,
      "è£ģ": 8697,
      "ief": 8698,
      "Ġblame": 8699,
      "Ġgoing": 8700,
      "åįĬå¤ľ": 8701,
      "éĢģè¡Į": 8702,
      "ĠLewis": 8703,
      "å°½åĬĽ": 8704,
      "éĢļå¤©æ²³": 8705,
      "Ġthereof": 8706,
      "é£ŀåľ¨": 8707,
      "ä¼łæĬ¥": 8708,
      "æ»¡å±±": 8709,
      "æ»¡åľ°": 8710,
      "æ»¡éĿ¢": 8711,
      "äºĨä¸Ģä¼ļ": 8712,
      "Ġunf": 8713,
      "Ġuns": 8714,
      "åķ¸": 8715,
      "è¿Ļä¸ªæĺ¯": 8716,
      "å¼Ħä¸ª": 8717,
      "å¼Ħå¾Ĺ": 8718,
      "èĲ½ä¼½": 8719,
      "åĬŁæĪĲ": 8720,
      "è¿ŀé©¬": 8721,
      "è¿ŀå¤ľ": 8722,
      "æĵį": 8723,
      "èĴ²": 8724,
      "Ġenvy": 8725,
      "æī¯æī¯": 8726,
      "çķĻå¿ĥ": 8727,
      "Ġrise": 8728,
      "å½ĴçľŁ": 8729,
      "ä»¤çīĮ": 8730,
      "éĤ£ä¸ªæĺ¯": 8731,
      "æ·±å±±": 8732,
      "æĸ½ç¤¼": 8733,
      "åıĮåıĮ": 8734,
      "æ´»çļĦ": 8735,
      "Ġthinks": 8736,
      "èĪįä¸ĭ": 8737,
      "èĪįåĪ©": 8738,
      "Ġrid": 8739,
      "åĩ¡äºº": 8740,
      "ãĢĤâĢĻâĢĿ": 8741,
      "å¤±äºĨ": 8742,
      "çħ§é¡¾": 8743,
      "æĳĨå¼Ģ": 8744,
      "äºĮåįģåĽĽ": 8745,
      "çİīå¸Ŀéģĵ": 8746,
      "äºīæĮģ": 8747,
      "èŁŃèŁ": 8748,
      "Ġparty": 8749,
      "çŃĭéº»": 8750,
      "Ġadd": 8751,
      "è´¥äºĨ": 8752,
      "Ġothers": 8753,
      "æ¦»": 8754,
      "èľ»": 8755,
      "èĴĻèı©èĲ¨": 8756,
      "è¯ļä¸º": 8757,
      "è¯ļçĦ¶": 8758,
      "å¨ĺå¨ĺéģĵ": 8759,
      "æĵĴæĭ¿": 8760,
      "æĦŁè°¢": 8761,
      "ĠJohn": 8762,
      "æ¢¦ä¸Ń": 8763,
      "ians": 8764,
      "åĨ²å¤©": 8765,
      "åĲ¬è§ģéģĵ": 8766,
      "åĴ¬çīĻ": 8767,
      "Ġkindness": 8768,
      "è½¯çŃĭéº»": 8769,
      "ä¸ĢæĹ¶éĹ´": 8770,
      "æľīä½ķéļ¾": 8771,
      "ä¹Įé¸¡": 8772,
      "Ġchast": 8773,
      "èµ´ä¼ļ": 8774,
      "åĨ³ä¸įæķ¢": 8775,
      "åĿ¡ä¸ĭ": 8776,
      "åĿ¡åīį": 8777,
      "Ġbids": 8778,
      "åįģäºĮåĽŀ": 8779,
      "ä¸īå¹´åīį": 8780,
      "çĭ¬èĩª": 8781,
      "æŁ¥åĭĺ": 8782,
      "Ġbright": 8783,
      "Ġglass": 8784,
      "åĳ¨åĽ´": 8785,
      "ç«Ļåľ¨": 8786,
      "Ġmiser": 8787,
      "çİ°äºĨæľ¬åĥı": 8788,
      "åĶ±ä¸ª": 8789,
      "èĬ±æŀľå±±æ°´å¸ĺæ´ŀ": 8790,
      "æĳ©æĺĤ": 8791,
      "éĺİåĲĽ": 8792,
      "ä¸Ģæł¹æ¯«æ¯Ľ": 8793,
      "èĢ³æľµéĩĮ": 8794,
      "åī¥äºĨ": 8795,
      "åĲĵå¾Ĺ": 8796,
      "æĭ´åľ¨": 8797,
      "æ¦ľæĸĩ": 8798,
      "èº¬èº«éģĵ": 8799,
      "Ġcrave": 8800,
      "èµ°åĩºä¸Ģä¸ª": 8801,
      "èĶ¼": 8802,
      "çĭĲçĭ¸": 8803,
      "Twas": 8804,
      "ç»ĻåŃ¤": 8805,
      "æŁ±ä¸Ĭ": 8806,
      "çĵľæŀľ": 8807,
      "Ġwinter": 8808,
      "èįĴå±±": 8809,
      "è¯»èĢħ": 8810,
      "å¦ĤæĦıæ£Ĵ": 8811,
      "æ¾¡": 8812,
      "é¥¶ä½łæĢ§åĳ½": 8813,
      "Ġmonth": 8814,
      "å¤©èī²å°ĨæĻļ": 8815,
      "Ġminister": 8816,
      "Ġwalls": 8817,
      "äºĶçĻ¾å¹´åīįå¤§éĹ¹å¤©å®«": 8818,
      "å±±åĩ¹éĩĮ": 8819,
      "Ġextrem": 8820,
      "Ġsatisfied": 8821,
      "Ġprivate": 8822,
      "ĠVolsces": 8823,
      "Ġidle": 8824,
      "Ġscarce": 8825,
      "Ġbenef": 8826,
      "å½ĵé©¾å®ĺ": 8827,
      "å¿µå£°åĴĴè¯Ń": 8828,
      "RATCLIFF": 8829,
      "å¤©ç½Ĺåľ°ç½ĳ": 8830,
      "æ²Ĳæµ´": 8831,
      "Ġlaugh": 8832,
      "ä¸ľèĥľç¥ŀæ´²": 8833,
      "Ġvengeance": 8834,
      "Ġabroad": 8835,
      "ç¬ĳåĲŁåĲŁ": 8836,
      "éī´": 8837,
      "Ġview": 8838,
      "èŁŃèŁŁ": 8839,
      "24": 8840,
      "After": 8841,
      "Bid": 8842,
      "BIS": 8843,
      "Fie": 8844,
      "Gentle": 8845,
      "HOP": 8846,
      "Ne": 8847,
      "Never": 8848,
      "Signior": 8849,
      "Under": 8850,
      "aff": 8851,
      "gra": 8852,
      "ners": 8853,
      "ope": 8854,
      "shall": 8855,
      "ued": 8856,
      "vious": 8857,
      "whe": 8858,
      "woman": 8859,
      "å¶": 8860,
      "ĠåĽĽ": 8861,
      "Ġver": 8862,
      "ãĢĤãĢĬ": 8863,
      "ä½ĳ": 8864,
      "âĢĿï¼Ī": 8865,
      "incentio": 8866,
      "Ġwre": 8867,
      "Ġwench": 8868,
      "ä¹Ķ": 8869,
      "rees": 8870,
      "have": 8871,
      "ä¸įåĲ¬": 8872,
      "ä¸įæŃ»": 8873,
      "ä¸įåĸĦ": 8874,
      "ä¸įå¹²": 8875,
      "ä¸įè®º": 8876,
      "åħļ": 8877,
      "äºĨç½¢": 8878,
      "éĤ£å¤§ä»Ļ": 8879,
      "éĤ£çļĩå¸Ŀ": 8880,
      "éĤ£ç«¥åŃĲ": 8881,
      "æĪĳè¦ģ": 8882,
      "æĪĳåĴĮ": 8883,
      "æĪĳæĢİä¹Ī": 8884,
      "orous": 8885,
      "çļĦå£°éŁ³": 8886,
      "Ġfirm": 8887,
      "æĿ¥åĽ½": 8888,
      "ä»ĸä¸īä¸ª": 8889,
      "è¡ĮåĬ¨": 8890,
      "ä½łæĬĬ": 8891,
      "ä½łåħĪ": 8892,
      "ä½łå¿«": 8893,
      "ä½łä¼ĳ": 8894,
      "Ġcir": 8895,
      "Ġcorse": 8896,
      "enes": 8897,
      "Ġlest": 8898,
      "æľīéģĵ": 8899,
      "æľīéĤ£": 8900,
      "æľīåĪĨ": 8901,
      "æľīç½ª": 8902,
      "æľīåĬ³": 8903,
      "Ġhol": 8904,
      "å¤§äºĭ": 8905,
      "è¡ĮèĢħè§ģä»ĸ": 8906,
      "å¥İ": 8907,
      "çĶľ": 8908,
      "ä¸Ĭè¥¿æĸ¹": 8909,
      "vell": 8910,
      "ott": 8911,
      "åľ¨ä¸Ĭ": 8912,
      "omas": 8913,
      "ä¸īå®Ŀ": 8914,
      "è§ģå¦ĤæĿ¥": 8915,
      "att": 8916,
      "ating": 8917,
      "åŃĲæĿ¥": 8918,
      "ä¹Łå°±": 8919,
      "å±¡": 8920,
      "å¤©ä¸ģ": 8921,
      "Ġincl": 8922,
      "cell": 8923,
      "ä¹ĭéģĵ": 8924,
      "ä¹ĭè·¯": 8925,
      "ä¹ĭæ°Ķ": 8926,
      "ä¹ĭéģ¥": 8927,
      "è¯´æĪĳ": 8928,
      "è¯´æĿ¥": 8929,
      "åıªè¯´æĺ¯": 8930,
      "å¯ħ": 8931,
      "åĩºçİ°": 8932,
      "èĩĬ": 8933,
      "åĬ£": 8934,
      "éĢĨ": 8935,
      "utland": 8936,
      "å°±çŃĳ": 8937,
      "æŃ¤åľ°": 8938,
      "å±±ä¸ĭ": 8939,
      "åį´æĬĬ": 8940,
      "å¥½åĳĨåŃĲ": 8941,
      "Ġformer": 8942,
      "è´¡": 8943,
      "æĹłçĶļ": 8944,
      "æĮ«": 8945,
      "æĹ¶æľī": 8946,
      "æ¯ģ": 8947,
      "æĬĬä½ł": 8948,
      "æĬĬæĪĳä»¬": 8949,
      "Ġease": 8950,
      "è¾ħ": 8951,
      "éĿĽ": 8952,
      "çŃīèĢģçĮª": 8953,
      "èĭĹ": 8954,
      "åĪ°å¤Ħ": 8955,
      "riar": 8956,
      "éĴº": 8957,
      "éĴĹ": 8958,
      "æİª": 8959,
      "æĢİèĤ¯": 8960,
      "ä¸īèĹıè§ģäºĨ": 8961,
      "ä¸¤å¤´": 8962,
      "ä¸¤æĹ¥": 8963,
      "å®¶å®¶": 8964,
      "å®¶åĥ®": 8965,
      "ident": 8966,
      "Ġrel": 8967,
      "Ġreceived": 8968,
      "èµ°ä¸Ĭ": 8969,
      "èµ°è¿ĳåīį": 8970,
      "åĿĳ": 8971,
      "æ±ŀ": 8972,
      "ä½ıå¤Ħ": 8973,
      "Ġdeal": 8974,
      "è¢ģ": 8975,
      "è¢Ħ": 8976,
      "åĽĽæĸ¹": 8977,
      "çľŁèº«": 8978,
      "åĲĥæĸĭ": 8979,
      "èĥģ": 8980,
      "äºĭä¸į": 8981,
      "çĽ¸è¯Ĩ": 8982,
      "amp": 8983,
      "èĭ¥å¹²": 8984,
      "ä½Ľåīį": 8985,
      "åıĸæ°´": 8986,
      "æ»©": 8987,
      "ä½ľåĵģ": 8988,
      "è¯·åĿĲ": 8989,
      "å®Ŀè±¡": 8990,
      "å¹´åīį": 8991,
      "æ´ŀéĹ¨å¤ĸ": 8992,
      "è¿ĽéĢĢ": 8993,
      "æľ¬æĢ§": 8994,
      "æľ¬ä¹¦": 8995,
      "ä¾¿èµ°": 8996,
      "Ġsport": 8997,
      "ä¸įçŁ¥å¥½æŃ¹": 8998,
      "ä¼ļåĲĮ": 8999,
      "æĪĳä»¬åİ»": 9000,
      "çĤİ": 9001,
      "Ġfaire": 9002,
      "åĩłä¹İ": 9003,
      "ç¼¨": 9004,
      "ç¼Ī": 9005,
      "å¾Ģä¸Ĭ": 9006,
      "çĥ¹": 9007,
      "âĢĻï¼ģâĢĿ": 9008,
      "ANLEY": 9009,
      "ĠRutland": 9010,
      "æŁĶ": 9011,
      "Ġvile": 9012,
      "ä½¿ä¸Ģä¸ª": 9013,
      "åĿĲå®ļ": 9014,
      "Ġshrew": 9015,
      "antua": 9016,
      "æ²¡ä¸ª": 9017,
      "å¯¹è¡ĮèĢħ": 9018,
      "éħī": 9019,
      "æľĿå»·": 9020,
      "æķĳèĭ¦": 9021,
      "æıĸ": 9022,
      "ĠMantua": 9023,
      "åĨįæĿ¥": 9024,
      "è§£å¼Ģ": 9025,
      "Ġconcl": 9026,
      "Ġconvey": 9027,
      "å¾Ħä¸Ĭ": 9028,
      "å¾ĦçĽ´": 9029,
      "çľ¼çĿĽ": 9030,
      "æĮĩæķĻ": 9031,
      "æĮĩæľĽ": 9032,
      "åĺĺ": 9033,
      "Ġgod": 9034,
      "åįĬæĻĮ": 9035,
      "éĢģæĪĳå¸ĪçĪ¶": 9036,
      "è¡£åĨł": 9037,
      "å§ĳ": 9038,
      "åĨħå¤ĸ": 9039,
      "ä¹Ŀä¸ª": 9040,
      "è°¢éģĵ": 9041,
      "ä¸ĥæĺŁ": 9042,
      "åĬĽå£«": 9043,
      "éĻįä¼ı": 9044,
      "éĵģæ£į": 9045,
      "è®¤äºĨ": 9046,
      "allow": 9047,
      "ĠBarn": 9048,
      "Ġarri": 9049,
      "é»Ħæĺı": 9050,
      "Ġunb": 9051,
      "ĠHer": 9052,
      "é¹ı": 9053,
      "ĠVincentio": 9054,
      "Ġmayst": 9055,
      "eless": 9056,
      "Ġquite": 9057,
      "é¬ĥ": 9058,
      "åĲĳä¸ľ": 9059,
      "å¿ħé¡»": 9060,
      "çĹķ": 9061,
      "èĦļä¸ĭ": 9062,
      "æļĹèĩª": 9063,
      "Ġprovost": 9064,
      "åģĩçļĦ": 9065,
      "æľīä¸Ģäºĭ": 9066,
      "ä¼¤çĶŁ": 9067,
      "å¥īæī¿": 9068,
      "IST": 9069,
      "å½Ĵä¾Ŀ": 9070,
      "Ġtruly": 9071,
      "ä¿®çĤ¼": 9072,
      "ä¸¾èµ·": 9073,
      "çĵ£": 9074,
      "é¡¶ç¤¼": 9075,
      "Ġdism": 9076,
      "Off": 9077,
      "é»ĳæ±ī": 9078,
      "æĴŀçĿĢ": 9079,
      "Ġfoes": 9080,
      "çºµèµ·": 9081,
      "Ġroot": 9082,
      "Ġwherefore": 9083,
      "å½©éĽ¾": 9084,
      "æķ´é½Ĳ": 9085,
      "è®¤å¾Ĺä»ĸ": 9086,
      "ç»ĵæŀľ": 9087,
      "ç»ĵæĿŁ": 9088,
      "åĩ¶æģ¶": 9089,
      "åŀĵ": 9090,
      "æĢĴéģĵ": 9091,
      "Ġflower": 9092,
      "æ¬¡æĹ©": 9093,
      "éģįåľ°": 9094,
      "çŃĶç¤¼éģĵ": 9095,
      "æĹ§è·¯": 9096,
      "å¸ĥéĩĳ": 9097,
      "å¸ĥçĽ´è£°": 9098,
      "åºĦä¸Ĭ": 9099,
      "éºŁ": 9100,
      "ç¾İäºº": 9101,
      "æ±Łå·ŀ": 9102,
      "èħ¾éĤ£": 9103,
      "åĵĦäºĨ": 9104,
      "Ġimag": 9105,
      "éĻ¤äºĨ": 9106,
      "æĦŁæ¿Ģ": 9107,
      "éĥİåĲĽ": 9108,
      "æİ£éĵģæ£Ĵ": 9109,
      "çĮ¿çĮ´": 9110,
      "è°ĥåĴĮ": 9111,
      "åĮ»æ²»": 9112,
      "Ġtrial": 9113,
      "ailor": 9114,
      "Ġsmo": 9115,
      "éĺ¿ç½Ĺ": 9116,
      "Ġtrem": 9117,
      "Ġfellows": 9118,
      "åĪ»æľ¬": 9119,
      "èĿ¶": 9120,
      "èµ¤èĦļ": 9121,
      "æĳĦåİ»": 9122,
      "rench": 9123,
      "Ġchanged": 9124,
      "Ġcover": 9125,
      "æĭ³å¤´": 9126,
      "å¾Ģè¥¿å¤©æĭľä½Ľæ±Ĥç»ı": 9127,
      "åķ¼åĵŃ": 9128,
      "æĭ½æŃ¥": 9129,
      "ç¤¼æĭľéģĵ": 9130,
      "Ġhumour": 9131,
      "å¼¥åĭĴ": 9132,
      "è¾¨æĺİ": 9133,
      "Ġboot": 9134,
      "Ġswords": 9135,
      "èĦĳåĲİ": 9136,
      "æ¿Ľ": 9137,
      "éĴĪåĦ¿": 9138,
      "åķĨéĩı": 9139,
      "Ġdeputy": 9140,
      "æĭ¦ä½ı": 9141,
      "Ġcondition": 9142,
      "è¿Ļä¸Ģåľºå¥½æĿĢ": 9143,
      "å¯Įè´µ": 9144,
      "è¡ĻéĹ¨": 9145,
      "ä¸ªå¤§åŃĹ": 9146,
      "çīµé©¬æĮĳæĭħ": 9147,
      "ç§īæķĻ": 9148,
      "éľİæĹ¶éĹ´": 9149,
      "Ġjudgment": 9150,
      "æĪĳæĬĬä½łè¿Ļä¸ª": 9151,
      "change": 9152,
      "å¤©èĵ¬åħĥå¸ħ": 9153,
      "å¿µåĬ¨çľŁè¨Ģ": 9154,
      "Ġtyrant": 9155,
      "Ġacqu": 9156,
      "Ġevil": 9157,
      "åįĹå¤©éĹ¨å¤ĸ": 9158,
      "ä¸¤çıŃæĸĩæŃ¦": 9159,
      "BALT": 9160,
      "å¹¢å¹¡": 9161,
      "TYBALT": 9162,
      "Whilst": 9163,
      "ä¸ĬåĨĻçĿĢ": 9164,
      "Ġeasy": 9165,
      "åĮºå¤Ħ": 9166,
      "ä¸ľæ´ĭå¤§æµ·": 9167,
      "èĪħçĪ·": 9168,
      "ĠMercutio": 9169,
      "åĩ¤ä»Ļéĥ¡": 9170,
      "Ġschool": 9171,
      "é»ĦéĹ¨å®ĺ": 9172,
      "Ġexcuse": 9173,
      "Ġfruit": 9174,
      "ç¼¥ç¼Ī": 9175,
      "éª¨éĥ½éĥ½": 9176,
      "BISHOP": 9177,
      "'?": 9178,
      "AL": 9179,
      "Bl": 9180,
      "Des": 9181,
      "Ex": 9182,
      "KEN": 9183,
      "Methinks": 9184,
      "Put": 9185,
      "Tut": 9186,
      "ault": 9187,
      "after": 9188,
      "con": 9189,
      "ek": 9190,
      "ead": 9191,
      "ered": 9192,
      "his": 9193,
      "oot": 9194,
      "pin": 9195,
      "roth": 9196,
      "rate": 9197,
      "shi": 9198,
      "ta": 9199,
      "vish": 9200,
      "·é«": 9201,
      "Ã²": 9202,
      "ĴéºŁ": 9203,
      "łçīĻ": 9204,
      "Ġtaken": 9205,
      "ä»ĵ": 9206,
      "ä½¯": 9207,
      "æĪļ": 9208,
      "Ġwither": 9209,
      "ä¹į": 9210,
      "è¿ħ": 9211,
      "ä¸įè¯¥": 9212,
      "ä¸įäºļ": 9213,
      "å°Ķ": 9214,
      "ä¸Ģå¯¹": 9215,
      "ä¸Ģå¿µ": 9216,
      "ä¸ĢæľĽ": 9217,
      "ä¸ĢåĪĩ": 9218,
      "Ġba": 9219,
      "Ġbrow": 9220,
      "Ġbite": 9221,
      "Ġbrows": 9222,
      "æĿľ": 9223,
      "äºĨè¡ĮæĿİ": 9224,
      "äºĨè®¸å¤ļ": 9225,
      "åįµ": 9226,
      "éĤ£å¦ĸæĢª": 9227,
      "éĤ£è¯ĿåĦ¿": 9228,
      "å®ĭ": 9229,
      "æĪĳä¸İä»ĸ": 9230,
      "æĪĳä¹Łä¸į": 9231,
      "æĪĳè®°å¾Ĺ": 9232,
      "çļĦä¸įæĺ¯": 9233,
      "çļĦå¾Ĵå¼Ł": 9234,
      "çļĦæ¨¡æł·": 9235,
      "æĹħ": 9236,
      "æĺ¯éĤ£éĩĮ": 9237,
      "Ġfain": 9238,
      "Ġfeed": 9239,
      "erona": 9240,
      "è¯¢": 9241,
      "è¯Ħ": 9242,
      "ï¼ģâĢĶâĢĶ": 9243,
      "æĿ¥å®¶": 9244,
      "æĿ¥èĢ¶": 9245,
      "æĿ¥å¾Ĺå¥½": 9246,
      "ä»ĸè¿Ļ": 9247,
      "åŃľ": 9248,
      "è¡ĮäºĨ": 9249,
      "ä½łæĺ¯ä¸ª": 9250,
      "Ġdust": 9251,
      "Ġdull": 9252,
      "è§¦": 9253,
      "éĹ°": 9254,
      "enance": 9255,
      "Ġthunder": 9256,
      "æľīåĲį": 9257,
      "æľīåĬĽ": 9258,
      "æľīåĬŁ": 9259,
      "æľīçĻ¾åįģ": 9260,
      "Ġpains": 9261,
      "å¤§å°Ĩ": 9262,
      "å¤§ç¥ŀ": 9263,
      "è¿ĻæĿ¡": 9264,
      "è¿Ļå£ģåİ¢": 9265,
      "ï¼ŁâĢĻ": 9266,
      "ä¸Ĭèº«": 9267,
      "å¼ĺ": 9268,
      "äººäºº": 9269,
      "äººå¿ĥ": 9270,
      "anley": 9271,
      "åľ¨åīį": 9272,
      "ä¸īå¤©": 9273,
      "ä¸īå¤ªåŃĲ": 9274,
      "ä¸īæĺ§": 9275,
      "Ġgown": 9276,
      "Ġgrown": 9277,
      "Ġgift": 9278,
      "Ġghost": 9279,
      "Ġgirl": 9280,
      "èĢģåĥ§": 9281,
      "èĢģå°ı": 9282,
      "èĢģå¤§çİĭ": 9283,
      "Ġbeha": 9284,
      "ä¸ĭèĲ½": 9285,
      "ä¹Łå¥½": 9286,
      "ç»½": 9287,
      "ç»Ĭ": 9288,
      "çĪ»": 9289,
      "å¤©æĿ¡": 9290,
      "åıĪèĩ³": 9291,
      "åıĪéĹ»å¾Ĺ": 9292,
      "è¯´å£°": 9293,
      "åĩºçļĦ": 9294,
      "çŃ¹": 9295,
      "åĶ³": 9296,
      "åĶı": 9297,
      "å¤´çļĦ": 9298,
      "å¤´é¡¶": 9299,
      "Ġmeat": 9300,
      "çľĭä½ł": 9301,
      "åį´è¦ģ": 9302,
      "å°Ĩè¿ĳ": 9303,
      "å°Ĩè¡ĮæĿİ": 9304,
      "å½ª": 9305,
      "éĹ¨æĪ·": 9306,
      "æĹłåħī": 9307,
      "æĹ¶èĬĤ": 9308,
      "æ¯¡": 9309,
      "æĬĬéĩĳç®įæ£Ĵ": 9310,
      "æīĵæī«": 9311,
      "å°ıåı¯": 9312,
      "å°ıç«¥": 9313,
      "å°ıçİĭåŃĲ": 9314,
      "åįģä»£": 9315,
      "rift": 9316,
      "æ´¥": 9317,
      "Ġstab": 9318,
      "Ġstoop": 9319,
      "æłĭ": 9320,
      "æİĲ": 9321,
      "idings": 9322,
      "ä¸ºä¸Ģ": 9323,
      "èµ°çŁ³": 9324,
      "ract": 9325,
      "åĿŁ": 9326,
      "æĸ¹å¥½": 9327,
      "æ°´æµģ": 9328,
      "ç§ĥ": 9329,
      "é©¬æĿ¥": 9330,
      "åĽĽåĢ¼åĬŁæĽ¹": 9331,
      "åľ°èĹı": 9332,
      "åľ°åĲį": 9333,
      "çº¯": 9334,
      "åį³çĿĢ": 9335,
      "é£İäºĳ": 9336,
      "èĩªæĿ¥": 9337,
      "åı¯èĥ½": 9338,
      "äºĭçļĦ": 9339,
      "æ¬£": 9340,
      "éĹ®ä¸ª": 9341,
      "éĹ®ä»ĸä¸Ģ": 9342,
      "æŀľåĵģ": 9343,
      "æ»ĭ": 9344,
      "è¯·äºĨ": 9345,
      "å®Ŀå±±": 9346,
      "å¹´å¹¼": 9347,
      "æ³ķèº«": 9348,
      "äºĶä¸ĥ": 9349,
      "è¿Ľæ´ŀ": 9350,
      "è¿ĽæľĿ": 9351,
      "æ²Ļåĥ§ä¹Ł": 9352,
      "æĶ¾å¼Ģ": 9353,
      "arden": 9354,
      "åħīè¾ī": 9355,
      "èĬ±é¦Ļ": 9356,
      "Ġspe": 9357,
      "Ġspake": 9358,
      "Ġspring": 9359,
      "çĶ¨æĿ¥": 9360,
      "çĶ¨ä»¥": 9361,
      "æĦıä¸º": 9362,
      "ä¸ĩçī©": 9363,
      "ilia": 9364,
      "éª·é«": 9365,
      "ĠCatesby": 9366,
      "èĢĮåĩº": 9367,
      "Ġknave": 9368,
      "AND": 9369,
      "Ġvice": 9370,
      "aste": 9371,
      "åİŁåĽł": 9372,
      "èħ¥": 9373,
      "èħ»": 9374,
      "èħĮ": 9375,
      "ä½¿èĢħ": 9376,
      "ä½¿åĩº": 9377,
      "Ġshore": 9378,
      "åĮĸäºĽ": 9379,
      "ä¹ĥä¸ľåľŁå¤§åĶĲ": 9380,
      "æ¡§": 9381,
      "æĢ¥è½¬èº«": 9382,
      "Ġproof": 9383,
      "æĶ¶éĻį": 9384,
      "å¿µåĴĴ": 9385,
      "éľĵ": 9386,
      "åħŃè¡Ĺ": 9387,
      "Ġblest": 9388,
      "Ġblind": 9389,
      "æĮĩç¤º": 9390,
      "åĺī": 9391,
      "ement": 9392,
      "Ġsirrah": 9393,
      "æ¢¨": 9394,
      "æ¢Ń": 9395,
      "æĥĬéģĵ": 9396,
      "æĬ¥ä¿¡": 9397,
      "åįĹæĸ¹": 9398,
      "åįĹå¤©éĹ¨": 9399,
      "è¯Ńè¨Ģ": 9400,
      "è¿ĻéĩĮæĿ¥": 9401,
      "æīĢåľ¨": 9402,
      "Ġunl": 9403,
      "æ¸ħåįİ": 9404,
      "åķ¯": 9405,
      "è·³åľ¨": 9406,
      "è·³åĪ°": 9407,
      "é¼İ": 9408,
      "å°ĳæĹ¶": 9409,
      "æĿĢäºº": 9410,
      "Ġquestion": 9411,
      "åĲĳè¥¿": 9412,
      "çĮªæĤŁèĥ½": 9413,
      "Ġjoint": 9414,
      "åıĹç½ª": 9415,
      "ç®¡æķĻ": 9416,
      "é©¾èµ·": 9417,
      "å¿ħæĺ¯": 9418,
      "å¹²ç²®": 9419,
      "cians": 9420,
      "ä¿±æĹł": 9421,
      "åĸĿéĢĢ": 9422,
      "ç«ĭå®ļ": 9423,
      "çĿ¡ä¸ĭ": 9424,
      "é¬¼æĢª": 9425,
      "ĠWe": 9426,
      "æģĲæĥ§": 9427,
      "çīĽå¤´": 9428,
      "å®³äºĨ": 9429,
      "ĠAl": 9430,
      "ĠAumerle": 9431,
      "åĪ«å¤Ħ": 9432,
      "å´ĩ": 9433,
      "åĳ¼é£İ": 9434,
      "ä¸¾çĿĢ": 9435,
      "ä¸¾æŃ¥": 9436,
      "Ġhonesty": 9437,
      "è®¸ä¹ħ": 9438,
      "å¡«": 9439,
      "âĢĶâĢĶâĢľ": 9440,
      "çģ¯åħī": 9441,
      "å©ĨåŃĲ": 9442,
      "ç±į": 9443,
      "ursed": 9444,
      "èģĬ": 9445,
      "ä»£æĮĩ": 9446,
      "Ġleaves": 9447,
      "èĩ£çŃī": 9448,
      "å¿įçĿĢ": 9449,
      "ä¸¢å¼Ģ": 9450,
      "Ġtwice": 9451,
      "èħ°éĩĮ": 9452,
      "aper": 9453,
      "ĠKeeper": 9454,
      "æĭħåŃĲ": 9455,
      "ä½łä»¬éĥ½": 9456,
      "èĽ®": 9457,
      "å«ģ": 9458,
      "åı·ä»¤": 9459,
      "å±ĤéĹ¨": 9460,
      "æŀ¶åŃĲ": 9461,
      "éºĴéºŁ": 9462,
      "æĺ¾åľ£": 9463,
      "Ġprevent": 9464,
      "éĻĪäºĨä¸Ģéģį": 9465,
      "éĻĪåħīèķĬ": 9466,
      "åıĤç¦ħ": 9467,
      "èµ°äºĨé£İ": 9468,
      "èľĵ": 9469,
      "åĽŃéĩĮ": 9470,
      "æĺ¥å¨ĩ": 9471,
      "åĨĻä½ľ": 9472,
      "OMAS": 9473,
      "æıŃäºĨ": 9474,
      "å²¸è¾¹": 9475,
      "there": 9476,
      "è¯ļæīĢè°ĵ": 9477,
      "åĽ´ä½ı": 9478,
      "éĤ£äºĽåĴĮå°ļ": 9479,
      "æĬ¡èµ·": 9480,
      "çģ¾éļ¾": 9481,
      "ĠMars": 9482,
      "Ġrepent": 9483,
      "ç¿łäºĳ": 9484,
      "éĴŁé¼ĵ": 9485,
      "æģ¨éģĵ": 9486,
      "å¥³åŃĲéģĵ": 9487,
      "ç»£èĬ±": 9488,
      "æį»è¯Ģ": 9489,
      "æ²īåĲŁ": 9490,
      "åĪļæīį": 9491,
      "èĨı": 9492,
      "èĨĿ": 9493,
      "ä¸Ŀç»³": 9494,
      "å®½å¿ĥ": 9495,
      "èĢģåĲĽéģĵ": 9496,
      "åĸĬå£°": 9497,
      "Ġtraitors": 9498,
      "twixt": 9499,
      "æī¬å°ĺ": 9500,
      "éĶĻäºĨ": 9501,
      "ç±³é¥Ń": 9502,
      "Ġimport": 9503,
      "åĳ¨å¤©": 9504,
      "åľĨæ»¡": 9505,
      "æĿĳèĪį": 9506,
      "Ġwrongs": 9507,
      "èģļéĽĨ": 9508,
      "çįłçīĻ": 9509,
      "åĶ¬å¾Ĺä¸ª": 9510,
      "çĺŁ": 9511,
      "çŃµå¸Ń": 9512,
      "æĲħä¹±": 9513,
      "Ġburied": 9514,
      "å¿ĥæĥĬéģĵ": 9515,
      "æ··æ²Į": 9516,
      "è¸ªè¿¹": 9517,
      "ealous": 9518,
      "place": 9519,
      "Ġreasons": 9520,
      "éķ¿å®īåŁİ": 9521,
      "Alack": 9522,
      "Ġsenate": 9523,
      "Ġgreen": 9524,
      "çľģæĤŁ": 9525,
      "çĶĺéĽ¨": 9526,
      "å³»å²Ń": 9527,
      "Ġaffair": 9528,
      "acher": 9529,
      "Ġchoice": 9530,
      "æĲºæīĭ": 9531,
      "azed": 9532,
      "æ¨µåŃĲéģĵ": 9533,
      "æķĸéĹ°": 9534,
      "åįģä¸ĩå¤©åħµ": 9535,
      "åĶ¿åĵ¨": 9536,
      "Ġdivine": 9537,
      "ĠCorioli": 9538,
      "å«Ĥå«Ĥ": 9539,
      "éĤĢè¯·": 9540,
      "èĭıéĨĴ": 9541,
      "Ġwhilst": 9542,
      "æĹĭé£İ": 9543,
      "Ġstop": 9544,
      "Ġtyran": 9545,
      "Ãłn": 9546,
      "Ġprophe": 9547,
      "Ġembrace": 9548,
      "Ġmalice": 9549,
      "è´ŀè§Ĥ": 9550,
      "åĴĦçļĦä¸Ģå£°": 9551,
      "BRAKEN": 9552,
      "ä¼ĺå©Ĩ": 9553,
      "ĠPlantagenet": 9554,
      "Ġsacred": 9555,
      "æ¢Ĩéĵĥ": 9556,
      "èĻİçļ®è£Ļ": 9557,
      "æį¶èĥ¸": 9558,
      "Ġfiery": 9559,
      "Ġinnocent": 9560,
      "ĠPaulina": 9561,
      "Ġleng": 9562,
      "ĠPrince": 9563,
      "Ġsafety": 9564,
      "å¤ªçĻ½éĩĳæĺŁ": 9565,
      "æĭ¯æķĳ": 9566,
      "ĠCominius": 9567,
      "èľ»èľĵ": 9568,
      "éª·é«ħ": 9569,
      "BRAKENBURY": 9570,
      "?'": 9571,
      "Ad": 9572,
      "DER": 9573,
      "DON": 9574,
      "Edward": 9575,
      "GOR": 9576,
      "Hence": 9577,
      "Ind": 9578,
      "MIST": 9579,
      "Once": 9580,
      "Richard": 9581,
      "RESS": 9582,
      "cha": 9583,
      "draw": 9584,
      "eld": 9585,
      "go": 9586,
      "mn": 9587,
      "my": 9588,
      "more": 9589,
      "nat": 9590,
      "op": 9591,
      "oly": 9592,
      "oard": 9593,
      "pet": 9594,
[...]
