{
  "version": "1.0",
  "truncation": null,
  "padding": null,
  "added_tokens": [
    {
      "id": 0,
      "content": "<|pad|>",
      "single_word": false,
      "lstrip": false,
      "rstrip": false,
      "normalized": false,
      "special": true
    },
    {
      "id": 1,
      "content": "<|unk|>",
      "single_word": false,
      "lstrip": false,
      "rstrip": false,
      "normalized": false,
      "special": true
    },
    {
      "id": 2,
      "content": "<|end|>",
      "single_word": false,
      "lstrip": false,
      "rstrip": false,
      "normalized": false,
      "special": true
    },
    {
      "id": 3,
      "content": "<|user|>",
      "single_word": false,
      "lstrip": false,
      "rstrip": false,
      "normalized": false,
      "special": true
    },
    {
      "id": 4,
      "content": "<|assistant|>",
      "single_word": false,
      "lstrip": false,
      "rstrip": false,
      "normalized": false,
      "special": true
    }
  ],
  "normalizer": {
    "type": "NFC"
  },
  "pre_tokenizer": {
    "type": "ByteLevel",
    "add_prefix_space": false,
    "trim_offsets": true,
    "use_regex": true
  },
  "post_processor": null,
  "decoder": {
    "type": "ByteLevel",
    "add_prefix_space": true,
    "trim_offsets": true,
    "use_regex": true
  },
  "model": {
    "type": "BPE",
    "dropout": null,
    "unk_token": "<|unk|>",
    "continuing_subword_prefix": null,
    "end_of_word_suffix": null,
    "fuse_unk": false,
    "byte_fallback": false,
    "ignore_merges": false,
    "vocab": {
      "<|pad|>": 0,
      "<|unk|>": 1,
      "<|end|>": 2,
      "<|user|>": 3,
      "<|assistant|>": 4,
      "!": 5,
      "\"": 6,
      "#": 7,
      "$": 8,
      "%": 9,
      "&": 10,
      "'": 11,
      "(": 12,
      ")": 13,
      "*": 14,
      "+": 15,
      ",": 16,
      "-": 17,
      ".": 18,
      "/": 19,
      "0": 20,
      "1": 21,
      "2": 22,
      "3": 23,
      "4": 24,
      "5": 25,
      "6": 26,
      "7": 27,
      "8": 28,
      "9": 29,
      ":": 30,
      ";": 31,
      "<": 32,
      "=": 33,
      ">": 34,
      "?": 35,
      "@": 36,
      "A": 37,
      "B": 38,
      "C": 39,
      "D": 40,
      "E": 41,
      "F": 42,
      "G": 43,
      "H": 44,
      "I": 45,
      "J": 46,
      "K": 47,
      "L": 48,
      "M": 49,
      "N": 50,
      "O": 51,
      "P": 52,
      "Q": 53,
      "R": 54,
      "S": 55,
      "T": 56,
      "U": 57,
      "V": 58,
      "W": 59,
      "X": 60,
      "Y": 61,
      "Z": 62,
      "[": 63,
      "\\": 64,
      "]": 65,
      "^": 66,
      "_": 67,
      "`": 68,
      "a": 69,
      "b": 70,
      "c": 71,
      "d": 72,
      "e": 73,
      "f": 74,
      "g": 75,
      "h": 76,
      "i": 77,
      "j": 78,
      "k": 79,
      "l": 80,
      "m": 81,
      "n": 82,
      "o": 83,
      "p": 84,
      "q": 85,
      "r": 86,
      "s": 87,
      "t": 88,
      "u": 89,
      "v": 90,
      "w": 91,
      "x": 92,
      "y": 93,
      "z": 94,
      "{": 95,
      "|": 96,
      "}": 97,
      "~": 98,
      "¡": 99,
      "¢": 100,
      "£": 101,
      "¤": 102,
      "¥": 103,
      "¦": 104,
      "§": 105,
      "¨": 106,
      "©": 107,
      "ª": 108,
      "«": 109,
      "¬": 110,
      "®": 111,
      "¯": 112,
      "°": 113,
      "±": 114,
      "²": 115,
      "³": 116,
      "´": 117,
      "µ": 118,
      "¶": 119,
      "·": 120,
      "¸": 121,
      "¹": 122,
      "º": 123,
      "»": 124,
      "¼": 125,
      "½": 126,
      "¾": 127,
      "¿": 128,
      "À": 129,
      "Á": 130,
      "Â": 131,
      "Ã": 132,
      "Ä": 133,
      "Å": 134,
      "Æ": 135,
      "Ç": 136,
      "È": 137,
      "É": 138,
      "Ê": 139,
      "Ë": 140,
      "Ì": 141,
      "Í": 142,
      "Î": 143,
      "Ï": 144,
      "Ð": 145,
      "Ñ": 146,
      "Ò": 147,
      "Ó": 148,
      "Ô": 149,
      "Õ": 150,
      "Ö": 151,
      "×": 152,
      "Ø": 153,
      "Ù": 154,
      "Ú": 155,
      "Û": 156,
      "Ü": 157,
      "Ý": 158,
      "Þ": 159,
      "ß": 160,
      "à": 161,
      "á": 162,
      "â": 163,
      "ã": 164,
      "ä": 165,
      "å": 166,
      "æ": 167,
      "ç": 168,
      "è": 169,
      "é": 170,
      "ê": 171,
      "ë": 172,
      "ì": 173,
      "í": 174,
      "î": 175,
      "ï": 176,
      "ð": 177,
      "ñ": 178,
      "ò": 179,
      "ó": 180,
      "ô": 181,
      "õ": 182,
      "ö": 183,
      "÷": 184,
      "ø": 185,
      "ù": 186,
      "ú": 187,
      "û": 188,
      "ü": 189,
      "ý": 190,
      "þ": 191,
      "ÿ": 192,
      "Ā": 193,
      "ā": 194,
      "Ă": 195,
      "ă": 196,
      "Ą": 197,
      "ą": 198,
      "Ć": 199,
      "ć": 200,
      "Ĉ": 201,
      "ĉ": 202,
      "Ċ": 203,
      "ċ": 204,
      "Č": 205,
      "č": 206,
      "Ď": 207,
      "ď": 208,
      "Đ": 209,
      "đ": 210,
      "Ē": 211,
      "ē": 212,
      "Ĕ": 213,
      "ĕ": 214,
      "Ė": 215,
      "ė": 216,
      "Ę": 217,
      "ę": 218,
      "Ě": 219,
      "ě": 220,
      "Ĝ": 221,
      "ĝ": 222,
      "Ğ": 223,
      "ğ": 224,
      "Ġ": 225,
      "ġ": 226,
      "Ģ": 227,
      "ģ": 228,
      "Ĥ": 229,
      "ĥ": 230,
      "Ħ": 231,
      "ħ": 232,
      "Ĩ": 233,
      "ĩ": 234,
      "Ī": 235,
      "ī": 236,
      "Ĭ": 237,
      "ĭ": 238,
      "Į": 239,
      "į": 240,
      "İ": 241,
      "ı": 242,
      "Ĳ": 243,
      "ĳ": 244,
      "Ĵ": 245,
      "ĵ": 246,
      "Ķ": 247,
      "ķ": 248,
      "ĸ": 249,
      "Ĺ": 250,
      "ĺ": 251,
      "Ļ": 252,
      "ļ": 253,
      "Ľ": 254,
      "ľ": 255,
      "Ŀ": 256,
      "ŀ": 257,
      "Ł": 258,
      "ł": 259,
      "Ń": 260,
      "ï¼": 261,
      "ï¼Į": 262,
      "ä¸": 263,
      "ãĢ": 264,
      "ãĢĤ": 265,
      "âĢ": 266,
      "äº": 267,
      "Ġt": 268,
      "åı": 269,
      "he": 270,
      "å¤": 271,
      "ä½": 272,
      "æĺ": 273,
      "ä»": 274,
      "è¿": 275,
      "çļ": 276,
      "ä¹": 277,
      "æĪ": 278,
      "ä¸į": 279,
      "æĺ¯": 280,
      "ï¼ļ": 281,
      "Ġa": 282,
      "çļĦ": 283,
      "éģ": 284,
      "ou": 285,
      "ï¼ģ": 286,
      "åĲ": 287,
      "Ġs": 288,
      "æľ": 289,
      "âĢľ": 290,
      "âĢĿ": 291,
      "éģĵ": 292,
      "èĢ": 293,
      "å°": 294,
      "äºĨ": 295,
      "ï¼ļâĢľ": 296,
      "Ġm": 297,
      "in": 298,
      "Ġw": 299,
      "åħ": 300,
      "æĿ": 301,
      "ä¸Ģ": 302,
      "ä½ł": 303,
      "re": 304,
      "æĪĳ": 305,
      "ha": 306,
      "è¯": 307,
      "å®": 308,
      "åľ": 309,
      "éĤ": 310,
      "ï¼Ł": 311,
      "nd": 312,
      "Ġthe": 313,
      "éĤ£": 314,
      "Ġb": 315,
      "éĹ": 316,
      "åį": 317,
      "å¾": 318,
      "æĹ": 319,
      "æī": 320,
      "åŃ": 321,
      "æĢ": 322,
      "æĿ¥": 323,
      "è¡": 324,
      "is": 325,
      "or": 326,
      "è¿Ļ": 327,
      "ä¸ª": 328,
      "åĪ": 329,
      "Ġf": 330,
      "æľī": 331,
      "er": 332,
      "å¥": 333,
      "ä»ĸ": 334,
      "ll": 335,
      "åİ": 336,
      "çľ": 337,
      "éĩ": 338,
      "ä¼": 339,
      "çĶ": 340,
      "it": 341,
      "åķ": 342,
      "åĽ": 343,
      "æŃ": 344,
      "è¡Į": 345,
      "on": 346,
      "è§": 347,
      "ãĢĤâĢĿ": 348,
      "å¦": 349,
      "äºº": 350,
      "èĢħ": 351,
      "åĩ": 352,
      "Ġd": 353,
      "Ġc": 354,
      "å¸": 355,
      "åĵ": 356,
      "es": 357,
      "en": 358,
      "Ġn": 359,
      "Ġl": 360,
      "Ġy": 361,
      "å¿": 362,
      "å¤§": 363,
      "Ġth": 364,
      "æķ": 365,
      "ar": 366,
      "çİ": 367,
      "åľ¨": 368,
      "æĬ": 369,
      "ä¸Ĭ": 370,
      "Ġh": 371,
      "åŃĲ": 372,
      "Ġo": 373,
      "Ġto": 374,
      "Ġyou": 375,
      "å¾Ĺ": 376,
      "èµ": 377,
      "ï¿": 378,
      "ï¿£": 379,
      "Ġp": 380,
      "å¼": 381,
      "hat": 382,
      "æĸ": 383,
      "åİ»": 384,
      "è¡ĮèĢħ": 385,
      "ä¹Ī": 386,
      "ĥ½": 387,
      "ä¹Ł": 388,
      "ĠI": 389,
      "Ġhe": 390,
      "åĳ": 391,
      "ve": 392,
      "ot": 393,
      "èĢģ": 394,
      "åķ¦": 395,
      "ç»": 396,
      "æĭ": 397,
      "çĿ": 398,
      "ä¸ĭ": 399,
      "è¯´": 400,
      "st": 401,
      "Ġand": 402,
      "ä¸ī": 403,
      "ow": 404,
      "éĹ®": 405,
      "å°±": 406,
      "ing": 407,
      "an": 408,
      "ðŁ": 409,
      "éĩĮ": 410,
      "åĥ": 411,
      "Ġof": 412,
      "ç§": 413,
      "om": 414,
      "è§ģ": 415,
      "æ²": 416,
      "Ġg": 417,
      "æĥ": 418,
      "æ°": 419,
      "at": 420,
      "åĬ": 421,
      "å±": 422,
      "å¤©": 423,
      "è®": 424,
      "å¥½": 425,
      "çĪ": 426,
      "Ġbe": 427,
      "¦ģ": 428,
      "ãĢģ": 429,
      "åĨ": 430,
      "è¦ģ": 431,
      "se": 432,
      "èĩ": 433,
      "åĩº": 434,
      "çĽ": 435,
      "åıª": 436,
      "å¹": 437,
      "çĿĢ": 438,
      "åĥ§": 439,
      "å¯": 440,
      "åıĪ": 441,
      "çİĭ": 442,
      "ï½": 443,
      "ä¸º": 444,
      "ä¹ĭ": 445,
      "Ġmy": 446,
      "å¸Ī": 447,
      "ï½ŀ": 448,
      "ï¼ŁâĢĿ": 449,
      "åī": 450,
      "çľĭ": 451,
      "éĢ": 452,
      "å·": 453,
      "Ġin": 454,
      "è·": 455,
      "ce": 456,
      "å½": 457,
      "Ġha": 458,
      "ç¬": 459,
      "le": 460,
      "é¢": 461,
      "çī": 462,
      "ay": 463,
      "æŀ": 464,
      "çŃ": 465,
      "çŁ": 466,
      "å¤´": 467,
      "åģ": 468,
      "çľŁ": 469,
      "åħ«": 470,
      "æ¯": 471,
      "ï¼ģâĢĿ": 472,
      "åº": 473,
      "åĸ": 474,
      "æ³": 475,
      "åĴ": 476,
      "ld": 477,
      "ir": 478,
      "et": 479,
      "å¦ĸ": 480,
      "Ħ¿": 481,
      "ä¸İ": 482,
      "ç¥": 483,
      "ed": 484,
      "ç§į": 485,
      "æĹ¶": 486,
      "åĶ": 487,
      "å¦Ĥ": 488,
      "çģ": 489,
      "éĥ½": 490,
      "èĦ": 491,
      "ut": 492,
      "å°ı": 493,
      "é£": 494,
      "ä¸įæĺ¯": 495,
      "è´": 496,
      "æŃ¤": 497,
      "ä¸Ń": 498,
      "å±±": 499,
      "åĪ°": 500,
      "éĿ": 501,
      "æł": 502,
      "æĢª": 503,
      "èº": 504,
      "ä¼ļ": 505,
      "åĦ¿": 506,
      "æĬĬ": 507,
      "è¿ĺ": 508,
      "éĹ¨": 509,
      "æĮ": 510,
      "Ġme": 511,
      "çĦ": 512,
      "im": 513,
      "åį´": 514,
      "æĹł": 515,
      "é©": 516,
      "æĢİ": 517,
      "å¿ĥ": 518,
      "ith": 519,
      "åĲĹ": 520,
      "çĶŁ": 521,
      "'s": 522,
      "åīį": 523,
      "Ġnot": 524,
      "ch": 525,
      "è¾": 526,
      "æīĵ": 527,
      "ï¿£)": 528,
      "åı¯": 529,
      "æĶ": 530,
      "å°Ĩ": 531,
      "å£": 532,
      "Ġthat": 533,
      "çĪ¶": 534,
      "Ġis": 535,
      "æĽ": 536,
      "æİ": 537,
      "gh": 538,
      "è¿Ļç§į": 539,
      "æ°´": 540,
      "ä»¬": 541,
      "And": 542,
      "æ´": 543,
      "æĪĴ": 544,
      "éĻ": 545,
      "è¿ĩ": 546,
      "åĮ": 547,
      "Ġfor": 548,
      "é¢ĺ": 549,
      "ç©": 550,
      "åĽŀ": 551,
      "èº«": 552,
      "è°": 553,
      "è¢": 554,
      "çĦ¶": 555,
      "ke": 556,
      "èĥ½": 557,
      "éĴ": 558,
      "éķ": 559,
      "å®¶": 560,
      "ä¾": 561,
      "Ġu": 562,
      "åħ«æĪĴ": 563,
      "æīĭ": 564,
      "our": 565,
      "åķĬ": 566,
      "éĺ": 567,
      "Ġwe": 568,
      "æģ": 569,
      "oo": 570,
      "æµ": 571,
      "ç½": 572,
      "çĻ": 573,
      "çĮ": 574,
      "åľ£": 575,
      "çŃī": 576,
      "åĵ¼": 577,
      "èĭ": 578,
      "èĹ": 579,
      "ill": 580,
      "éļ": 581,
      "Ġe": 582,
      "her": 583,
      "åĴĮ": 584,
      "åı«": 585,
      "(ï¿£": 586,
      "æĥ³": 587,
      "èĩª": 588,
      "æŃ£": 589,
      "Ġwith": 590,
      "åĢ": 591,
      "åįģ": 592,
      "å¤ļ": 593,
      "è½": 594,
      "ä¿": 595,
      "èĹı": 596,
      "çŁ¥": 597,
      "éķ¿": 598,
      "ent": 599,
      "å¸ĪçĪ¶": 600,
      "ï¼ģðŁ": 601,
      "Ġit": 602,
      "åľ°": 603,
      "éĽ": 604,
      "Ġyour": 605,
      "è¡ĮèĢħéģĵ": 606,
      "ad": 607,
      "éĹ®é¢ĺ": 608,
      "ç²": 609,
      "åĿ": 610,
      "ï¼Ľ": 611,
      "ç«": 612,
      "ä»Ģ": 613,
      "ä»Ģä¹Ī": 614,
      "ä¸Ģä¸ª": 615,
      "..": 616,
      "çº": 617,
      "ri": 618,
      "æ¸": 619,
      "æĹ¥": 620,
      "åĲĥ": 621,
      "éĩĳ": 622,
      "åĶĲ": 623,
      "ä¸¤": 624,
      "æīį": 625,
      "åĺ": 626,
      "æĸ¹": 627,
      "æĦ": 628,
      "Ġthou": 629,
      "¨Ģ": 630,
      "èµ°": 631,
      "äºĭ": 632,
      "ä½ķ": 633,
      "ä»¥": 634,
      "Ġst": 635,
      "å½ĵ": 636,
      "èĬ": 637,
      "äºĮ": 638,
      "æ±": 639,
      "èµ·": 640,
      "ç¥ŀ": 641,
      "åŃĻ": 642,
      "'d": 643,
      "æ¬": 644,
      "åıĺ": 645,
      "¥¿": 646,
      "çĤ": 647,
      "Ġk": 648,
      "ome": 649,
      "å¤ª": 650,
      "è¨Ģ": 651,
      "äºĽ": 652,
      "æĢİä¹Ī": 653,
      "Ġhis": 654,
      "ç®": 655,
      "çĶ¨": 656,
      "èĲ": 657,
      "èĪ": 658,
      "ä¸īèĹı": 659,
      "åĲİ": 660,
      "ght": 661,
      "EN": 662,
      "åģļ": 663,
      "éŃ": 664,
      "èĻ": 665,
      "å¤Ħ": 666,
      "ord": 667,
      "èĤ": 668,
      "id": 669,
      "è¥¿": 670,
      "The": 671,
      "as": 672,
      "æķĻ": 673,
      "ä½ı": 674,
      "æ²¡": 675,
      "ï¼ŁðŁ": 676,
      "è¿Ľ": 677,
      "Ġre": 678,
      "é¡": 679,
      "é©¬": 680,
      "Ġhave": 681,
      "æŀľ": 682,
      "éĿ¢": 683,
      "æĤ": 684,
      "IN": 685,
      "ly": 686,
      "çĥ": 687,
      "ra": 688,
      "è¯Ŀ": 689,
      "Ġli": 690,
      "è¢«": 691,
      "ç©º": 692,
      "æį": 693,
      "Ġhim": 694,
      "âĸ": 695,
      "å¤§åľ£": 696,
      "å£°": 697,
      "ur": 698,
      "Ġthis": 699,
      "al": 700,
      "è·¯": 701,
      "IO": 702,
      "æ£": 703,
      "éĵ": 704,
      "âĸ½": 705,
      "Ġso": 706,
      "åĽ½": 707,
      "(ï¿£âĸ½": 708,
      "ä¼Ĺ": 709,
      "æĺİ": 710,
      "ç¬ĳ": 711,
      "ç»ı": 712,
      "å¼Ł": 713,
      "åĪĨ": 714,
      "åĲ¬": 715,
      "Ġas": 716,
      "Ġde": 717,
      "çĶļ": 718,
      "åĽĽ": 719,
      "å¼Ģ": 720,
      "èĥ": 721,
      "æĻ": 722,
      "ç²¾": 723,
      "äºĳ": 724,
      "Ġon": 725,
      "é£İ": 726,
      "ä»Ĭ": 727,
      "æ²Ļ": 728,
      "æ³ķ": 729,
      "ore": 730,
      "é«": 731,
      "èĢĮ": 732,
      "åį³": 733,
      "åı£": 734,
      "ro": 735,
      "AR": 736,
      "hi": 737,
      "é¦": 738,
      "æľ¬": 739,
      "çķ": 740,
      "æĭ¿": 741,
      "ä¸Ķ": 742,
      "ould": 743,
      "ood": 744,
      "çĭ": 745,
      "èį": 746,
      "çĽ¸": 747,
      "é¾": 748,
      "ä½ľ": 749,
      "é«ĺ": 750,
      "å¹´": 751,
      "ck": 752,
      "èı": 753,
      "ain": 754,
      "ver": 755,
      "åĶĲåĥ§": 756,
      "æ»": 757,
      "çĲ": 758,
      "çģ«": 759,
      "ç´": 760,
      "æĪĲ": 761,
      "èİ": 762,
      "est": 763,
      "æŃ»": 764,
      "(ï¿£âĸ½ï¿£)": 765,
      "Ġthy": 766,
      "Ġsha": 767,
      "é¥": 768,
      "ess": 769,
      "éĶ": 770,
      "é¾Ļ": 771,
      "éŃĶ": 772,
      "èĦĳ": 773,
      "çĻ½": 774,
      "å®Ŀ": 775,
      "ea": 776,
      "è¯·": 777,
      "Ġdo": 778,
      "æ°Ķ": 779,
      "Ġwill": 780,
      "éļ¾": 781,
      "çĤ¹": 782,
      "am": 783,
      "åħī": 784,
      "æ®": 785,
      "æĳ": 786,
      "ä»Ļ": 787,
      "æĦı": 788,
      "ä¸ľ": 789,
      "å¥³": 790,
      "èĭ¥": 791,
      "Ġno": 792,
      "åıĸ": 793,
      "éĹ´": 794,
      "åĨį": 795,
      "æĶ¾": 796,
      "ä½Ľ": 797,
      "çī©": 798,
      "ä¾¿": 799,
      "Ġbut": 800,
      "åĺĽ": 801,
      "é»": 802,
      "us": 803,
      "US": 804,
      "and": 805,
      "if": 806,
      "éª": 807,
      "çĹ": 808,
      "åĽł": 809,
      "äºĶ": 810,
      "æł·": 811,
      "æŁ": 812,
      "Ġse": 813,
      "éĹ»": 814,
      "ge": 815,
      "å°ļ": 816,
      "èĬ±": 817,
      "æĺ¯ä¸įæĺ¯": 818,
      "å²": 819,
      "æ´ŀ": 820,
      "æĪĳä»¬": 821,
      "å¯¹": 822,
      "èĩ³": 823,
      "ä¸įçŁ¥": 824,
      "Th": 825,
      "Ġall": 826,
      "åĲĮ": 827,
      "åĩł": 828,
      "å¤ĸ": 829,
      "ç¦": 830,
      "èī": 831,
      "è¾¹": 832,
      "åĬ¨": 833,
      "åĮĸ": 834,
      "ake": 835,
      "Ġsu": 836,
      "å®ļ": 837,
      "æķ¢": 838,
      "To": 839,
      "æ²Ļåĥ§": 840,
      "å¨": 841,
      "åıĳ": 842,
      "åħ¬": 843,
      "æĭľ": 844,
      "åĲį": 845,
      "å®ĺ": 846,
      "èı©": 847,
      "éĤ£éĩĮ": 848,
      "ru": 849,
      "åĴĮå°ļ": 850,
      "Ġher": 851,
      "åĸľ": 852,
      "ion": 853,
      "èĽ": 854,
      "æħ": 855,
      "ç¾": 856,
      "ç¼": 857,
      "åŁ": 858,
      "åĳ½": 859,
      "th": 860,
      "èĲ¨": 861,
      "æĤŁ": 862,
      "å¾Ĵ": 863,
      "ä½Ĩ": 864,
      "èı©èĲ¨": 865,
      "Ġan": 866,
      "éħ": 867,
      "ter": 868,
      "ard": 869,
      "Ġlo": 870,
      "éľ": 871,
      "ä¸ĩ": 872,
      "han": 873,
      "ç¬ĳéģĵ": 874,
      "åĪ«": 875,
      "ell": 876,
      "...": 877,
      "èİ«": 878,
      "æ¶": 879,
      "çľ¼": 880,
      "ear": 881,
      "åİŁ": 882,
      "Ġsp": 883,
      "ç½¢": 884,
      "æĥħ": 885,
      "æ·": 886,
      "èħ": 887,
      "Ġthee": 888,
      "çľŁæĺ¯": 889,
      "æĽ¾": 890,
      "ç¤": 891,
      "å¾Ģ": 892,
      "åĵ©": 893,
      "âķ": 894,
      "Ġour": 895,
      "è£": 896,
      "åĢĴ": 897,
      "Ġfa": 898,
      "Ġshall": 899,
      "Ġby": 900,
      "åįĥ": 901,
      "åĲ§": 902,
      "åĳ¢": 903,
      "æı": 904,
      "è¶": 905,
      "UC": 906,
      "æĹ©": 907,
      "èĦĳåŃĲ": 908,
      "il": 909,
      "å®ŀ": 910,
      "Ġare": 911,
      "ING": 912,
      "çĮ´": 913,
      "åĿĲ": 914,
      "ĠC": 915,
      "åĬĽ": 916,
      "åħ¥": 917,
      "rom": 918,
      "Ġne": 919,
      "ho": 920,
      "âĢĺ": 921,
      "âĢĻ": 922,
      "ä¸įè¿ĩ": 923,
      "æĲ": 924,
      "ä½¿": 925,
      "Ġkn": 926,
      "ĠR": 927,
      "åħĪ": 928,
      "AN": 929,
      "æĴ": 930,
      "å®«": 931,
      "That": 932,
      "ä¸ºä»Ģä¹Ī": 933,
      "Ġv": 934,
      "è¿Ļä¸ª": 935,
      "ER": 936,
      "éķ¿èĢģ": 937,
      "OR": 938,
      "ast": 939,
      "å§": 940,
      "æ¡": 941,
      "ct": 942,
      "ous": 943,
      "è§Ĥ": 944,
      "è§£": 945,
      "æķĳ": 946,
      "Ġwhat": 947,
      "ä¸»": 948,
      "ä¸¤ä¸ª": 949,
      "æĢ§": 950,
      "æ¢": 951,
      "é½": 952,
      "æľĿ": 953,
      "æ£Ĵ": 954,
      "çł": 955,
      "æĸĩ": 956,
      "å¥ĩ": 957,
      "ight": 958,
      "å¿«": 959,
      "æĢ¥": 960,
      "Ġsh": 961,
      "å¦ĸç²¾": 962,
      "ul": 963,
      "ãĤ": 964,
      "ET": 965,
      "æĮĩ": 966,
      "æĺŁ": 967,
      "ãĤŀ": 968,
      "Ġ'": 969,
      "ant": 970,
      "çİī": 971,
      "ES": 972,
      "æīĢ": 973,
      "èĢģåŃĻ": 974,
      "å®ī": 975,
      "æĽ´": 976,
      "âķ¬": 977,
      "åĵ¥": 978,
      "æµ·": 979,
      "è¡£": 980,
      "æĶ¶": 981,
      "Ġup": 982,
      "çİ°": 983,
      "sel": 984,
      "èĪ¬": 985,
      "å·²": 986,
      "qu": 987,
      "âĹ": 988,
      "è¿Ļç§įéĹ®é¢ĺ": 989,
      "But": 990,
      "éĢļ": 991,
      "åľŁ": 992,
      "art": 993,
      "çĻ¾": 994,
      "ĠĊ": 995,
      "è½¬": 996,
      "é£ŀ": 997,
      "åĩºæĿ¥": 998,
      "ç¿": 999,
      "Ġgood": 1000,
      "ä¹ĥ": 1001,
      "row": 1002,
      "åĲĦ": 1003,
      "å¿µ": 1004,
      "ine": 1005,
      "åĥı": 1006,
      "ath": 1007,
      "åħĦ": 1008,
      "Ġlord": 1009,
      "çļ¿": 1010,
      "nt": 1011,
      "hich": 1012,
      "çĪ·": 1013,
      "ust": 1014,
      "æļ": 1015,
      "åħ«æĪĴéģĵ": 1016,
      "æĤŁç©º": 1017,
      "ç¤¼": 1018,
      "'ll": 1019,
      "ç¬¨": 1020,
      "one": 1021,
      "Ġpr": 1022,
      "åįĬ": 1023,
      "Ġcom": 1024,
      "çĲĨ": 1025,
      "Ġat": 1026,
      "è¯Ń": 1027,
      "çĶµ": 1028,
      "âķ¬ï¿£": 1029,
      "Ġman": 1030,
      "åħŃ": 1031,
      "ç¬¬": 1032,
      "What": 1033,
      "ĠM": 1034,
      "åħ³": 1035,
      "å¯»": 1036,
      "Ġwhe": 1037,
      "æĪĺ": 1038,
      "å°±æĺ¯": 1039,
      "èĽĭ": 1040,
      "ĠE": 1041,
      "å¸¸": 1042,
      "åĨħ": 1043,
      "çĽ´": 1044,
      "KING": 1045,
      "çĶļä¹Ī": 1046,
      "Ġam": 1047,
      "end": 1048,
      "âĢĶ": 1049,
      "âĹĭ": 1050,
      "ic": 1051,
      "é¸": 1052,
      "è®©": 1053,
      "æĪĸ": 1054,
      "Ġcon": 1055,
      "å°ĳ": 1056,
      "åŃĹ": 1057,
      "ä¼ł": 1058,
      "éĵģ": 1059,
      "ble": 1060,
      "é½Ĳ": 1061,
      "åŃ¦": 1062,
      "å¾Ħ": 1063,
      "ry": 1064,
      "äºİ": 1065,
      "æľĪ": 1066,
      "çĸ": 1067,
      "éĢģ": 1068,
      "ie": 1069,
      "æ¯Ķ": 1070,
      "ong": 1071,
      "ä¼¼": 1072,
      "ä»İ": 1073,
      "åŁİ": 1074,
      "éĥ": 1075,
      "ive": 1076,
      "Ġbl": 1077,
      "Ġfrom": 1078,
      "è¿ŀ": 1079,
      "æĸĹ": 1080,
      "ven": 1081,
      "éŁ": 1082,
      "èī²": 1083,
      "ĠG": 1084,
      "For": 1085,
      "Ġshe": 1086,
      "åıªæĺ¯": 1087,
      "æ»¡": 1088,
      "are": 1089,
      "em": 1090,
      "æ¸ħ": 1091,
      "æķħ": 1092,
      "æĬ¥": 1093,
      "Ġgo": 1094,
      "é¦Ļ": 1095,
      "èģ": 1096,
      "è®¤": 1097,
      "æİ¥": 1098,
      "IC": 1099,
      "åł": 1100,
      "åįĹ": 1101,
      "è°ģ": 1102,
      "Ġmore": 1103,
      "out": 1104,
      "Ġthem": 1105,
      "åħµ": 1106,
      "ĻĦ": 1107,
      "çŁ³": 1108,
      "è§ģéĤ£": 1109,
      "ï¿£)âĹĭ": 1110,
      "au": 1111,
      "Ġwas": 1112,
      "æĥĬ": 1113,
      "æ®¿": 1114,
      "å¥ĩæĢª": 1115,
      "ä¸įä¼ļ": 1116,
      "oth": 1117,
      "other": 1118,
      "He": 1119,
      "ä¸ĥ": 1120,
      "ol": 1121,
      "Ġsir": 1122,
      "å·±": 1123,
      "éļı": 1124,
      "æľĽ": 1125,
      "å¹²": 1126,
      "é¼": 1127,
      "ï¼ī": 1128,
      "ç¬¨èĽĭ": 1129,
      "åĻ": 1130,
      "è¯¥": 1131,
      "å°½": 1132,
      "ãĢĬ": 1133,
      "ãĢĭ": 1134,
      "éĩį": 1135,
      "åĲĽ": 1136,
      "æĹ¢": 1137,
      "Ġnow": 1138,
      "éĻį": 1139,
      "ĠL": 1140,
      "ä¹Ŀ": 1141,
      "Ġhat": 1142,
      "äºĨä¸Ģ": 1143,
      "åĳĨ": 1144,
      "æ¬¡": 1145,
      "çļĦåķ¦": 1146,
      "é¬": 1147,
      "ost": 1148,
      "Ġif": 1149,
      "ä¸ĸ": 1150,
      "LO": 1151,
      "çħ": 1152,
      "åĸĿ": 1153,
      "æĢķ": 1154,
      "èĩªå·±": 1155,
      "ind": 1156,
      "è°¢": 1157,
      "é»Ħ": 1158,
      "Ġthere": 1159,
      "èµ¶": 1160,
      "åºĶ": 1161,
      "ä½łèĦĳåŃĲ": 1162,
      "åĽ½çİĭ": 1163,
      "Ġwould": 1164,
      "Ġknow": 1165,
      "Ġcan": 1166,
      "ers": 1167,
      "è§ī": 1168,
      "ç¢": 1169,
      "çĬ": 1170,
      "è¿ĻéĩĮ": 1171,
      "çģµ": 1172,
      "IUS": 1173,
      "ep": 1174,
      "self": 1175,
      "ARD": 1176,
      "åĲĪ": 1177,
      "ather": 1178,
      "fe": 1179,
      "ond": 1180,
      "å¤ľ": 1181,
      "ä¹±": 1182,
      "res": 1183,
      "ç®¡": 1184,
      "ä½ĵ": 1185,
      "ate": 1186,
      "åĲĳ": 1187,
      "å¸Ŀ": 1188,
      "Ġsay": 1189,
      "ä¸īèĹıéģĵ": 1190,
      "Ġhere": 1191,
      "æł¹": 1192,
      "Ġlove": 1193,
      "æĢĿ": 1194,
      "æķ°": 1195,
      "pp": 1196,
      "Ġsw": 1197,
      "Ġtheir": 1198,
      "ä½łè¿Ļ": 1199,
      "Ġbr": 1200,
      "éŁ³": 1201,
      "ï¼Ī": 1202,
      "è¿ĳ": 1203,
      "çº¢": 1204,
      "æ¸¸": 1205,
      "å©": 1206,
      "Ġor": 1207,
      "--": 1208,
      "è¿ľ": 1209,
      "æĿĢ": 1210,
      "all": 1211,
      "ĠS": 1212,
      "éĤ£æĢª": 1213,
      "æ¼": 1214,
      "åı¤": 1215,
      "çĿ¡": 1216,
      "Ġthan": 1217,
      "æľª": 1218,
      "çª": 1219,
      "åıĹ": 1220,
      "å¾Ĵå¼Ł": 1221,
      "Ġthen": 1222,
      "è·³": 1223,
      "Ġking": 1224,
      "Ĵ¦": 1225,
      "Ġus": 1226,
      "ĠO": 1227,
      "ç§°": 1228,
      "ĠB": 1229,
      "Ġthey": 1230,
      "Ġar": 1231,
      "åĳĨåŃĲ": 1232,
      "od": 1233,
      "My": 1234,
      "æĸĭ": 1235,
      "Ġlet": 1236,
      "èµ·æĿ¥": 1237,
      "çı": 1238,
      "è®°": 1239,
      "ç©¿": 1240,
      "ä¸įè¦ģ": 1241,
      "æľį": 1242,
      "äº²": 1243,
      "Ġun": 1244,
      "çľŁçļĦ": 1245,
      "è±": 1246,
      "æ²¡æľī": 1247,
      "éĹ»è¨Ģ": 1248,
      "å¾Ī": 1249,
      "ç³": 1250,
      "å¸¦": 1251,
      "åħ¨": 1252,
      "å®³": 1253,
      "æ¯į": 1254,
      "èĦļ": 1255,
      "ï¼ģðŁĺ": 1256,
      "]ï¼Į": 1257,
      "ig": 1258,
      "å¼Ħ": 1259,
      "èĲ½": 1260,
      "é¬¼": 1261,
      "ä½łæĺ¯": 1262,
      "Ġwor": 1263,
      "ç±": 1264,
      "ure": 1265,
      "æ¥": 1266,
      "æ¨": 1267,
      "ä½į": 1268,
      "é¹": 1269,
      "ä¸İä»ĸ": 1270,
      "æĵ": 1271,
      "æģ¶": 1272,
      "å¤§çİĭ": 1273,
      "éĺ³": 1274,
      "çĮª": 1275,
      "ä»¥ä¸º": 1276,
      "æ¬¢": 1277,
      "ink": 1278,
      "ĠH": 1279,
      "åħ¶": 1280,
      "æĿ¡": 1281,
      "ame": 1282,
      "ä¸įæķ¢": 1283,
      "ort": 1284,
      "èĻİ": 1285,
      "çķĮ": 1286,
      "hy": 1287,
      "ĠV": 1288,
      "ä¸įå¾Ĺ": 1289,
      "éħĴ": 1290,
      "fore": 1291,
      "æµģ": 1292,
      "é¡»": 1293,
      "ç´§": 1294,
      "As": 1295,
      "åĳµ": 1296,
      "ä¿Ŀ": 1297,
      "Ĵ¢": 1298,
      "äºĨåĲĹ": 1299,
      "Ġmay": 1300,
      "åĳĬ": 1301,
      "éĹ®æĪĳ": 1302,
      "åĸĦ": 1303,
      "ä¸įå¥½": 1304,
      "å¦Ĥä½ķ": 1305,
      "æ±Ĥ": 1306,
      "el": 1307,
      "Ġqu": 1308,
      "Ġcome": 1309,
      "Whe": 1310,
      "¸ı": 1311,
      "å¿½": 1312,
      "ook": 1313,
      "åİŁæĿ¥": 1314,
      "å¥ĩæĢªçļĦ": 1315,
      "å¾ħ": 1316,
      "ish": 1317,
      "å¨ĺ": 1318,
      "LI": 1319,
      "ä¼¤": 1320,
      "åĬŁ": 1321,
      "çīĽ": 1322,
      "Ġwell": 1323,
      "åĺ´": 1324,
      "èĭ¦": 1325,
      "ï¼ŁðŁ¤": 1326,
      "KE": 1327,
      "ä¸įæĽ¾": 1328,
      "é©¾": 1329,
      "æĪĳçļĦ": 1330,
      "ves": 1331,
      "åĭ": 1332,
      "è¿ĺæĺ¯": 1333,
      "éĽ¨": 1334,
      "èĻ½": 1335,
      "æłĳ": 1336,
      "èĮ": 1337,
      "Ġj": 1338,
      "è¿İ": 1339,
      "ç»Ĩ": 1340,
      "ï¼ģðŁ¤": 1341,
      "Ġone": 1342,
      "ä¸įèĥ½": 1343,
      "å¿ħ": 1344,
      "é¥Ń": 1345,
      "åĵĪ": 1346,
      "ç«ĭ": 1347,
      "Ġhath": 1348,
      "irst": 1349,
      "æľº": 1350,
      "æŃ¥": 1351,
      "è§ģäºĨ": 1352,
      "ç½Ĺ": 1353,
      "æļĹ": 1354,
      "æ¯Ľ": 1355,
      "You": 1356,
      "ç¨": 1357,
      "èĢ³": 1358,
      "éĥ½æĺ¯": 1359,
      "åı¯ä»¥": 1360,
      "å½ĵçĦ¶": 1361,
      "å®¹": 1362,
      "Ġmake": 1363,
      "æ´»": 1364,
      "æŃ£æĺ¯": 1365,
      "çĹ´": 1366,
      "ak": 1367,
      "å·®": 1368,
      "reat": 1369,
      "gain": 1370,
      "Ġmust": 1371,
      "æĪĸèĢħ": 1372,
      "ound": 1373,
      "åģĩ": 1374,
      "æĺ¯ä¸ª": 1375,
      "æľ¨": 1376,
      "æģĲ": 1377,
      "æħĮ": 1378,
      "ng": 1379,
      "èĦ±": 1380,
      "å°ıå¦ĸ": 1381,
      "å¯º": 1382,
      "å¼ł": 1383,
      "Ġgra": 1384,
      "æĿİ": 1385,
      "æ²³": 1386,
      "çĵ": 1387,
      "åı«éģĵ": 1388,
      "éĽ·": 1389,
      "çī¹": 1390,
      "Ġwere": 1391,
      "ä¹¦": 1392,
      "ä¾Ŀ": 1393,
      "Ġho": 1394,
      "å¹³": 1395,
      "ci": 1396,
      "ä½łçļĦ": 1397,
      "å®ĥ": 1398,
      "(ï¿£^": 1399,
      "ç®Ĺ": 1400,
      "å£«": 1401,
      "Ġsee": 1402,
      "Ġlike": 1403,
      "(ï¿£^ï¿£)": 1404,
      "ue": 1405,
      "èĴ": 1406,
      "åı¯èĥ½": 1407,
      "å½¢": 1408,
      "è½»": 1409,
      "eak": 1410,
      "TIO": 1411,
      "ä»£": 1412,
      "å¿Ļ": 1413,
      "ç»Ļ": 1414,
      "èįī": 1415,
      "Ġshould": 1416,
      "ĠP": 1417,
      "ity": 1418,
      "éĤ£ä¸ª": 1419,
      "Ġpro": 1420,
      "ç»ĵ": 1421,
      "Ġsa": 1422,
      "Ġmad": 1423,
      "um": 1424,
      "Ġpl": 1425,
      "ä¿±": 1426,
      "é¢Ĩ": 1427,
      "Ġfather": 1428,
      "è®¡": 1429,
      "åĳ¼": 1430,
      "RO": 1431,
      "è¯Ĩ": 1432,
      "æ¯ķ": 1433,
      "AU": 1434,
      "æĹ¨": 1435,
      "æľīä¸Ģ": 1436,
      "Ġhad": 1437,
      "åĻ¨": 1438,
      "Ġdid": 1439,
      "ï½ŀ(ï¿£âĸ½ï¿£)": 1440,
      "pe": 1441,
      "åľº": 1442,
      "é»ĳ": 1443,
      "ime": 1444,
      "åĢĻ": 1445,
      "éĿĴ": 1446,
      "çķĻ": 1447,
      "Ġupon": 1448,
      "åĮ»": 1449,
      "çŃīæĪĳ": 1450,
      "éĴ±": 1451,
      "ï¼ŁðŁĴ¦": 1452,
      "çĲĥ": 1453,
      "ice": 1454,
      "èĦ¸": 1455,
      "éĴ¯": 1456,
      "ä¿®": 1457,
      "åĶ¤": 1458,
      "çł´": 1459,
      "ON": 1460,
      "æĬ¤": 1461,
      "Ġtoo": 1462,
      "ä¸ľè¥¿": 1463,
      "åĽłä¸º": 1464,
      "åħĥ": 1465,
      "ç¡": 1466,
      "èį¯": 1467,
      "éĺ´": 1468,
      "çĻ½çĹ´": 1469,
      "åĪĢ": 1470,
      "ence": 1471,
      "ĠW": 1472,
      "ä¹°": 1473,
      "ä¸īä¸ª": 1474,
      "è´Ŀ": 1475,
      "èĤ¯": 1476,
      "åıĸç»ı": 1477,
      "ward": 1478,
      "ist": 1479,
      "æĦŁ": 1480,
      "å¡": 1481,
      "æĳĩ": 1482,
      "çļ®": 1483,
      "ï¼Ł(ï¿£âĸ½ï¿£)": 1484,
      "å¥ī": 1485,
      "å¥ı": 1486,
      "Ġdeath": 1487,
      "åĩĢ": 1488,
      "å·¦": 1489,
      "æ¥¼": 1490,
      "own": 1491,
      "ç¦»": 1492,
      "çļĩ": 1493,
      "æī¯": 1494,
      "man": 1495,
      "ï¼ģ(ï¿£âĸ½ï¿£)": 1496,
      "ose": 1497,
      "Ġen": 1498,
      "è¿Ļç§įéĹ®é¢ĺä¹Ł": 1499,
      "çĨ": 1500,
      "Ġr": 1501,
      "åº§": 1502,
      "åºľ": 1503,
      "è¿Ľæ°´": 1504,
      "åłĤ": 1505,
      "un": 1506,
      "åģ·": 1507,
      "ç«¥": 1508,
      "IS": 1509,
      "ä¸¾": 1510,
      "å°Ĭ": 1511,
      "æİĴ": 1512,
      "æ¶Ī": 1513,
      "ful": 1514,
      "çĥ§": 1515,
      "nce": 1516,
      "ä¸Ģå£°": 1517,
      "æķ´": 1518,
      "ç½ª": 1519,
      "Ġspeak": 1520,
      "æ·±": 1521,
      "ä»¶": 1522,
      "Ġpo": 1523,
      "çľŁä¸ª": 1524,
      "æģ©": 1525,
      "de": 1526,
      "åıį": 1527,
      "entle": 1528,
      "io": 1529,
      "Ġout": 1530,
      "äºĨåķ¦": 1531,
      "æī¾": 1532,
      "å¼ķ": 1533,
      "pt": 1534,
      "Ġwhich": 1535,
      "å½Ĵ": 1536,
      "ICH": 1537,
      "äºĨåĲ§": 1538,
      "Ġfri": 1539,
      "ä¸İä½ł": 1540,
      "èĥľ": 1541,
      "å®Ŀè´Ŀ": 1542,
      "OL": 1543,
      "ç¥ĸ": 1544,
      "ä¼ı": 1545,
      "DU": 1546,
      "Ġagain": 1547,
      "æĬ¬": 1548,
      "å¼º": 1549,
      "æĻļ": 1550,
      "DUKE": 1551,
      "ç£": 1552,
      "ä¸¹": 1553,
      "éģĩ": 1554,
      "Ġhow": 1555,
      "è·ĳ": 1556,
      "åħĦå¼Ł": 1557,
      "å´": 1558,
      "å»": 1559,
      "æĩ": 1560,
      "åº¦": 1561,
      "ä¼ĳ": 1562,
      "EL": 1563,
      "ä½łä»¥ä¸º": 1564,
      "åĲĥäºĨ": 1565,
      "ick": 1566,
      "å¢": 1567,
      "ĠA": 1568,
      "Ġtru": 1569,
      "ä»¤": 1570,
      "äººå®¶": 1571,
      "Ġheart": 1572,
      "çģ¯": 1573,
      "åıĮ": 1574,
      "åİ»äºĨ": 1575,
      "çĽĺ": 1576,
      "è®¸": 1577,
      "é¡¶": 1578,
      "ä»ĬæĹ¥": 1579,
      "çĹħ": 1580,
      "æīĩ": 1581,
      "Ġyet": 1582,
      "æķ£": 1583,
      "Ġhand": 1584,
      "éªĤ": 1585,
      "CA": 1586,
      "Thou": 1587,
      "æĿ¾": 1588,
      "é£Ł": 1589,
      "very": 1590,
      "æĪ¿": 1591,
      "æĿ¥äºĨ": 1592,
      "è¡ĮèĢħç¬ĳéģĵ": 1593,
      "åĲ¬å¾Ĺ": 1594,
      "ICHARD": 1595,
      "èĵ": 1596,
      "æĪĳçŃī": 1597,
      "å¦Ĥæŀľ": 1598,
      "æ´Ĺ": 1599,
      "ENTIO": 1600,
      "æĴŀ": 1601,
      "With": 1602,
      "âľ": 1603,
      "åı³": 1604,
      "ä½łæĺ¯ä¸įæĺ¯": 1605,
      "æĿ¥çļĦ": 1606,
      "æŀĹ": 1607,
      "ign": 1608,
      "ä¹Łä¸į": 1609,
      "éĻ¢": 1610,
      "ä¿¡": 1611,
      "Ġsome": 1612,
      "ance": 1613,
      "æĮģ": 1614,
      "éģĤ": 1615,
      "Ġwho": 1616,
      "ä½łçľĭ": 1617,
      "ä»ĸä»¬": 1618,
      "Which": 1619,
      "å²ģ": 1620,
      "If": 1621,
      "åĵį": 1622,
      "åĬŀ": 1623,
      "Ġwhen": 1624,
      "ies": 1625,
      "Ġmar": 1626,
      "ire": 1627,
      "ï¸ı": 1628,
      "è¡¨": 1629,
      "ä¸Ĭåīį": 1630,
      "ç¾İ": 1631,
      "Ġmine": 1632,
      "åĵ¦": 1633,
      "Ġhon": 1634,
      "è·Ł": 1635,
      "har": 1636,
      "orn": 1637,
      "è¿ĻçŃī": 1638,
      "Ġoff": 1639,
      "ack": 1640,
      "ince": 1641,
      "åĵŃ": 1642,
      "åľ¨æŃ¤": 1643,
      "æĸ½": 1644,
      "INC": 1645,
      "In": 1646,
      "ĠY": 1647,
      "çļĦè¯Ŀ": 1648,
      "è¯ķ": 1649,
      "è¯Ĺ": 1650,
      "åį´è¯´": 1651,
      "å¤į": 1652,
      "çļĦäºº": 1653,
      "ï¼ģâķ¬ï¿£": 1654,
      "Ġson": 1655,
      "Ġdis": 1656,
      "æ¯ı": 1657,
      "Ġal": 1658,
      "çīĻ": 1659,
      "éĥ¨": 1660,
      "'t": 1661,
      "è¿Ļä¸Ģ": 1662,
      "è½¦": 1663,
      "å¤«": 1664,
      "å¦Ĥä»Ĭ": 1665,
      "âĢĶâĢĶ": 1666,
      "We": 1667,
      "çļĦæĺ¯": 1668,
      "å¯¿": 1669,
      "AB": 1670,
      "¦âĢ": 1671,
      "è®²": 1672,
      "oy": 1673,
      "±¼": 1674,
      "åŀ": 1675,
      "é±¼": 1676,
      "ä»ĸçļĦ": 1677,
      "åĳĢ": 1678,
      "å©Ĩ": 1679,
      "uch": 1680,
      "wn": 1681,
      "æľĢ": 1682,
      "Ġhea": 1683,
      "First": 1684,
      "äº¤": 1685,
      "çļĨ": 1686,
      "çħ§": 1687,
      "ä¸Ī": 1688,
      "Ġtime": 1689,
      "æĸŃ": 1690,
      "Ġhear": 1691,
      "èĢĮä¸Ķ": 1692,
      "æĺ¯æĪĳ": 1693,
      "æįī": 1694,
      "éĵ¶": 1695,
      "ec": 1696,
      "ï¼ģðŁĻĦ": 1697,
      "Ġsuch": 1698,
      "çĻ½çĹ´éĹ®é¢ĺ": 1699,
      "ness": 1700,
      "å³": 1701,
      "æĿ¥éĹ®æĪĳ": 1702,
      "çĪ±": 1703,
      "LA": 1704,
      "éŀ": 1705,
      "æľīäºĽ": 1706,
      "æ³¼": 1707,
      "æ¬²": 1708,
      "Ġbrother": 1709,
      "éĤ£äºĽ": 1710,
      "éĩı": 1711,
      "éĢł": 1712,
      "æĮī": 1713,
      "Of": 1714,
      "éĨ": 1715,
      "åıªè§ģ": 1716,
      "èĪį": 1717,
      "æ±ī": 1718,
      "å¤±": 1719,
      "ä½łä»¬": 1720,
      "Ġblood": 1721,
      "åĤ": 1722,
      "ither": 1723,
      "æ£į": 1724,
      "Ġab": 1725,
      "å½©": 1726,
      "UE": 1727,
      "Why": 1728,
      "Ġthese": 1729,
      "åŃĻè¡ĮèĢħ": 1730,
      "No": 1731,
      "å¾¡": 1732,
      "Ġgive": 1733,
      "ç®į": 1734,
      "èĤī": 1735,
      "æīĢä»¥": 1736,
      "è¿ĻèĪ¬": 1737,
      "éĺµ": 1738,
      "éĽ¾": 1739,
      "ä¸įä½ı": 1740,
      "èĬĤ": 1741,
      "é¦ĸ": 1742,
      "è£ħ": 1743,
      "èĮ¶": 1744,
      "Ġfo": 1745,
      "Ġday": 1746,
      "åıªè§ģéĤ£": 1747,
      "çŃĶ": 1748,
      "æĢİçļĦ": 1749,
      "çºµ": 1750,
      "éº": 1751,
      "ä¸¢": 1752,
      "åĽŀæĿ¥": 1753,
      "èĳ": 1754,
      "åı·": 1755,
      "ĠII": 1756,
      "åıĪä¸įæĺ¯": 1757,
      "æĽ°": 1758,
      "Ġear": 1759,
      "æį¢": 1760,
      "ĠRICHARD": 1761,
      "TER": 1762,
      "Ġro": 1763,
      "ise": 1764,
      "è®¾": 1765,
      "Ġex": 1766,
      "è¥¿å¤©": 1767,
      "è¿Ľåİ»": 1768,
      "Ġlife": 1769,
      "This": 1770,
      "(âķ¬ï¿£": 1771,
      "eet": 1772,
      "Ġtell": 1773,
      "éĤ£èĢģ": 1774,
      "åįİ": 1775,
      "æĸ°": 1776,
      "è´¼": 1777,
      "So": 1778,
      "éĤª": 1779,
      "Ġlook": 1780,
      "Ġthink": 1781,
      "UCH": 1782,
      "ãĢĢ": 1783,
      "åı°": 1784,
      "oul": 1785,
      "Ġword": 1786,
      "å®Ĺ": 1787,
      "æĭħ": 1788,
      "Ġey": 1789,
      "Ġwhere": 1790,
      "ag": 1791,
      "een": 1792,
      "çĿĽ": 1793,
      "äºĭæĥħ": 1794,
      "éĵģæ£Ĵ": 1795,
      "age": 1796,
      "ther": 1797,
      "åĮħ": 1798,
      "GLO": 1799,
      "ef": 1800,
      "Ġtake": 1801,
      "ä¹ħ": 1802,
      "å¿į": 1803,
      "ï¼ŁðŁĺ": 1804,
      "çĥŁ": 1805,
      "UCES": 1806,
      "ç±»": 1807,
      "Ġfriend": 1808,
      "GLOUCES": 1809,
      "GLOUCESTER": 1810,
      "erv": 1811,
      "çĥ¦": 1812,
      "ç¿»": 1813,
      "æĺ¾": 1814,
      "ï¼ļâĢĺ": 1815,
      "åĵª": 1816,
      "ï¼ŁðŁĻĦ": 1817,
      "æ»ļ": 1818,
      "ï¼ģðŁĺ¤": 1819,
      "å¦ĸæĢª": 1820,
      "ady": 1821,
      "æıĲ": 1822,
      "rown": 1823,
      "å¾·": 1824,
      "Ġdes": 1825,
      "ings": 1826,
      "å±ħ": 1827,
      "åĨĻ": 1828,
      "è¿Ļç§įçĻ½çĹ´éĹ®é¢ĺ": 1829,
      "ä¸İæĪĳ": 1830,
      "ave": 1831,
      "not": 1832,
      "âĻ": 1833,
      "ç»³": 1834,
      "éĴ»": 1835,
      "æ¢¦": 1836,
      "Ġgentle": 1837,
      "å¤©çİĭ": 1838,
      "urse": 1839,
      "é¾Ļçİĭ": 1840,
      "è®¤å¾Ĺ": 1841,
      "åį·": 1842,
      "æŃ¦": 1843,
      "Ġri": 1844,
      "Ģï¸ı": 1845,
      "å®Į": 1846,
      "åŃ©": 1847,
      "åĩ¡": 1848,
      "åĩ¶": 1849,
      "æŀª": 1850,
      "å¦ĤæĿ¥": 1851,
      "å¤ªåŃĲ": 1852,
      "æ®µ": 1853,
      "How": 1854,
      "RY": 1855,
      "ase": 1856,
      "çĳ": 1857,
      "ä¸ļ": 1858,
      "éĤ£ä¹Ī": 1859,
      "æĹģ": 1860,
      "įâĻ": 1861,
      "éĿŀ": 1862,
      "åħ»": 1863,
      "ä¸Ģæł·": 1864,
      "è§Ĵ": 1865,
      "èĩ£": 1866,
      "å¸Īå¾Ĵ": 1867,
      "çĥŃ": 1868,
      "åħ¬ä¸»": 1869,
      "è±¡": 1870,
      "QUE": 1871,
      "way": 1872,
      "ä½łè¿Ļç§į": 1873,
      "æĢĴ": 1874,
      "INCENTIO": 1875,
      "įâĻĢï¸ı": 1876,
      "QUEEN": 1877,
      "ä¹Ĳ": 1878,
      "æĿĸ": 1879,
      "Ġlea": 1880,
      "çİĦ": 1881,
      "æŀľçĦ¶": 1882,
      "ç´ł": 1883,
      "ä¸ľåľŁ": 1884,
      "tis": 1885,
      "ä¸įè§ģ": 1886,
      "æŀ¶": 1887,
      "æĹ¶åĢĻ": 1888,
      "æĳĨ": 1889,
      "ĠOF": 1890,
      "æľīä¸ª": 1891,
      "åºķ": 1892,
      "Ġart": 1893,
      "è¸": 1894,
      "Ġmost": 1895,
      "å¹¿": 1896,
      "Where": 1897,
      "(ï¿£âĸ½ï¿£": 1898,
      "éª¨": 1899,
      "Ġhonour": 1900,
      "LAN": 1901,
      "ãĢĤâĢĻ": 1902,
      "å¤¹": 1903,
      "Ġsl": 1904,
      "Ġmuch": 1905,
      "åĪ©": 1906,
      "çĽĸ": 1907,
      "æ¯Ĵ": 1908,
      "ç³»": 1909,
      "âĢĿãĢĤ": 1910,
      "Ġwar": 1911,
      "ï¼Łï¼ģ": 1912,
      "åĪĻ": 1913,
      "éĴŁ": 1914,
      "äºĮåįģ": 1915,
      "ä¸Ģä¸ĭ": 1916,
      "Ġfl": 1917,
      "urn": 1918,
      "æ¡ĥ": 1919,
      "å«": 1920,
      "åļ": 1921,
      "æº": 1922,
      "æĻĵ": 1923,
      "æĢ§åĳ½": 1924,
      "Ġmade": 1925,
      "10": 1926,
      "ment": 1927,
      "èľ": 1928,
      "åħ¢": 1929,
      "è´«": 1930,
      "åŃĻå¤§åľ£": 1931,
      "âľ¨": 1932,
      "Now": 1933,
      "æĪĳå¸ĪçĪ¶": 1934,
      "è¦ģéĹ®": 1935,
      "Ġhast": 1936,
      "ç¾¤": 1937,
      "è¶³": 1938,
      "Ġtw": 1939,
      "Ġfear": 1940,
      "çİ©": 1941,
      "æİ¨": 1942,
      "èħ°": 1943,
      "æ¦": 1944,
      "ĠT": 1945,
      "æ²¹": 1946,
      "åĴĴ": 1947,
      "åĵĪåĵĪ": 1948,
      "ãĥ": 1949,
      "çŀ": 1950,
      "Ġ*": 1951,
      "è¿Ļä¹Ī": 1952,
      "çĶ·": 1953,
      "å¹¶": 1954,
      "åģľ": 1955,
      "å¦ĸéŃĶ": 1956,
      "æħ¢": 1957,
      "å§ĵ": 1958,
      "ä½łèĦĳåŃĲæĺ¯ä¸įæĺ¯": 1959,
      "æ¨¡": 1960,
      "äºī": 1961,
      "æī§": 1962,
      "èĢģçĪ·": 1963,
      "Ġbet": 1964,
      "æ³¢": 1965,
      "æ³ª": 1966,
      "åĢŁ": 1967,
      "å¤ļå°ĳ": 1968,
      "ENRY": 1969,
      "ç¦ħ": 1970,
      "aught": 1971,
      "è¹": 1972,
      "éģį": 1973,
      "åİĨ": 1974,
      "åĿı": 1975,
      "LE": 1976,
      "ff": 1977,
      "èŁ": 1978,
      "åıī": 1979,
      "çļĦåĲĹ": 1980,
      "åĽŃ": 1981,
      "å±Ĥ": 1982,
      "åĨ·": 1983,
      "éĢĢ": 1984,
      "æİī": 1985,
      "éĶ¦": 1986,
      "Is": 1987,
      "ber": 1988,
      "åıĬ": 1989,
      "ä»ĸä¸Ģ": 1990,
      "åĬł": 1991,
      "æĮĤ": 1992,
      "ĠGod": 1993,
      "æĦ¿": 1994,
      "ough": 1995,
      "å®¿": 1996,
      "ved": 1997,
      "å¥½åĲĹ": 1998,
      "çŁ¥éģĵ": 1999,
      "ç¥ŀéĢļ": 2000,
      "çİīå¸Ŀ": 2001,
      "è¡£æľį": 2002,
      "Ġbre": 2003,
      "å¥Ī": 2004,
      "åİ®": 2005,
      "å½±": 2006,
      "èĻļ": 2007,
      "èĥĮ": 2008,
      "çĮ´çİĭ": 2009,
      "çĸ¼": 2010,
      "cc": 2011,
      "åĵģ": 2012,
      "ower": 2013,
      "éĩĮéĿ¢": 2014,
      "çŃĭ": 2015,
      "è´¤": 2016,
      "åı«åģļ": 2017,
      "ç®Ģ": 2018,
      "Ġnever": 2019,
      "è§Ĥçľĭ": 2020,
      "èģĬ": 2021,
      "ĠVINCENTIO": 2022,
      "Be": 2023,
      "ap": 2024,
      "igh": 2025,
      "ĠK": 2026,
      "åıĭ": 2027,
      "æĪı": 2028,
      "Ġgreat": 2029,
      "æ²Ļåĥ§éģĵ": 2030,
      "Ġfair": 2031,
      "Who": 2032,
      "]ãĢĤ": 2033,
      "ee": 2034,
      "tle": 2035,
      "Ġmen": 2036,
      "æĢ»": 2037,
      "orrow": 2038,
      "Ġcou": 2039,
      "åĶ¬": 2040,
      "å¼ŁåŃĲ": 2041,
      "éľĢ": 2042,
      "Ġnew": 2043,
      "ĠRome": 2044,
      "aster": 2045,
      "åĵ¥åĵ¥": 2046,
      "uke": 2047,
      "å¹Į": 2048,
      "è¿ĺæľī": 2049,
      "åŃĻæĤŁç©º": 2050,
      "éŃĤ": 2051,
      "iz": 2052,
      "éĤ£åĳĨåŃĲ": 2053,
      "å¸ĥ": 2054,
      "åĳĺ": 2055,
      "çľĭçľĭ": 2056,
      "æ¯«": 2057,
      "åĮĹ": 2058,
      "ç«¯": 2059,
      "åıĺä½ľ": 2060,
      "old": 2061,
      "èĢģå¸Ī": 2062,
      "åĬ©": 2063,
      "æİĮ": 2064,
      "ORK": 2065,
      "è¯¸": 2066,
      "åĪĹ": 2067,
      "è§ģä»ĸ": 2068,
      "å´ĸ": 2069,
      "ation": 2070,
      "ç´¢": 2071,
      "é¥¶": 2072,
      "èķ": 2073,
      "ĠæĪĳ": 2074,
      "âĢĿï¼Į": 2075,
      "éģĵå£«": 2076,
      "æĹ§": 2077,
      "Ġpart": 2078,
      "åĪ°äºĨ": 2079,
      "å£ģ": 2080,
      "çĭĹ": 2081,
      "åĨįè¯´": 2082,
      "åĩłä¸ª": 2083,
      "ç¡®": 2084,
      "å¦Ī": 2085,
      "è®º": 2086,
      "çĽ®": 2087,
      "è´¥": 2088,
      "INIUS": 2089,
      "æĦıæĢĿ": 2090,
      "é¸¡": 2091,
      "ss": 2092,
      "åıĤ": 2093,
      "ree": 2094,
      "åĪĩ": 2095,
      "åĨĽ": 2096,
      "ide": 2097,
      "åľŁåľ°": 2098,
      "èĻ½çĦ¶": 2099,
      "Or": 2100,
      "èĨ": 2101,
      "ä»ĺ": 2102,
      "æĢģ": 2103,
      "Ġcall": 2104,
      "åľ¨éĤ£": 2105,
      "ä¸ĭæ¬¡": 2106,
      "éĹ®éģĵ": 2107,
      "æĮĳ": 2108,
      "æģ¯": 2109,
      "è¯Ŀè¯´": 2110,
      "ple": 2111,
      "èĢį": 2112,
      "Ġany": 2113,
      "Ġheaven": 2114,
      "ä¸ĵ": 2115,
      "Ġad": 2116,
      "æŀģ": 2117,
      "åĴ¬": 2118,
      "æŁ¥": 2119,
      "ä½İ": 2120,
      "åľ¨éĤ£éĩĮ": 2121,
      "å¾ĹéĤ£": 2122,
      "æ±Ł": 2123,
      "Ġcomm": 2124,
      "¦âĢįâĻĢï¸ı": 2125,
      "It": 2126,
      "Your": 2127,
      "Ľä¸ĭ": 2128,
      "äº®": 2129,
      "Ġname": 2130,
      "ä¸īåįģ": 2131,
      "åºĦ": 2132,
      "ä¾Ľ": 2133,
      "ç«Ļ": 2134,
      "Ġstand": 2135,
      "å¨ģ": 2136,
      "Ġcannot": 2137,
      "æĩĤ": 2138,
      "Ġtrue": 2139,
      "DW": 2140,
      "å°ĺ": 2141,
      "éĹª": 2142,
      "éĹ¹": 2143,
      "åįķ": 2144,
      "Ġbeen": 2145,
      "ears": 2146,
      "DWARD": 2147,
      "ï¼ģ(ï¿£^ï¿£)": 2148,
      "éĹ²": 2149,
      "æľīäºº": 2150,
      "Ġcl": 2151,
      "Ġpre": 2152,
      "éĹ¨å¤ĸ": 2153,
      "éĻ¤": 2154,
      "æķĻä»ĸ": 2155,
      "Ġsweet": 2156,
      ",--": 2157,
      "åĲ¹": 2158,
      "Ġdoth": 2159,
      "æĭĽ": 2160,
      "åĩºåİ»": 2161,
      "å¸ĪåħĦ": 2162,
      "è·Į": 2163,
      "è¶ħ": 2164,
      "ä¹ĥæĺ¯": 2165,
      "Ġpray": 2166,
      "hing": 2167,
      "é²": 2168,
      "ä¸Ģé½Ĳ": 2169,
      "è¿ĻäºĽ": 2170,
      "åıĺåĮĸ": 2171,
      "èĻ«": 2172,
      "èĤļ": 2173,
      "æ¬¢åĸľ": 2174,
      "PET": 2175,
      "UM": 2176,
      "åīĳ": 2177,
      "è·ª": 2178,
      "å¦ĸçİĭ": 2179,
      "ï¼ģðŁĴ¢": 2180,
      "ç«Ł": 2181,
      "èµ°äºĨ": 2182,
      "å¤ªå®Ĺ": 2183,
      "Ġnoble": 2184,
      "LUC": 2185,
      "MEN": 2186,
      "TH": 2187,
      "ä¸įçĦ¶": 2188,
      "åİĭ": 2189,
      "åĽ´": 2190,
      "äººçļĦ": 2191,
      "Ġown": 2192,
      "Ġple": 2193,
      "å·¥": 2194,
      "è°ĥ": 2195,
      "ass": 2196,
      "æģ¶å¿ĥ": 2197,
      "ĠD": 2198,
      "ouse": 2199,
      "åįĸ": 2200,
      "è¡ĮæĿİ": 2201,
      "Ġper": 2202,
      "ç»Ŀ": 2203,
      "éĢĴ": 2204,
      "Ay": 2205,
      "Come": 2206,
      "li": 2207,
      "ull": 2208,
      "æĪĳä¹Ł": 2209,
      "åĪļ": 2210,
      "å¥½ä¸įå¥½": 2211,
      "éĻĪ": 2212,
      "There": 2213,
      "çĨŁ": 2214,
      "è´«åĥ§": 2215,
      "Ġtr": 2216,
      "Ġwr": 2217,
      "ä¸ĢèĪ¬": 2218,
      "ä½łæĢİä¹Ī": 2219,
      "è¡Ģ": 2220,
      "Ġdone": 2221,
      "è¯´è¯Ŀ": 2222,
      "å¹¸": 2223,
      "ä¸Ģä¸ªä¸ª": 2224,
      "äºĳå¤´": 2225,
      "ife": 2226,
      "ç¦ı": 2227,
      "aw": 2228,
      "å¤ĩ": 2229,
      "å®¢": 2230,
      "éĻĽä¸ĭ": 2231,
      "ç©ºä¸Ń": 2232,
      "éľĢè¦ģ": 2233,
      "Ġä¸įè¿ĩ": 2234,
      "äº¦": 2235,
      "æĺ¯åĽłä¸º": 2236,
      "Ġway": 2237,
      "æŃ¢": 2238,
      "Ġother": 2239,
      "Ġhead": 2240,
      "çģŃ": 2241,
      "éĽĦ": 2242,
      "éĶĻ": 2243,
      "é¼»": 2244,
      "åĲ¾": 2245,
      "åĩ¤": 2246,
      "Ġmean": 2247,
      "æĢİçĶŁ": 2248,
      "ï¼īï¼ļ": 2249,
      "æĺ¥": 2250,
      "red": 2251,
      "è¯ģ": 2252,
      "æĢĢ": 2253,
      "åľ£åĥ§": 2254,
      "èħ¾": 2255,
      "When": 2256,
      "EO": 2257,
      "dward": 2258,
      "åĲ¸": 2259,
      "æľŁ": 2260,
      "è¯ļ": 2261,
      "Ġnor": 2262,
      "ðŁĴ¢": 2263,
      "éĹ¨å¤¹": 2264,
      "çĪ·çĪ·": 2265,
      "11": 2266,
      "MEO": 2267,
      "å¤Ł": 2268,
      "Ġsc": 2269,
      "Ġsoul": 2270,
      "Ġpres": 2271,
      "åĳ³": 2272,
      "åĿĹ": 2273,
      "èĥĨ": 2274,
      "æħĪ": 2275,
      "çľŁæĺ¯çļĦ": 2276,
      "åħµåĻ¨": 2277,
      "èĴĻ": 2278,
      "ROMEO": 2279,
      "ace": 2280,
      "ving": 2281,
      "éĤ£å¦ĸç²¾": 2282,
      "Ġnight": 2283,
      "Ġbear": 2284,
      "ç¥¥": 2285,
      "éĴī": 2286,
      "æģ¼": 2287,
      "åįģåĪĨ": 2288,
      "éĩĳç®į": 2289,
      "ENIUS": 2290,
      "é¡¿": 2291,
      "æĤ²": 2292,
      "èĥ¡": 2293,
      "aint": 2294,
      "ĠCl": 2295,
      "Ġworld": 2296,
      "è¿Ľæ°´äºĨåĲĹ": 2297,
      "MENENIUS": 2298,
      "ger": 2299,
      "ç¯": 2300,
      "éģŃ": 2301,
      "Ġbefore": 2302,
      "åĨ°": 2303,
      "é£ĺ": 2304,
      "æ±Ŀ": 2305,
      "åıĺåģļ": 2306,
      "è¢«éĹ¨å¤¹": 2307,
      "çĭ®": 2308,
      "ause": 2309,
      "åļ·": 2310,
      "per": 2311,
      "Īè£": 2312,
      "æĪĳå°±": 2313,
      "Ġboth": 2314,
      "å¦Ļ": 2315,
      "åĨ²": 2316,
      "é¥®": 2317,
      "Ġqueen": 2318,
      "éĩİ": 2319,
      "æ²»": 2320,
      "è¢Īè£": 2321,
      "æĥ³æĺ¯": 2322,
      "Then": 2323,
      "éĹ»å¾Ĺ": 2324,
      "é¼ĵ": 2325,
      "éĨĴ": 2326,
      "aughter": 2327,
      "è¢Īè£Ł": 2328,
      "RUCH": 2329,
      "ock": 2330,
      "æ½": 2331,
      "èļ": 2332,
      "åı¥": 2333,
      "å®Ī": 2334,
      "Ġchi": 2335,
      "å¦ĤæŃ¤": 2336,
      "æ¸©": 2337,
      "Here": 2338,
      "PETRUCH": 2339,
      "PETRUCHIO": 2340,
      "OM": 2341,
      "able": 2342,
      "Ġvery": 2343,
      "ä¸įé¢ĺ": 2344,
      "è¯ī": 2345,
      "æľīä»Ģä¹Ī": 2346,
      "å¯Ĵ": 2347,
      "Ġdead": 2348,
      "å²¸": 2349,
      "ç¼ĺ": 2350,
      "æıŃ": 2351,
      "æ¨¡æł·": 2352,
      "12": 2353,
      "TES": 2354,
      "ä¸Ŀ": 2355,
      "åķĨ": 2356,
      "èĢģèĢħ": 2357,
      "çīĩ": 2358,
      "çŁŃ": 2359,
      "éĿĻ": 2360,
      "ä¾į": 2361,
      "By": 2362,
      "Ġra": 2363,
      "èĢĥ": 2364,
      "è¿Ļæł·": 2365,
      "åİ¢": 2366,
      "ite": 2367,
      "å¿ĥä¸Ń": 2368,
      "æ±ł": 2369,
      "çĮªåħ«æĪĴ": 2370,
      "Than": 2371,
      "the": 2372,
      "Ġke": 2373,
      "ä¸įåı¯": 2374,
      "ðŁĴ": 2375,
      "ab": 2376,
      "les": 2377,
      "ĠF": 2378,
      "ä¸ĢæĿ¡": 2379,
      "Ġdown": 2380,
      "æ°ĳ": 2381,
      "çīµ": 2382,
      "èĭ±": 2383,
      "çıŃ": 2384,
      "sw": 2385,
      "to": 2386,
      "åĹ": 2387,
      "æĺı": 2388,
      "Ġapp": 2389,
      "ä¼Ļ": 2390,
      "åĵĦ": 2391,
      "è¦ģæĺ¯": 2392,
      "Ġmyself": 2393,
      "çīĮ": 2394,
      "ä¼Ĺåĥ§": 2395,
      "æ¶§": 2396,
      "Ġcont": 2397,
      "å¡Ķ": 2398,
      "GR": 2399,
      "HA": 2400,
      "Ġwh": 2401,
      "éĹ®å¾Ĺ": 2402,
      "è¿Ļç§įå¥ĩæĢªçļĦ": 2403,
      "å¤ªéĺ³": 2404,
      "Ġrem": 2405,
      "çİ°åľ¨": 2406,
      "ĠLord": 2407,
      "Ġarm": 2408,
      "æĢľ": 2409,
      "Ġthus": 2410,
      "åĬ³": 2411,
      "çŁ£": 2412,
      "åı¯æĺ¯": 2413,
      "IOLAN": 2414,
      "çķª": 2415,
      "ilt": 2416,
      "ORIOLAN": 2417,
      "ORIOLANUS": 2418,
      "CORIOLANUS": 2419,
      "Sec": 2420,
      "è²": 2421,
      "ä½łè¿Ļä¸ª": 2422,
      "åľĨ": 2423,
      "å¾®": 2424,
      "å¦ĩ": 2425,
      "çľĭè§ģ": 2426,
      "Ġleave": 2427,
      "Second": 2428,
      "è¿Ĳ": 2429,
      "æľ¯": 2430,
      "å¸®": 2431,
      "ä¹Łæĺ¯": 2432,
      "Ġbeing": 2433,
      "å°ıçļĦ": 2434,
      "å¤ļæĹ¶": 2435,
      "éĶģ": 2436,
      "éŃĶçİĭ": 2437,
      "ction": 2438,
      "ĠEdward": 2439,
      "ç¨ĭ": 2440,
      "BA": 2441,
      "Nor": 2442,
      "åı²": 2443,
      "æĪĳæĺ¯": 2444,
      "æĹ¶éĹ´": 2445,
      "åį´åıĪ": 2446,
      "Ġunt": 2447,
      "çĤ¼": 2448,
      "èį¡": 2449,
      "ress": 2450,
      "Ġgrace": 2451,
      "less": 2452,
      "çļĦéĹ®é¢ĺ": 2453,
      "çĶ²": 2454,
      "èµĽ": 2455,
      "Ġbeg": 2456,
      "åıªå¾Ĺ": 2457,
      "çģ¾": 2458,
      "çĻ»": 2459,
      "çº¿": 2460,
      "æ¬º": 2461,
      "ç´«": 2462,
      "Ġeyes": 2463,
      "land": 2464,
      "ç°": 2465,
      "Ġmother": 2466,
      "å¥¶": 2467,
      "çŃĳ": 2468,
      "æŃ»äºĨ": 2469,
      "æĳ¸": 2470,
      "ran": 2471,
      "Ġma": 2472,
      "Ġold": 2473,
      "ä¸ĭæĿ¥": 2474,
      "åĸĤ": 2475,
      "æµª": 2476,
      "ç«¹": 2477,
      "ç±³": 2478,
      "Ġim": 2479,
      "ä¸ĳ": 2480,
      "ä»ĸå°±": 2481,
      "å·´": 2482,
      "æīĭæ®µ": 2483,
      "INA": 2484,
      "æŁ³": 2485,
      "å²Ĥ": 2486,
      "ĠEDWARD": 2487,
      "ä½łåľ¨": 2488,
      "è¿Ļæĺ¯": 2489,
      "itiz": 2490,
      "è§Ĩ": 2491,
      "åĬ¿": 2492,
      "åĨ³": 2493,
      "åĪ°æŃ¤": 2494,
      "èº«ä¸Ģ": 2495,
      "ä½łèĦĳåŃĲè¿Ľæ°´äºĨåĲĹ": 2496,
      "itizen": 2497,
      "ps": 2498,
      "åĪĿ": 2499,
      "Ġlong": 2500,
      "æĬ¡": 2501,
      "Ġever": 2502,
      "éĽª": 2503,
      "æĶ¶äºĨ": 2504,
      "ĠMar": 2505,
      "åºĶè¯¥": 2506,
      "åı©": 2507,
      "å¥Ķ": 2508,
      "å¤§ä»Ļ": 2509,
      "æĹłèģĬ": 2510,
      "è¾ĥ": 2511,
      "æĶ¹": 2512,
      "æģ¨": 2513,
      "Ġlive": 2514,
      "æĻº": 2515,
      "è¿ĳåīį": 2516,
      "çĵ¶": 2517,
      "å·¦åı³": 2518,
      "Ġchild": 2519,
      "Let": 2520,
      "me": 2521,
      "Ġwife": 2522,
      "ä½łåİ»": 2523,
      "å®´": 2524,
      "æĿ¥ä¹Ł": 2525,
      "çĪ¬": 2526,
      "éĺģ": 2527,
      "é¦Ģ": 2528,
      "å¥³åŃĲ": 2529,
      "çĹĽ": 2530,
      "å²Ń": 2531,
      "ç¿ł": 2532,
      "ãĥİ": 2533,
      "è²Į": 2534,
      "She": 2535,
      "è¿Ł": 2536,
      "Ġaway": 2537,
      "åħ±": 2538,
      "åħ½": 2539,
      "çĶ±": 2540,
      "ç§ĳ": 2541,
      "åĢ¼": 2542,
      "åľ°çĲĥ": 2543,
      "èµ°è·¯": 2544,
      "Ġrep": 2545,
      "å¨ĺå¨ĺ": 2546,
      "å½ĵçĦ¶æĺ¯": 2547,
      "ĠIII": 2548,
      "for": 2549,
      "åı¶": 2550,
      "Ġwom": 2551,
      "åŃ¤": 2552,
      "æ²ī": 2553,
      "è®¨": 2554,
      "èĪŀ": 2555,
      "è¥¿æ¸¸": 2556,
      "Ġpoor": 2557,
      "Ġfriends": 2558,
      "come": 2559,
      "wick": 2560,
      "ä¹ī": 2561,
      "Ġaf": 2562,
      "Ġmight": 2563,
      "å¤§å°ı": 2564,
      "æĬĸ": 2565,
      "é¡¾": 2566,
      "è§ĤéŁ³": 2567,
      "æĵĴ": 2568,
      "çļĩå¸Ŀ": 2569,
      "æľķ": 2570,
      "è¯¾": 2571,
      "nder": 2572,
      "çİ¯": 2573,
      "ä¹Łå¤ª": 2574,
      "æĭī": 2575,
      "éĢ¢": 2576,
      "è½¯": 2577,
      "Ġstay": 2578,
      "eace": 2579,
      "éĥİ": 2580,
      "æ¯ķç«Ł": 2581,
      "ks": 2582,
      "oud": 2583,
      "æĿŁ": 2584,
      "Ġdie": 2585,
      "atch": 2586,
      "led": 2587,
      "åºĬ": 2588,
      "åĸ·": 2589,
      "èº²": 2590,
      "è¾ŀ": 2591,
      "ĠJ": 2592,
      "Ġru": 2593,
      "ä»Ķ": 2594,
      "arwick": 2595,
      "è¥¿æĸ¹": 2596,
      "Ġcomes": 2597,
      "Ġcons": 2598,
      "ç¢İ": 2599,
      "éªĤéģĵ": 2600,
      "å¦»": 2601,
      "Ġcrown": 2602,
      "ows": 2603,
      "æĢİä¹ĪåĬŀ": 2604,
      "åĪĨä»ĺ": 2605,
      "Ġmany": 2606,
      "çıł": 2607,
      "æĪ·": 2608,
      "çĶ»": 2609,
      "å¤§åĶĲ": 2610,
      "Ġpe": 2611,
      "è´Ł": 2612,
      "ä»Ķç»Ĩ": 2613,
      "Tis": 2614,
      "lo": 2615,
      "åı¸": 2616,
      "æĿ¯": 2617,
      "hall": 2618,
      "æīĳ": 2619,
      "åŃĺ": 2620,
      "ison": 2621,
      "åĪ¶": 2622,
      "Ġle": 2623,
      "å±ķ": 2624,
      "æŃ£å¸¸": 2625,
      "å§Ĳ": 2626,
      "ĠYORK": 2627,
      "éº»": 2628,
      "uck": 2629,
      "çļĦæĹ¶åĢĻ": 2630,
      "iss": 2631,
      "å¸ħ": 2632,
      "æĬĺ": 2633,
      "Ġhouse": 2634,
      "Ġhar": 2635,
      "æİ£": 2636,
      "Ġthought": 2637,
      "äºĽåĦ¿": 2638,
      "Ġrest": 2639,
      "ç¾Ĭ": 2640,
      "éľĦ": 2641,
      "é½Ĳå¤©": 2642,
      "ISAB": 2643,
      "ELLA": 2644,
      "ISABELLA": 2645,
      "ian": 2646,
      "erc": 2647,
      "Ġcour": 2648,
      "è¯´ä¸į": 2649,
      "åıªæľī": 2650,
      "ç¬¼": 2651,
      "çĮ¿": 2652,
      "åıĺæĪĲ": 2653,
      "çĭ¬": 2654,
      "çĬ¶": 2655,
      "æ¸¸æĪı": 2656,
      "è¿Ļç§įçĻ½çĹ´éĹ®é¢ĺä¹Ł": 2657,
      "åĨįè¯´äºĨ": 2658,
      "RAN": 2659,
      "é³": 2660,
      "Ġent": 2661,
      "ä¹Į": 2662,
      "æĬĵ": 2663,
      "ç»£": 2664,
      "åıĺæĢģ": 2665,
      "Ġlie": 2666,
      "æį»": 2667,
      "che": 2668,
      "Ġset": 2669,
      "å®½": 2670,
      "è´¹": 2671,
      "çĮ®": 2672,
      "éļĲ": 2673,
      "æĻ¯": 2674,
      "ç²¾ç¥ŀ": 2675,
      "èı©èĲ¨éģĵ": 2676,
      "å®īæİĴ": 2677,
      "ç¡®å®ŀ": 2678,
      "JU": 2679,
      "well": 2680,
      "æĺĵ": 2681,
      "äºĨä»ĸ": 2682,
      "ors": 2683,
      "åİ»ä¹Ł": 2684,
      "atter": 2685,
      "å¤©å®«": 2686,
      "åı«å£°": 2687,
      "ç²ī": 2688,
      "çĸĳ": 2689,
      "ä¸ĸçķĮ": 2690,
      "LIET": 2691,
      "ONTES": 2692,
      "ĠWarwick": 2693,
      "LEONTES": 2694,
      "éĩĳç®įæ£Ĵ": 2695,
      "JULIET": 2696,
      "13": 2697,
      ";)": 2698,
      "Nay": 2699,
      "int": 2700,
      "å®£": 2701,
      "æīĺ": 2702,
      "åĪ»": 2703,
      "ä»ĸä¸¤ä¸ª": 2704,
      "ittle": 2705,
      "Ġdaughter": 2706,
      "æĬķ": 2707,
      "æĸĻ": 2708,
      "åĳ¨": 2709,
      "Ġgone": 2710,
      "åĸĬ": 2711,
      "åĽŀåİ»": 2712,
      "åĿ¡": 2713,
      "åĽĽä¼Ĺ": 2714,
      "çĭ¼": 2715,
      "åŁº": 2716,
      "Ġbetter": 2717,
      "MI": 2718,
      "os": 2719,
      "rant": 2720,
      "ä¹ĸ": 2721,
      "çļĦäºĭæĥħ": 2722,
      "ought": 2723,
      "åĬĪ": 2724,
      "ç¥¸": 2725,
      "éĺ¿": 2726,
      "ç²Ĺ": 2727,
      "å½ĵæĹ¶": 2728,
      "èĪ¹": 2729,
      "é¡º": 2730,
      "åĲ¬è¯´": 2731,
      "èİ²": 2732,
      "Ġprince": 2733,
      "åĸĿéģĵ": 2734,
      "å¸Īå¾Ĵä»¬": 2735,
      "DY": 2736,
      "His": 2737,
      "Ġtong": 2738,
      "åĲ¯": 2739,
      "æľµ": 2740,
      "Ġwit": 2741,
      "æī¶": 2742,
      "åĩºéĹ¨": 2743,
      "Ġnothing": 2744,
      "åĶĲåĥ§éģĵ": 2745,
      "CE": 2746,
      "VOL": 2747,
      "äºŃ": 2748,
      "æĺ¯è°ģ": 2749,
      "åİī": 2750,
      "æķĮ": 2751,
      "æĬĬéĤ£": 2752,
      "çĦ°": 2753,
      "éĻ©": 2754,
      "è¿ĩåİ»": 2755,
      "æīĭæľº": 2756,
      "åľ°æĸ¹": 2757,
      "è¨Ģè¯Ń": 2758,
      "ENCE": 2759,
      "éĶħ": 2760,
      "æ´ŀéĩĮ": 2761,
      "ç¼ł": 2762,
      "å§ĭ": 2763,
      "è®°å¾Ĺ": 2764,
      "èĴ¸": 2765,
      "LADY": 2766,
      "BR": 2767,
      "TA": 2768,
      "cl": 2769,
      "ied": 2770,
      "èĿ": 2771,
      "è¸ı": 2772,
      "éĹŃ": 2773,
      "æī¿": 2774,
      "å¼Ĥ": 2775,
      "éĢĥ": 2776,
      "åĮ¹": 2777,
      "éĺ²": 2778,
      "æ¸Ĳ": 2779,
      "æĻĵå¾Ĺ": 2780,
      "Ġkeep": 2781,
      "äºı": 2782,
      "åħ·": 2783,
      "ä¸Ģåıª": 2784,
      "ä¸ĢæĬĬ": 2785,
      "ä¸ĢçĤ¹": 2786,
      "ç§ĭ": 2787,
      "æ°¸": 2788,
      "èĩ´": 2789,
      "åĲ¬è§ģ": 2790,
      "èĥİ": 2791,
      "æ¼«": 2792,
      "åĳĬè¯ī": 2793,
      "åİŁæĿ¥æĺ¯": 2794,
      "Go": 2795,
      "Well": 2796,
      "ces": 2797,
      "ious": 2798,
      "ä¸ģ": 2799,
      "ä»»": 2800,
      "Ġsle": 2801,
      "è¯¯": 2802,
      "æī«": 2803,
      "è¡Ĺ": 2804,
      "åĽ¾": 2805,
      "å¤´ä¸Ĭ": 2806,
      "è¿ĺä¸į": 2807,
      "æ´²": 2808,
      "éĴ¢": 2809,
      "Ġres": 2810,
      "æ»´": 2811,
      "æ¡¥": 2812,
      "hard": 2813,
      "å¥Īä½ķ": 2814,
      "Ġnews": 2815,
      "SIC": 2816,
      "ft": 2817,
      "ier": 2818,
      "Ġtri": 2819,
      "æĺ¨": 2820,
      "Ġmo": 2821,
      "ret": 2822,
      "ont": 2823,
      "Ġthose": 2824,
      "Ġgri": 2825,
      "åıªåĲ¬å¾Ĺ": 2826,
      "ï½ŀðŁ": 2827,
      "æł¡": 2828,
      "æīĵæŃ»": 2829,
      "çĦ¶åĲİ": 2830,
      "ool": 2831,
      "ä¿Ĺ": 2832,
      "åĽĽåįģ": 2833,
      "æĻ®": 2834,
      "èĽĩ": 2835,
      "éľ²": 2836,
      "çĬ¯": 2837,
      "æ¼Ķ": 2838,
      "une": 2839,
      "è¥¿æ¸¸è®°": 2840,
      "SICINIUS": 2841,
      "Not": 2842,
      "èł": 2843,
      "è¿·": 2844,
      "å°ģ": 2845,
      "äºĨä½ł": 2846,
      "åħ´": 2847,
      "å¥¹": 2848,
      "Ġlittle": 2849,
      "åľ¨åľ°": 2850,
      "èĢģéŃĶ": 2851,
      "ä¸īäºº": 2852,
      "å¯Ĩ": 2853,
      "é©®": 2854,
      "æĸ¹æīį": 2855,
      "çĤī": 2856,
      "è¢«ä»ĸ": 2857,
      "çĭĤ": 2858,
      "äºĶçĻ¾": 2859,
      "æĴĴ": 2860,
      "Ġlords": 2861,
      "æķħæŃ¤": 2862,
      "æĹ¢çĦ¶": 2863,
      "è§īå¾Ĺ": 2864,
      "çľŁä¸ªæĺ¯": 2865,
      "Ġagainst": 2866,
      "å³°": 2867,
      "ford": 2868,
      "æĪĳæīį": 2869,
      "Ġbest": 2870,
      "æŃĩ": 2871,
      "Ġhour": 2872,
      "èµĮ": 2873,
      "Ġhence": 2874,
      "æĭĶ": 2875,
      "æ±¤": 2876,
      "èıľ": 2877,
      "åĸľæ¬¢": 2878,
      "ardon": 2879,
      "ç½¢äºĨ": 2880,
      "akes": 2881,
      "å»º": 2882,
      "è®¸å¤ļ": 2883,
      "On": 2884,
      "lse": 2885,
      "Ġacc": 2886,
      "å°¾": 2887,
      "å¦Ĩ": 2888,
      "sed": 2889,
      "éĥ½ä¸į": 2890,
      "è¾°": 2891,
      "èī¯": 2892,
      "æĭľä½Ľ": 2893,
      "Ġface": 2894,
      "è¶Ĭ": 2895,
      "ult": 2896,
      "çĽ´æİ¥": 2897,
      "çĿ¡è§ī": 2898,
      "èĵĿ": 2899,
      "Ġfoll": 2900,
      "è¦ģéĹ®åĲĹ": 2901,
      "16": 2902,
      "ew": 2903,
      "ud": 2904,
      "æĪ´": 2905,
      "éģ®": 2906,
      "äºĨæĪĳ": 2907,
      "åįĩ": 2908,
      "æķ¬": 2909,
      "ark": 2910,
      "Ġyoung": 2911,
      "å¥½å¤§åľ£": 2912,
      "Ġend": 2913,
      "çº§": 2914,
      "èĬ¦": 2915,
      "éĵº": 2916,
      "åıĸåĩº": 2917,
      "åĸľéģĵ": 2918,
      "çľ¼çĿĽ": 2919,
      "è¶ģ": 2920,
      "æĲŃ": 2921,
      "åħ³æĸĩ": 2922,
      "ç£ķ": 2923,
      "èĵ¬": 2924,
      "(ï¿£âĸ½ï¿£;)": 2925,
      "è¯Ŀè¯´åĽŀæĿ¥": 2926,
      "åı©å¤´": 2927,
      "æĺ¯ä»Ģä¹Ī": 2928,
      "æĪĳè¿Ļ": 2929,
      "ork": 2930,
      "Ġthing": 2931,
      "åİ»æĿ¥": 2932,
      "å¹¼": 2933,
      "çľĭæĹ¶": 2934,
      "æ³¨": 2935,
      "Ġstill": 2936,
      "Ġkind": 2937,
      "æ··": 2938,
      "ield": 2939,
      "ST": 2940,
      "~*": 2941,
      "äº§": 2942,
      "æľīä½ķ": 2943,
      "å¥ĺ": 2944,
      "ä¼¸": 2945,
      "Ġpri": 2946,
      "Ġpur": 2947,
      "æĥ§": 2948,
      "éĢī": 2949,
      "åĶ±": 2950,
      "åĦ¿åŃĲ": 2951,
      "åı¯æĢľ": 2952,
      "èº«ä¸Ĭ": 2953,
      "è¢ĸ": 2954,
      "ç½ĳ": 2955,
      "åģļä¸ª": 2956,
      "alk": 2957,
      "æĭ¿ä½ı": 2958,
      "Thy": 2959,
      "çłį": 2960,
      "Ġcomp": 2961,
      "LUCIO": 2962,
      "éĴīéĴ¯": 2963,
      "ale": 2964,
      "åĲĬ": 2965,
      "ins": 2966,
      "æĿ¿": 2967,
      "ä¸Ģåº§": 2968,
      "åľĪ": 2969,
      "ert": 2970,
      "æĬ«": 2971,
      "Ġput": 2972,
      "Ġpower": 2973,
      "ĠIV": 2974,
      "ç»ķ": 2975,
      "åį´ä¸į": 2976,
      "èĢĮåİ»": 2977,
      "é«ĺåı«éģĵ": 2978,
      "ichard": 2979,
      "éŀĭ": 2980,
      "Ġtwo": 2981,
      "æ¯«æ¯Ľ": 2982,
      "Sir": 2983,
      "è¿½": 2984,
      "åĪĺ": 2985,
      "åĽ°": 2986,
      "Ġcha": 2987,
      "æĭ³": 2988,
      "è¿ĺè¦ģ": 2989,
      "åį´æīį": 2990,
      "éĴ¦": 2991,
      "Ġhimself": 2992,
      "çķľ": 2993,
      "è®©äºº": 2994,
      "åı¤ä»£": 2995,
      "çİĦå¥ĺ": 2996,
      "14": 2997,
      "Pro": 2998,
      "æ¹": 2999,
      "ä¸´": 3000,
      "ä¸įåĲĮ": 3001,
      "çļĦæĦıæĢĿ": 3002,
      "iness": 3003,
      "åħħ": 3004,
      "æĹĹ": 3005,
      "Ġfirst": 3006,
      "æľīçĶļ": 3007,
      "èµĲ": 3008,
      "Ġpeace": 3009,
      "èĢģåĲĽ": 3010,
      "ä¸ĭåİ»": 3011,
      "Ġgu": 3012,
      "éĢĤ": 3013,
      "å·ŀ": 3014,
      "å¦ĸéĤª": 3015,
      "è´µ": 3016,
      "éĿł": 3017,
      "Ġelse": 3018,
      "ried": 3019,
      "Ġdear": 3020,
      "èĭ¥æĺ¯": 3021,
      "cious": 3022,
      "ail": 3023,
      "ty": 3024,
      "äºķ": 3025,
      "çļĦä¸Ģ": 3026,
      "ï¼ģ(âķ¬ï¿£": 3027,
      "è¯į": 3028,
      "åĪ¹": 3029,
      "åĩŃ": 3030,
      "å·§": 3031,
      "åį´æĺ¯": 3032,
      "ason": 3033,
      "éĵĥ": 3034,
      "hile": 3035,
      "Ġsub": 3036,
      "éħį": 3037,
      "éĻįå¦ĸ": 3038,
      "ç¢Ĺ": 3039,
      "åŀĤ": 3040,
      "Ġunto": 3041,
      "ile": 3042,
      "ray": 3043,
      "Ġtill": 3044,
      "Ġsm": 3045,
      "æľĭ": 3046,
      "éĩĬ": 3047,
      "å¸ĺ": 3048,
      "èµ´": 3049,
      "æĭ¾": 3050,
      "æŀĿ": 3051,
      "uty": 3052,
      "æĽ¹": 3053,
      "åįģäºĮ": 3054,
      "å®ĥä»¬": 3055,
      "èł¢": 3056,
      "15": 3057,
      "RI": 3058,
      "ZAB": 3059,
      "ect": 3060,
      "Ġtra": 3061,
      "åĲī": 3062,
      "Ġbid": 3063,
      "Ġback": 3064,
      "Ġdre": 3065,
      "Ġhus": 3066,
      "èµ¤": 3067,
      "å·¡": 3068,
      "æĽ¿": 3069,
      "æµİ": 3070,
      "èĤ²": 3071,
      "ä¸įçŁ¥éģĵ": 3072,
      "ETH": 3073,
      "ç¤¼éģĵ": 3074,
      "ĠELI": 3075,
      "Ġtherefore": 3076,
      "åĮ»çĶŁ": 3077,
      "Ġearth": 3078,
      "Ġwords": 3079,
      "çŃĭæĸĹ": 3080,
      "Ġcount": 3081,
      "ZABETH": 3082,
      "ĠELIZABETH": 3083,
      "Have": 3084,
      "band": 3085,
      "ius": 3086,
      "men": 3087,
      "ople": 3088,
      "yal": 3089,
      "åĲĵ": 3090,
      "éĤ£éķ¿èĢģ": 3091,
      "éĤ£åĽ½çİĭ": 3092,
      "å¾ģ": 3093,
      "Ġfind": 3094,
      "Ġcould": 3095,
      "ç»¿": 3096,
      "å¹½": 3097,
      "è·¯ä¸Ĭ": 3098,
      "åĪĨè§£": 3099,
      "é¸Ł": 3100,
      "é¹¿": 3101,
      "ä½łçľĭä»ĸ": 3102,
      "æ±ĿçŃī": 3103,
      "Ġtongue": 3104,
      "ä¸įæĥ³": 3105,
      "åħį": 3106,
      "ä½łæĥ³": 3107,
      "orse": 3108,
      "æľīéĹ®é¢ĺ": 3109,
      "Ġlady": 3110,
      "Ġthine": 3111,
      "å°±åĥı": 3112,
      "çĮĽ": 3113,
      "æįĨ": 3114,
      "ä¸ĶåĲ¬": 3115,
      "æĳĦ": 3116,
      "Ġneed": 3117,
      "æĪĺåħ¢": 3118,
      "é¸£": 3119,
      "çĵľ": 3120,
      "ĠYork": 3121,
      "æĪĺåħ¢åħ¢": 3122,
      "HENRY": 3123,
      "get": 3124,
      "lp": 3125,
      "tw": 3126,
      "Ġtre": 3127,
      "çļĦå¥½åĲĹ": 3128,
      "Ġfell": 3129,
      "å¥Ĺ": 3130,
      "enry": 3131,
      "åľ¨è¿ĻéĩĮ": 3132,
      "Ġhigh": 3133,
      "ä¸īå¹´": 3134,
      "ä¹ĭäºĭ": 3135,
      "æŃ¤æĹ¶": 3136,
      "Ġforth": 3137,
      "åĽŀå¤´": 3138,
      "çº¸": 3139,
      "äºĮäºº": 3140,
      "æĢİä¹Īåı¯èĥ½": 3141,
      "éľŀ": 3142,
      "è°ģä¼ļ": 3143,
      "Ġhope": 3144,
      "ï¼ŁðŁĺ¤": 3145,
      "è¿Ļç§įå¥ĩæĢªçļĦéĹ®é¢ĺ": 3146,
      "é½Ĳå¤©å¤§åľ£": 3147,
      "CL": 3148,
      "MER": 3149,
      "St": 3150,
      "ä¹ĺ": 3151,
      "éģ¿": 3152,
      "ä½łä¹Ł": 3153,
      "æĬ¢": 3154,
      "Ġhome": 3155,
      "vere": 3156,
      "ä¸ĭåĽŀ": 3157,
      "å°±èĥ½": 3158,
      "ä¹ĭéĹ´": 3159,
      "eth": 3160,
      "è¾¾": 3161,
      "Ġseem": 3162,
      "æĬ¬å¤´": 3163,
      "å¿įä¸įä½ı": 3164,
      "Ġright": 3165,
      "åŃ©åĦ¿": 3166,
      "eech": 3167,
      "ĠRomeo": 3168,
      "Ġhusband": 3169,
      "çĩ": 3170,
      "éģ¥": 3171,
      "åĲĲ": 3172,
      "éĤ£ç§į": 3173,
      "æī¬": 3174,
      "æŃĮ": 3175,
      "Ġduke": 3176,
      "æ³ī": 3177,
      "éĵľ": 3178,
      "æĺİæĹ¥": 3179,
      "æĭ¿äºĨ": 3180,
      "å¾Ħèĩ³": 3181,
      "ç¨³": 3182,
      "æī¯ä½ı": 3183,
      "éĢĴä¸İ": 3184,
      "æľĭåıĭ": 3185,
      "ä¸ĶåĲ¬ä¸ĭåĽŀ": 3186,
      "ä¸ĶåĲ¬ä¸ĭåĽŀåĪĨè§£": 3187,
      "GE": 3188,
      "WAR": 3189,
      "WIC": 3190,
      "fort": 3191,
      "ĠWhat": 3192,
      "å°¸": 3193,
      "rer": 3194,
      "Ġban": 3195,
      "åĪº": 3196,
      "ä¸Ĭæľī": 3197,
      "åĩºå®¶": 3198,
      "çĽĳ": 3199,
      "ä¹ĭä¸ĭ": 3200,
      "uth": 3201,
      "æŃ¤å¤Ħ": 3202,
      "ä¸ŃéĹ´": 3203,
      "æµĳ": 3204,
      "Ġthough": 3205,
      "çĶ¨æĿ¥": 3206,
      "åı£éĩĮ": 3207,
      "æ®ĭ": 3208,
      "åı¤äºº": 3209,
      "çªĹ": 3210,
      "ĠVI": 3211,
      "WARWIC": 3212,
      "WARWICK": 3213,
      "UT": 3214,
      "ach": 3215,
      "ix": 3216,
      "æ¿": 3217,
      "å°ĸ": 3218,
      "Ġmind": 3219,
      "ä¸ĢæĹ¥": 3220,
      "ä¸Ģåı£": 3221,
      "ä½łä¸Ķ": 3222,
      "Ġbra": 3223,
      "ister": 3224,
      "åĽ¢": 3225,
      "Ġche": 3226,
      "Ġchar": 3227,
      "å¸Ń": 3228,
      "éĻª": 3229,
      "æ²ĻåĴĮå°ļ": 3230,
      "hip": 3231,
      "æľ¬äºĭ": 3232,
      "çĮ´åŃĲ": 3233,
      "ĠHENRY": 3234,
      "ï¼ģðŁ¤¢": 3235,
      "è¿Ļç§įéĹ®é¢ĺä¹ŁæĿ¥éĹ®æĪĳ": 3236,
      "Ġpeople": 3237,
      "Nurse": 3238,
      "PU": 3239,
      "ds": 3240,
      "ged": 3241,
      "æ¤": 3242,
      "è¯Ģ": 3243,
      "è¯´ä»Ģä¹Ī": 3244,
      "æĬĬä»ĸ": 3245,
      "è°Ī": 3246,
      "åĶĲçİĭ": 3247,
      "æĸ¹ä¾¿": 3248,
      "çķ¥": 3249,
      "æĶ¾å¿ĥ": 3250,
      "éªĹ": 3251,
      "ĠCitizen": 3252,
      "æĬ¥éģĵ": 3253,
      "çħ®": 3254,
      "ï¼ŁðŁ¤¦âĢįâĻĢï¸ı": 3255,
      "æħĮå¾Ĺ": 3256,
      "å¢ĥ": 3257,
      "ä¸ŀ": 3258,
      "ren": 3259,
      "å®ĩ": 3260,
      "äººç±»": 3261,
      "åĩĨ": 3262,
      "ç»Ī": 3263,
      "é¢ľ": 3264,
      "çº·": 3265,
      "They": 3266,
      "åĿĲåľ¨": 3267,
      "æĲŀ": 3268,
      "ĠHenry": 3269,
      "åį´è¯´éĤ£": 3270,
      "HAM": 3271,
      "IAN": 3272,
      "LET": 3273,
      "eed": 3274,
      "åıĻ": 3275,
      "ä¸ĢæĹ¶": 3276,
      "Ġbri": 3277,
      "çĶ°": 3278,
      "åķ¼": 3279,
      "Ġchan": 3280,
      "Ġlaw": 3281,
      "å¤§å®¶": 3282,
      "ä¹Łç½¢": 3283,
      "è°Ľ": 3284,
      "è½®": 3285,
      "èĬ±æŀľ": 3286,
      "ĠRichard": 3287,
      "Ġshow": 3288,
      "Ġconf": 3289,
      "ä¿ĿæĬ¤": 3290,
      "çī¹æĿ¥": 3291,
      "Ġhands": 3292,
      "çŀĴ": 3293,
      "åİĨåı²": 3294,
      "PULET": 3295,
      "EY": 3296,
      "be": 3297,
      "«èĬ¦": 3298,
      "åĲĴ": 3299,
      "Ġmaster": 3300,
      "Ġwhy": 3301,
      "ï¼Ł(ï¿£^ï¿£)": 3302,
      "Ġco": 3303,
      "Ġcause": 3304,
      "è¡ĮèĢħéĹ»è¨Ģ": 3305,
      "æĭ¥": 3306,
      "æĭĸ": 3307,
      "Ġgl": 3308,
      "çĽĽ": 3309,
      "èº¬": 3310,
      "å¼ĢéĹ¨": 3311,
      "Ġonce": 3312,
      "ç¾ŀ": 3313,
      "ç¤º": 3314,
      "Ġsaid": 3315,
      "èĳ«èĬ¦": 3316,
      "Ġimp": 3317,
      "Cl": 3318,
      "Good": 3319,
      "MIO": 3320,
      "Shall": 3321,
      "å¤¸": 3322,
      "ä»ĩ": 3323,
      "ä½łè¯´": 3324,
      "Ġbod": 3325,
      "è¡¥": 3326,
      "æľīä¸Ģä¸ª": 3327,
      "Ġnone": 3328,
      "åĨĴ": 3329,
      "æĬĬæĪĳ": 3330,
      "æĮº": 3331,
      "çĪ¶æ¯į": 3332,
      "ä½ĽæķĻ": 3333,
      "ä½Ľç¥ĸ": 3334,
      "ousin": 3335,
      "é½¿": 3336,
      "æĶ¶æĭ¾": 3337,
      "çİ°äºĨ": 3338,
      "Ġjoy": 3339,
      "ç¡¬": 3340,
      "ervant": 3341,
      "All": 3342,
      "bt": 3343,
      "äº¡": 3344,
      "æĿĳ": 3345,
      "å¤§æĥĬ": 3346,
      "æĬ±": 3347,
      "é©¿": 3348,
      "Ġfort": 3349,
      "éĴĪ": 3350,
      "çĶ¨æīĭ": 3351,
      "éļ¾éģĵ": 3352,
      "å¨ĩ": 3353,
      "Ġbring": 3354,
      "èĢ³æľµ": 3355,
      "å¥ıéģĵ": 3356,
      "Yet": 3357,
      "åĲŁ": 3358,
      "è¯»": 3359,
      "äººéģĵ": 3360,
      "Ġdou": 3361,
      "åĵī": 3362,
      "æĬ½": 3363,
      "ä¸ĬæĿ¥": 3364,
      "åİ»ç½¢": 3365,
      "ç§¯": 3366,
      "ates": 3367,
      "è´¢": 3368,
      "Ġevery": 3369,
      "çĥĤ": 3370,
      "é¦Ĩ": 3371,
      "å¾Ģè¥¿å¤©": 3372,
      "UCKING": 3373,
      "ç®Ģåįķ": 3374,
      "å°ıçļĦä»¬": 3375,
      "BRUT": 3376,
      "UCKINGHAM": 3377,
      "BRUTUS": 3378,
      "BRO": 3379,
      "BUCKINGHAM": 3380,
      "From": 3381,
      "TRAN": 3382,
      "iet": 3383,
      "¤Ĳ": 3384,
      "é¥¿": 3385,
      "ĠçľŁæĺ¯": 3386,
      "Ġmist": 3387,
      "åĪ¤": 3388,
      "éĩĩ": 3389,
      "æĬĽ": 3390,
      "Ġpass": 3391,
      "èĢģçĮª": 3392,
      "åģ¥": 3393,
      "åºĹ": 3394,
      "ird": 3395,
      "æł¼": 3396,
      "éĹ¨åīį": 3397,
      "è¨Ģéģĵ": 3398,
      "Ġlight": 3399,
      "INGBRO": 3400,
      "ESS": 3401,
      "ĠBOL": 3402,
      "å±ħçĦ¶": 3403,
      "TRANIO": 3404,
      "INGBROKE": 3405,
      "ĠBOLINGBROKE": 3406,
      "Do": 3407,
      "Will": 3408,
      "lt": 3409,
      "vost": 3410,
      "ä»·": 3411,
      "ä¸įçĶ¨": 3412,
      "ä¸įå°½": 3413,
      "Ġwo": 3414,
      "ä½łä¸į": 3415,
      "çľģ": 3416,
      "ä¼¯": 3417,
      "Ġnat": 3418,
      "Ġthr": 3419,
      "è¯´å¾Ĺ": 3420,
      "ç§Ģ": 3421,
      "éĢĶ": 3422,
      "è½½": 3423,
      "çĭł": 3424,
      "éĶĭ": 3425,
      "åħĪçĶŁ": 3426,
      "èģļ": 3427,
      "èĩªå·±çļĦ": 3428,
      "è°¢äºĨ": 3429,
      "å¿½è§ģ": 3430,
      "Ġroyal": 3431,
      "å£ģåİ¢": 3432,
      "swer": 3433,
      "PER": 3434,
      "TIS": 3435,
      "cle": 3436,
      "ç¦ģ": 3437,
      "é¤Ĳ": 3438,
      "Ġtears": 3439,
      "ä¸įèĤ¯": 3440,
      "æľ±": 3441,
      "its": 3442,
      "æŃ¹": 3443,
      "Ġcame": 3444,
      "å¿ĺ": 3445,
      "ary": 3446,
      "ç»Ł": 3447,
      "æĭ½": 3448,
      "åıĪè§ģ": 3449,
      "éĥ½è¦ģ": 3450,
      "æĮ£": 3451,
      "è¾Ī": 3452,
      "æ´ª": 3453,
      "æµ®": 3454,
      "èĭį": 3455,
      "æĥ³æ³ķ": 3456,
      "é¡½": 3457,
      "æ£Ģ": 3458,
      "æĳ©": 3459,
      "æŁ´": 3460,
      "æĲĢ": 3461,
      "ĠMAR": 3462,
      "çĬ¹": 3463,
      "æľªæĽ¾": 3464,
      "Ġwhose": 3465,
      "éĢłåĮĸ": 3466,
      "Ġplease": 3467,
      "lf": 3468,
      "vy": 3469,
      "æª": 3470,
      "çĺ": 3471,
      "å¤º": 3472,
      "Ġboy": 3473,
      "ory": 3474,
      "å¸Ĥ": 3475,
      "Ġpardon": 3476,
      "æŃ¤è¨Ģ": 3477,
      "éĹ¨éĩĮ": 3478,
      "éĺ¶": 3479,
      "æķĻæĪĳ": 3480,
      "æĤĦ": 3481,
      "æ£®": 3482,
      "roke": 3483,
      "äºĶåįģ": 3484,
      "æŁĵ": 3485,
      "æ¢ģ": 3486,
      "ç¢§": 3487,
      "ç£¨": 3488,
      "ĠAn": 3489,
      "åĤ»": 3490,
      "GAR": 3491,
      "NE": 3492,
      "pose": 3493,
      "æ§": 3494,
      "æ¾": 3495,
      "ä¸Ģæł¹": 3496,
      "Ġbes": 3497,
      "Ġfull": 3498,
      "arry": 3499,
      "Ġheard": 3500,
      "åĩºåı£": 3501,
      "åıªç®¡": 3502,
      "Ġhapp": 3503,
      "è´´": 3504,
      "æĢªçī©": 3505,
      "åį´ä¹Ł": 3506,
      "è¿ĩäºĨ": 3507,
      "ï¼ģðŁĴ": 3508,
      "éĩĳæĺŁ": 3509,
      "æį§": 3510,
      "Ġdev": 3511,
      "åĽĽä¸ª": 3512,
      "çĻ½é©¬": 3513,
      "âĢĻï¼Į": 3514,
      "ä¸ºä»Ģä¹ĪæĪĳ": 3515,
      "ç¿ħ": 3516,
      "æ¨ª": 3517,
      "Ġjust": 3518,
      "å½¢å®¹": 3519,
      "å¦Ĥæŀľä½ł": 3520,
      "Ġwrong": 3521,
      "Ġpresent": 3522,
      "ĠMARGAR": 3523,
      "ĠMARGARET": 3524,
      "ATH": 3525,
      "bl": 3526,
      "eel": 3527,
      "ä¹ł": 3528,
      "çļĦåĴĮå°ļ": 3529,
      "Ġsince": 3530,
      "Ġmis": 3531,
      "ä¸Ģèµ·": 3532,
      "ä¸ĢåĪĻ": 3533,
      "ens": 3534,
      "Ġland": 3535,
      "Ġlast": 3536,
      "ä¸ĬçļĦ": 3537,
      "éĹ®ä»ĸ": 3538,
      "å¤©åľ°": 3539,
      "çĪ¸": 3540,
      "ä¸ºäºĨ": 3541,
      "éĺİ": 3542,
      "Ġere": 3543,
      "æĦģ": 3544,
      "Ġstate": 3545,
      "èĪĮ": 3546,
      "åģļäºĨ": 3547,
      "èĤł": 3548,
      "è¿ĽæĿ¥": 3549,
      "ç´¯": 3550,
      "æł·åŃĲ": 3551,
      "æ¡Į": 3552,
      "æ±Ĥç»ı": 3553,
      "åĭĴ": 3554,
      "Ġplace": 3555,
      "åĵªåĲĴ": 3556,
      "MIL": 3557,
      "ç£ķå¤´": 3558,
      "sand": 3559,
      "ãĢĤâĢĶâĢĶ": 3560,
      "å°º": 3561,
      "éĤ£å¦ĸ": 3562,
      "åŃĶ": 3563,
      "åĪ·": 3564,
      "å¼ı": 3565,
      "éĢı": 3566,
      "å°ıå§Ĳ": 3567,
      "Ġmeet": 3568,
      "æĶ¯": 3569,
      "Ġunder": 3570,
      "Ġkill": 3571,
      "ä½ıäºĨ": 3572,
      "éªĮ": 3573,
      "æķħäºĭ": 3574,
      "ä½łè¿Ļä¹Ī": 3575,
      "åħ¶å®ŀ": 3576,
      "è¯ĹæĽ°": 3577,
      "çĳŀ": 3578,
      "Ġafter": 3579,
      "HOR": 3580,
      "cent": 3581,
      "Ġä½ł": 3582,
      "ä¹İ": 3583,
      "çļĦä¸Ģå£°": 3584,
      "Ġsorrow": 3585,
      "èĢ¶": 3586,
      "æľīä¸ī": 3587,
      "ition": 3588,
      "Ġcare": 3589,
      "è´§": 3590,
      "éĻħ": 3591,
      "éķĩ": 3592,
      "çĮ«": 3593,
      "å¤ļå®ĺ": 3594,
      "æ¸¡": 3595,
      "éĩĳåħī": 3596,
      "Ġthousand": 3597,
      "æķĻä½ł": 3598,
      "esty": 3599,
      "å®ļæĺ¯": 3600,
      "åĲįåŃĹ": 3601,
      "ANGE": 3602,
      "ORD": 3603,
      "ç½ĹåĪ¹": 3604,
      "Ġhold": 3605,
      "GRE": 3606,
      "èĬ±æŀľå±±": 3607,
      "ANGELO": 3608,
      "CU": 3609,
      "Our": 3610,
      "åĲ«": 3611,
      "éģĵäºº": 3612,
      "ä¸ĢçĽ´": 3613,
      "çľī": 3614,
      "èµı": 3615,
      "å¼¹": 3616,
      "Ġhelp": 3617,
      "èĢģå¦ĸ": 3618,
      "ç»ĳ": 3619,
      "çĿĢä¸Ģä¸ª": 3620,
      "ä¹ĭå¤Ħ": 3621,
      "éĺ»": 3622,
      "åĢļ": 3623,
      "èĢĮå·²": 3624,
      "ARINA": 3625,
      "åĪ«äºº": 3626,
      "æıĴ": 3627,
      "ç¤¼æĭľ": 3628,
      "arence": 3629,
      "æ¨µ": 3630,
      "ï¼ŁðŁ¤£": 3631,
      "åŃ©åŃĲ": 3632,
      "æıŃè°Ľ": 3633,
      "èĢģèĢħéģĵ": 3634,
      "Ġwhom": 3635,
      "æ¯ķç«Łä¸įçŁ¥": 3636,
      "Ġfollow": 3637,
      "KATH": 3638,
      "day": 3639,
      "èĶ": 3640,
      "ä¸įå¦Ĥ": 3641,
      "æĺ¯æĥ³": 3642,
      "åĲŀ": 3643,
      "è¿Ļå¤§åľ£": 3644,
      "Ġfar": 3645,
      "Ġless": 3646,
      "Ġhither": 3647,
      "çĿģ": 3648,
      "ceive": 3649,
      "irt": 3650,
      "éķľ": 3651,
      "Ġweep": 3652,
      "çº¦": 3653,
      "æį®": 3654,
      "Ġshame": 3655,
      "èħ¿": 3656,
      "selves": 3657,
      "åħ³ç³»": 3658,
      "çªģ": 3659,
      "åıĹçĶ¨": 3660,
      "cius": 3661,
      "Ġenem": 3662,
      "Ġabout": 3663,
      "Ġeye": 3664,
      "å¹¿å¤§": 3665,
      "æħĪæĤ²": 3666,
      "èº«ä¸Ģåıĺ": 3667,
      "KATHARINA": 3668,
      "iol": 3669,
      "Ġä½łæĺ¯ä¸įæĺ¯": 3670,
      "âĢ¦âĢ": 3671,
      "ä¸įæľŁ": 3672,
      "çļĦå°ı": 3673,
      "äºĨåķĬ": 3674,
      "æĿĤ": 3675,
      "Ġfal": 3676,
      "Ġfool": 3677,
      "ons": 3678,
      "å¿Ĺ": 3679,
      "æĬµ": 3680,
      "Ġpat": 3681,
      "åĨµ": 3682,
      "èº«ä½ĵ": 3683,
      "åħ«æĪĴç¬ĳéģĵ": 3684,
      "é©¬ä¸Ĭ": 3685,
      "urde": 3686,
      "Ġsun": 3687,
      "Ġanswer": 3688,
      "éħ¸": 3689,
      "åįĹæĹł": 3690,
      "éĽ·éŁ³": 3691,
      "å¾¡å¼Ł": 3692,
      "èķĬ": 3693,
      "âĢ¦âĢ¦": 3694,
      "air": 3695,
      "çį": 3696,
      "èĸ": 3697,
      "æĺ¯ä½ł": 3698,
      "ä»ĸåį´": 3699,
      "Ġch": 3700,
      "å±ĭ": 3701,
      "å±ı": 3702,
      "è®¿": 3703,
      "å¯¡": 3704,
      "æĮ¡": 3705,
      "è¢ĭ": 3706,
      "åĶĲæľĿ": 3707,
      "æīįæĺ¯": 3708,
      "asure": 3709,
      "èĥ¸": 3710,
      "æ³ķåĬĽ": 3711,
      "Ġfall": 3712,
      "è¶£": 3713,
      "âĢĻãĢĤ": 3714,
      "æĽ´æĹł": 3715,
      "å¹²åĩĢ": 3716,
      "èµ¶ä¸Ĭ": 3717,
      "æĳĩèº«ä¸Ģåıĺ": 3718,
      "ä¸¢äºĨ": 3719,
      "åĴĴè¯Ń": 3720,
      "åĶ¬å¾Ĺ": 3721,
      "Ġmaid": 3722,
      "LUS": 3723,
      "Un": 3724,
      "Up": 3725,
      "ä¸¥": 3726,
      "åıĶ": 3727,
      "ä¸įåĬ¨": 3728,
      "ä¸įè§ī": 3729,
      "æĺ¯åľ¨": 3730,
      "ount": 3731,
      "Ġbus": 3732,
      "Ġcousin": 3733,
      "åĨł": 3734,
      "å°ĨæĿ¥": 3735,
      "ï¼ģðŁĳ": 3736,
      "ä½ķå¦Ĥ": 3737,
      "èĤ¡": 3738,
      "å¤ĸéĿ¢": 3739,
      "thy": 3740,
      "èħ¹": 3741,
      "æĸĩæŃ¦": 3742,
      "ESCA": 3743,
      "Ġhate": 3744,
      "Ġgracious": 3745,
      "å¡ŀ": 3746,
      "æĩĴ": 3747,
      "Ġgentleman": 3748,
      "ĠKing": 3749,
      "Ġgrief": 3750,
      "ESCALUS": 3751,
      "An": 3752,
      "ject": 3753,
      "ove": 3754,
      "pl": 3755,
      "åıł": 3756,
      "Ġmakes": 3757,
      "æĪĳä¸Ģ": 3758,
      "å¯Į": 3759,
      "Ġinto": 3760,
      "éĥ½åľ¨": 3761,
      "imes": 3762,
      "æĽ²": 3763,
      "éĴµ": 3764,
      "éķ¿çĶŁ": 3765,
      "æīįä¸įæĺ¯": 3766,
      "Ġstri": 3767,
      "èĲ¥": 3768,
      "æĺİæĺİ": 3769,
      "ä¸įè¿ĩè¯´": 3770,
      "åĮ»éĻ¢": 3771,
      "ç«¥åŃĲ": 3772,
      "ç¥ĸå¸Ī": 3773,
      "Hath": 3774,
      "iv": 3775,
      "ild": 3776,
      "æĺ¯éĤ£": 3777,
      "æĪĳåİ»": 3778,
      "æĪĳè¯´": 3779,
      "æĪĳæĬĬ": 3780,
      "å¿§": 3781,
      "åĬ«": 3782,
      "è®®": 3783,
      "åıªåĽł": 3784,
      "çĿĢä»ĸ": 3785,
      "ä¹ĭæĦı": 3786,
      "å±±ä¸Ń": 3787,
      "è¾¨": 3788,
      "è¾Ľ": 3789,
      "è°¨": 3790,
      "èĩªå®¶": 3791,
      "Ġstre": 3792,
      "éĿ¢åīį": 3793,
      "æĭ¿æĿ¥": 3794,
      "æĴĳ": 3795,
      "ä¸ºä»Ģä¹Īè¦ģ": 3796,
      "ĠEng": 3797,
      "éĥ¡": 3798,
      "åĲĪæİĮ": 3799,
      "ï¼ŁðŁ¤Ķ": 3800,
      "åĶ¤åģļ": 3801,
      "æīĩåŃĲ": 3802,
      "è¸ª": 3803,
      "Ġwoman": 3804,
      "åİīå£°": 3805,
      "DUCH": 3806,
      "Ġturn": 3807,
      "ä¹¡": 3808,
      "Ġhum": 3809,
      "Ġover": 3810,
      "å¾ĹäºĨ": 3811,
      "å¼¥": 3812,
      "ä¸ĭé©¬": 3813,
      "å°±å¥½": 3814,
      "å±ŀ": 3815,
      "Ġbel": 3816,
      "å¯¸": 3817,
      "çľĭåĪ°": 3818,
      "åĸı": 3819,
      "ç©·": 3820,
      "éĽĨ": 3821,
      "alt": 3822,
      "Ġdost": 3823,
      "æŁľ": 3824,
      "æ·»": 3825,
      "æ¡Ī": 3826,
      "æ¢ħ": 3827,
      "Ġcomfort": 3828,
      "ices": 3829,
      "æ¯Ķè¾ĥ": 3830,
      "ï¼ģðŁ¤¦âĢįâĻĢï¸ı": 3831,
      "å¢Ļ": 3832,
      "Ġcoun": 3833,
      "è·ªä¸ĭ": 3834,
      "ĠDuke": 3835,
      "èĭ±éĽĦ": 3836,
      "ç°ĩ": 3837,
      "ä½łåľ¨è¯´ä»Ģä¹Ī": 3838,
      "Ġcourt": 3839,
      "Ġsleep": 3840,
      "urderer": 3841,
      "DUCHESS": 3842,
      "17": 3843,
      "Lord": 3844,
      "pher": 3845,
      "Ġtalk": 3846,
      "æĪĳå®¶": 3847,
      "itor": 3848,
      "å¦¹": 3849,
      "å°±ç®Ĺ": 3850,
      "éĩĮçļĦ": 3851,
      "çĽĹ": 3852,
      "çİĭåŃĲ": 3853,
      "éĢŁ": 3854,
      "çŃµ": 3855,
      "æĶĴ": 3856,
      "è¿ĩæĿ¥": 3857,
      "å£°éŁ³": 3858,
      "æĲħ": 3859,
      "åħŃåįģ": 3860,
      "åłĨ": 3861,
      "éĤ£æĢªéģĵ": 3862,
      "æľ¨åıī": 3863,
      "æħĮäºĨ": 3864,
      "èĢįåŃĲ": 3865,
      "Ġbody": 3866,
      "20": 3867,
      "morrow": 3868,
      "çļĪ": 3869,
      "ä¹¾": 3870,
      "ä¸įåĪ°": 3871,
      "Ġwilt": 3872,
      "éĤ£åĴĮå°ļ": 3873,
      "Ġbu": 3874,
      "è¯´æĺ¯": 3875,
      "ç§»": 3876,
      "Ġgr": 3877,
      "åĬĿ": 3878,
      "è¦ģä¸įè¦ģ": 3879,
      "ute": 3880,
      "èĹ¤": 3881,
      "æĦļ": 3882,
      "èĬŃ": 3883,
      "é¡¹": 3884,
      "å¼ĢäºĨ": 3885,
      "gelo": 3886,
      "èī³": 3887,
      "æĤŁç©ºéģĵ": 3888,
      "å¸¸è¨Ģéģĵ": 3889,
      "é¹¤": 3890,
      "çīĽçİĭ": 3891,
      "ï¼ģðŁ¤Ń": 3892,
      "deed": 3893,
      "åĵĪåĵĪåĵĪ": 3894,
      "ĠMarcius": 3895,
      "IA": 3896,
      "ience": 3897,
      "Ġi": 3898,
      "è¿¹": 3899,
      "çļĦåĺĽ": 3900,
      "çļĦä¸ľè¥¿": 3901,
      "æĪĳä¸į": 3902,
      "ised": 3903,
      "æķ²": 3904,
      "åľ¨æīĭ": 3905,
      "ans": 3906,
      "æĥŁ": 3907,
      "Ġbed": 3908,
      "èĩ¾": 3909,
      "çĽı": 3910,
      "åī¥": 3911,
      "è´¨": 3912,
      "èĩªçĦ¶": 3913,
      "ä½ķå¤Ħ": 3914,
      "èµ·èº«": 3915,
      "ä¼Ĺç¥ŀ": 3916,
      "éĤ£éĩĮåİ»": 3917,
      "Ġfault": 3918,
      "Ġatt": 3919,
      "ieve": 3920,
      "æ®¿ä¸Ĭ": 3921,
      "èµ¶ç´§": 3922,
      "åĽ½çİĭéģĵ": 3923,
      "çģµå±±": 3924,
      "æł¹æľ¬": 3925,
      "çªĿ": 3926,
      "æ¯įäº²": 3927,
      "é¡»èĩ¾": 3928,
      "Ġprove": 3929,
      "Ġplay": 3930,
      "CAMIL": 3931,
      "ä¸ľåľŁå¤§åĶĲ": 3932,
      "èķī": 3933,
      "ĠClarence": 3934,
      "CAMILLO": 3935,
      "God": 3936,
      "ere": 3937,
      "ily": 3938,
      "èŃ": 3939,
      "æĺł": 3940,
      "Ġsound": 3941,
      "åħĶ": 3942,
      "æĪĳè¿ĻéĩĮ": 3943,
      "éĤ£å¤§åľ£": 3944,
      "æĢ¨": 3945,
      "ä»ĸéĤ£": 3946,
      "Ġdra": 3947,
      "å°±ä¸į": 3948,
      "omet": 3949,
      "å¯ĩ": 3950,
      "Ġinst": 3951,
      "åĮº": 3952,
      "Ġwel": 3953,
      "æµĭ": 3954,
      "ade": 3955,
      "åĲİéĿ¢": 3956,
      "èĻĳ": 3957,
      "Ġret": 3958,
      "Ġdeed": 3959,
      "çĭ±": 3960,
      "æĶ¾åľ¨": 3961,
      "éªĳ": 3962,
      "ç¦½": 3963,
      "èīº": 3964,
      "æĤŁèĥ½": 3965,
      "ç¤¾": 3966,
      "è£¤": 3967,
      "çĽ´èĩ³": 3968,
      "Ġthank": 3969,
      "å®¹æĺĵ": 3970,
      "ä¿®è¡Į": 3971,
      "åıĮæīĭ": 3972,
      "ä½łèĦĳåŃĲæĺ¯ä¸įæĺ¯è¿Ľæ°´": 3973,
      "åĪĹä½į": 3974,
      "èļĬ": 3975,
      "TEN": 3976,
      "ç¨Ģ": 3977,
      "ä¸įæĩĤ": 3978,
      "åĲĨ": 3979,
      "Ġser": 3980,
      "ä½łåı¯": 3981,
      "Ġbo": 3982,
      "åįł": 3983,
      "Ġfight": 3984,
      "è§Ħ": 3985,
      "å°±æīĵ": 3986,
      "åıĪè§ģéĤ£": 3987,
      "Ġindeed": 3988,
      "æĹłäºº": 3989,
      "æĹłç¤¼": 3990,
      "å¿ĥæĥĬ": 3991,
      "åīįåĲİ": 3992,
      "è°ĵ": 3993,
      "illain": 3994,
      "Ġem": 3995,
      "åĿļ": 3996,
      "åŁĭ": 3997,
      "æĤŁåĩĢ": 3998,
      "hold": 3999,
      "ä¸ºä»Ģä¹Īä¸į": 4000,
      "Ġvo": 4001,
      "è¯¥ä¸įä¼ļ": 4002,
      "Ġsword": 4003,
      "å»Ĭ": 4004,
      "ĠAngelo": 4005,
      "HORTEN": 4006,
      "Ġfalse": 4007,
      "HORTENS": 4008,
      "FRI": 4009,
      "Sh": 4010,
      "É¡": 4011,
      "å°Ŀ": 4012,
      "äºĨä¸Ģä¸ª": 4013,
      "åį«": 4014,
      "æĭĲ": 4015,
      "å¥½æŃ¹": 4016,
      "å¯Ł": 4017,
      "åıĪæľī": 4018,
      "ç¬Ķ": 4019,
      "ç¥Ń": 4020,
      "æŃ¤éĹ´": 4021,
      "è°·": 4022,
      "Ġuse": 4023,
      "Ġeven": 4024,
      "ï¼ģðŁĴ¦": 4025,
      "æīįä¸įä¼ļ": 4026,
      "å½ĵå¹´": 4027,
      "ä¸īèĹıéĹ»è¨Ģ": 4028,
      "é©¬åĮ¹": 4029,
      "Ġsovere": 4030,
      "åį³åĳ½": 4031,
      "æľ¬çĽ¸": 4032,
      "èİ·": 4033,
      "ä¾¿æĺ¯": 4034,
      "Ġanother": 4035,
      "å¿«åİ»": 4036,
      "ä¼łæĹ¨": 4037,
      "å©ļ": 4038,
      "æ¼ı": 4039,
      "Ġgrave": 4040,
      "å¦Īå¦Ī": 4041,
      "Ġadv": 4042,
      "éĹ¹å¤©å®«": 4043,
      "Provost": 4044,
      "Ġfellow": 4045,
      "Upon": 4046,
      "HORTENSIO": 4047,
      "FRIAR": 4048,
      ",'": 4049,
      "PTIS": 4050,
      "eal": 4051,
      "ä¸įè¯Ĩ": 4052,
      "åį±": 4053,
      "è¿Ļåİ®": 4054,
      "ä»ĸæĺ¯": 4055,
      "åĩī": 4056,
      "Ġcur": 4057,
      "åľ¨å±±": 4058,
      "åľ¨æĹģ": 4059,
      "å¾Ĺä»ĸ": 4060,
      "æĸ§": 4061,
      "æĸ©": 4062,
      "æĭ±": 4063,
      "å°±è¦ģ": 4064,
      "å¤©ä¸Ĭ": 4065,
      "çľĭå¤Ħ": 4066,
      "Ġhas": 4067,
      "æ³¥": 4068,
      "çģ°": 4069,
      "ä¸ŃçļĦ": 4070,
      "çºª": 4071,
      "éĩĳåĪļ": 4072,
      "ury": 4073,
      "æĻĴ": 4074,
      "æ³ķå¸Ī": 4075,
      "æ»ĳ": 4076,
      "ä¸įè¿ĩè¯Ŀè¯´åĽŀæĿ¥": 4077,
      "ç¬¬äºĮ": 4078,
      "ãĢĭï¼Į": 4079,
      "éĤ£æĢªçī©": 4080,
      "pect": 4081,
      "éŀŃ": 4082,
      "èŁł": 4083,
      "è¢«éĹ¨å¤¹äºĨåĲĹ": 4084,
      "BAPTIS": 4085,
      "Ġbanish": 4086,
      "Ġfortune": 4087,
      "èĬŃèķī": 4088,
      "BAPTISTA": 4089,
      "CUS": 4090,
      "COM": 4091,
      "TOL": 4092,
      "YCUS": 4093,
      "pen": 4094,
      "æĺĤ": 4095,
      "ouch": 4096,
      "ï¼ģ(": 4097,
      "äºĨä¸ª": 4098,
      "Ġmerc": 4099,
      "Ġmatter": 4100,
      "Ġwant": 4101,
      "ä½łè¿ĺ": 4102,
      "æĪĳæĿ¥": 4103,
      "å®ģ": 4104,
      "ä¸ªäºº": 4105,
      "å¸½": 4106,
      "å¤©ä¸ĭ": 4107,
      "åĩºäºĨ": 4108,
      "åī§": 4109,
      "çľĭäºĨ": 4110,
      "æĢªéģĵ": 4111,
      "å£®": 4112,
      "éĺŁ": 4113,
      "çŃīèĢģåŃĻ": 4114,
      "Ġreven": 4115,
      "æĤ¬": 4116,
      "Ġass": 4117,
      "Ġsend": 4118,
      "ä½Ĩè§ģ": 4119,
      "å·²ç»ı": 4120,
      "Ġprison": 4121,
      "çĶµèĦĳ": 4122,
      "å¸¸è¯Ĩ": 4123,
      "ä¸ĥåħ«": 4124,
      "çĬ¬": 4125,
      "fect": 4126,
      "AUTOL": 4127,
      "Ġrather": 4128,
      "æºľ": 4129,
      "ç¾¤å¦ĸ": 4130,
      "èĥ¡è¯´": 4131,
      "æĺ¨æĹ¥": 4132,
      "Ġcountry": 4133,
      "Ġdoubt": 4134,
      "COMINIUS": 4135,
      "AUTOLYCUS": 4136,
      ".'": 4137,
      "Are": 4138,
      "Even": 4139,
      "More": 4140,
      "ä¸ĺ": 4141,
      "åı¹": 4142,
      "çļĤ": 4143,
      "ä¸įåĪĨ": 4144,
      "çļĦåķĬ": 4145,
      "éģµ": 4146,
      "Ġwish": 4147,
      "ä¸Ģå®ļ": 4148,
      "å¾ĭ": 4149,
      "æľīçĤ¹": 4150,
      "Ġyears": 4151,
      "æĭ´": 4152,
      "ä¸ºè¯ģ": 4153,
      "è´ª": 4154,
      "è¾Ł": 4155,
      "çĪ¶çİĭ": 4156,
      "åĴĮä½ł": 4157,
      "éķ¿å®ī": 4158,
      "éŃı": 4159,
      "Ġreason": 4160,
      "é¡·": 4161,
      "Ġlies": 4162,
      "Ġonly": 4163,
      "ARENCE": 4164,
      "æŃ»äºº": 4165,
      "Third": 4166,
      "åįĥéĩĮ": 4167,
      "Ġvirt": 4168,
      "éķ¿èĢģéģĵ": 4169,
      "æļ´": 4170,
      "ç¬¬ä¸Ģ": 4171,
      "è®©æĪĳ": 4172,
      "èģª": 4173,
      "è®¤ä¸º": 4174,
      "çıį": 4175,
      "è±¹": 4176,
      "ä½łæĺ¯æĥ³": 4177,
      "å¾ħæĪĳ": 4178,
      "åĭ¾": 4179,
      "è½»è½»": 4180,
      "çĳ¶": 4181,
      "Ġtruth": 4182,
      "é¼»åŃĲ": 4183,
      "æ¿Ģ": 4184,
      "Would": 4185,
      "ior": 4186,
      "ms": 4187,
      "of": 4188,
      "rance": 4189,
      "ĠBut": 4190,
      "âĢ¢": 4191,
      "åħĭ": 4192,
      "éĤ£åİ®": 4193,
      "Ġdan": 4194,
      "å¤§è·¯": 4195,
      "Ġpers": 4196,
      "any": 4197,
      "åĨ¬": 4198,
      "è¦ģåĲĥ": 4199,
      "å¯Ĥ": 4200,
      "æĬĬä¸ª": 4201,
      "çĦ¦": 4202,
      "åīįéĿ¢": 4203,
      "æīĵæĿĢ": 4204,
      "åįģåħ«": 4205,
      "æįı": 4206,
      "æĭ¿ä»ĸ": 4207,
      "çĽ¸è§ģ": 4208,
      "é¥±": 4209,
      "æĲ¬": 4210,
      "è®©ä½ł": 4211,
      "æħĮå¾ĹéĤ£": 4212,
      "ç¥ŀéĢļå¹¿å¤§": 4213,
      "Ġbreath": 4214,
      "ç¥¥äºĳ": 4215,
      "Ġarms": 4216,
      "Ġdream": 4217,
      "CLARENCE": 4218,
      "åĩºå®¶äºº": 4219,
      "pherd": 4220,
      "èŃ¦": 4221,
      "BEN": 4222,
      "MAR": 4223,
      "NOR": 4224,
      "dd": 4225,
      "der": 4226,
      "Ġsent": 4227,
      "ä¸Ģè·¯": 4228,
      "ä¸Ģéĺµ": 4229,
      "ä»ĸä¹Ł": 4230,
      "åİħ": 4231,
      "ener": 4232,
      "èµ¢": 4233,
      "èµĦ": 4234,
      "å°±æľī": 4235,
      "Ġgi": 4236,
      "ä¹ĭåĲİ": 4237,
      "åºŃ": 4238,
      "éĹ¨é¦ĸ": 4239,
      "é©¸": 4240,
      "éĻĢ": 4241,
      "éĴ©": 4242,
      "Ġstra": 4243,
      "äºĮéŃĶ": 4244,
      "ç¥ŀåĥ§": 4245,
      "ç®Ń": 4246,
      "æľ¬æĺ¯": 4247,
      "æľ¬æĿ¥": 4248,
      "Ġshalt": 4249,
      "é¥¥": 4250,
      "é¥¼": 4251,
      "ä¸įçŁ¥æĺ¯": 4252,
      "æĽ´ä¸į": 4253,
      "åįĹæµ·": 4254,
      "è±Ĩ": 4255,
      "éĽ·åħ¬": 4256,
      "è¯ķè¯ķ": 4257,
      "Ġdisc": 4258,
      "çĥ¦æģ¼": 4259,
      "æ¦Ĥ": 4260,
      "æ¦ľ": 4261,
      "ä½łèĦĳåŃĲæĺ¯ä¸įæĺ¯è¢«éĹ¨å¤¹": 4262,
      "VOLIO": 4263,
      "Clown": 4264,
      "Ġbusiness": 4265,
      "BENVOLIO": 4266,
      "Al": 4267,
      "At": 4268,
      "PRO": 4269,
      "SPER": 4270,
      "by": 4271,
      "äº«": 4272,
      "hed": 4273,
      "ä»ª": 4274,
      "çļĦæł·åŃĲ": 4275,
      "ï¼ģâľ¨": 4276,
      "Ġsen": 4277,
      "åħ¸": 4278,
      "éĤ£è¡ĮèĢħ": 4279,
      "æīİ": 4280,
      "åĪ®": 4281,
      "æĬ¹": 4282,
      "Ġprom": 4283,
      "ä¸ĭæĭľ": 4284,
      "ä¸ĭçķĮ": 4285,
      "ç§ģ": 4286,
      "åģı": 4287,
      "eter": 4288,
      "ç¥Ŀ": 4289,
      "åīįè¿Ľ": 4290,
      "è¢į": 4291,
      "éĽ¶": 4292,
      "èµ°åĩº": 4293,
      "æ´ŀåı£": 4294,
      "åłª": 4295,
      "éļıä¾¿": 4296,
      "æķ°åŃ¦": 4297,
      "çĵ¦": 4298,
      "Ġholy": 4299,
      "Ġenough": 4300,
      "erving": 4301,
      "æºĲ": 4302,
      "Ġcommand": 4303,
      "UMIO": 4304,
      "GRUMIO": 4305,
      "éĹ®å¾Ĺåĩºåı£": 4306,
      "èº¬èº«": 4307,
      "é©¸é©¬": 4308,
      "PROSPER": 4309,
      "PROSPERO": 4310,
      "ia": 4311,
      "ken": 4312,
      "åµ": 4313,
      "åı®": 4314,
      "ä»°": 4315,
      "Ġsea": 4316,
      "Ġwind": 4317,
      "åİ¿": 4318,
      "çĶĺ": 4319,
      "itt": 4320,
      "å¦ĥ": 4321,
      "Ġcra": 4322,
      "å¸ĸ": 4323,
      "Ġlay": 4324,
      "ars": 4325,
      "Ġpity": 4326,
      "æ°§": 4327,
      "ator": 4328,
      "Ġbea": 4329,
      "Ġhang": 4330,
      "æ´ĭ": 4331,
      "è¢±": 4332,
      "èĩªåľ¨": 4333,
      "è½¿": 4334,
      "åĿ¤": 4335,
      "Ġstran": 4336,
      "ç¥ŀä»Ļ": 4337,
      "çĥĪ": 4338,
      "Ġsold": 4339,
      "æĺİçĻ½": 4340,
      "åĽĽå¤§": 4341,
      "éŃĶå¤´": 4342,
      "Ġsec": 4343,
      "Ġspir": 4344,
      "è£Ļ": 4345,
      "Ġfare": 4346,
      "Ġproud": 4347,
      "ĠMurderer": 4348,
      "çĸ¾": 4349,
      "æ¯Ķå¦Ĥ": 4350,
      "æĥĬåĬ¨": 4351,
      "é¼ł": 4352,
      "ä½ĵèĤ²": 4353,
      "Ġswear": 4354,
      "ç³ĸ": 4355,
      "è¿İæİ¥": 4356,
      "åĮħè¢±": 4357,
      "Ġcontent": 4358,
      "åĳĬè¯īä½ł": 4359,
      "MERCU": 4360,
      "MERCUTIO": 4361,
      "com": 4362,
      "ike": 4363,
      "ï¼ĮâĢĶâĢĶ": 4364,
      "ä¸§": 4365,
      "åı¬": 4366,
      "åĲ¦": 4367,
      "å°Ħ": 4368,
      "ä½łéĤ£": 4369,
      "ä½łåį´": 4370,
      "éĤ£æĺ¯": 4371,
      "Ġdare": 4372,
      "åĬª": 4373,
      "å¤©å°Ĭ": 4374,
      "å¥½å¥½": 4375,
      "çĽĤ": 4376,
      "å¯¼": 4377,
      "åıĪæĿ¥": 4378,
      "åīª": 4379,
      "æ³¡": 4380,
      "ç½®": 4381,
      "éļĶ": 4382,
      "æŃ£åľ¨": 4383,
      "Ġlives": 4384,
      "æįŁ": 4385,
      "Ġdep": 4386,
      "çĭĲ": 4387,
      "èįĴ": 4388,
      "å®Ŀæ®¿": 4389,
      "ä½Ĩè§ģéĤ£": 4390,
      "æ·ĭ": 4391,
      "ä½¿ä¸ª": 4392,
      "Ġvillain": 4393,
      "è½¬èº«": 4394,
      "æ¥ļ": 4395,
      "é¹°": 4396,
      "gainst": 4397,
      "çŃĶåºĶ": 4398,
      "ĠKate": 4399,
      "é²ľ": 4400,
      "LUCENTIO": 4401,
      "Ġremem": 4402,
      "Ġnature": 4403,
      "Ġwelcome": 4404,
      "èģªæĺİ": 4405,
      "POM": 4406,
      "Tw": 4407,
      "sh": 4408,
      "unt": 4409,
      "ä¸Ľ": 4410,
      "Ġtend": 4411,
      "ä¸įè¡Į": 4412,
      "ä¸įå¤ļæĹ¶": 4413,
      "æĺ¯ä¸Ģ": 4414,
      "æĺ¯ä»ĸ": 4415,
      "å°ī": 4416,
      "åħľ": 4417,
      "ä½łè¿ŀ": 4418,
      "æĪĳä¸İä½ł": 4419,
      "ham": 4420,
      "Ġfree": 4421,
      "ä»ĸè¯´": 4422,
      "åĩ»": 4423,
      "å¸Ĳ": 4424,
      "ä¹Łæľī": 4425,
      "æĭ¦": 4426,
      "Ġgre": 4427,
      "Ġget": 4428,
      "Ġint": 4429,
      "åĸĩ": 4430,
      "éĹ¨ä¸Ĭ": 4431,
      "çĮ¢": 4432,
      "Ġwithin": 4433,
      "Ġkiss": 4434,
      "èĤ©": 4435,
      "å¹´åīį": 4436,
      "ester": 4437,
      "å²©": 4438,
      "æıª": 4439,
      "ĠCome": 4440,
      "æļĸ": 4441,
      "Ġgods": 4442,
      "å®³æĢķ": 4443,
      "Ġsaw": 4444,
      "Ġmadam": 4445,
      "å»¶": 4446,
      "å©Ĩå©Ĩ": 4447,
      "LAND": 4448,
      "Ġhappy": 4449,
      "Ġsovereign": 4450,
      "èŁłæ¡ĥ": 4451,
      "POMP": 4452,
      "LINA": 4453,
      "PAU": 4454,
      "apt": 4455,
      "ä¸įç®¡": 4456,
      "Ġserv": 4457,
      "Ġsister": 4458,
      "Ġsomet": 4459,
      "ä¸Ģä¸Ģ": 4460,
      "ä¸Ģä»¶": 4461,
      "ä½łæĹ¢": 4462,
      "hal": 4463,
      "åįĪ": 4464,
      "æīŃ": 4465,
      "æĿ¥æŃ¤": 4466,
      "Ġfoul": 4467,
      "Ġcity": 4468,
      "èĢģåĦ¿": 4469,
      "åĨ¤": 4470,
      "ä¹ĭè¨Ģ": 4471,
      "åºĻ": 4472,
      "æĮ¯": 4473,
      "è¾ī": 4474,
      "è¾ĵ": 4475,
      "åķĬåĸĤ": 4476,
      "æģķ": 4477,
      "æµĨ": 4478,
      "æĥ³çĿĢ": 4479,
      "çĭ²": 4480,
      "vers": 4481,
      "å¥³åĦ¿": 4482,
      "æĶ¾ä¸ĭ": 4483,
      "æŁĦ": 4484,
      "ç¼ļ": 4485,
      "éľľ": 4486,
      "æ·¡": 4487,
      "åĢĴæį¢": 4488,
      "åĿĲä¸ĭ": 4489,
      "åįĬç©ºä¸Ń": 4490,
      "ä¼łè¯´": 4491,
      "äºĨä¸Ģéģį": 4492,
      "Were": 4493,
      "éĤ£èĢģèĢħ": 4494,
      "è¸¢": 4495,
      "ç¥¥åħī": 4496,
      "Ġbeseech": 4497,
      "ä½ĵèĤ²èĢģå¸Ī": 4498,
      "PAULINA": 4499,
      "18": 4500,
      "YORK": 4501,
      "ient": 4502,
      "use": 4503,
      "çĴ": 4504,
      "ä¸įæĿ¥": 4505,
      "ä¸įå¿ħ": 4506,
      "çļĦéģĵ": 4507,
      "èĢĲ": 4508,
      "æĿĲ": 4509,
      "æľīçļĦ": 4510,
      "ery": 4511,
      "ä¼½": 4512,
      "åĩ¹": 4513,
      "Ġden": 4514,
      "Ġyield": 4515,
      "å¿Ĵ": 4516,
      "Ġthree": 4517,
      "Ġoath": 4518,
      "å¼¼": 4519,
      "æĸ¤": 4520,
      "æĥ¹": 4521,
      "åĬ¡": 4522,
      "å±ģ": 4523,
      "æŀ¯": 4524,
      "éĥ½æĿ¥": 4525,
      "èĦī": 4526,
      "å°ıå¿ĥ": 4527,
      "å°ıæĺİ": 4528,
      "èĩªæľī": 4529,
      "Ġyours": 4530,
      "ä¸Ģä¸ªæĺ¯": 4531,
      "åĶĲä¸īèĹı": 4532,
      "å¤§åľ£éģĵ": 4533,
      "åħīèķĬ": 4534,
      "onder": 4535,
      "æĹ¨æĦı": 4536,
      "ague": 4537,
      "eft": 4538,
      "Ġbreak": 4539,
      "Ġmeans": 4540,
      "Ġsubject": 4541,
      "gether": 4542,
      "GREMIO": 4543,
      "POMPEY": 4544,
      "NIA": 4545,
      "OLI": 4546,
      "POLI": 4547,
      "XEN": 4548,
      "balt": 4549,
      "ybalt": 4550,
      "ĠNor": 4551,
      "ä¸įåľ¨": 4552,
      "Ġaw": 4553,
      "çļĦåľ°æĸ¹": 4554,
      "å°¿": 4555,
      "Ġmer": 4556,
      "Ġwhile": 4557,
      "ä½łå®¶": 4558,
      "Ġborn": 4559,
      "åį¡": 4560,
      "æĹı": 4561,
      "è¿ĻåĴĮå°ļ": 4562,
      "å¤§çļĦ": 4563,
      "å¤§æĢĴ": 4564,
      "Ġthings": 4565,
      "Ġhorse": 4566,
      "ä¸īåįĥ": 4567,
      "anc": 4568,
      "åĨ»": 4569,
      "çĿĢå¤´": 4570,
      "å·į": 4571,
      "çīĴ": 4572,
      "èĦı": 4573,
      "å°ıé¾Ļ": 4574,
      "è´º": 4575,
      "èĭı": 4576,
      "æŃ£æŀľ": 4577,
      "æīįèĥ½": 4578,
      "æĸ¹ä¸Ī": 4579,
      "èĪĴ": 4580,
      "usic": 4581,
      "æŁ±": 4582,
      "å¨¥": 4583,
      "ANT": 4584,
      "åŁİä¸Ń": 4585,
      "èģĶ": 4586,
      "ç³Ĭ": 4587,
      "æĿİå¤©çİĭ": 4588,
      "Ġbloody": 4589,
      "Ġlooks": 4590,
      "ï¼ŁðŁĺı": 4591,
      "è¶ħçº§": 4592,
      "UMNIA": 4593,
      "like": 4594,
      "ches": 4595,
      "VOLUMNIA": 4596,
      "çĮ¢çĭ²": 4597,
      "POLIXEN": 4598,
      "POLIXENES": 4599,
      "GON": 4600,
      "Her": 4601,
      "rong": 4602,
      "up": 4603,
      "ues": 4604,
      "ä¸°": 4605,
      "Ġtem": 4606,
      "è¿Ķ": 4607,
      "ï¼ģ(ï¿£âĸ½ï¿£;)": 4608,
      "Ġwin": 4609,
      "Ġwound": 4610,
      "ä½łä¸¤ä¸ª": 4611,
      "ï¼Ł(ï¿£": 4612,
      "åį¦": 4613,
      "åį°": 4614,
      "Ġfire": 4615,
      "æľīè¯Ĺ": 4616,
      "åĽĬ": 4617,
      "enger": 4618,
      "åľ¨ç©ºä¸Ń": 4619,
      "ä¸Ĭé©¬": 4620,
      "å¼±": 4621,
      "æĸ¯": 4622,
      "ç»µ": 4623,
      "å¤©çľŁ": 4624,
      "åıªèĥ½": 4625,
      "ä¸İåħ«æĪĴ": 4626,
      "å°ıè¯´": 4627,
      "ä¸ŃåĽ½": 4628,
      "æīĵä¸ª": 4629,
      "æİĪ": 4630,
      "Ġyourself": 4631,
      "ä¸¤è¾¹": 4632,
      "äºĮéĥİ": 4633,
      "æ¬ł": 4634,
      "éŃĦ": 4635,
      "ä½ıéģĵ": 4636,
      "ï¼ŁðŁĴ¢": 4637,
      "æį£": 4638,
      "åĽłæŃ¤": 4639,
      "ç¦Ħ": 4640,
      "Ġsupp": 4641,
      "Ġspo": 4642,
      "Ġfaith": 4643,
      "INGS": 4644,
      "æĲº": 4645,
      "èģĮ": 4646,
      "ä¸ĥåįģ": 4647,
      "ĠServing": 4648,
      "è·³åĩº": 4649,
      "èĦ±äºĨ": 4650,
      "å¿ĥä¸ŃæļĹ": 4651,
      "Ġmaj": 4652,
      "STINGS": 4653,
      "Ġtraitor": 4654,
      "centio": 4655,
      "å¯¡äºº": 4656,
      "ä½ĵèĤ²èĢģå¸ĪæķĻ": 4657,
      "ĠServingman": 4658,
      "RENCE": 4659,
      "Say": 4660,
      "bs": 4661,
      "broke": 4662,
      "èŀ": 4663,
      "ä¹ŀ": 4664,
      "ä¸įæīĵ": 4665,
      "ä¸įæĪĲ": 4666,
      "æĿĥ": 4667,
      "ä¸Ģé¡¿": 4668,
      "rem": 4669,
      "æĪĳæľī": 4670,
      "å®°": 4671,
      "å®µ": 4672,
      "éĤ£æĹ¶": 4673,
      "åŃ½": 4674,
      "è¿Ļè¡ĮèĢħ": 4675,
      "Ġdru": 4676,
      "Ġlam": 4677,
      "ä¸Ĭåİ»": 4678,
      "åİ»å¤Ħ": 4679,
      "èĢģå¸ĪçĪ¶": 4680,
      "å±İ": 4681,
      "çĽĨ": 4682,
      "åĸ§": 4683,
      "ä¸İæ²Ļåĥ§": 4684,
      "å¦ĤæĦı": 4685,
      "éĥ½æľī": 4686,
      "åį´æĢİä¹Ī": 4687,
      "åı¯çĪ±": 4688,
      "æ°´å¸ĺ": 4689,
      "æ´¾": 4690,
      "æĹ¥æľĪ": 4691,
      "æĪĲçļĦ": 4692,
      "essenger": 4693,
      "å®ĿæĿĸ": 4694,
      "ç¼ĸ": 4695,
      "èİ«æĥ³": 4696,
      "ç¿ģ": 4697,
      "ĠLAU": 4698,
      "ä½łæĺ¯åľ¨": 4699,
      "æĵį": 4700,
      "åĳµåĳµ": 4701,
      "ä¿ĿåĶĲåĥ§": 4702,
      "å¿½çĦ¶": 4703,
      "åı¯èĥ½æĺ¯": 4704,
      "Ġmark": 4705,
      "éŀį": 4706,
      "æĮīèĲ½": 4707,
      "ç®įåĦ¿": 4708,
      "å®Įåħ¨": 4709,
      "Ġcommon": 4710,
      "HASTINGS": 4711,
      "Ġchildren": 4712,
      "form": 4713,
      "ertain": 4714,
      "çŃĭæĸĹäºĳ": 4715,
      "Ġmistress": 4716,
      "ä¸įè¿ĩè¯´çľŁçļĦ": 4717,
      "å¼¼é©¬": 4718,
      "ĠLAURENCE": 4719,
      "BY": 4720,
      "BER": 4721,
      "éĬ": 4722,
      "ä¸įä¸Ĭ": 4723,
      "ä½łè¯¥ä¸įä¼ļ": 4724,
      "æĪĳèĢģåŃĻ": 4725,
      "Ġcond": 4726,
      "Ġleft": 4727,
      "æĬ¼": 4728,
      "æĸľ": 4729,
      "å¤©æĻļ": 4730,
      "Ġbeat": 4731,
      "åıªä¼ļ": 4732,
      "çĿĢä¸Ģ": 4733,
      "åĥ§äºº": 4734,
      "ä¸ºä½ķ": 4735,
      "ä¹ĭäºº": 4736,
      "ï½ŀ(ï¿£âĸ½ï¿£": 4737,
      "éĢĲ": 4738,
      "çľŁåĲĽ": 4739,
      "æĹ¶è¾°": 4740,
      "éĥ½ä¸įçŁ¥éģĵ": 4741,
      "çĶŁçļĦ": 4742,
      "è¿Ļç§įäºĭæĥħ": 4743,
      "ä»Ģä¹ĪçļĦ": 4744,
      "ä¸Ģä¸ªäºº": 4745,
      "åĲĥé¥Ń": 4746,
      "æĸ¹æ³ķ": 4747,
      "æ±¡": 4748,
      "Ġrequ": 4749,
      "æŀľæĺ¯": 4750,
      "æŀľåŃĲ": 4751,
      "Ġdef": 4752,
      "çģ«çĦ°": 4753,
      "çī©çĲĨ": 4754,
      "æĲ§": 4755,
      "Ġval": 4756,
      "åħ³å¿ĥ": 4757,
      "çģµéľĦ": 4758,
      "Ġuncle": 4759,
      "é©¾äºĳ": 4760,
      "åĭ¿": 4761,
      "ä½łçľĭéĤ£": 4762,
      "è¿Ļä¸Ģåľº": 4763,
      "å³»": 4764,
      "åĶ¬å¾ĹéĤ£": 4765,
      "Therefore": 4766,
      "åİīå£°é«ĺåı«éģĵ": 4767,
      "ä¹¾åĿ¤": 4768,
      "Ġmajesty": 4769,
      "éĬ®": 4770,
      "*)": 4771,
      "19": 4772,
      "CLI": 4773,
      "FF": 4774,
      "Look": 4775,
      "Was": 4776,
      "å¤ı": 4777,
      "ä½³": 4778,
      "ä»į": 4779,
      "Ġaff": 4780,
      "Ġsin": 4781,
      "å°¼": 4782,
      "äºĨåĺĽ": 4783,
      "Ġmet": 4784,
      "è¿Ļä¸įæĺ¯": 4785,
      "ä¸ªå¤§": 4786,
      "æľīå¤ļå°ĳ": 4787,
      "åİķ": 4788,
      "åĩĮ": 4789,
      "Ġlate": 4790,
      "åľ¨ä»ĸ": 4791,
      "ä¸ĬéĿ¢": 4792,
      "Ġtold": 4793,
      "å¾ĹæĪĳ": 4794,
      "å°±åİ»": 4795,
      "å°±èµ°": 4796,
      "ä¹ĭæĹ¶": 4797,
      "å±±éĹ¨": 4798,
      "åĪ°éĤ£": 4799,
      "åį´ä¸įæĺ¯": 4800,
      "å°Ĩä»ĸ": 4801,
      "éĻĲ": 4802,
      "æģĭ": 4803,
      "ç½©": 4804,
      "çĮľ": 4805,
      "ä»Ģä¹Īå¥ĩæĢªçļĦ": 4806,
      "è·¯æĹģ": 4807,
      "Ġsoon": 4808,
      "ä»Ĭå¤©": 4809,
      "æĳĺ": 4810,
      "äºĶè¡Į": 4811,
      "Ġseen": 4812,
      "åıĳçİ°": 4813,
      "éĤ£éĩĮæĿ¥çļĦ": 4814,
      "ä¸ĩå²ģ": 4815,
      "éĩįè¦ģ": 4816,
      "æĵ¦": 4817,
      "è¿İçĿĢ": 4818,
      "å°ıå¦ĸéģĵ": 4819,
      "ç»Ļä½ł": 4820,
      "Ġsave": 4821,
      "ï½ŀ(ï¿£âĸ½ï¿£)~*": 4822,
      "åħĦå¼Łä»¬": 4823,
      "æ³¼çĮ´": 4824,
      "Ġdays": 4825,
      "æ³ªéģĵ": 4826,
      "UMBER": 4827,
      "THUMBER": 4828,
      "Ġwoe": 4829,
      "å¦Ĥæŀľä½łçľŁçļĦ": 4830,
      "ĠEngland": 4831,
      "NORTHUMBER": 4832,
      "Ġtender": 4833,
      "CLIFF": 4834,
      "NORTHUMBERLAND": 4835,
      "ID": 4836,
      "Take": 4837,
      "bed": 4838,
      "ever": 4839,
      "ring": 4840,
      "ten": 4841,
      "å¤¯": 4842,
      "ä¸įçĿĢ": 4843,
      "æĺ¯ä½ĵèĤ²èĢģå¸ĪæķĻ": 4844,
      "Ġsight": 4845,
      "äºĨåĩł": 4846,
      "Ġmon": 4847,
      "æĿ¨": 4848,
      "è¯µ": 4849,
      "å®¤": 4850,
      "ï¼Ł(âķ¬ï¿£": 4851,
      "äººéĹ´": 4852,
      "Ġgener": 4853,
      "å¥½æĿĢ": 4854,
      "åĨ¥": 4855,
      "å·¾": 4856,
      "å½»": 4857,
      "é¢Ĺ": 4858,
      "åº·": 4859,
      "çģ¼": 4860,
      "æł¸": 4861,
      "éĹ¨çļĦ": 4862,
      "æİ¢": 4863,
      "ä¾¯": 4864,
      "éĩĳçĿĽ": 4865,
      "å¤ªå¤ļ": 4866,
      "ides": 4867,
      "idow": 4868,
      "çĥĽ": 4869,
      "çĽ¸è²Į": 4870,
      "éĶ¤": 4871,
      "Ġdoes": 4872,
      "åĩłæĹ¶": 4873,
      "åħ¬åħ¬": 4874,
      "ä¸ĩæľĽ": 4875,
      "è§£äºĨ": 4876,
      "çŁ³å¤´": 4877,
      "æĹ¢å¦ĤæŃ¤": 4878,
      "è°¢æģ©": 4879,
      "ç½Ĺæ±ī": 4880,
      "è¿Ļç§įéĹ®é¢ĺä¹Łè¦ģ": 4881,
      "Though": 4882,
      "ç¯®": 4883,
      "å¤§æĥĬéģĵ": 4884,
      "åĪ¤å®ĺ": 4885,
      "éĺİçİĭ": 4886,
      "Ġreturn": 4887,
      "Ġmercy": 4888,
      "Ġfarewell": 4889,
      "ac": 4890,
      "dom": 4891,
      "mp": 4892,
      "nÉ¡": 4893,
      "~)": 4894,
      "ĠAN": 4895,
      "åı¦": 4896,
      "hes": 4897,
      "æĺ¼": 4898,
      "è¿¸": 4899,
      "Ġsit": 4900,
      "Ġsad": 4901,
      "rel": 4902,
      "æī®": 4903,
      "æľīæŃ¤": 4904,
      "ä»ĸåıĪ": 4905,
      "å¤§æµ·": 4906,
      "åľ¨æ°´": 4907,
      "ä¸Ĭä¸Ģ": 4908,
      "ä¸Ĭä¸ĭ": 4909,
      "æĭĨ": 4910,
      "å¥½äºĨ": 4911,
      "åıªåı«": 4912,
      "å¯Ŀ": 4913,
      "åıĪéĹ®": 4914,
      "ï½ŀ(ï¿£^ï¿£)": 4915,
      "å·¨": 4916,
      "çī¢": 4917,
      "çľŁç»ı": 4918,
      "æĮ¨": 4919,
      "å¿ĥçĮ¿": 4920,
      "çĶŁå¾Ĺ": 4921,
      "å°Ĩèº«ä¸Ģ": 4922,
      "éĺĻ": 4923,
      "åĢĺ": 4924,
      "åįģä¸ĩ": 4925,
      "æīįä¼ļ": 4926,
      "èĻ¾": 4927,
      "æįŀ": 4928,
      "Ġdeep": 4929,
      "å¥³çİĭ": 4930,
      "æ´ŀä¸Ń": 4931,
      "åĬ¨æīĭ": 4932,
      "ters": 4933,
      "åİŁæĺ¯": 4934,
      "åįĥä¸ĩ": 4935,
      "ä¸įè¿ĩåĺĽ": 4936,
      "åĲĦåĲĦ": 4937,
      "Ġgold": 4938,
      "ç©¿äºĨ": 4939,
      "æľįäºĨä½ł": 4940,
      "åħ¶ä»ĸ": 4941,
      "åĺ´èĦ¸": 4942,
      "èĻ½æĺ¯": 4943,
      "æŃ£æĺ¯éĤ£": 4944,
      "unes": 4945,
      "Ġmarry": 4946,
      "Ġheavy": 4947,
      "Ġfoot": 4948,
      "Ġwarrant": 4949,
      "åĿıäºĨ": 4950,
      "é¥¶ä½ł": 4951,
      "èĤļåŃĲ": 4952,
      "è§ĤéŁ³èı©èĲ¨": 4953,
      "ĠJul": 4954,
      "Ġpurpose": 4955,
      "Ġthrough": 4956,
      "åĲĨåĸĿ": 4957,
      "Ġdanger": 4958,
      "æľīè¯Ĺä¸ºè¯ģ": 4959,
      "æĺ¯ä½ĵèĤ²èĢģå¸ĪæķĻçļĦåĲĹ": 4960,
      "ĠANNE": 4961,
      "Ah": 4962,
      "Did": 4963,
      "Give": 4964,
      "PR": 4965,
      "aim": 4966,
      "ict": 4967,
      "mer": 4968,
      "so": 4969,
      "und": 4970,
      "vent": 4971,
      "Ġill": 4972,
      "ĠĠĊ": 4973,
      "éģĵæķĻ": 4974,
      "ä½łæĿ¥": 4975,
      "éĹ·": 4976,
      "æľīåĩł": 4977,
      "åĽº": 4978,
      "Ġcho": 4979,
      "Ġcold": 4980,
      "Ġnurse": 4981,
      "Ġtogether": 4982,
      "å¾Ĺä¸ª": 4983,
      "å¼ĥ": 4984,
      "Ġgrow": 4985,
      "æĥł": 4986,
      "çĪª": 4987,
      "ä¹ĭä¸Ĭ": 4988,
      "çľĭä»ĸ": 4989,
      "é¢Ħ": 4990,
      "åºĨ": 4991,
      "å°Ĩèµ·æĿ¥": 4992,
      "æİ§": 4993,
      "èº«æ³ķ": 4994,
      "ours": 4995,
      "æĥ³éģĵ": 4996,
      "ä¿Ĭ": 4997,
      "åĿł": 4998,
      "éĩĳéĵ¶": 4999,
      "åĲİæĿ¥": 5000,
      "æĭ¿åĩº": 5001,
      "ä¸Ķèİ«": 5002,
      "èįĨ": 5003,
      "æ®Ĭ": 5004,
      "ä»Ļæ°Ķ": 5005,
      "æĶ¾äºĨ": 5006,
      "ifford": 5007,
      "Ġsure": 5008,
      "éħ¬": 5009,
      "earn": 5010,
      "èħ®": 5011,
      "æĴĩ": 5012,
      "ä¸»åħ¬": 5013,
      "è®©ä»ĸ": 5014,
      "æ¯Ķä¸ĺ": 5015,
      "æ¼Ĩ": 5016,
      "CAPULET": 5017,
      "ignior": 5018,
      "INCE": 5019,
      "Ġdeser": 5020,
      "ments": 5021,
      "æĻºåķĨ": 5022,
      "çĭĤé£İ": 5023,
      "å¼¼é©¬æ¸©": 5024,
      "PRINCE": 5025,
      "az": 5026,
      "aid": 5027,
      "ca": 5028,
      "oint": 5029,
      "Ġè¿Ļç§į": 5030,
      "ĠåĨįè¯´äºĨ": 5031,
      "Ġtimes": 5032,
      "ä¸įäºĨ": 5033,
      "ä¸įæ¶Ī": 5034,
      "æĺ¯çĶļä¹Ī": 5035,
      "éģ£": 5036,
      "ä½łæľī": 5037,
      "ä½łè¦ģ": 5038,
      "ä½łèĭ¥": 5039,
      "éĤ¦": 5040,
      "è¡Ļ": 5041,
      "oriol": 5042,
      "åĪĳ": 5043,
      "åĵĢ": 5044,
      "æķĪ": 5045,
      "çİĩ": 5046,
      "ä¸Ĭå¤©": 5047,
      "èµļ": 5048,
      "å°±å¦Ĥ": 5049,
      "å°±ä¼ļ": 5050,
      "ingbroke": 5051,
      "æĥ¨": 5052,
      "æ°ı": 5053,
      "å¤©èī²": 5054,
      "çĽĪ": 5055,
      "çĿĢéĤ£": 5056,
      "åıĪä¸į": 5057,
      "ä¹ĭç±»": 5058,
      "ceed": 5059,
      "ç¬¦": 5060,
      "çīĪ": 5061,
      "è¿ĺæĪĳ": 5062,
      "è¿ĺèĥ½": 5063,
      "æĶĢ": 5064,
      "è°ĭ": 5065,
      "å®¶ä¼Ļ": 5066,
      "ä¾§": 5067,
      "Ġwithout": 5068,
      "enty": 5069,
      "çº³": 5070,
      "èĤ¥": 5071,
      "Ġask": 5072,
      "ross": 5073,
      "ush": 5074,
      "æŁĲ": 5075,
      "åĬ¨çī©": 5076,
      "Ġlost": 5077,
      "çľŁæĺ¯è®©äºº": 5078,
      "å§¿": 5079,
      "åĵ¥åĳµ": 5080,
      "åįĬç©º": 5081,
      "arewell": 5082,
      "æ®¿ä¸ĭ": 5083,
      "olingbroke": 5084,
      "æĢķä»ĸ": 5085,
      "åĭĩ": 5086,
      "æłĳä¸Ĭ": 5087,
      "Ġpluck": 5088,
      "æľīä¸Ģåº§": 5089,
      "å«Į": 5090,
      "ãĥĺ": 5091,
      "åĳĺå¤ĸ": 5092,
      "åıĺåģļä¸ª": 5093,
      "Ġreport": 5094,
      "Ġliege": 5095,
      "One": 5096,
      "æľīéĹ®é¢ĺåķĬ": 5097,
      "ä¸ŀçĽ¸": 5098,
      "æ¨µåŃĲ": 5099,
      "Ġbelieve": 5100,
      "Ġspirit": 5101,
      "åĬªåĬĽ": 5102,
      "ling": 5103,
      "xt": 5104,
      "åª": 5105,
      "è¿Ŀ": 5106,
      "æĺ¯å¥½": 5107,
      "Ġair": 5108,
      "Ġage": 5109,
      "outh": 5110,
      "Ġwat": 5111,
      "ä½łå¸ĪçĪ¶": 5112,
      "éĹ¯": 5113,
      "åĵĳ": 5114,
      "èµŀ": 5115,
      "å¼ĵ": 5116,
      "Ġheir": 5117,
      "æĭ¨": 5118,
      "æĭĺ": 5119,
      "ðŁ¤": 5120,
      "å¤©æĺİ": 5121,
      "å¤©åħµ": 5122,
      "åĩºåŁİ": 5123,
      "ä¹ĭå¤ĸ": 5124,
      "å·Ŀ": 5125,
      "æŀī": 5126,
      "ets": 5127,
      "å°ıæĹ¶": 5128,
      "å°ıåĦ¿": 5129,
      "æĶ»": 5130,
      "èº«åŃĲ": 5131,
      "éĺĶ": 5132,
      "åĢ¾": 5133,
      "ç²®": 5134,
      "åĽ½å®¶": 5135,
      "æĻ¦": 5136,
      "é¾Ł": 5137,
      "ains": 5138,
      "Ġthyself": 5139,
      "éĶ¡": 5140,
      "ift": 5141,
      "æŁı": 5142,
      "åĮĸæĸĭ": 5143,
      "Ġloss": 5144,
      "æ¶²": 5145,
      "æľĿä¸Ĭ": 5146,
      "çłĤ": 5147,
      "æĺŁå®ĺ": 5148,
      "å®īåħ¨": 5149,
      "ĠMont": 5150,
      "é¼ĭ": 5151,
      "Ġsays": 5152,
      "ç§°ä¸º": 5153,
      "ĠBolingbroke": 5154,
      "å¯ºéĩĮ": 5155,
      "åıĸç»ıçļĦ": 5156,
      "å¤«å¦»": 5157,
      "ãĢĢãĢĢ": 5158,
      "èħ°éĹ´": 5159,
      "Whose": 5160,
      "èĢģéŃĶéģĵ": 5161,
      "èµĮæĸĹ": 5162,
      "ä¼¯éĴ¦": 5163,
      "Ġstrange": 5164,
      "æ°´å¸ĺæ´ŀ": 5165,
      "åİķæīĢ": 5166,
      "00": 5167,
      "ALO": 5168,
      "Had": 5169,
      "ial": 5170,
      "no": 5171,
      "ner": 5172,
      "Ġä½łä»¥ä¸º": 5173,
      "Ġä¸ĭæ¬¡": 5174,
      "ä¸įåĲĥ": 5175,
      "æĺ¯è¦ģ": 5176,
      "ä½łå°±": 5177,
      "å®ħ": 5178,
      "Ġbat": 5179,
      "åĪģ": 5180,
      "Ġcry": 5181,
      "Ġlearn": 5182,
      "å¤§åĵ¥": 5183,
      "å¤§éĹ¹å¤©å®«": 5184,
      "ä¹Łè¦ģ": 5185,
      "ç§¦": 5186,
      "å¤©å¸Ī": 5187,
      "ced": 5188,
      "åĸ»": 5189,
      "ä¸İéĤ£": 5190,
      "çĦļ": 5191,
      "æĢİæķ¢": 5192,
      "æīĵå¼Ģ": 5193,
      "æµħ": 5194,
      "åıĺå¾Ĺ": 5195,
      "çĶ¨çļĦ": 5196,
      "åĲİè¾¹": 5197,
      "è¥¿åİ»": 5198,
      "æ²¡äºº": 5199,
      "ä¼Ĺå¦ĸ": 5200,
      "ä¸Ķä¼ĳ": 5201,
      "åħīæĺİ": 5202,
      "Ġsuff": 5203,
      "éľŃ": 5204,
      "åħĪéĶĭ": 5205,
      "åįĬä¸ª": 5206,
      "æ¸ħé£İ": 5207,
      "ç¬¨èĽĭåĳ¢": 5208,
      "åĲĳåīį": 5209,
      "é¹ħ": 5210,
      "æĵŀ": 5211,
      "aking": 5212,
      "æħĮå¿Ļ": 5213,
      "ç»ĵæŀľ": 5214,
      "æ£įåŃĲ": 5215,
      "Ġears": 5216,
      "åĪ©å®³": 5217,
      "ï¼Łï¼ģ(âķ¬ï¿£": 5218,
      "Ġhaste": 5219,
      "å¹Įä¸Ģ": 5220,
      "èĤļéĩĮ": 5221,
      "ĠClifford": 5222,
      "å¦ĩäºº": 5223,
      "è¯´ä¸įäºĨ": 5224,
      "Ġentreat": 5225,
      "æĭľä½Ľæ±Ĥç»ı": 5226,
      "è¶ģæĹ©": 5227,
      "æ¾¡": 5228,
      "Ġdevil": 5229,
      "Ġground": 5230,
      "Should": 5231,
      "Ġperson": 5232,
      "åĢĴæį¢åħ³æĸĩ": 5233,
      "ĠJuliet": 5234,
      "Like": 5235,
      "Wh": 5236,
      "ges": 5237,
      "night": 5238,
      "è¿¦": 5239,
      "äºĨåİ»": 5240,
      "Ġmur": 5241,
      "ined": 5242,
      "éĤ£åħ«æĪĴ": 5243,
      "éĤ£å¥³åŃĲ": 5244,
      "æī³": 5245,
      "Ġfly": 5246,
      "åİĮ": 5247,
      "åİļ": 5248,
      "çĶľ": 5249,
      "æķĸ": 5250,
      "åľ¨éĩĮéĿ¢": 5251,
      "Ġtoward": 5252,
      "èµĸ": 5253,
      "Ġpast": 5254,
      "ä¸īæĹ¥": 5255,
      "oman": 5256,
      "å¤©éĹ¨": 5257,
      "åıªè¦ģ": 5258,
      "åıªæĢķ": 5259,
      "ä¹ĭçī©": 5260,
      "å·¢": 5261,
      "let": 5262,
      "å¤´åıĳ": 5263,
      "æĬĬåĶĲåĥ§": 5264,
      "è¿Ļç§įæĹłèģĬ": 5265,
      "ç«º": 5266,
      "æ²¡å¥Īä½ķ": 5267,
      "çĥĺ": 5268,
      "èį¤": 5269,
      "å®ĺåĳĺ": 5270,
      "è£°": 5271,
      "Ġfast": 5272,
      "åįĥå¹´": 5273,
      "Ġvis": 5274,
      "å¿«æĹ©": 5275,
      "æĢ¥æĢ¥": 5276,
      "çĽ´è£°": 5277,
      "é¸¾": 5278,
      "aud": 5279,
      "ĠLu": 5280,
      "ä¸ĸå¾·": 5281,
      "å©¿": 5282,
      "ä¾Ŀè¨Ģ": 5283,
      "çĨ¬": 5284,
      "Ġpoint": 5285,
      "Ġfriar": 5286,
      "åĬŀæ³ķ": 5287,
      "Ġdisp": 5288,
      "Ġslain": 5289,
      "Ġbetw": 5290,
      "è´¤å¼Ł": 5291,
      "æĮĳçĿĢ": 5292,
      "æ¬¢åĸľéģĵ": 5293,
      "çĭ®åŃĲ": 5294,
      "æ½ľ": 5295,
      "ĠFrance": 5296,
      "æĬĸæĵŀ": 5297,
      "åħħçĶµ": 5298,
      "ixt": 5299,
      "æĬ½èº«": 5300,
      "Ġjustice": 5301,
      "è¦ģä¸įè¦ģæĪĳ": 5302,
      "éŃıå¾ģ": 5303,
      "Ġstraight": 5304,
      "Ġremember": 5305,
      "ä¸ĸå¾·åłĤ": 5306,
      "APULET": 5307,
      "FL": 5308,
      "FID": 5309,
      "IZ": 5310,
      "May": 5311,
      "Some": 5312,
      "Ġord": 5313,
      "ä¸įçŀĴ": 5314,
      "Ġsil": 5315,
      "ina": 5316,
      "Ġbold": 5317,
      "åį¿": 5318,
      "è¿Ļåľº": 5319,
      "äººçī©": 5320,
      "äººåıĤ": 5321,
      "Ġcurse": 5322,
      "Ġnear": 5323,
      "åľ¨é©¬ä¸Ĭ": 5324,
      "è¯´åĩº": 5325,
      "å±¥": 5326,
      "å¤©ç«º": 5327,
      "ä¹ĭåĨħ": 5328,
      "æŀĦ": 5329,
      "çŃĸ": 5330,
      "æ³°": 5331,
      "ution": 5332,
      "å°ıåĴĮå°ļ": 5333,
      "å±±åĿ¡": 5334,
      "çĶŁçī©": 5335,
      "å°ĨéĤ£": 5336,
      "çĪ¶åŃĲ": 5337,
      "åı«ä»ĸ": 5338,
      "ç«ĸ": 5339,
      "æ¸´": 5340,
      "ä½ķä¹Ł": 5341,
      "Ġstrong": 5342,
      "èĤ¤": 5343,
      "These": 5344,
      "è¢«æĪĳ": 5345,
      "åĪĨéĴŁ": 5346,
      "åı£ä¸Ń": 5347,
      "æĪĲç²¾": 5348,
      "æĪĲåĬŁ": 5349,
      "ĠCAPULET": 5350,
      "ORIZ": 5351,
      "è¿Ļç§įéĹ®é¢ĺè¿ĺ": 5352,
      "é£ŀæľº": 5353,
      "éļıåĲİ": 5354,
      "æĹ¢æĺ¯": 5355,
      "Ġworthy": 5356,
      "Ġquick": 5357,
      "AUFID": 5358,
      "çŃīæĪĳåİ»": 5359,
      "åħĥå¸ħ": 5360,
      "éĺ´éĺ³": 5361,
      "ç¦»äºĨ": 5362,
      "entleman": 5363,
      "ä¼ıä¾į": 5364,
      "Ġtrust": 5365,
      "é¡¶ä¸Ĭ": 5366,
      "Ġalone": 5367,
      "éĵ¶åŃĲ": 5368,
      "Ġdesire": 5369,
      "ä¼Ĺåĥ§éģĵ": 5370,
      "åİīå®³": 5371,
      "ä¸Ģåıªæīĭ": 5372,
      "åı©å¤´éģĵ": 5373,
      "Ġinstru": 5374,
      "Ġbeauty": 5375,
      "Ġservice": 5376,
      "FLORIZ": 5377,
      "AUFIDIUS": 5378,
      "FLORIZEL": 5379,
      "Can": 5380,
      "SE": 5381,
      "Tell": 5382,
      "VER": 5383,
      "gs": 5384,
      "ning": 5385,
      "ship": 5386,
      "with": 5387,
      "ä¸½": 5388,
      "Ġtouch": 5389,
      "ä¸įå°±": 5390,
      "æĺ¯çĶ¨æĿ¥": 5391,
      "äºĨä¸ī": 5392,
      "ä¸Ģè¡Į": 5393,
      "ä¸Ģå¤Ħ": 5394,
      "ä½łä¸įä¼ļ": 5395,
      "éĤ£å¸ĪçĪ¶": 5396,
      "åŃķ": 5397,
      "åŃĿ": 5398,
      "è¡¬": 5399,
      "åĪĽ": 5400,
      "Ġfound": 5401,
      "ä»ĸæĿ¥": 5402,
      "ä»ĸåİ»": 5403,
      "ithe": 5404,
      "ä¸ĬçķĮ": 5405,
      "å¾Ĺèĥľ": 5406,
      "ï¿£ï¼ī": 5407,
      "ĠIs": 5408,
      "ä¸ĭéĽ¨": 5409,
      "å±Ī": 5410,
      "çĪ½": 5411,
      "åıªä¸º": 5412,
      "çĿĢæĪĳ": 5413,
      "ä¹ĭä¸Ń": 5414,
      "ä¹ĭå¿ĥ": 5415,
      "ä¹ĭæģ©": 5416,
      "åīĬ": 5417,
      "åĶ¿": 5418,
      "è´¯": 5419,
      "å±±ç¥ŀ": 5420,
      "æĬĬè¿Ļ": 5421,
      "çĶŁæ°Ķ": 5422,
      "æĥ³å¿ħ": 5423,
      "adam": 5424,
      "ç²Ĵ": 5425,
      "çº±": 5426,
      "æ¬¾": 5427,
      "Ġready": 5428,
      "ION": 5429,
      "æŃ»æĪĳ": 5430,
      "éĹ»è¯´": 5431,
      "å¤ĸåħ¬": 5432,
      "åİŁèº«": 5433,
      "è£Ĥ": 5434,
      "æ¡¶": 5435,
      "æ¢¯": 5436,
      "çĶµè§Ĩ": 5437,
      "å°½çļĨ": 5438,
      "Ġbrought": 5439,
      "å©´": 5440,
      "çĿ¡çĿĢ": 5441,
      "çªŁ": 5442,
      "æĸĭåĥ§": 5443,
      "ured": 5444,
      "ä¸įå¥½äºĨ": 5445,
      "ï¼ŁðŁ¤Ń": 5446,
      "ä¾ĿçĦ¶": 5447,
      "çĨĬ": 5448,
      "Ġposs": 5449,
      "åıįæŃ£": 5450,
      "æĸ½ä¸»": 5451,
      "ĠTybalt": 5452,
      "çīµé©¬": 5453,
      "å¥¶å¥¶": 5454,
      "Ġrun": 5455,
      "Ġhard": 5456,
      "è¯´ä¸įå®ļ": 5457,
      "è¿Ļç§įçĻ½çĹ´éĹ®é¢ĺä¹ŁæĿ¥éĹ®æĪĳ": 5458,
      "æį»çĿĢ": 5459,
      "Ġenemy": 5460,
      "éĴµçĽĤ": 5461,
      "çļĪä¾Ŀ": 5462,
      "ä½łèĦĳåŃĲæĺ¯ä¸įæĺ¯è¿Ľæ°´äºĨ": 5463,
      "èļĬåŃĲ": 5464,
      "Ġrevenge": 5465,
      "æĮīèĲ½äºĳå¤´": 5466,
      "Ġgeneral": 5467,
      "audio": 5468,
      "!'": 5469,
      "Ha": 5470,
      "ible": 5471,
      "vo": 5472,
      "è¤": 5473,
      "ï¾": 5474,
      "ĠHere": 5475,
      "æĺ¯ä½ķ": 5476,
      "åĲ¼": 5477,
      "Ġwoo": 5478,
      "éĤ»": 5479,
      "æĹĭ": 5480,
      "Ġduty": 5481,
      "enator": 5482,
      "æĸĳ": 5483,
      "è¡ĮèĢħåıĪ": 5484,
      "èĢģæĢª": 5485,
      "ç»Ń": 5486,
      "ä¸ĭä¸Ģ": 5487,
      "ä¸ĭäºĳå¤´": 5488,
      "éĩĮè¾¹": 5489,
      "ç§ī": 5490,
      "Ġgrant": 5491,
      "çĽĲ": 5492,
      "çĿĢå®ŀ": 5493,
      "ä¹ĭåīį": 5494,
      "Ġinf": 5495,
      "cept": 5496,
      "çľŁè¨Ģ": 5497,
      "çľŁåģĩ": 5498,
      "æ³³": 5499,
      "è´£": 5500,
      "å±±ä¸Ĭ": 5501,
      "å£¶": 5502,
      "åĮ£": 5503,
      "æģŃ": 5504,
      "æµ´": 5505,
      "æµĵ": 5506,
      "æĥ³åĩºæĿ¥": 5507,
      "æŃ£è¡Į": 5508,
      "Ġitself": 5509,
      "éĹ®é¢ĺéĹ®å¾Ĺ": 5510,
      "æ¸º": 5511,
      "æ±ª": 5512,
      "çĤ¸": 5513,
      "æĢİä¹Īå°±": 5514,
      "ä¼Ĺäºº": 5515,
      "ä¼Ĺå®ĺ": 5516,
      "ä¼ĹçĮ´": 5517,
      "åį³å°Ĩ": 5518,
      "æľ¬èº«": 5519,
      "é«ĺå±±": 5520,
      "çĤ¹å¤´": 5521,
      "amill": 5522,
      "æ®·": 5523,
      "èĭ¥ä¸į": 5524,
      "åĨįéĹ®": 5525,
      "åĩłå¹´": 5526,
      "ç¾½": 5527,
      "ç¼©": 5528,
      "ç¼ĵ": 5529,
      "Ġlose": 5530,
      "éľİ": 5531,
      "èħĲ": 5532,
      "èĦĳåŃĲè¿Ľæ°´": 5533,
      "æ¡©": 5534,
      "è§£éĩĬ": 5535,
      "aunt": 5536,
      "äºĨä¸Ģå£°": 5537,
      "çħİ": 5538,
      "é»Ħéĩĳ": 5539,
      "Ġknows": 5540,
      "Ġcanst": 5541,
      "è¿ľè¿ĳ": 5542,
      "ĠSenator": 5543,
      "æĵħ": 5544,
      "inks": 5545,
      "åİŁæĿ¥éĤ£": 5546,
      "umber": 5547,
      "èĤ¯å®ļ": 5548,
      "å·¦æīĭ": 5549,
      "çļĩåĲİ": 5550,
      "âľ§": 5551,
      "Ġmarried": 5552,
      "ç¾İçĮ´çİĭ": 5553,
      "èŁ¹": 5554,
      "ç«¯çļĦ": 5555,
      "åľŁåľ°éģĵ": 5556,
      "ç§ĳåŃ¦": 5557,
      "Ġthoughts": 5558,
      "åľĪåŃĲ": 5559,
      "Ġcharge": 5560,
      "èĢĮå·²åķ¦": 5561,
      "ç¥ĸå¸Īéģĵ": 5562,
      "è¾Ľèĭ¦": 5563,
      "çĴĥ": 5564,
      "ï¿£ï¼īâĹĭ": 5565,
      "Against": 5566,
      "Bec": 5567,
      "CIUS": 5568,
      "RICHARD": 5569,
      "Sp": 5570,
      "cester": 5571,
      "eep": 5572,
      "gu": 5573,
      "lou": 5574,
      "sue": 5575,
      "ua": 5576,
      "ĠN": 5577,
      "ĠYou": 5578,
      "ï¼ģï¼ģ": 5579,
      "Ġmorn": 5580,
      "åħ°": 5581,
      "ä¸Ģç§į": 5582,
      "éĤĢ": 5583,
      "åį§": 5584,
      "æĿ¥å¾Ĺ": 5585,
      "æĿ¥åĪ°": 5586,
      "æľīå¤ļ": 5587,
      "æľīçĲĨ": 5588,
      "å¥´": 5589,
      "ç»´": 5590,
      "è§ģæĪĳ": 5591,
      "çĪĨ": 5592,
      "å¸Īå¼Ł": 5593,
      "éĥ½æ²¡æľī": 5594,
      "è´¬": 5595,
      "æīĵçł´": 5596,
      "æİ©": 5597,
      "åĽŀå®¶": 5598,
      "ä¾µ": 5599,
      "Ġwear": 5600,
      "éĽķ": 5601,
      "riage": 5602,
      "åĺ»": 5603,
      "æĸ¹å¼ı": 5604,
      "äºĮæĿ¥": 5605,
      "äºĮåĵ¥": 5606,
      "äºĮçĻ¾": 5607,
      "Ġread": 5608,
      "è¯Ŀé¢ĺ": 5609,
      "æį½": 5610,
      "åĽ½å¸Ī": 5611,
      "åĲ¬èµ·æĿ¥": 5612,
      "Ġdeli": 5613,
      "èĢĮæĿ¥": 5614,
      "åı£ä»Ļæ°Ķ": 5615,
      "å®Ŀåīĳ": 5616,
      "åĨįåİ»": 5617,
      "é»ĺ": 5618,
      "ä¸ĩéĩĮ": 5619,
      "Ġspeed": 5620,
      "æĴŃ": 5621,
      "éĢļè¿ĩ": 5622,
      "ç¬¬ä¹Ŀ": 5623,
      "å¾Ħåħ¥": 5624,
      "çĸı": 5625,
      "è¿ŀå¿Ļ": 5626,
      "æİ¥äºĨ": 5627,
      "å¹²åĺĽ": 5628,
      "è¿ĻéĩĮæĮĩ": 5629,
      "å¾Ĵå¼Łåĳµ": 5630,
      "åħ¨æĹł": 5631,
      "Ġquar": 5632,
      "å¿½åĲ¬å¾Ĺ": 5633,
      "åĬŁæĽ¹": 5634,
      "ï¼ģðŁ¤£": 5635,
      "åı¯èĥ½ä¼ļ": 5636,
      "ç»ĻæĪĳ": 5637,
      "Ġprof": 5638,
      "è®¡è¾ĥ": 5639,
      "åıĸç»ıäºº": 5640,
      "åı³æīĭ": 5641,
      "è®¾è®¡": 5642,
      "Ġtwenty": 5643,
      "èĨı": 5644,
      "Ġstands": 5645,
      "æľīä»Ģä¹Īåħ³ç³»": 5646,
      "BAST": 5647,
      "ç°¿": 5648,
      "Shepherd": 5649,
      "æīĳçļĦ": 5650,
      "é³ŀ": 5651,
      "ched": 5652,
      "åŁºæľ¬": 5653,
      "Ġhours": 5654,
      "Ġconfess": 5655,
      "èĸĦ": 5656,
      "Ġstreng": 5657,
      "åį±éĻ©": 5658,
      "SEBAST": 5659,
      "ithee": 5660,
      "SEBASTIAN": 5661,
      "OW": 5662,
      "cess": 5663,
      "Ġæĺ¯ä¸įæĺ¯": 5664,
      "ä»Ĺ": 5665,
      "ä¸įåĩº": 5666,
      "ä¸įé¡»": 5667,
      "ä¸įè§ģäºĨ": 5668,
      "æĺ¯çĶļ": 5669,
      "åĲµ": 5670,
      "æľĹ": 5671,
      "Ġmock": 5672,
      "ä¸Ģä¼ļ": 5673,
      "ä¸Ģå®¶": 5674,
      "ä¸ĢçĻ¾": 5675,
      "ä½łäºĨ": 5676,
      "æĢł": 5677,
      "Ġfur": 5678,
      "Ġfore": 5679,
      "Ġfield": 5680,
      "æľīåĽĽ": 5681,
      "æľīäºĶ": 5682,
      "çľł": 5683,
      "æŃª": 5684,
      "ones": 5685,
      "äººçŃī": 5686,
      "Ġdiv": 5687,
      "Ġcar": 5688,
      "å¿»": 5689,
      "Ġyouth": 5690,
      "Ġpost": 5691,
      "è¡ĮèĢħæļĹ": 5692,
      "Ġhell": 5693,
      "èĢģéģĵ": 5694,
      "ç»°": 5695,
      "è¯´æĪĳ": 5696,
      "ingham": 5697,
      "ðŁĺ": 5698,
      "å¥½éģĵ": 5699,
      "å¥½å¤Ħ": 5700,
      "å½¼": 5701,
      "Ġhalf": 5702,
      "åģ¶": 5703,
      "åħ«çĻ¾": 5704,
      "æ³Ľ": 5705,
      "ä¸İè¡ĮèĢħ": 5706,
      "æłĩ": 5707,
      "ä¼ļä¸įä¼ļ": 5708,
      "è¿ĺæ²¡": 5709,
      "åį´å°±": 5710,
      "æĹłè¯Ń": 5711,
      "æīĵäºĨ": 5712,
      "å°Ĩåİ»": 5713,
      "å°ĨæŃ¤": 5714,
      "æ´Ĵ": 5715,
      "éĻ·": 5716,
      "ç©´": 5717,
      "oop": 5718,
      "åĿĽ": 5719,
      "æ¸Ķ": 5720,
      "ä¸¤åıª": 5721,
      "è¢«è¡ĮèĢħ": 5722,
      "æĭ¿åĩºæĿ¥": 5723,
      "çĽ¸è¿İ": 5724,
      "èĭ¥è¦ģ": 5725,
      "èĬ±åĽŃ": 5726,
      "å²³": 5727,
      "Thus": 5728,
      "æħ§": 5729,
      "ç¼Ŀ": 5730,
      "ĠRi": 5731,
      "æīĢè°ĵ": 5732,
      "çİ°åĩº": 5733,
      "çĻ¾åįģ": 5734,
      "ç¬¬ä¸īåįģ": 5735,
      "åħ³äºĨ": 5736,
      "olk": 5737,
      "fection": 5738,
      "æ¼ł": 5739,
      "è±ª": 5740,
      "å¾Īå¤ļ": 5741,
      "ï¼ģðŁĺı": 5742,
      "ĠHast": 5743,
      "çīĽéŃĶçİĭ": 5744,
      "Ġjud": 5745,
      "ump": 5746,
      "éĺ´åı¸": 5747,
      "Ġexec": 5748,
      "åºķä¸ĭ": 5749,
      "Ġfearful": 5750,
      "åĪĩèİ«": 5751,
      "æĮĳæĭħ": 5752,
      "ç¥¸äºĭ": 5753,
      "æĬ«æĮĤ": 5754,
      "é©¿ä¸ŀ": 5755,
      "Ġcounsel": 5756,
      "å¹Įä¸Ģå¹Į": 5757,
      "amillo": 5758,
      "BION": 5759,
      "Com": 5760,
      "DEL": 5761,
      "Till": 5762,
      "most": 5763,
      "pare": 5764,
      "Äģ": 5765,
      "èª": 5766,
      "Ġter": 5767,
      "éģĹ": 5768,
      "èĢĢ": 5769,
      "Ġmin": 5770,
      "Ġwret": 5771,
      "ä¸Ģåıĳ": 5772,
      "ä¸Ģåľº": 5773,
      "ä½łéģĵ": 5774,
      "ä½łéĹ®": 5775,
      "å®ľ": 5776,
      "éĤ£ä¸Ģ": 5777,
      "éĤ£ä¸¤ä¸ª": 5778,
      "Ġbos": 5779,
      "å¥¥": 5780,
      "åĩı": 5781,
      "åľ¨æĪĳ": 5782,
      "Ġpar": 5783,
      "ä¸ĭæīĭ": 5784,
      "ä¸ĭéĿ¢": 5785,
      "å¥½äºº": 5786,
      "Ġbehold": 5787,
      "èĩĤ": 5788,
      "çİĭæ¯į": 5789,
      "éĢ¼": 5790,
      "Ġinc": 5791,
      "åħ«åįģ": 5792,
      "åº¶": 5793,
      "åĶĩ": 5794,
      "å°ıåŃ¦": 5795,
      "ä¸Ńæľī": 5796,
      "æłª": 5797,
      "åį´å¥½": 5798,
      "æīĵä»ĸ": 5799,
      "æīĵå¾Ĺ": 5800,
      "Ġeach": 5801,
      "ads": 5802,
      "åĲĥçļĦ": 5803,
      "éĩĳä¸¹": 5804,
      "Ġrec": 5805,
      "å¼ŁåħĦ": 5806,
      "åĲ¬è¨Ģ": 5807,
      "Ġdel": 5808,
      "åį³å¿Ļ": 5809,
      "æ´ŀéĹ¨": 5810,
      "æ¶Ĥ": 5811,
      "æĥħåĨµ": 5812,
      "åĢĴåľ¨åľ°": 5813,
      "æıı": 5814,
      "ĠCoriol": 5815,
      "æĲľ": 5816,
      "ä¸»äºº": 5817,
      "æĢ¥çºµ": 5818,
      "å®īæŃĩ": 5819,
      "åĵ¥åķĬ": 5820,
      "ç¬¬äºĮåįģ": 5821,
      "ols": 5822,
      "åĲĽçİĭ": 5823,
      "Ġwork": 5824,
      "ortal": 5825,
      "åĭī": 5826,
      "ï¼ģðŁ¤¬": 5827,
      "çī¹åĪ«": 5828,
      "åĳ¼åĳ¼": 5829,
      "ä¹°åįĸ": 5830,
      "æ¶Īæģ¯": 5831,
      "æī¾å¯»": 5832,
      "éģĩçĿĢ": 5833,
      "Ġhearts": 5834,
      "Ġmarriage": 5835,
      "åŀ¢": 5836,
      "Ġdesp": 5837,
      "æŃ¦èīº": 5838,
      "æŀľçĦ¶æĺ¯": 5839,
      "å«Ĥ": 5840,
      "è¹Ħ": 5841,
      "é²ģ": 5842,
      "ĠClaudio": 5843,
      "ðŁĴ¥": 5844,
      "itizens": 5845,
      "å¤§ä»Ļéģĵ": 5846,
      "uckingham": 5847,
      "Ġresol": 5848,
      "æ¤į": 5849,
      "âĢ¦âĢ¦âĢĿ": 5850,
      "éĥ¡ä¾¯": 5851,
      "MARCIUS": 5852,
      "ĠMontague": 5853,
      "ä¸ĸå¾·åłĤæľ¬": 5854,
      "loucester": 5855,
      "BIONDEL": 5856,
      "Ġbosom": 5857,
      "BIONDELLO": 5858,
      "Away": 5859,
      "MON": 5860,
      "Madam": 5861,
      "bly": 5862,
      "folk": 5863,
      "iers": 5864,
      "now": 5865,
      "æ©": 5866,
      "ĠThe": 5867,
      "Ġï¼Ī": 5868,
      "ä¸«": 5869,
      "Ġtit": 5870,
      "Ġten": 5871,
      "Ġtale": 5872,
      "ä»½": 5873,
      "ä¸įåİ»": 5874,
      "ä¸įè®¸": 5875,
      "å®Ļ": 5876,
      "éĤ£å¦ĸçİĭ": 5877,
      "éĤ£éŃĶçİĭ": 5878,
      "Ġbound": 5879,
      "æī£": 5880,
      "æī°": 5881,
      "ä¸ªä¸ª": 5882,
      "ä¼ĺ": 5883,
      "Ġdam": 5884,
      "Ġcut": 5885,
      "ench": 5886,
      "Ġye": 5887,
      "æķķ": 5888,
      "Ġopen": 5889,
      "ä¹Łä¸įæĺ¯": 5890,
      "ä¹ŁæĿ¥éĹ®æĪĳ": 5891,
      "èĢģèĻİ": 5892,
      "éĹ®ä½ł": 5893,
      "å°±æĬĬ": 5894,
      "ðŁĴ¦": 5895,
      "åıªè¯´": 5896,
      "ä¹ĭå£°": 5897,
      "ä¹ĭç½ª": 5898,
      "åī²": 5899,
      "å¤´æĿ¥": 5900,
      "éĥ½æ²¡": 5901,
      "åīįæĿ¥": 5902,
      "å°Ĩè¿Ľåİ»": 5903,
      "ç«¿": 5904,
      "çº¯": 5905,
      "çºł": 5906,
      "åıĺäºĨ": 5907,
      "ç®±": 5908,
      "èĤĿ": 5909,
      "rah": 5910,
      "alm": 5911,
      "æĭ¿çĿĢ": 5912,
      "é¥°": 5913,
      "è¯·éĹ®": 5914,
      "å¯¹ä¼Ĺ": 5915,
      "èİ«å¿µ": 5916,
      "ĠCap": 5917,
      "âĢĻãĢĤâĢĿ": 5918,
      "æķĳæĪĳ": 5919,
      "æľĿå¤©": 5920,
      "Ġshort": 5921,
      "é¸¦": 5922,
      "èī²çļĦ": 5923,
      "æ»¡å¿ĥ": 5924,
      "ä½łèĦĳåŃĲè¢«éĹ¨å¤¹äºĨåĲĹ": 5925,
      "Ġknown": 5926,
      "ĠBuckingham": 5927,
      "æµģæ²Ļ": 5928,
      "éĹ®æĪĳåĲĹ": 5929,
      "å¿ħçĦ¶": 5930,
      "Ġseek": 5931,
      "æĸ½ç¤¼éģĵ": 5932,
      "æĭħå¿ĥ": 5933,
      "èľľ": 5934,
      "çİ©ç¬ĳ": 5935,
      "ä¸ĵä¸ļ": 5936,
      "å·¥ä½ľ": 5937,
      "å¸®ä½ł": 5938,
      "Ġharm": 5939,
      "æ¸Ĳæ¸Ĳ": 5940,
      "Ġcompany": 5941,
      "Ġguilt": 5942,
      "Ġhighness": 5943,
      "æī¯ä½ıéģĵ": 5944,
      "å®ĩå®Ļ": 5945,
      "çįĲ": 5946,
      "Ġstrike": 5947,
      "è·ªä¸ĭéģĵ": 5948,
      "Ġattend": 5949,
      "Ġserve": 5950,
      "éĶ¡æĿĸ": 5951,
      "Ġmurder": 5952,
      "ĠHastings": 5953,
      "Farewell": 5954,
      "HER": 5955,
      "OP": 5956,
      "chan": 5957,
      "hood": 5958,
      "Ġve": 5959,
      "ĠHe": 5960,
      "ĠAU": 5961,
      "ä¸įèĢģ": 5962,
      "ä¸įèµ·": 5963,
      "Ġag": 5964,
      "çļĦæ°´": 5965,
      "çļĦé«ĺ": 5966,
      "Ġsat": 5967,
      "Ġside": 5968,
      "Ġwhi": 5969,
      "Ġwatch": 5970,
      "æĿĨ": 5971,
      "ä¸Ģéĥ¨": 5972,
      "ä¸Ģæĭ¥": 5973,
      "ä¸Ģå£ģåİ¢": 5974,
      "rest": 5975,
      "ished": 5976,
      "è¿ĻæŃ£æĺ¯": 5977,
      "Ġfeel": 5978,
      "å¥ĸ": 5979,
      "åĩĿ": 5980,
      "Ġdish": 5981,
      "Ġdist": 5982,
      "æĬĢ": 5983,
      "ä¸ĬäºĨ": 5984,
      "åİ»å¾Ĺ": 5985,
      "åİ»çľĭ": 5986,
      "æĭĤ": 5987,
      "ç§Ĵ": 5988,
      "çľĭçĿĢ": 5989,
      "é¢ł": 5990,
      "æŃ¤å±±": 5991,
      "æĹłäºĭ": 5992,
      "çĪ¶äº²": 5993,
      "æİĢ": 5994,
      "æīĭèĦļ": 5995,
      "åĵ¼åĵ¼": 5996,
      "çŁ¥ä¹ĭ": 5997,
      "ents": 5998,
      "æĦĪ": 5999,
      "è¿ĽåŁİ": 6000,
      "æĤļ": 6001,
      "æĺİæľĪ": 6002,
      "èĥĸ": 6003,
      "åį³æĹ¶": 6004,
      "é¦į": 6005,
      "æĭ¿ä½ł": 6006,
      "çĻ½çİī": 6007,
      "çĤ¹åķ¦": 6008,
      "ander": 6009,
      "èĩ³äºİ": 6010,
      "Ġsuit": 6011,
      "ç¼°": 6012,
      "ä½Ĩæĺ¯": 6013,
      "Ġloving": 6014,
      "è£¹": 6015,
      "å§Ķ": 6016,
      "çİ°å®ŀ": 6017,
      "æĪĺæĪĺåħ¢åħ¢": 6018,
      "çĬĢ": 6019,
      "æ¸¸æ³³": 6020,
      "çªį": 6021,
      "æĵİ": 6022,
      "åĭ¤": 6023,
      "ONIO": 6024,
      "Ġhonest": 6025,
      "éĥ¨æ´²": 6026,
      "è¿Ļä¸Ģåİ»": 6027,
      "åĤ¬": 6028,
      "åĤ²": 6029,
      "æºª": 6030,
      "è¹²": 6031,
      "Ġheavens": 6032,
      "åĲ¹åı£ä»Ļæ°Ķ": 6033,
      "åĹĶ": 6034,
      "éº»çĥ¦": 6035,
      "ä¹ĸä¹ĸ": 6036,
      "Ġtrib": 6037,
      "MERLE": 6038,
      "Ġdraw": 6039,
      "Ġvoices": 6040,
      "èĬŃèķīæīĩ": 6041,
      "Ġsomething": 6042,
      "ANTONIO": 6043,
      "Ġstrength": 6044,
      "ĠAUMERLE": 6045,
      "Marry": 6046,
      "Pray": 6047,
      "See": 6048,
      "ZALO": 6049,
      "]ï¼ģ": 6050,
      "]ãĢĤâĢĿ": 6051,
      "fid": 6052,
      "ging": 6053,
      "su": 6054,
      "Â´": 6055,
      "âĢįâĻĢï¸ı": 6056,
      "äº¬": 6057,
      "Ġact": 6058,
      "Ġsake": 6059,
      "Ġwast": 6060,
      "Ġwonder": 6061,
      "Ġwidow": 6062,
      "æĿı": 6063,
      "ä¸ĢåĽŀ": 6064,
      "è¯³": 6065,
      "Ġbit": 6066,
      "è¿Ļå¦ĸç²¾": 6067,
      "äººéĥ½": 6068,
      "Ġcor": 6069,
      "å¤§ä¼Ĺ": 6070,
      "Ġpie": 6071,
      "ä¹Łä¸įæĽ¾": 6072,
      "ä¸īä½į": 6073,
      "å¤©æ°Ķ": 6074,
      "å¤©æ²³": 6075,
      "çľĭå®Ī": 6076,
      "éĢ»": 6077,
      "éĢŀ": 6078,
      "åĴ¦": 6079,
      "åĴ½": 6080,
      "åĪ°åºķ": 6081,
      "æĬĬä½ł": 6082,
      "æĹłæķ°": 6083,
      "è¾£": 6084,
      "æīĵæī®": 6085,
      "åı¯æľī": 6086,
      "å°ĨåĨĽ": 6087,
      "åĽŀçŃĶ": 6088,
      "åķĬç¬¨èĽĭ": 6089,
      "çŃīåĢĻ": 6090,
      "èĭ¹": 6091,
      "æŃ£è¯´": 6092,
      "éĽĢ": 6093,
      "éĽħ": 6094,
      "éĩĳéĬ®": 6095,
      "åĺ¤": 6096,
      "ä»¥åĲİ": 6097,
      "Ġsto": 6098,
      "Ġstir": 6099,
      "è¯ĿåĦ¿": 6100,
      "åĽĽåĽŀ": 6101,
      "å¼Ģåı£": 6102,
      "ä»Ĭå¹´": 6103,
      "ä»Ĭå¤ľ": 6104,
      "åį³ä¾¿": 6105,
      "å¥³å©¿": 6106,
      "ç¼¸": 6107,
      "èİ«è¯´": 6108,
      "å¾ĢæĿ¥": 6109,
      "æķĳä»ĸ": 6110,
      "çłģ": 6111,
      "æĸĩåŃĹ": 6112,
      "çİīçļĩ": 6113,
      "åŃ¦æł¡": 6114,
      "ĠGentleman": 6115,
      "ĠGloucester": 6116,
      "åłķ": 6117,
      "ä¸ĥä¸ª": 6118,
      "åĻ«": 6119,
      "ĠLanc": 6120,
      "å½ĵçĦ¶ä¼ļ": 6121,
      "èĦ±èº«": 6122,
      "åĳ¼åĲ¸": 6123,
      "Ġdidst": 6124,
      "è¿Ļç§įéĹ®é¢ĺä¹Łè¦ģéĹ®": 6125,
      "æ´Ĺæ¾¡": 6126,
      "å¯¿æĺŁ": 6127,
      "Ġgentlemen": 6128,
      "è¹¬": 6129,
      "è¯¸å¤©": 6130,
      "Ġcloud": 6131,
      "Ġwomen": 6132,
      "ç²Ĺç»Ĩ": 6133,
      "åĲ¯å¥ı": 6134,
      "çļĦä¸Ģç§į": 6135,
      "ethinks": 6136,
      "åı¤äººäºĳ": 6137,
      "è¿Ļç§įéĹ®é¢ĺä¹ŁæĿ¥éĹ®æĪĳåķ¦": 6138,
      "çº·çº·": 6139,
      "çİ°äºĨæľ¬çĽ¸": 6140,
      "æĤĦæĤĦ": 6141,
      "Ġenemies": 6142,
      "ï¼ģðŁĳĬ": 6143,
      "GONZALO": 6144,
      "ç®įåĦ¿åĴĴ": 6145,
      "ï½ŀ(ï¿£âĸ½ï¿£~)": 6146,
      "è¿Ļç§įéĹ®é¢ĺè¿ĺè¦ģéĹ®åĲĹ": 6147,
      "ĠLancaster": 6148,
      "OH": 6149,
      "Unt": 6150,
      "ives": 6151,
      "ä¸¸": 6152,
      "æĪŁ": 6153,
      "ä¸įå®¹": 6154,
      "æĺ¯æľī": 6155,
      "ï¼ģ(ï¿£": 6156,
      "Ġsing": 6157,
      "Ġmusic": 6158,
      "ä¸Ģäºº": 6159,
      "ä¸ĢåĿĹ": 6160,
      "ä½łæĬĬ": 6161,
      "rew": 6162,
      "ï¼Łâķ¬ï¿£": 6163,
      "éĤ£æł·": 6164,
      "Ġbreat": 6165,
      "æĢ¯": 6166,
      "ä»ĸèĭ¥": 6167,
      "Ġdr": 6168,
      "å¤§èĥĨ": 6169,
      "ä¸Ĭè¥¿å¤©": 6170,
      "åŃĲçļĦ": 6171,
      "èµ¦": 6172,
      "Ġpra": 6173,
      "Ġpale": 6174,
      "è¡ĮèĢħè§ģäºĨ": 6175,
      "ç»Ħ": 6176,
      "æĭĻ": 6177,
      "ä¸ĭçļĦ": 6178,
      "è¯´éģĵ": 6179,
      "Ġgates": 6180,
      "å¤©èĵ¬": 6181,
      "è®¯": 6182,
      "åıªåľ¨": 6183,
      "é¢Ŀ": 6184,
      "æ¯Ĺ": 6185,
      "æ³Ħ": 6186,
      "ä¸İæĪĳä»¬": 6187,
      "èĦĬ": 6188,
      "åĪ°äºİ": 6189,
      "æĹłè¾¹": 6190,
      "è¿Ļç§įä¸ľè¥¿": 6191,
      "æ´ģ": 6192,
      "oose": 6193,
      "éķ¿åĺ´": 6194,
      "ç«ł": 6195,
      "ä½ķæĿ¥": 6196,
      "äºĮåĪĻ": 6197,
      "æ±Ĺ": 6198,
      "race": 6199,
      "åĽ½ä¸Ī": 6200,
      "ä¸Ķä¸į": 6201,
      "çĽ¸æĮģ": 6202,
      "éĶ£": 6203,
      "äºĶæĸ¹": 6204,
      "ä½Ĩåıªæĺ¯": 6205,
      "èİ«è¦ģ": 6206,
      "âķ¯": 6207,
      "ils": 6208,
      "çĮ´å¤´": 6209,
      "ĠCamillo": 6210,
      "Ġnext": 6211,
      "Ġknew": 6212,
      "å¿µåĬ¨": 6213,
      "Ġcoming": 6214,
      "ç¬¬åįģ": 6215,
      "æ¯Ķåĸ»": 6216,
      "éŁµ": 6217,
      "Ġthanks": 6218,
      "ä¼¤äºĨ": 6219,
      "ä¼¤å®³": 6220,
      "å¯ºéĻ¢": 6221,
      "æĦŁè§ī": 6222,
      "ä»¶å®Ŀè´Ŀ": 6223,
      "èĥľè´Ł": 6224,
      "åŀĭ": 6225,
      "åĵªéĩĮ": 6226,
      "æ»ļæ»ļ": 6227,
      "é¾Ļçİĭéģĵ": 6228,
      "ç³»ç»Ł": 6229,
      "èľĤ": 6230,
      "ä¾Ľåħ»": 6231,
      "Ġclose": 6232,
      "Ġpleasure": 6233,
      "Ġsouls": 6234,
      "åĨ²æĴŀ": 6235,
      "ianca": 6236,
      "Ġcourse": 6237,
      "Ġenter": 6238,
      "èİ²èĬ±": 6239,
      "Ġwithal": 6240,
      "æĻ®éĢļ": 6241,
      "Ġbrave": 6242,
      "Ġchee": 6243,
      "çĳŀæ°Ķ": 6244,
      "ceived": 6245,
      "éĽ·éŁ³å¯º": 6246,
      "æĻ¦æ°Ķ": 6247,
      "Ġtitle": 6248,
      "DIO": 6249,
      "fter": 6250,
      "ne": 6251,
      "uk": 6252,
      "vour": 6253,
      "you": 6254,
      "Ãł": 6255,
      "èĺ": 6256,
      "ĠèĢĮä¸Ķ": 6257,
      "Ġty": 6258,
      "æĺ§": 6259,
      "ä¸įä¿¡": 6260,
      "æĺ¯ä¸ºäºĨ": 6261,
      "çļĦå¤§": 6262,
      "å°Ķ": 6263,
      "äºĨè¿Ļ": 6264,
      "Ġwa": 6265,
      "ä½łåıª": 6266,
      "æĪĳéĤ£": 6267,
      "Ġbur": 6268,
      "è¿ĻåĳĨåŃĲ": 6269,
      "Ġfit": 6270,
      "åİ¨": 6271,
      "åķ¥": 6272,
      "è§¦": 6273,
      "å¤§åĸľ": 6274,
      "å¤§åĸľéģĵ": 6275,
      "åľ¨å®¶": 6276,
      "ä¸Ĭæ®¿": 6277,
      "æĸŁ": 6278,
      "è¡ĮèĢħåľ¨": 6279,
      "ä¸ĭäºĨ": 6280,
      "è¯´æ³ķ": 6281,
      "oward": 6282,
      "Ġgar": 6283,
      "Ġbecome": 6284,
      "çĽ²": 6285,
      "çĿĢé©¬": 6286,
      "çľŁæŃ£": 6287,
      "etch": 6288,
      "etru": 6289,
      "ä¸İä¼Ĺ": 6290,
      "çģĮ": 6291,
      "éĹ¨æĿ¥": 6292,
      "åīįæĹ¥": 6293,
      "æīĵåĲ¬": 6294,
      "è¿Ļç§įæģ¶å¿ĥ": 6295,
      "Ġforg": 6296,
      "è°İ": 6297,
      "Ġweak": 6298,
      "çĮİ": 6299,
      "Ġeither": 6300,
      "éķ¿çŁŃ": 6301,
      "å½ĵéĿ¢": 6302,
      "çĤ®": 6303,
      "çĤİ": 6304,
      "æĢİä¹Īè¯´": 6305,
      "èĻĶ": 6306,
      "è¯ĿåķĬ": 6307,
      "Ġlips": 6308,
      "ç©ºæ°Ķ": 6309,
      "æ£ĭ": 6310,
      "ç¬ĳè¯Ŀ": 6311,
      "ç»ıè¿ĩ": 6312,
      "åĪĨæĺİ": 6313,
      "æ²ĻéĹ¨": 6314,
      "èĢĮä¸įæĺ¯": 6315,
      "éŃĶæ³ķ": 6316,
      "å¥³æĢª": 6317,
      "ä¾¿ç½¢": 6318,
      "å¨ĥ": 6319,
      "åıĳæħĪæĤ²": 6320,
      "rust": 6321,
      "ç¼º": 6322,
      "çľŁæĺ¯çļĦåķ¦": 6323,
      "åħ¥éĩĮéĿ¢": 6324,
      "æµ·é¾Ļçİĭ": 6325,
      "å°ĳå¥³": 6326,
      "å¾ĦåĽŀ": 6327,
      "åŁİæ±ł": 6328,
      "åįĹå¤©": 6329,
      "ä¸ĥåĽŀ": 6330,
      "ä¸ĥåįģäºĮ": 6331,
      "æľĽç©º": 6332,
      "åĻĹ": 6333,
      "åĲĽèĩ£": 6334,
      "èĻİè±¹": 6335,
      "els": 6336,
      "Ġjest": 6337,
      "Ġplain": 6338,
      "AUDIO": 6339,
      "æ¥¼ä¸Ĭ": 6340,
      "éģĩåĪ°": 6341,
      "çļĦè¯Ŀé¢ĺ": 6342,
      "æ¯ıæ¬¡": 6343,
      "æľĢåĲİ": 6344,
      "Ġabs": 6345,
      "éĤ£ä¹Īå¤ļ": 6346,
      "æĢ»æĺ¯": 6347,
      "çĭĹçĭĹ": 6348,
      "è´¥éĺµ": 6349,
      "èĨ³": 6350,
      "æŀģä¹Ĳ": 6351,
      "ä½İå¤´": 6352,
      "Ġpret": 6353,
      "å¦ĸçİĭéģĵ": 6354,
      "claim": 6355,
      "Ġgrie": 6356,
      "ï½ŀðŁĺ": 6357,
      "CLAUDIO": 6358,
      "Ġchange": 6359,
      "MIONE": 6360,
      "æªĲ": 6361,
      "æģķç½ª": 6362,
      "ĠNorfolk": 6363,
      "CLIFFORD": 6364,
      "æĺ¼å¤ľ": 6365,
      "Ġsuffer": 6366,
      "Ġdeliver": 6367,
      "HERMIONE": 6368,
      "èĭ¹æŀľ": 6369,
      "DA": 6370,
      "EDWARD": 6371,
      "LORD": 6372,
      "Most": 6373,
      "cher": 6374,
      "ses": 6375,
      "ufid": 6376,
      "ĠTh": 6377,
      "åı¨": 6378,
      "æĺ¯èĢģåŃĻ": 6379,
      "Ġsk": 6380,
      "Ġsame": 6381,
      "Ġsick": 6382,
      "Ġsign": 6383,
      "äºĨäºĽ": 6384,
      "Ġwis": 6385,
      "Ġwall": 6386,
      "æĿµ": 6387,
      "ä¸ĢäºĽ": 6388,
      "ä¸ĢåıĮ": 6389,
      "ready": 6390,
      "æĪĳåľ¨": 6391,
      "æĪĳåį´": 6392,
      "æĪĳèĩª": 6393,
      "éĤ£ä¸įæĺ¯": 6394,
      "éĤ£ä¸Ģä¸ª": 6395,
      "éĤ£èı©èĲ¨": 6396,
      "isf": 6397,
      "æľīåĩłä¸ª": 6398,
      "çĶ³": 6399,
      "è¡Įä¸º": 6400,
      "Ġcast": 6401,
      "åŃĲéĩĮ": 6402,
      "å¼¯": 6403,
      "èĢģå®ŀ": 6404,
      "ç»ĥ": 6405,
      "éĹ®è¿Ļç§įéĹ®é¢ĺ": 6406,
      "å¥½çĶŁ": 6407,
      "åıªæ¶Ī": 6408,
      "åĥ§éģĵ": 6409,
      "åī¯": 6410,
      "irth": 6411,
      "ç¥ĩ": 6412,
      "å°ıç¥ŀ": 6413,
      "å±±å¤´": 6414,
      "è¿ĺæľª": 6415,
      "åį´ä¼¼": 6416,
      "æĢİæł·": 6417,
      "chio": 6418,
      "Ġforb": 6419,
      "Ġforget": 6420,
      "ç©¶": 6421,
      "oof": 6422,
      "ä¿¯": 6423,
      "ä¿ĥ": 6424,
      "å¸ĪçĪ¶åĳµ": 6425,
      "ries": 6426,
      "ç¥ŀåħµ": 6427,
      "å¤ªä¸Ĭ": 6428,
      "Ġreg": 6429,
      "urp": 6430,
      "æĻĥ": 6431,
      "æľ¬åĥı": 6432,
      "èį£": 6433,
      "æŃ»äºĨåķ¦": 6434,
      "east": 6435,
      "å¥³çĶŁ": 6436,
      "æ´ŀåºľ": 6437,
      "èĩ³æŃ¤": 6438,
      "éĤ£éĩĮèµ°": 6439,
      "åŁĥ": 6440,
      "åİŁåĽł": 6441,
      "çľŁæĺ¯æľįäºĨä½ł": 6442,
      "æĹ©å·²": 6443,
      "æĴº": 6444,
      "Ġven": 6445,
      "çłĸ": 6446,
      "åħŃä¸ª": 6447,
      "ç¬¬åĽĽåįģ": 6448,
      "æĬ¥ä»ĩ": 6449,
      "Ġthemselves": 6450,
      "è¿ĻéĩĮæĺ¯": 6451,
      "æĢĿèĢĥ": 6452,
      "æľªæĿ¥": 6453,
      "ĠBianca": 6454,
      "Ġworse": 6455,
      "é¡»æĺ¯": 6456,
      "ĠPom": 6457,
      "Ġtook": 6458,
      "Ġpoison": 6459,
      "å´Ķ": 6460,
      "å¢ŀ": 6461,
      "Ġalong": 6462,
      "äº¤æĪĺ": 6463,
      "ä¸Īå¤«": 6464,
      "æĸŃçĦ¶": 6465,
      "èĳĽ": 6466,
      "Ġrich": 6467,
      "ä¸ļçķľ": 6468,
      "çŀİ": 6469,
      "åģľå½ĵ": 6470,
      "æħ¢æħ¢": 6471,
      "æī§çĿĢ": 6472,
      "Ġbreast": 6473,
      "å¨ģé£İ": 6474,
      "èį¡èį¡": 6475,
      "ranio": 6476,
      "è®¨åİĮ": 6477,
      "Ġconsul": 6478,
      "æİ£åĩº": 6479,
      "RANDA": 6480,
      "MIRANDA": 6481,
      "æĺ¯è°ģæĥ³åĩºæĿ¥": 6482,
      "éĢĥçĶŁ": 6483,
      "äºĶçĻ¾å¹´åīį": 6484,
      "éĴ¦å·®": 6485,
      "twas": 6486,
      "twere": 6487,
      "Ġcheer": 6488,
      "è¯´å¾Ĺæĺ¯": 6489,
      "æ£ĢæŁ¥": 6490,
      "Ġpatience": 6491,
      "äºĮéŃĶéģĵ": 6492,
      "Ġmerry": 6493,
      "å¤¯è´§": 6494,
      "Ġorder": 6495,
      "etruchio": 6496,
      "ufidius": 6497,
      "Messenger": 6498,
      "SA": 6499,
      "SON": 6500,
      "Servant": 6501,
      "lst": 6502,
      "oin": 6503,
      "ting": 6504,
      "è¥": 6505,
      "Ġä¸ī": 6506,
      "Ġä¸ºä»Ģä¹Ī": 6507,
      "å¤·": 6508,
      "æĪª": 6509,
      "ä¸įæĶ¾": 6510,
      "çļĦå¥½ä¸įå¥½": 6511,
      "Ġmouth": 6512,
      "Ġwed": 6513,
      "ä½łåĢĴ": 6514,
      "ä½łå±ħçĦ¶": 6515,
      "æĪĳçľĭ": 6516,
      "æĪĳè¿ĺ": 6517,
      "è¯º": 6518,
      "ï¼Ł(ï¿£âĸ½ï¿£;)": 6519,
      "éĤ£éŃĶ": 6520,
      "Ġbad": 6521,
      "Ġbook": 6522,
      "æīĽ": 6523,
      "è¡Ķ": 6524,
      "Ġfour": 6525,
      "ä»ĸæĢİä¹Ī": 6526,
      "äººçĶŁ": 6527,
      "åĩĦ": 6528,
      "ĠIf": 6529,
      "è¯´æĺİ": 6530,
      "ä¸īçĻ¾": 6531,
      "éĹ®è®¯": 6532,
      "Ġgave": 6533,
      "æĥ¯": 6534,
      "å¤©ç¥ŀ": 6535,
      "è®«": 6536,
      "å¥½è¡ĮèĢħ": 6537,
      "è¦ģæīĵ": 6538,
      "èĩŃ": 6539,
      "çĿĢæīĭ": 6540,
      "çľĭå¾Ĺ": 6541,
      "éĢį": 6542,
      "è·¨": 6543,
      "åºµ": 6544,
      "çģ¶": 6545,
      "è´ŀ": 6546,
      "å±±åĩ¹": 6547,
      "èº¯": 6548,
      "chm": 6549,
      "åı¯æĽ¾": 6550,
      "Ġissue": 6551,
      "æİ¼": 6552,
      "åĮł": 6553,
      "è°Ĳ": 6554,
      "è¢ľ": 6555,
      "ä¾ĭ": 6556,
      "åı«ä¸Ģå£°": 6557,
      "èĩªçĶ±": 6558,
      "çŁ¥æĺ¯": 6559,
      "éķ¿å¯¿": 6560,
      "æīįä¸įæĥ³": 6561,
      "æĸ¹åı¯": 6562,
      "ä½ķåľ¨": 6563,
      "èĬ³": 6564,
      "èµ·åİ»": 6565,
      "å¤ªå¤©çľŁ": 6566,
      "åģļçĶļ": 6567,
      "åģļæ¢¦": 6568,
      "ash": 6569,
      "æ²¡äºĭ": 6570,
      "Ġliber": 6571,
      "é«»": 6572,
      "æľ¬å°ıå§Ĳ": 6573,
      "ä½ľèĢħ": 6574,
      "vern": 6575,
      "Ġself": 6576,
      "æĭľè°¢": 6577,
      "ions": 6578,
      "åŁŁ": 6579,
      "æ¶¦": 6580,
      "æ¢¢": 6581,
      "rows": 6582,
      "ç¤¼æ¯ķ": 6583,
      "åŃ¦ä¹ł": 6584,
      "å¾Ħå¾Ģ": 6585,
      "æķħæĦı": 6586,
      "æľĽè§ģ": 6587,
      "ally": 6588,
      "ç§°è°¢": 6589,
      "ï¼ģðŁĺĴ": 6590,
      "åĸĦåĵī": 6591,
      "å¿ħå®ļ": 6592,
      "åģĩèĭ¥": 6593,
      "åĩĢçĵ¶": 6594,
      "é£Łçī©": 6595,
      "è¿ĻçŃīè¯´": 6596,
      "Ġoffice": 6597,
      "Ġalready": 6598,
      "å¤«äºº": 6599,
      "ç¿»èº«": 6600,
      "ä½łè¿Ļç§įå¥ĩæĢªçļĦ": 6601,
      "å«©": 6602,
      "å«Ķ": 6603,
      "Being": 6604,
      "æĹ§æĹ¶": 6605,
      "ç«Ļåľ¨": 6606,
      "è¿ĲåĬ¨": 6607,
      "åĩºéĹ¨æĿ¥": 6608,
      "Ġmove": 6609,
      "æ¹¿": 6610,
      "éĵĥåĦ¿": 6611,
      "å·¡å±±": 6612,
      "æįĨäºĨ": 6613,
      "åľ¨æīĭä¸Ń": 6614,
      "é¡·åĪ»": 6615,
      "Ġvirtue": 6616,
      "Ġgiven": 6617,
      "ä½łè¿ŀè¿Ļä¸ª": 6618,
      "Ġbattle": 6619,
      "ĠHereford": 6620,
      "Ġmorning": 6621,
      "Ġfurther": 6622,
      "å¿»çĦ¶": 6623,
      "OHN": 6624,
      "Make": 6625,
      "NT": 6626,
      "Since": 6627,
      "mber": 6628,
      "nk": 6629,
      "pes": 6630,
      "rist": 6631,
      "she": 6632,
      "uous": 6633,
      "ung": 6634,
      "uff": 6635,
      "used": 6636,
      "ãģ": 6637,
      "äºļ": 6638,
      "Ġta": 6639,
      "æĺĨ": 6640,
      "ä»ģ": 6641,
      "ä¸įå½ĵ": 6642,
      "ä¸įå·²": 6643,
      "ä¸įæ¸ħ": 6644,
      "ä¸įæµİ": 6645,
      "Ġac": 6646,
      "çļĦåĲ§": 6647,
      "oun": 6648,
      "ï¼ģâĢĻ": 6649,
      "ï¼ģ(ï¿£âĸ½ï¿£": 6650,
      "èĢ¸": 6651,
      "äºĨæĪĳçļĦ": 6652,
      "Ġwise": 6653,
      "ä¸Ģåįĥ": 6654,
      "ä½łèİ«": 6655,
      "æĪĳåĦ¿": 6656,
      "éĤ£å¦ĸéŃĶ": 6657,
      "éĤ£éģĵå£«": 6658,
      "Ġburn": 6659,
      "å¾Ĳ": 6660,
      "æĿ¥è¯·": 6661,
      "orge": 6662,
      "Ġfrown": 6663,
      "Ġfeast": 6664,
      "æľīåįģ": 6665,
      "æľīä¸¤ä¸ª": 6666,
      "ä»ĸè§ģ": 6667,
      "ä¼¶": 6668,
      "è¡Įåĩ¶": 6669,
      "è¡ĮåĽĬ": 6670,
      "Ġdire": 6671,
      "esh": 6672,
      "Ġlad": 6673,
      "å¿Ĩ": 6674,
      "å¿ł": 6675,
      "åľ¨äºİ": 6676,
      "Ġpay": 6677,
      "åĳķ": 6678,
      "æĭĪ": 6679,
      "ä¸ĭéĻį": 6680,
      "anus": 6681,
      "åĥ®": 6682,
      "Ġgro": 6683,
      "æĥĳ": 6684,
      "ats": 6685,
      "å¤©å°Ĩ": 6686,
      "å¥½åķ¦": 6687,
      "åĩºçĶŁ": 6688,
      "çĽĶ": 6689,
      "å¹»": 6690,
      "çĿĢä½ł": 6691,
      "åıĪéģĵ": 6692,
      "åıĪå°Ĩ": 6693,
      "ï½ŀâľ¨": 6694,
      "åīģ": 6695,
      "åīĸ": 6696,
      "å½ķ": 6697,
      "åį´å°Ĩ": 6698,
      "æĹłçŁ¥": 6699,
      "éĻĦ": 6700,
      "è°¦": 6701,
      "çĻĸ": 6702,
      "èĭĹ": 6703,
      "æŃ£ç»ı": 6704,
      "åĢį": 6705,
      "ï¼ģðŁĮ": 6706,
      "ï¼ģðŁĲ": 6707,
      "åľ°ä¸Ĭ": 6708,
      "ä½ķæĸ¹": 6709,
      "èĬĿ": 6710,
      "äºĮä½į": 6711,
      "ç¥ŀè¯Ŀ": 6712,
      "æĢİä¹Īä¸į": 6713,
      "æĢİä¹Īä¼ļ": 6714,
      "å¤Ħå¤Ħ": 6715,
      "Ġred": 6716,
      "æ£ĺ": 6717,
      "Ġsoft": 6718,
      "çģ«åħī": 6719,
      "æĪĲäºĨ": 6720,
      "each": 6721,
      "Ġsucc": 6722,
      "åĪ«äºĨ": 6723,
      "æ·¹": 6724,
      "æĹ©å°±": 6725,
      "åħ¥æľĿ": 6726,
      "ä½¿éĵģæ£Ĵ": 6727,
      "åħĪåİ»": 6728,
      "è§Ĥä¸ĸ": 6729,
      "æķĳå¾Ĺ": 6730,
      "æĮĩéģĵ": 6731,
      "æīĢæľī": 6732,
      "æļĤ": 6733,
      "icer": 6734,
      "Ġblack": 6735,
      "Ġgoes": 6736,
      "ä¸ĸéĹ´": 6737,
      "ç¢į": 6738,
      "Ġsworn": 6739,
      "ĠSignior": 6740,
      "çľŁçļĦå¾Ī": 6741,
      "elcome": 6742,
      "å¿ħæľī": 6743,
      "ç¨į": 6744,
      "Ġprop": 6745,
      "ï¼ģ(ï¿£âĸ½ï¿£)~*": 6746,
      "å°Ĭéĩį": 6747,
      "å¢¨": 6748,
      "æķ£äºĨ": 6749,
      "æĿ¾æŀĹ": 6750,
      "éģĤæŃ¤": 6751,
      "Ġsons": 6752,
      "Ġfoe": 6753,
      "Ġext": 6754,
      "å¤ªåŃĲéģĵ": 6755,
      "ĠTower": 6756,
      "Before": 6757,
      "éŃĤé£ŀ": 6758,
      "åıĺä½ľä¸ª": 6759,
      "Ġtrou": 6760,
      "Ġbegg": 6761,
      "Ġbegin": 6762,
      "Ġconsent": 6763,
      "å»ºè®®": 6764,
      "æ³¨æĦı": 6765,
      "éĺ¶åīį": 6766,
      "æħĮäºĨéģĵ": 6767,
      "âĢ¢Ì": 6768,
      "dden": 6769,
      "Ġsoldiers": 6770,
      "æ¬łèº«": 6771,
      "Ġrequest": 6772,
      "ĠLucentio": 6773,
      "Ġbetween": 6774,
      "äººåıĤæŀľ": 6775,
      "å¤©ç«ºåĽ½": 6776,
      "å©´åĦ¿": 6777,
      "Ġquarrel": 6778,
      "Ġsatisf": 6779,
      "chmond": 6780,
      "\"ï¼Į": 6781,
      "21": 6782,
      "23": 6783,
      "AI": 6784,
      "AS": 6785,
      "Call": 6786,
      "IR": 6787,
      "Must": 6788,
      "Re": 6789,
      "Sw": 6790,
      "Such": 6791,
      "gare": 6792,
      "ires": 6793,
      "ures": 6794,
      "«æĩĴ": 6795,
      "ĠFor": 6796,
      "hem": 6797,
      "è¿°": 6798,
      "ä¸įåıĹ": 6799,
      "Ġservant": 6800,
      "æľ«": 6801,
      "éģĵçĲĨ": 6802,
      "äºĨä¸¤": 6803,
      "äºĨä»ĸçļĦ": 6804,
      "äºĨå¤ļå°ĳ": 6805,
      "ä¸ĢåĲĳ": 6806,
      "ä½łå¥½": 6807,
      "ä½łåıĪ": 6808,
      "æĪĳè¿ľ": 6809,
      "Ġbar": 6810,
      "æĹĮ": 6811,
      "ä»ĸéģĵ": 6812,
      "ä»ĸä¸īäºº": 6813,
      "äººä¹Ł": 6814,
      "Ġdro": 6815,
      "Ġdark": 6816,
      "Ġcr": 6817,
      "Ġcase": 6818,
      "å¤§ä¼ļ": 6819,
      "Ġthri": 6820,
      "aris": 6821,
      "åİ»è¯·": 6822,
      "åİ»å¯»": 6823,
      "ä¹Łæ²¡": 6824,
      "ä¹Łä¸įçŁ¥": 6825,
      "ä¹ŁæĽ¾": 6826,
      "ots": 6827,
      "èĢģé¾Ļ": 6828,
      "èĢģé¼ł": 6829,
      "stand": 6830,
      "ä¸īåĽŀ": 6831,
      "owers": 6832,
      "éĹ®çĤ¹": 6833,
      "éĹ®æĽ°": 6834,
      "æĥľ": 6835,
      "æĥ«æĩĴ": 6836,
      "åĥ§å®ĺ": 6837,
      "åīĤ": 6838,
      "åºı": 6839,
      "irm": 6840,
      "ç¥·": 6841,
      "éĥ½ä¼ļ": 6842,
      "æłı": 6843,
      "æĢªæĪĳ": 6844,
      "æĮ½": 6845,
      "æĮĸ": 6846,
      "åīįéĹ¨": 6847,
      "éĻ¡": 6848,
      "éĻĨ": 6849,
      "è¿ĩå±±": 6850,
      "èĥ½ä¸įèĥ½": 6851,
      "éļľ": 6852,
      "æĥ³æĥ³": 6853,
      "ï¼ģðŁį": 6854,
      "çĤŃ": 6855,
      "å¤ªå¸Ī": 6856,
      "æĢİä¹ĪåıĪ": 6857,
      "åĲİæĸĩ": 6858,
      "æĤł": 6859,
      "æįķ": 6860,
      "æ³ķåĦ¿": 6861,
      "çĭ¸": 6862,
      "çģ«çľ¼": 6863,
      "çģ«çĥ§": 6864,
      "è¯·å¸ĪçĪ¶": 6865,
      "æĪĳä»¬çļĦ": 6866,
      "æķ¢éĹ®": 6867,
      "å®ĺåĦ¿": 6868,
      "Ġloves": 6869,
      "åĪ«æĥ³": 6870,
      "æ¶¯": 6871,
      "æ¶Į": 6872,
      "âķ®": 6873,
      "ĠCh": 6874,
      "æĽ´æĹ¶": 6875,
      "åĩºæĿ¥çļĦ": 6876,
      "æļĳ": 6877,
      "çĲĨè§£": 6878,
      "ends": 6879,
      "å¾ĦåĪ°": 6880,
      "æľĪäº®": 6881,
      "åŁİéĩĮ": 6882,
      "éĥģ": 6883,
      "Ġbless": 6884,
      "empt": 6885,
      "éļıèº«": 6886,
      "é¬ĵ": 6887,
      "Ġthence": 6888,
      "è·³ä¸ĭ": 6889,
      "ä¸įè¦ģèµ°": 6890,
      "ç³Ł": 6891,
      "Ġworth": 6892,
      "çĮªç¾Ĭ": 6893,
      "åĳĬéģĵ": 6894,
      "ï¼ŁðŁ¤¢": 6895,
      "æľ¨æ¯į": 6896,
      "å¡Į": 6897,
      "å°ĬèĢħ": 6898,
      "ĠAufidius": 6899,
      "çĽĺç¼ł": 6900,
      "CATES": 6901,
      "åĤį": 6902,
      "Ġexp": 6903,
      "åĨĻçĿĢ": 6904,
      "åĢŁå®¿": 6905,
      "å°ĺåŁĥ": 6906,
      "awd": 6907,
      "èħ¾äºĳ": 6908,
      "Ġpresence": 6909,
      "æ½º": 6910,
      "ä¾įç«ĭ": 6911,
      "åĸĤåĸĤ": 6912,
      "åĨ³ä¸į": 6913,
      "å±ķå¼Ģ": 6914,
      "åľ¨åľ°ä¸ĭ": 6915,
      "Ġpriv": 6916,
      "å¾Ģè¥¿å¤©åıĸç»ı": 6917,
      "çĺ¦": 6918,
      "Unless": 6919,
      "åĭ¾å½ĵ": 6920,
      "Alas": 6921,
      "Ġwounds": 6922,
      "çģ«çĦ°å±±": 6923,
      "Ġdangerous": 6924,
      "çĦļé¦Ļ": 6925,
      "Because": 6926,
      "æĢłæħ¢": 6927,
      "æ¤įçī©": 6928,
      "ãģ¸": 6929,
      "è§Ĥä¸ĸéŁ³": 6930,
      "garet": 6931,
      "CATESBY": 6932,
      "LY": 6933,
      "oll": 6934,
      "that": 6935,
      "ĸåķ": 6936,
      "ä»ĭ": 6937,
      "ä¸įåıĬ": 6938,
      "Ġsigh": 6939,
      "ä¸Ģæ¬¡": 6940,
      "ä½łè¿Ļç§įéĹ®é¢ĺ": 6941,
      "æĪĳä¸¤ä¸ª": 6942,
      "æĪĳåĴĮä½ł": 6943,
      "è¯Ħ": 6944,
      "éĤĵ": 6945,
      "éĤ£äººéģĵ": 6946,
      "Ġble": 6947,
      "åįľ": 6948,
      "æī¢": 6949,
      "æĢĸ": 6950,
      "ä¸ªå°ı": 6951,
      "ona": 6952,
      "onour": 6953,
      "å¦¨": 6954,
      "åĵ¨": 6955,
      "å¤§åıĳæħĪæĤ²": 6956,
      "Ġhot": 6957,
      "å¾ĹåĪ°": 6958,
      "èĢģçİĭ": 6959,
      "ç»¦": 6960,
      "ç»ĩ": 6961,
      "è¯´äºĨ": 6962,
      "è¯´çĶļä¹Ī": 6963,
      "è¯´äºĨä¸Ģéģį": 6964,
      "ä¸īä¼Ĺ": 6965,
      "å°±æĿ¥": 6966,
      "éĩĮæľī": 6967,
      "éĩĮè¿ľè¿ĳ": 6968,
      "è§ģä½Ľ": 6969,
      "Ġgot": 6970,
      "æĥ¶": 6971,
      "çĪ¹": 6972,
      "è¦ģåİ»": 6973,
      "åıªæķĻ": 6974,
      "ä¸ºäºº": 6975,
      "åī©": 6976,
      "Ġinter": 6977,
      "é¢Ī": 6978,
      "çŃ¾": 6979,
      "åĴĸåķ": 6980,
      "å¦ĸçĮ´": 6981,
      "æŃ¤åİ»": 6982,
      "æŃ¤çī©": 6983,
      "åĪ°å¤Ħ": 6984,
      "åĦ¿å¥³": 6985,
      "è¿ĺåľ¨": 6986,
      "æĹłç©·": 6987,
      "Ġund": 6988,
      "æīĭä¸Ń": 6989,
      "Ġev": 6990,
      "èĩªå¹¼": 6991,
      "æŃ£å½ĵ": 6992,
      "æŃ£æ¬²": 6993,
      "åĲİéĹ¨": 6994,
      "æĺİæĺ¾": 6995,
      "ç¬ĳæŃ»äºº": 6996,
      "èĥĥ": 6997,
      "æĻ´": 6998,
      "æĻ¶": 6999,
      "äºĳç«¯": 7000,
      "æ³ķåĲį": 7001,
      "å¹´çºª": 7002,
      "æŃ»åĲĹ": 7003,
      "æ°ĶæŃ»æĪĳ": 7004,
      "ä»Ļå¥³": 7005,
      "ä»Ļç«¥": 7006,
      "ä¸ľæĸ¹": 7007,
      "é»İ": 7008,
      "çĹĩ": 7009,
      "çĹĴ": 7010,
      "Ġsum": 7011,
      "ä½Ĩåıª": 7012,
      "ä½ĨæģĲ": 7013,
      "éħ¥": 7014,
      "åĪ«åĨį": 7015,
      "èİ«æĢķ": 7016,
      "çľŁæĺ¯ç¬¨èĽĭåĳ¢": 7017,
      "å¾Ģåīį": 7018,
      "âķŃ": 7019,
      "åĢĴä¹Ł": 7020,
      "çĮ´åĦ¿": 7021,
      "Ġneither": 7022,
      "æĴ®": 7023,
      "Ġvict": 7024,
      "è§£ä¸ĭ": 7025,
      "è§£æķ°": 7026,
      "æ¢°": 7027,
      "æĮĩæľĽ": 7028,
      "æĽ´ä¸įæĽ¾": 7029,
      "å¿µä¸ª": 7030,
      "å¾Ħè½¬": 7031,
      "ä¼¼è¿ĻèĪ¬": 7032,
      "emn": 7033,
      "åĻĻ": 7034,
      "ĠLond": 7035,
      "é»Ħé£İ": 7036,
      "ĠSir": 7037,
      "è·³ä¸Ĭ": 7038,
      "æĸĭé¥Ń": 7039,
      "ĠVols": 7040,
      "èĮ«": 7041,
      "æ²³è¾¹": 7042,
      "cient": 7043,
      "æ¥¼åı°": 7044,
      "å¼ºçĽĹ": 7045,
      "çħ§é¡¾": 7046,
      "å¤±èī²": 7047,
      "åıĪä¸įæĺ¯ä»Ģä¹Ī": 7048,
      "éĤ£èĢģéŃĶ": 7049,
      "Ġwars": 7050,
      "Ġflatter": 7051,
      "çĶ·å¥³": 7052,
      "ç¦ħåłĤ": 7053,
      "èĥĨæĪĺ": 7054,
      "æ½Ń": 7055,
      "Ġmighty": 7056,
      "èİ²åı°": 7057,
      "èĿī": 7058,
      "Ġrespect": 7059,
      "Ġdread": 7060,
      "çĩ¥": 7061,
      "Ġbride": 7062,
      "Ġbrief": 7063,
      "Ġthrone": 7064,
      "æĭ½å¼Ģ": 7065,
      "æªĢ": 7066,
      "å°±å¥½åķ¦": 7067,
      "Ġemb": 7068,
      "Ġvoice": 7069,
      "aptist": 7070,
      "Ġdeny": 7071,
      "éŃĦæķ£": 7072,
      "Ġspoke": 7073,
      "Ġwater": 7074,
      "è¿Ļç§įæĹłèģĬçļĦéĹ®é¢ĺ": 7075,
      "Ġvisit": 7076,
      "æį»çĿĢè¯Ģ": 7077,
      "åĴĸåķ¡": 7078,
      "ĠLondon": 7079,
      "Both": 7080,
      "BIAN": 7081,
      "JOHN": 7082,
      "Lest": 7083,
      "Rome": 7084,
      "REY": 7085,
      "Yes": 7086,
      "eorge": 7087,
      "ip": 7088,
      "iant": 7089,
      "mand": 7090,
      "ught": 7091,
      "çĢ": 7092,
      "ĠéĤ£": 7093,
      "Ġåĵ¼": 7094,
      "Ġest": 7095,
      "ä¹Ĵ": 7096,
      "ä¸įè¿ľ": 7097,
      "Ġmal": 7098,
      "Ġmortal": 7099,
      "ä¸Ģæ£Ĵ": 7100,
      "ä½łä¸įçŁ¥": 7101,
      "æĪĳèĭ¥": 7102,
      "éĤ£æĸ¹": 7103,
      "Ġbow": 7104,
      "Ġbab": 7105,
      "å¾ª": 7106,
      "è¿Ļä¸Ģä¸ª": 7107,
      "Ġfra": 7108,
      "ern": 7109,
      "ä»ĸéĤ£éĩĮ": 7110,
      "å¸Į": 7111,
      "å¤§äºº": 7112,
      "å¤§å¼Ģ": 7113,
      "Ġhur": 7114,
      "Ġtown": 7115,
      "å¾ĹåĬ¨": 7116,
      "åİ»çļĦ": 7117,
      "è¡ĮèĢħè§ģ": 7118,
      "ç»§": 7119,
      "è¯´çļĦ": 7120,
      "è¯´ä»ĸ": 7121,
      "Ġoften": 7122,
      "æ²¿": 7123,
      "å±Ģ": 7124,
      "è®¢": 7125,
      "å¥½çļĦ": 7126,
      "åıªéĹ»å¾Ĺ": 7127,
      "ä¹ĭåĬŁ": 7128,
      "çľĭåľ¨": 7129,
      "è·ĥ": 7130,
      "Ġhaving": 7131,
      "åĴĦ": 7132,
      "ä¸Ńåįİ": 7133,
      "æĬĬèĩªå·±": 7134,
      "è¿ĺæĥ³": 7135,
      "æĹłå¥Ī": 7136,
      "é©¼": 7137,
      "åīįåİ»": 7138,
      "è¾ĳ": 7139,
      "æĽľ": 7140,
      "éĻĭ": 7141,
      "éĴĵ": 7142,
      "æīĭä¸ĭ": 7143,
      "æŃ£çĦ¶": 7144,
      "éĽģ": 7145,
      "åĿĳ": 7146,
      "right": 7147,
      "ä¸¤çıŃ": 7148,
      "åıĺçļĦ": 7149,
      "çĤĴ": 7150,
      "æĢİä¹Īæł·": 7151,
      "èĲĿ": 7152,
      "ided": 7153,
      "ä½ıåľ¨": 7154,
      "ï¼ŁðŁĴ": 7155,
      "æĤ¦": 7156,
      "è¢«ä½ł": 7157,
      "åĽĽæĹ¶": 7158,
      "å¼Ģçİ©ç¬ĳ": 7159,
      "æĭ¿åİ»": 7160,
      "ä½ľçĶ¨": 7161,
      "çģ«çļĦ": 7162,
      "äºĶåĽŀ": 7163,
      "éĹ»æŃ¤è¨Ģ": 7164,
      "æ´ŀå¤ĸ": 7165,
      "åĩłæĹ¥": 7166,
      "Ġsudden": 7167,
      "åĲįåĶ¤": 7168,
      "rum": 7169,
      "Ġancient": 7170,
      "Ġspeech": 7171,
      "å¾Ģå¤ĸ": 7172,
      "å¾ĢéĤ£éĩĮåİ»": 7173,
      "åĢĴäºĨ": 7174,
      "å®ŀéĻħ": 7175,
      "Ġvow": 7176,
      "åįĬå¤ľ": 7177,
      "çĶµæ±ł": 7178,
      "é½Ĳæķ´": 7179,
      "ĠGeorge": 7180,
      "æ»¡å¤©": 7181,
      "é¼į": 7182,
      "éĻįé¾Ļ": 7183,
      "ä¹ĿéľĦ": 7184,
      "æ¬¡æĹ¥": 7185,
      "æł¹æį®": 7186,
      "Ġloved": 7187,
      "æĿĢæĪĳä¹Ł": 7188,
      "Ġkings": 7189,
      "ĠBaptist": 7190,
      "å¾ĪæŃ£å¸¸": 7191,
      "ç³ķ": 7192,
      "Ġworship": 7193,
      "LIA": 7194,
      "æģĲæĢĸ": 7195,
      "çī¹æ®Ĭ": 7196,
      "ĠParis": 7197,
      "Ġsafe": 7198,
      "çļ®èĤ¤": 7199,
      "ç¦»æĪĳè¿ľ": 7200,
      "è¿Ļç§įéĹ®é¢ĺä¹Łè¦ģéĹ®åĲĹ": 7201,
      "ç£ģ": 7202,
      "ired": 7203,
      "ä¸Ĭåīįéģĵ": 7204,
      "æĮīä¸ĭäºĳå¤´": 7205,
      "éº¦": 7206,
      "æį¢äºĨ": 7207,
      "éĴ»é£İ": 7208,
      "å¤©çİĭéģĵ": 7209,
      "è®¤å¾Ĺæĺ¯": 7210,
      "åħ¬ä¸»éģĵ": 7211,
      "äºĮåįģåħ«": 7212,
      "åĿıæİī": 7213,
      "èŁĴ": 7214,
      "å±Ĥå±Ĥ": 7215,
      "å½±åĵį": 7216,
      "åıĺä½ľä¸Ģä¸ª": 7217,
      "ainted": 7218,
      "BAL": 7219,
      "ĠMargaret": 7220,
      "èº²è¿ĩ": 7221,
      "Ġprincely": 7222,
      "BRA": 7223,
      "èĿĩ": 7224,
      "Ġchamber": 7225,
      "Ġseems": 7226,
      "çĩķ": 7227,
      "bey": 7228,
      "çŃµå®´": 7229,
      "Ġbuy": 7230,
      "Ġdeeds": 7231,
      "ç¥ŃèµĽ": 7232,
      "æĥłå²¸": 7233,
      "Whom": 7234,
      "VERS": 7235,
      "æľīä»Ģä¹Īåħ³ç³»åķĬ": 7236,
      "ĠRichmond": 7237,
      "æµģæ²Ļæ²³": 7238,
      "æĤļæĥ§": 7239,
      "Ġbitter": 7240,
      "éĢįéģ¥": 7241,
      "BIANCA": 7242,
      "BOW": 7243,
      "Welcome": 7244,
      "king": 7245,
      "ls": 7246,
      "lish": 7247,
      "mb": 7248,
      "rt": 7249,
      "sp": 7250,
      "ura": 7251,
      "Çİ": 7252,
      "ĠThou": 7253,
      "ĠThis": 7254,
      "ï¼ĮãĢĬ": 7255,
      "ä¸įæĢķ": 7256,
      "æĺ¯ä¸Ģä¸ª": 7257,
      "çļĦäºĭ": 7258,
      "åħģ": 7259,
      "ä¸Ģå¤©": 7260,
      "ä¸Ģè¾¹": 7261,
      "ä½łåķ¦": 7262,
      "æĪĳåķ¦": 7263,
      "æĪĳå¥½": 7264,
      "æĪĳä¸Ķ": 7265,
      "éĤ£åĶĲåĥ§": 7266,
      "åĪĥ": 7267,
      "Ġfres": 7268,
      "Ġfetch": 7269,
      "äººé©¬": 7270,
      "Ġcol": 7271,
      "Ġcross": 7272,
      "Ġcoward": 7273,
      "åĵ®": 7274,
      "essed": 7275,
      "Ġlim": 7276,
      "å¤§åľ°": 7277,
      "å¤§å¾Ĵå¼Ł": 7278,
      "åľ¨åĲİ": 7279,
      "Ġpen": 7280,
      "ä¹Łä¸įæķ¢": 7281,
      "otion": 7282,
      "èĢģäºº": 7283,
      "æĭ©": 7284,
      "è¯´ä½ł": 7285,
      "ated": 7286,
      "å¹¢": 7287,
      "åıĪè¢«": 7288,
      "ä¹ĭæ³ķ": 7289,
      "å¤´çĸ¼": 7290,
      "å¤´æĪ´": 7291,
      "çľŁäºº": 7292,
      "æ¯ģ": 7293,
      "ä¸İèĢģåŃĻ": 7294,
      "éĥ½èĥ½": 7295,
      "ä¼ļè¢«": 7296,
      "è¾ĩ": 7297,
      "èº«è¾¹": 7298,
      "èº«ç©¿": 7299,
      "æīĭéģĵ": 7300,
      "ç½ķ": 7301,
      "èĩªæĿ¥": 7302,
      "çŁ¥è¯Ĩ": 7303,
      "åĿĬ": 7304,
      "éĩĳå±±": 7305,
      "ä½ķä¸º": 7306,
      "å¤ªä¿Ŀ": 7307,
      "æĢİä¹Īèĥ½": 7308,
      "èĪŁ": 7309,
      "æ²¡äºĨ": 7310,
      "æĤ£": 7311,
      "urch": 7312,
      "éĵĻ": 7313,
      "æĺİæĹ©": 7314,
      "åĪĨå¼Ģ": 7315,
      "é£İåĵį": 7316,
      "åį³åĶ¤": 7317,
      "ä½ľä¸º": 7318,
      "ä½ľåĵģ": 7319,
      "é«ĺèĢģ": 7320,
      "èıĮ": 7321,
      "æ»ĭ": 7322,
      "çĲ¼": 7323,
      "éļ¾è¡Į": 7324,
      "å¥³æľĭåıĭ": 7325,
      "çī©ä»¶": 7326,
      "äºĶåįĥ": 7327,
      "æĪĳä»¬æĺ¯": 7328,
      "èĩ³ä»Ĭ": 7329,
      "èĩ³å°ĳ": 7330,
      "åĩłåı¥": 7331,
      "çľ¼åħī": 7332,
      "çľŁæĺ¯ä¸ª": 7333,
      "æĹ©æĻļ": 7334,
      "Ġknock": 7335,
      "å®«ä¸Ń": 7336,
      "è§£èĦ±": 7337,
      "æĸĩåĮĸ": 7338,
      "å¿«çĤ¹": 7339,
      "æĢ¥åĽŀå¤´": 7340,
      "antage": 7341,
      "åĲĦç§į": 7342,
      "oney": 7343,
      "Ġprot": 7344,
      "è¯Ńæĸĩ": 7345,
      "åħŃåĽŀ": 7346,
      "åĨħæľī": 7347,
      "ĠGAU": 7348,
      "çŁ³å´ĸ": 7349,
      "ãĢĭãĢĤ": 7350,
      "ĠLady": 7351,
      "é»Ħè¢į": 7352,
      "ç¢³": 7353,
      "æĢĿéĩı": 7354,
      "ĠSaint": 7355,
      "ĠServant": 7356,
      "Ġkingdom": 7357,
      "ç®Ĺè®¡": 7358,
      "ĠPl": 7359,
      "ç»ĵå©ļ": 7360,
      "Ġsac": 7361,
      "çł´äºĨ": 7362,
      "æ¥¼ä¸ĭ": 7363,
      "è¿Ļç§įéĹ®é¢ĺä¹Łå¤ª": 7364,
      "ç«¥åĦ¿": 7365,
      "æĻļä¸Ĭ": 7366,
      "ELBOW": 7367,
      "æĪ¿éĩĮ": 7368,
      "è·ŁçĿĢ": 7369,
      "æĸ½å¨ģ": 7370,
      "æ¯ıå¤©": 7371,
      "éĨī": 7372,
      "ï¼ŁðŁĺĴ": 7373,
      "æĹģè¾¹": 7374,
      "æ²¹éĶħ": 7375,
      "çĸ¼çĹĽ": 7376,
      "ç®ĢçĽ´": 7377,
      "å¤ªå®Ĺéģĵ": 7378,
      "æŃ¢ä¸įä½ı": 7379,
      "Ġheads": 7380,
      "å¤ŁäºĨ": 7381,
      "Ġscorn": 7382,
      "æ¸©åº¦": 7383,
      "Ġrage": 7384,
      "Ġappear": 7385,
      "å¦ĩäººéģĵ": 7386,
      "Ġlead": 7387,
      "åĬĪå¤´": 7388,
      "Ġwitness": 7389,
      "è¡Ĺä¸Ĭ": 7390,
      "ä¸´åĩ¡": 7391,
      "éĢĤæīį": 7392,
      "RIVERS": 7393,
      "æľīéĹ®é¢ĺåĲĹ": 7394,
      "åģ¥å°Ĩ": 7395,
      "æľ±ç´«": 7396,
      "æ£®ç½Ĺ": 7397,
      "èĢģå¦ĸéģĵ": 7398,
      "Ġpatient": 7399,
      "Ġpromise": 7400,
      "æ°§æ°Ķ": 7401,
      "ä¼½èĵĿ": 7402,
      "Ġlament": 7403,
      "Ġvaliant": 7404,
      "è¿Ļç§įéĹ®é¢ĺä¹Łè¦ģéĹ®æĪĳåĲĹ": 7405,
      "ĠIsab": 7406,
      "Speak": 7407,
      "ä»½ä¸Ĭ": 7408,
      "å¤ªä¸ĬèĢģåĲĽ": 7409,
      "Ġsuccess": 7410,
      "ĠBaptista": 7411,
      "ĠGAUNT": 7412,
      "Bes": 7413,
      "Ere": 7414,
      "GUE": 7415,
      "Hold": 7416,
      "TY": 7417,
      "cy": 7418,
      "coun": 7419,
      "nown": 7420,
      "sper": 7421,
      "will": 7422,
      "xford": 7423,
      "æĨ": 7424,
      "ï¸": 7425,
      "ĠKING": 7426,
      "Ġign": 7427,
      "ĠåĨįè¯´": 7428,
      "äºĴ": 7429,
      "åıŁ": 7430,
      "è¿ģ": 7431,
      "Ġaction": 7432,
      "çļĦä»½ä¸Ĭ": 7433,
      "æľ¦": 7434,
      "äºĨå¥½åĲĹ": 7435,
      "ä¸Ģéģĵ": 7436,
      "ä½łèĢģ": 7437,
      "ä½łåı¯ä»¥": 7438,
      "æĪĳä¸įæĺ¯": 7439,
      "æĪĳåĽ½": 7440,
      "æĪĳå·²": 7441,
      "æĪĳå¼ŁåŃĲ": 7442,
      "éĤ£å°ıå¦ĸ": 7443,
      "Ġbro": 7444,
      "Ġbawd": 7445,
      "è¡«": 7446,
      "æľīçĶļä¹Ī": 7447,
      "ä»ĸä¹Łä¸į": 7448,
      "ities": 7449,
      "è¡Įèĩ³": 7450,
      "åĩĳ": 7451,
      "åĩĽ": 7452,
      "Ġcle": 7453,
      "Ġcreat": 7454,
      "Ġcap": 7455,
      "Ġlack": 7456,
      "å¤§åĬĽ": 7457,
      "Ġthrow": 7458,
      "Ġow": 7459,
      "Ġopp": 7460,
      "å°±åľ¨": 7461,
      "è§ģä¸Ģ": 7462,
      "Ġgall": 7463,
      "åĩºèº«": 7464,
      "åĩºçİ°": 7465,
      "åıªå¥½": 7466,
      "å¯Ħ": 7467,
      "åıĪè¦ģ": 7468,
      "ï½¡": 7469,
      "ï½Ģ": 7470,
      "åīĥ": 7471,
      "çľĭå¤ļ": 7472,
      "é¢ĳ": 7473,
      "ä¸İåĶĲåĥ§": 7474,
      "è´±": 7475,
      "æł½": 7476,
      "é©´": 7477,
      "å¿ĥéĩĮ": 7478,
      "çĶŁæ´»": 7479,
      "è¾Ķ": 7480,
      "æīĵçĿĢ": 7481,
      "æĶ¿": 7482,
      "å°ĨæĪĳ": 7483,
      "å£³": 7484,
      "å£ĳ": 7485,
      "æ°´çģ«": 7486,
      "Ġforward": 7487,
      "ç½ļ": 7488,
      "Ġeat": 7489,
      "èĩªä»İ": 7490,
      "èĩªåı¤": 7491,
      "éķ¿æŀª": 7492,
      "éĹ®é¢ĺåķ¦": 7493,
      "åĿĩ": 7494,
      "åĲĥäºº": 7495,
      "èµ°åĪ°": 7496,
      "äºĭåķ¦": 7497,
      "èµ·éģĵ": 7498,
      "Ġkins": 7499,
      "Their": 7500,
      "è¿ĽåĮĸ": 7501,
      "å£°éģĵ": 7502,
      "åĪĨè¯´": 7503,
      "å¼Ģè·¯": 7504,
      "å¼Ģå§ĭ": 7505,
      "äºĳéĽ¾": 7506,
      "èĢĮèµ°": 7507,
      "èıĬ": 7508,
      "æŃ»çļĦ": 7509,
      "æŃ»ç½ª": 7510,
      "ä¸ľåįĹ": 7511,
      "ä¾¿äºĨ": 7512,
      "iff": 7513,
      "å²Ľ": 7514,
      "åĮĸä¸º": 7515,
      "èĽŁ": 7516,
      "Ġang": 7517,
      "åĿĲäºĨ": 7518,
      "åĿĲçĿĢ": 7519,
      "Ġviol": 7520,
      "æķĳå¸ĪçĪ¶": 7521,
      "æ¢Ĩ": 7522,
      "æĺŁåĲĽ": 7523,
      "antag": 7524,
      "å¿µå¿µ": 7525,
      "åħĦéķ¿": 7526,
      "Ġprin": 7527,
      "Ġprithee": 7528,
      "åįĬæĹ¥": 7529,
      "åħŃä¸ģ": 7530,
      "ç¬¬åħŃåįģ": 7531,
      "ĠMy": 7532,
      "éĢģä½ł": 7533,
      "Ġwash": 7534,
      "æĹ¢æľī": 7535,
      "ä¹ĿåĽŀ": 7536,
      "ä½łèĦĳåŃĲæĺ¯": 7537,
      "å¤ľåıī": 7538,
      "æĿĢäºĨ": 7539,
      "åı¤æĢª": 7540,
      "é¬¼ä½¿": 7541,
      "æĵĤ": 7542,
      "ortens": 7543,
      "ç´§ç®įåĦ¿åĴĴ": 7544,
      "ï¼ŁðŁ¤¯": 7545,
      "aken": 7546,
      "æģĲæĢķ": 7547,
      "ĠPetruchio": 7548,
      "éĺ´é£İ": 7549,
      "å¥īæĹ¨": 7550,
      "æĬ¬åĩº": 7551,
      "çģ¯çģ«": 7552,
      "éĻ¢ä¸»": 7553,
      "Ġoffer": 7554,
      "æĿ¥éĹ®æĪĳåĲĹ": 7555,
      "éĨĭ": 7556,
      "è®¤å¾ĹæĪĳ": 7557,
      "Ġleast": 7558,
      "Ġslave": 7559,
      "Ġflesh": 7560,
      "ĠTranio": 7561,
      "é¥¶ä»ĸ": 7562,
      "Ġprepare": 7563,
      "Ġprayers": 7564,
      "èĻ«åĦ¿": 7565,
      "æģ¶å¿ĥæŃ»äºĨ": 7566,
      "å¥½ä¸įå¥½åķ¦": 7567,
      "åļ·éģĵ": 7568,
      "é¥®éħĴ": 7569,
      "éĹ»å¾ĹæŃ¤è¨Ģ": 7570,
      "then": 7571,
      "Ġappro": 7572,
      "çĪ¬èµ·æĿ¥": 7573,
      "è¿Ļç§įçĻ½çĹ´éĹ®é¢ĺä¹Łè¦ģéĹ®åĲĹ": 7574,
      "TAGUE": 7575,
      "Ġtriump": 7576,
      "Ġmoon": 7577,
      "Ġcompl": 7578,
      "æ¹¾": 7579,
      "è¯´å¾ĹæľīçĲĨ": 7580,
      "èĭįèĿĩ": 7581,
      "åıĶåıĶ": 7582,
      "ä½łåľ¨è¯´ä»Ģä¹Īå¥ĩæĢªçļĦ": 7583,
      "ç¤¾ä¼ļ": 7584,
      "æľ¬æĿ¥å°±æĺ¯": 7585,
      "ä½łèĦĳåŃĲæĺ¯ä¸įæĺ¯è¢«éĹ¨å¤¹åķ¦": 7586,
      "itted": 7587,
      "å¤§æĢĴéģĵ": 7588,
      "ä¸įæīĵç´§": 7589,
      "èįĨæ£ĺ": 7590,
      "æŁĲäºĽ": 7591,
      "èªĵ": 7592,
      "æ»¡å¿ĥæ¬¢åĸľ": 7593,
      "Ġtribunes": 7594,
      "Ġdrink": 7595,
      "ĠChrist": 7596,
      "äºĳç«¯éĩĮ": 7597,
      "Romeo": 7598,
      "ortensio": 7599,
      "Yea": 7600,
      "bit": 7601,
      "but": 7602,
      "ees": 7603,
      "hind": 7604,
      "joy": 7605,
      "ler": 7606,
      "oor": 7607,
      "ohem": 7608,
      "vest": 7609,
      "ying": 7610,
      "µ®": 7611,
      "Ã¡": 7612,
      "çµ®": 7613,
      "Ġid": 7614,
      "Ġè¿ĺæĺ¯": 7615,
      "ä¹ĵ": 7616,
      "ä¸įçĶŁ": 7617,
      "ä¸įéĢļ": 7618,
      "ä¸įåĥı": 7619,
      "æĺ¯æĢİä¹Ī": 7620,
      "çļĦå¥½": 7621,
      "çļĦå¿ĥ": 7622,
      "çļĦåĵ¦": 7623,
      "çļĦæķħäºĭ": 7624,
      "Ġsur": 7625,
      "äºĨå¸ĪçĪ¶": 7626,
      "Ġmid": 7627,
      "ines": 7628,
      "ä¸Ģè§ģ": 7629,
      "ä¸ĢåĲĮ": 7630,
      "ä¸Ģå¼ł": 7631,
      "ä¸Ģé¢Ĩ": 7632,
      "ä¸Ģçīĩ": 7633,
      "ä½łå½ĵ": 7634,
      "æĪĳåı¯æĺ¯": 7635,
      "å®¡": 7636,
      "å®ł": 7637,
      "éĤ£å±±": 7638,
      "éĤ£èĪ¬": 7639,
      "éĤ£ä¸īä¸ª": 7640,
      "åŃ£": 7641,
      "è¿Ļä¸¤ä¸ª": 7642,
      "Ġfie": 7643,
      "æľīç¼ĺ": 7644,
      "ä»ĸæĢİçļĦ": 7645,
      "ä¼´": 7646,
      "å¦Ħ": 7647,
      "Ġdest": 7648,
      "Ġnay": 7649,
      "Ġthither": 7650,
      "æķĽ": 7651,
      "Ġhide": 7652,
      "å¾Ĺä¸Ģ": 7653,
      "ä¸īäºĶ": 7654,
      "athar": 7655,
      "å¤©æĻĵ": 7656,
      "Ġbeast": 7657,
      "åĩºå¤´": 7658,
      "åıĪåı«": 7659,
      "çľĭä½ł": 7660,
      "ley": 7661,
      "æŀ£": 7662,
      "åħ«åį¦": 7663,
      "æ¯Ĥ": 7664,
      "åĸĺ": 7665,
      "èĦĵ": 7666,
      "å°ıæĢª": 7667,
      "æĮĿ": 7668,
      "åį´æĿ¥": 7669,
      "çĶŁæŃ»": 7670,
      "åīįäºĭ": 7671,
      "æīĵåıĳ": 7672,
      "å°Ĩèº«": 7673,
      "è¿Ļç§įèł¢": 7674,
      "æ°´éĿ¢": 7675,
      "å®¶çļĦ": 7676,
      "å®¶çģ«": 7677,
      "çŃīä¼Ĺ": 7678,
      "æŃ£å¥½": 7679,
      "æŃ£ç¡®": 7680,
      "åįģä¸īå¹´": 7681,
      "æīįå¥½": 7682,
      "æĸ¹åĲĳ": 7683,
      "èµ°ä¸Ĭåīį": 7684,
      "æ¬£": 7685,
      "å¤ªå¹³": 7686,
      "èĲ§": 7687,
      "èĪħ": 7688,
      "è¥¿æĿ¥": 7689,
      "æ²¡åĬŀæ³ķ": 7690,
      "Ġreb": 7691,
      "çĥ«": 7692,
      "raw": 7693,
      "å£°åı«éģĵ": 7694,
      "als": 7695,
      "alth": 7696,
      "æ£µ": 7697,
      "ä¼Ĺèĩ£": 7698,
      "çĶļåĸľ": 7699,
      "ç²¾çģµ": 7700,
      "ä»Ĭå·²": 7701,
      "ä»Ĭçķª": 7702,
      "é¾Ħ": 7703,
      "é«ĺåı«": 7704,
      "é«ĺå¾Ĵ": 7705,
      "cks": 7706,
      "çģ«å¾·": 7707,
      "çĻ½æĹ¥": 7708,
      "è¯·åĶĲåĥ§": 7709,
      "åıĸäºĨ": 7710,
      "ä¾¿å°±": 7711,
      "åĮĸåŃ¦": 7712,
      "å®ļè¦ģ": 7713,
      "éĤ£éĩĮè¯Ŀ": 7714,
      "thumber": 7715,
      "éħ±": 7716,
      "åİŁåŃĲ": 7717,
      "æĥħæĦ¿": 7718,
      "èħĶ": 7719,
      "âķ°": 7720,
      "æı£": 7721,
      "host": 7722,
      "âĢĻï¼ŁâĢĿ": 7723,
      "asters": 7724,
      "çłĮ": 7725,
      "æĸĩä¹¦": 7726,
      "è½¬è¿ĩ": 7727,
      "çĶµå½±": 7728,
      "åħŃçĶ²": 7729,
      "çĸĹ": 7730,
      "èģĴ": 7731,
      "èĩªå·±æĺ¯": 7732,
      "feit": 7733,
      "æĢĿæĥ³": 7734,
      "å¾Ĵå¼ŁåĳĢ": 7735,
      "è®°ä½ı": 7736,
      "çľŁçļĦæĺ¯": 7737,
      "ï¼ģðŁĺ±": 7738,
      "èĻİçļ®": 7739,
      "å¿½æĬ¬å¤´": 7740,
      "ç«ĭåľ¨": 7741,
      "æ¯ĽèĦ¸": 7742,
      "éĥ½æĺ¯äºĽ": 7743,
      "aked": 7744,
      "åĻ¨æ¢°": 7745,
      "pey": 7746,
      "çķĻä¸ĭ": 7747,
      "åħĥç¥ŀ": 7748,
      "å¥īä¸Ĭ": 7749,
      "æķ´è¡£": 7750,
      "ä¼ıèĻİ": 7751,
      "çĹħæ¯Ĵ": 7752,
      "æ´Ĺè¡£": 7753,
      "æĴŀè§ģ": 7754,
      "Ġalmost": 7755,
      "æįīå¼Ħ": 7756,
      "æ³¼éŃĶ": 7757,
      "çŃĶéģĵ": 7758,
      "æ¢¦ä¸Ń": 7759,
      "åĩ¡èĥİ": 7760,
      "æŀªåĪĢ": 7761,
      "éĶ¦ç»£": 7762,
      "é¥¶åĳ½": 7763,
      "èĨĬ": 7764,
      "æ±Łå±±": 7765,
      "é²¤": 7766,
      "ully": 7767,
      "èħ¾èħ¾": 7768,
      "çĪ·çĪ·åĳĢ": 7769,
      "Ġscar": 7770,
      "åįģåĪĨæ¬¢åĸľ": 7771,
      "ç¯·": 7772,
      "åıĺåģļä¸Ģä¸ª": 7773,
      "èĢĥè¯ķ": 7774,
      "ðŁĴħ": 7775,
      "ä¸ĳéĻĭ": 7776,
      "é¦ĢéĩĮ": 7777,
      "æŃ£å¸¸äºº": 7778,
      "åĳ¨åĽ´": 7779,
      "åĲ¯å¥ıéģĵ": 7780,
      "è¢ĸä¸Ń": 7781,
      "Ġsmall": 7782,
      "åĪºåı²": 7783,
      "è½®åĽŀ": 7784,
      "éĢĶä¸Ń": 7785,
      "æ¾Ħ": 7786,
      "Ġpresently": 7787,
      "ç½ĹåĪ¹å¥³": 7788,
      "æĮ¡ä½ı": 7789,
      "Ġfaults": 7790,
      "ç¬¬äºĮä¸ª": 7791,
      "è½»è½»çļĦ": 7792,
      "Ġsecret": 7793,
      "Ġdepart": 7794,
      "Ġsubjects": 7795,
      "èĪĴæľį": 7796,
      "éĤ£æĹ¶èĬĤ": 7797,
      "Ġdefend": 7798,
      "æĿ¨æŁ³": 7799,
      "Ġpossess": 7800,
      "åĭīå¼º": 7801,
      "éĢ»è¾ĳ": 7802,
      "çľŁæŃ£çļĦ": 7803,
      "atharina": 7804,
      "thumberland": 7805,
      "25": 7806,
      "Con": 7807,
      "DI": 7808,
      "GI": 7809,
      "IEL": 7810,
      "MP": 7811,
      "Pl": 7812,
      "VIR": 7813,
      "Whi": 7814,
      "aul": 7815,
      "kes": 7816,
      "ug": 7817,
      "Ġä¸Ģ": 7818,
      "Ġè°ģ": 7819,
      "īçĴĥ": 7820,
      "ãĢĤâĢľ": 7821,
      "Ġtear": 7822,
      "ä»ĵ": 7823,
      "ä¸įå¯¹": 7824,
      "ä¸įå¤Ł": 7825,
      "Ġsho": 7826,
      "Ġwert": 7827,
      "ä¸Ģèº«": 7828,
      "ä¸Ģå¤ľ": 7829,
      "rey": 7830,
      "æĪĳçİĭ": 7831,
      "æĪĳå¸Ī": 7832,
      "éĤ£æĿ¡": 7833,
      "Ġben": 7834,
      "Ġbase": 7835,
      "Ġbirth": 7836,
      "åį¯": 7837,
      "æĿ¥çľĭ": 7838,
      "æĿ¥æīĵ": 7839,
      "æĿ¥çĥ¦": 7840,
      "æĿ¥ç²Ĺç»Ĩ": 7841,
      "è¡°": 7842,
      "è¿Ļæīįæĺ¯": 7843,
      "Ġfill": 7844,
      "Ġfond": 7845,
      "æľīéģĵ": 7846,
      "æľīäºĭ": 7847,
      "æľīæ²¡æľī": 7848,
      "çľ·": 7849,
      "ä¼ŀ": 7850,
      "è§ħ": 7851,
      "åĵĹ": 7852,
      "Ġlab": 7853,
      "å¤§åĵŃ": 7854,
      "arl": 7855,
      "Ġpain": 7856,
      "åİ»åĮ»éĻ¢": 7857,
      "ä¹Łèĥ½": 7858,
      "æĭį": 7859,
      "inger": 7860,
      "ç§¤": 7861,
      "è§ģå¾Ĺ": 7862,
      "è§ģé©¾": 7863,
      "æ²¾": 7864,
      "æ²Ĳ": 7865,
      "å¥½ä¸ª": 7866,
      "Ġbec": 7867,
      "åıªæģĲ": 7868,
      "å¹¡": 7869,
      "åıĪåĲ¬å¾Ĺ": 7870,
      "ä¹ĭçĲĨ": 7871,
      "ä¹ĭéĻħ": 7872,
      "çľĭèµ·æĿ¥": 7873,
      "ç¬ĭ": 7874,
      "çľŁå®ŀ": 7875,
      "åºŁ": 7876,
      "ç¥Ī": 7877,
      "éĥ½éģĵ": 7878,
      "æŃ¤æĺ¯": 7879,
      "æĬĬè¡ĮèĢħ": 7880,
      "æĮ¤": 7881,
      "æĹłä¸į": 7882,
      "æĹłè¸ª": 7883,
      "åĲĹåķ¦": 7884,
      "è¾ĺ": 7885,
      "å°Ĩåĩºåİ»": 7886,
      "æ°´æĿ¥": 7887,
      "Ġform": 7888,
      "åĽŀè·¯": 7889,
      "çĦ¶ä¸į": 7890,
      "ä¾®": 7891,
      "æīĭæĮĩ": 7892,
      "åľ£æĹ¨": 7893,
      "Ġeas": 7894,
      "æĥ³è¦ģ": 7895,
      "æŃ£èĩª": 7896,
      "èĹıåľ¨": 7897,
      "èµ°èµ°": 7898,
      "Ġstru": 7899,
      "å½ĵé©¾": 7900,
      "èĬ½": 7901,
      "å¤ªçĽĳ": 7902,
      "è¥¿è¡Į": 7903,
      "è¯Ŀè¡¨": 7904,
      "Ġliving": 7905,
      "æį±": 7906,
      "æį¶": 7907,
      "è·¯è¿ĩ": 7908,
      "ä¼Ĺä»Ļ": 7909,
      "åĲ¬è®²": 7910,
      "æĻķ": 7911,
      "çĽ¸éĢ¢": 7912,
      "é«ĺä½İ": 7913,
      "åĶĲåĥ§çļĦ": 7914,
      "æ»Ķ": 7915,
      "çĲīçĴĥ": 7916,
      "èİ±": 7917,
      "éĶĢ": 7918,
      "è¯·èı©èĲ¨": 7919,
      "ä¸ľæ´ĭ": 7920,
      "èĭ¥æľī": 7921,
      "æĶ¾ä»ĸ": 7922,
      "ä½Ľè¡£": 7923,
      "äºĶåºĦ": 7924,
      "æŁĶ": 7925,
      "å¯¹å¯¹": 7926,
      "åĮĸä½ľ": 7927,
      "åıĳæĢĴ": 7928,
      "rue": 7929,
      "ç¼ķ": 7930,
      "though": 7931,
      "å§»": 7932,
      "æķĳä½ł": 7933,
      "æĽ´å¤ļ": 7934,
      "Ġgoodly": 7935,
      "å¯»ä»ĸ": 7936,
      "Ġwhence": 7937,
      "çĸ«": 7938,
      "éĢģä»ĸ": 7939,
      "ĠGREY": 7940,
      "æ®¿åīį": 7941,
      "å¥ĩæĢªäºĨåĲ§": 7942,
      "åĻª": 7943,
      "ä¹Ŀé½¿": 7944,
      "å¾Ĵå¼Łä»¬": 7945,
      "Ġusurp": 7946,
      "é¬¼çİĭ": 7947,
      "åİŁæĿ¥æĺ¯ä¸ª": 7948,
      "ä¼¤äºº": 7949,
      "èĮħ": 7950,
      "å¿ħé¡»": 7951,
      "å·®äºĨ": 7952,
      "ä¾ĿæĹ§": 7953,
      "cience": 7954,
      "ä¸ľè¥¿åķĬ": 7955,
      "èĤ¯å®ļæĺ¯": 7956,
      "ï¼Ł(ï¿£âĸ½ï¿£)~*": 7957,
      "çļĩå®«": 7958,
      "åģ·äºĨ": 7959,
      "æķ´çĲĨ": 7960,
      "Ġtrump": 7961,
      "åĵįäº®": 7962,
      "æľĢå¤ļ": 7963,
      "Ġhearing": 7964,
      "èĮ¶é¥Ń": 7965,
      "çĥŁçģ«": 7966,
      "æĳĨåĪĹ": 7967,
      "Ġslaughter": 7968,
      "Ġperform": 7969,
      "Ġwrit": 7970,
      "æĢİçĶŁæĺ¯å¥½": 7971,
      "è¯ģæĺİ": 7972,
      "ç¯ĩ": 7973,
      "é£ĺé£ĺ": 7974,
      "perate": 7975,
      "éĨĴæĿ¥": 7976,
      "åĹĸ": 7977,
      "éĹ®å¾ĹåĩºæĿ¥": 7978,
      "æ¬ºå¿ĥ": 7979,
      "ledge": 7980,
      "åŃĺåľ¨": 7981,
      "ç»£çĲĥ": 7982,
      "æīĺå¡Ķ": 7983,
      "è¯¯äºĨ": 7984,
      "æ»´æ³ªéģĵ": 7985,
      "åĪĺæ´ª": 7986,
      "æ¹ĸ": 7987,
      "Stay": 7988,
      "Stand": 7989,
      "çĩĥ": 7990,
      "Ġchance": 7991,
      "åģ¥åº·": 7992,
      "PERDI": 7993,
      "ï¼ģðŁĴħ": 7994,
      "çĪ¸çĪ¸": 7995,
      "åĲĪæİĮéģĵ": 7996,
      "å¼¥éĻĢ": 7997,
      "é¡»èĩ¾éĹ´": 7998,
      "Ġvirtuous": 7999,
      "è±ĨèħĲ": 8000,
      "ä½łè¯¥ä¸įä¼ļæĺ¯": 8001,
      "å°Ĩèº«ä¸Ģçºµ": 8002,
      "çľŁæĺ¯è®©äººæĹłè¯Ń": 8003,
      "åªĴ": 8004,
      "Ġquickly": 8005,
      "åĶ¿åĸĩ": 8006,
      "çĶµè§Ĩåī§": 8007,
      "ç¬¬ä¹Ŀåįģ": 8008,
      "MONTAGUE": 8009,
      "Ġdamn": 8010,
      "äºĶæĸ¹æıŃè°Ľ": 8011,
      "çĻĸå¥½": 8012,
      "çľĭåľ¨ä½łè¿Ļä¹Ī": 8013,
      "äºĮåįģåħ«å®¿": 8014,
      "ural": 8015,
      "ohemia": 8016,
      "GILIA": 8017,
      "VIRGILIA": 8018,
      "äºĶåºĦè§Ĥ": 8019,
      "PERDITA": 8020,
      "22": 8021,
      "24": 8022,
      "Ab": 8023,
      "Doth": 8024,
      "Peace": 8025,
      "SET": 8026,
      "SLY": 8027,
      "ding": 8028,
      "eem": 8029,
      "iest": 8030,
      "over": 8031,
      "oss": 8032,
      "ror": 8033,
      "your": 8034,
      "ze": 8035,
      "âī": 8036,
      "Ġut": 8037,
      "ĠæĪĸèĢħ": 8038,
      "Ġå¿ĥçĮ¿": 8039,
      "Ġtor": 8040,
      "æĪĪ": 8041,
      "ä¸įåĩºæĿ¥": 8042,
      "Ġay": 8043,
      "çļĦç¥ŀ": 8044,
      "åĲı": 8045,
      "äºĨæĢ§åĳ½": 8046,
      "ï¼ļâĢľâĢĺ": 8047,
      "Ġmatch": 8048,
      "Ġmild": 8049,
      "Ġwild": 8050,
      "æĿ°": 8051,
      "æĿľ": 8052,
      "ä¸Ģéļ¾": 8053,
      "ä¸ĢæŃ¥": 8054,
      "ä¸Ģå®µ": 8055,
      "ä½łçŃī": 8056,
      "read": 8057,
      "æĪĳä½Ľ": 8058,
      "æĪĳåĽł": 8059,
      "è¯Ī": 8060,
      "è¯ĳ": 8061,
      "éĤ£ä¸ī": 8062,
      "éĤ£è´¼": 8063,
      "éĤ£åİ¢": 8064,
      "isure": 8065,
      "è¿Ļä¸¤": 8066,
      "Ġfier": 8067,
      "æľīéļ¾": 8068,
      "æľīæĹ¶åĢĻ": 8069,
      "è¡ĮçļĦ": 8070,
      "è¡Įæ»¡": 8071,
      "ony": 8072,
      "äººæĿ¥": 8073,
      "äººäºĭ": 8074,
      "åĩ³": 8075,
      "Ġca": 8076,
      "Ġcertain": 8077,
      "arn": 8078,
      "ä¸Ĭå±±": 8079,
      "Ġpit": 8080,
      "è¡ĮèĢħä¸Ĭåīį": 8081,
      "ç»©": 8082,
      "æĭ¼": 8083,
      "æĭĦ": 8084,
      "ä¸ĭæ°´": 8085,
      "å°±è¯¥": 8086,
      "ingly": 8087,
      "ç§ĺ": 8088,
      "è§ģä½ł": 8089,
      "è§ģè¯´": 8090,
      "æ²Ł": 8091,
      "å¥½æ±ī": 8092,
      "sem": 8093,
      "åĩºçļĦ": 8094,
      "åĩºä¸Ģä¸ª": 8095,
      "çĿĢèĦļ": 8096,
      "çĿĢéĵģæ£Ĵ": 8097,
      "åıĪæĺ¯": 8098,
      "Ġinj": 8099,
      "Ġins": 8100,
      "Ġinno": 8101,
      "å¤´ä¸Ģ": 8102,
      "eds": 8103,
      "edant": 8104,
      "å°ıå¼Ł": 8105,
      "ä¸įæĺ¯ä»Ģä¹Ī": 8106,
      "éĿ´": 8107,
      "åį´è¢«": 8108,
      "çĶŁåĳ½": 8109,
      "æİ¬": 8110,
      "æ°´çļĦ": 8111,
      "æ°´æĻ¶": 8112,
      "èĥ½åĬĽ": 8113,
      "èĥ½éĩı": 8114,
      "å®¶åŃĲ": 8115,
      "Ġur": 8116,
      "æīĭæĮģ": 8117,
      "ç½Ĳ": 8118,
      "çĮ©": 8119,
      "éķ¿çļĦ": 8120,
      "å¸ĪçĪ¶çļĦ": 8121,
      "åľ°ä¸ĭ": 8122,
      "åľ°åºľ": 8123,
      "åľ°çĭ±": 8124,
      "åĲĥå¾Ĺ": 8125,
      "åĲĥåĵ©": 8126,
      "éĩĳèĿī": 8127,
      "å¤ªå°ī": 8128,
      "å¤ĦçĲĨ": 8129,
      "æĤĶ": 8130,
      "çĶļæĺ¯": 8131,
      "é£İåĲ¹": 8132,
      "ä»ĬæĹ©": 8133,
      "èĢĮåĽŀ": 8134,
      "Ġshad": 8135,
      "å®Ŀå®Ŀ": 8136,
      "éļ¾ç¦ģ": 8137,
      "å¥³èı©èĲ¨": 8138,
      "ä¾¿ä¼¼": 8139,
      "Think": 8140,
      "åĲĮæĹ¶": 8141,
      "åĸľåĸľæ¬¢": 8142,
      "ä¸ĩéģĵ": 8143,
      "èİ«æĢª": 8144,
      "èħ»": 8145,
      "å¾ĢéĤ£éĩĮ": 8146,
      "Ġknee": 8147,
      "Ġkneel": 8148,
      "ä¸ºä»Ģä¹Īä¼ļ": 8149,
      "astard": 8150,
      "è§£åĨ³": 8151,
      "æ¢µ": 8152,
      "çłĶ": 8153,
      "æĢ¥å¿Ļ": 8154,
      "çİīåħĶ": 8155,
      "å·²æŃ¤": 8156,
      "åĲĦèĩª": 8157,
      "å¿µå£°": 8158,
      "ustom": 8159,
      "ç¬¬ä¸ī": 8160,
      "æ¯ĶèµĽ": 8161,
      "Ġblows": 8162,
      "ç¬¨èĽĭéĹ®é¢ĺ": 8163,
      "ä¹ĿæĽľ": 8164,
      "äºĨä¸Ģä¸ĭ": 8165,
      "èµ¶åĪ°": 8166,
      "ĠSt": 8167,
      "ĠOxford": 8168,
      "çľŁçļĦä¼ļ": 8169,
      "é¬¼ç¥ŀ": 8170,
      "ä½łæĺ¯ä¸ª": 8171,
      "Ġquiet": 8172,
      "ĠPaul": 8173,
      "Ġproceed": 8174,
      "Ġhadst": 8175,
      "èĦ¸ä¸Ĭ": 8176,
      "åıįåºĶ": 8177,
      "èĥľè´¥": 8178,
      "å´©": 8179,
      "æŀĹä¸Ń": 8180,
      "Ġoffence": 8181,
      "åľ¨æŃ¤éĹ´": 8182,
      "å¤įæĿĤ": 8183,
      "æ³¼æĢª": 8184,
      "é¦ĸåħĪ": 8185,
      "ç»³åŃĲ": 8186,
      "åį·å¸ĺ": 8187,
      "ä¸Ģæł·åķ¦": 8188,
      "ä½łè¿Ļç§įåıĺæĢģ": 8189,
      "åļ¼": 8190,
      "è¿Ļä¹Īç®Ģåįķ": 8191,
      "å§ĵåĲį": 8192,
      "ä½łèĦĳåŃĲæĺ¯ä¸įæĺ¯æľīéĹ®é¢ĺåķĬ": 8193,
      "çĮ´çİĭéģĵ": 8194,
      "æĢ»ä¹ĭ": 8195,
      "è¯¸ç¥ŀ": 8196,
      "ç´¢æĪĺ": 8197,
      "ĠæĪĳæīįä¸įæĥ³": 8198,
      "èĢįèĢį": 8199,
      "Ġadm": 8200,
      "è·ªåľ¨": 8201,
      "Ġpleas": 8202,
      "ç¦ıåľ°": 8203,
      "æ½ĩ": 8204,
      "èļģ": 8205,
      "æľ¯è¯Ń": 8206,
      "å¸®åĬ©": 8207,
      "force": 8208,
      "Ġaffection": 8209,
      "å¸ħä¼Ĺ": 8210,
      "Ġslew": 8211,
      "æĻ®éĻĢ": 8212,
      "æĪĳæīįä¸įä¼ļ": 8213,
      "å°¾å·´": 8214,
      "éĥ½ä¸įæĩĤ": 8215,
      "æĪĺåħ¢åħ¢çļĦ": 8216,
      "ä½łä¹ŁéĹ®å¾Ĺåĩºåı£": 8217,
      "æ¤ħ": 8218,
      "IANA": 8219,
      "Ġlawful": 8220,
      "åİĨåı²è¯¾": 8221,
      "Ġglad": 8222,
      "bling": 8223,
      "Ġweeping": 8224,
      "çªģçĦ¶": 8225,
      "èŃ¦å¯Ł": 8226,
      "MARIANA": 8227,
      "éĽ·åħ¬åĺ´": 8228,
      "æ°§åĮĸ": 8229,
      "Ġsoldier": 8230,
      "Ġawhile": 8231,
      "Ġdeserved": 8232,
      "Ġexecution": 8233,
      "ĠCoriolanus": 8234,
      "Ġguilty": 8235,
      "è¿Ļç§įéĹ®é¢ĺä¹Łè¦ģéĹ®çļĦåĲĹ": 8236,
      "Ġpretty": 8237,
      "ĠPompey": 8238,
      "çģ«çľ¼éĩĳçĿĽ": 8239,
      "æĽ´æĹ¶åĪĨ": 8240,
      "æĭ½å¼ĢæŃ¥": 8241,
      "Ġangry": 8242,
      "æĵĤé¼ĵ": 8243,
      "åĸľåĸľæ¬¢æ¬¢": 8244,
      "EX": 8245,
      "Fa": 8246,
      "Mar": 8247,
      "Master": 8248,
      "PAR": 8249,
      "RA": 8250,
      "VINCENTIO": 8251,
      "awn": 8252,
      "dge": 8253,
      "fully": 8254,
      "gue": 8255,
      "med": 8256,
      "ual": 8257,
      "vol": 8258,
      "zen": 8259,
      "¹ģ": 8260,
      "ç¹ģ": 8261,
      "Ġè¦ģ": 8262,
      "Ķ¥": 8263,
      "ãĢĤãĢĤ": 8264,
      "ä¸įçĽ¸": 8265,
      "ä¸įæŃ»": 8266,
      "ä¸įç¨³": 8267,
      "Ġap": 8268,
      "Ġshi": 8269,
      "èĢĹ": 8270,
      "äºĨæĢİä¹ĪåĬŀ": 8271,
      "äºĨäºĽåĦ¿": 8272,
      "Ġmed": 8273,
      "Ġmod": 8274,
      "Ġwalk": 8275,
      "ä¸ĢçĶŁ": 8276,
      "ä¸Ģé¡¶": 8277,
      "ä¸Ģæ¯«": 8278,
      "ä½łæīį": 8279,
      "æĪĳè¦ģ": 8280,
      "æĪĳåıĪ": 8281,
      "æĪĳä¼ļ": 8282,
      "æĪĳæĢİä¹Ī": 8283,
      "æĪĳåģļ": 8284,
      "æĪĳæĺ¯ä¸įæĺ¯": 8285,
      "éĤ£åħ¬ä¸»": 8286,
      "éĤ£å¨ĺå¨ĺ": 8287,
      "åįµ": 8288,
      "åįļ": 8289,
      "æĹħ": 8290,
      "æĿ¥å¾Ģ": 8291,
      "è¿Ļè¯Ŀ": 8292,
      "Ġfam": 8293,
      "Ġfled": 8294,
      "æľīä¸īä¸ª": 8295,
      "æľīè¶£": 8296,
      "äººäºĨ": 8297,
      "åĵ²": 8298,
      "åĵĿ": 8299,
      "eness": 8300,
      "Ġyear": 8301,
      "åľ¨èº«ä¸Ĭ": 8302,
      "åľ¨åįĬç©º": 8303,
      "æĬĹ": 8304,
      "ä¸ĬåĿĲ": 8305,
      "åŃĲä¸Ĭ": 8306,
      "Ġob": 8307,
      "Ġocc": 8308,
      "å¾Ĺç´§": 8309,
      "Ġpu": 8310,
      "åİ»ä¹°": 8311,
      "ä¹Łä¸įä¼ļ": 8312,
      "ç»«": 8313,
      "ç»Ĵ": 8314,
      "ç»ľ": 8315,
      "æĭ¯": 8316,
      "ç§½": 8317,
      "å±ł": 8318,
      "è®Ń": 8319,
      "Ġbehind": 8320,
      "åĨľ": 8321,
      "è¦ģèµ°": 8322,
      "çĿĢåĶĲåĥ§": 8323,
      "åıĪä¸Ģ": 8324,
      "åıĪæĹł": 8325,
      "åıĪä¸įä¼ļ": 8326,
      "ä¸ºä¸Ģ": 8327,
      "ä¹ĭè·¯": 8328,
      "å·½": 8329,
      "Ġhap": 8330,
      "åĴ³": 8331,
      "ç¥¨": 8332,
      "å°ıéĴ»é£İ": 8333,
      "é£Ĵ": 8334,
      "ä¸ŃçĶŁ": 8335,
      "åĦ¿æĿ¥": 8336,
      "Ġmeasure": 8337,
      "æĹłéĩı": 8338,
      "é©±": 8339,
      "æīĵåĩº": 8340,
      "åı¯æĢķ": 8341,
      "å°ĨåĩºæĿ¥": 8342,
      "æ°´éĩĮ": 8343,
      "è¿ĩçļĦ": 8344,
      "è¿ĩç¨ĭ": 8345,
      "Ġforsw": 8346,
      "èº«ä¸ĭæĭľ": 8347,
      "æŃ£èµ°": 8348,
      "åĢ¦": 8349,
      "è½°": 8350,
      "adua": 8351,
      "ç«ŀ": 8352,
      "éĩĳåľ£": 8353,
      "ä½ķä»¥": 8354,
      "ä½ķå¹²": 8355,
      "å½ĵä¸Ń": 8356,
      "äºĮæ¬¡": 8357,
      "çĶ¨å¿ĥ": 8358,
      "èĪª": 8359,
      "åģļçļĦ": 8360,
      "èĤ´": 8361,
      "èĤĮ": 8362,
      "è¿ĽäºĨ": 8363,
      "Ġreign": 8364,
      "è·¯ç¨ĭ": 8365,
      "å¼Ģå¿ĥ": 8366,
      "äºĳåħī": 8367,
      "èĢĮè¡Į": 8368,
      "ä¸Ķä½ı": 8369,
      "çĽ¸ä¼ļ": 8370,
      "ä½ľç¤¼éģĵ": 8371,
      "æŃ»æ´»": 8372,
      "é¾Ļé©¬": 8373,
      "èĦĳè¢ĭ": 8374,
      "èĦĳåĽŀè·¯": 8375,
      "Ġdog": 8376,
      "Ġdoom": 8377,
      "ames": 8378,
      "èĭ¥è®º": 8379,
      "Ġnob": 8380,
      "ä½Ľåĥı": 8381,
      "æŁ¯": 8382,
      "æ´ŀå¤©": 8383,
      "å¤ĸè¾¹": 8384,
      "èī°": 8385,
      "è¾¹åīį": 8386,
      "åĮĸäºĨ": 8387,
      "æĭľäºĨ": 8388,
      "rupt": 8389,
      "ä¸ĩå¹´": 8390,
      "æ¶ī": 8391,
      "Ġourselves": 8392,
      "è£ģ": 8393,
      "Ġfavour": 8394,
      "Ġneck": 8395,
      "æĲł": 8396,
      "ä½¿çĶ¨": 8397,
      "ä¸ºä»Ģä¹Īæ²¡æľī": 8398,
      "è¿Ļä¸ªéĹ®é¢ĺ": 8399,
      "æ¢³": 8400,
      "å¿«å¿«": 8401,
      "Ġshows": 8402,
      "é£ŀç¦½": 8403,
      "åĲĦæī§": 8404,
      "å¿µä½Ľ": 8405,
      "åĥıä¸ª": 8406,
      "çĶµè¯Ŀ": 8407,
      "ç¬¬ä¸ĥåįģ": 8408,
      "ç¬¬åħ«åįģ": 8409,
      "æĪĺç»ı": 8410,
      "ended": 8411,
      "ä¼łç»Ł": 8412,
      "Ġblow": 8413,
      "æĬ¥ä¸İ": 8414,
      "Ġgovern": 8415,
      "ï¼īï¼Į": 8416,
      "èµ¶æĿ¥": 8417,
      "Ġwouldst": 8418,
      "çģµåĲī": 8419,
      "ä¹±æīĵ": 8420,
      "ç®¡å¾ħ": 8421,
      "åıĹäºĨ": 8422,
      "Ġletters": 8423,
      "Ġunc": 8424,
      "Ġunk": 8425,
      "åħ¨çľŁ": 8426,
      "Ġworst": 8427,
      "é¹Ĭ": 8428,
      "ç´§éĹŃ": 8429,
      "åĸĦæŀľ": 8430,
      "ä¸įæĽ¾è§ģ": 8431,
      "é©¾ä¸ĭ": 8432,
      "æļĹä¸Ń": 8433,
      "ç»Ļå®ĥ": 8434,
      "ç»ĵæĿŁ": 8435,
      "ç»ĵæŀĦ": 8436,
      "åĳ¼åĶ¤": 8437,
      "æĬ¤æĮģ": 8438,
      "å¡«": 8439,
      "ä¸¾éĴ¯": 8440,
      "Ġspeaks": 8441,
      "ç£¬": 8442,
      "ç£·": 8443,
      "å»·": 8444,
      "Ġmarch": 8445,
      "è¡¨ç¤º": 8446,
      "ç¾İäºº": 8447,
      "æ¯ıä¸ªäºº": 8448,
      "éĥ¨åĪĨ": 8449,
      "æįīä½ı": 8450,
      "éĤ£äºĽäºº": 8451,
      "åĤ©": 8452,
      "ä¸įä½ıçļĦ": 8453,
      "ä¸¢ä¸ĭ": 8454,
      "éĤªéŃĶ": 8455,
      "åĨĻä½ľ": 8456,
      "ç»³ç´¢": 8457,
      "çŀ»": 8458,
      "ç¦ħå¸Ī": 8459,
      "ighb": 8460,
      "ĠKatharina": 8461,
      "Ġgreater": 8462,
      "åĬ©åĬĽ": 8463,
      "éĻ¤äºĨ": 8464,
      "é¡¿é¦ĸ": 8465,
      "æµªè´¹": 8466,
      "å²Ĥæľī": 8467,
      "åĢ¼åĬŁæĽ¹": 8468,
      "è¾ŀäºĨ": 8469,
      "è´Łè´£": 8470,
      "Ġleisure": 8471,
      "osition": 8472,
      "éĺ¿åĤ©": 8473,
      "æł¡å°ī": 8474,
      "æĭĶä¸ĭ": 8475,
      "éĢīæĭ©": 8476,
      "Ġtreason": 8477,
      "å¤§æĥĬå¤±èī²": 8478,
      "ĠçľŁæĺ¯ä¸ª": 8479,
      "æ£®æ£®": 8480,
      "åĵªåĲĴå¤ªåŃĲ": 8481,
      "ä¸įè§īçļĦ": 8482,
      "ĠEnglish": 8483,
      "æµĭè¯ķ": 8484,
      "Ġbanishment": 8485,
      "ä¸įåĪĨèĥľè´Ł": 8486,
      "Ġsense": 8487,
      "å±ģèĤ¡": 8488,
      "remio": 8489,
      "å®°çĽ¸": 8490,
      "Ġcondemn": 8491,
      "ointed": 8492,
      "éľİæĹ¶": 8493,
      "Ġdishonour": 8494,
      "æĭ¿ä½łæ²¡åĬŀæ³ķ": 8495,
      "çĬĢçīĽ": 8496,
      "Ġpiece": 8497,
      "æŃ£è¯´å¤Ħ": 8498,
      "Ġclouds": 8499,
      "Ġbreathe": 8500,
      "åĻĹåĵĪåĵĪåĵĪ": 8501,
      "Ġforbid": 8502,
      "çľŁæĺ¯æľįäºĨä½łäºĨ": 8503,
      "Ġliberty": 8504,
      "Ġladies": 8505,
      "Ġtrouble": 8506,
      "rumio": 8507,
      "ĠIsabel": 8508,
      "counter": 8509,
      "antagen": 8510,
      "PARIS": 8511,
      ":'": 8512,
      "Int": 8513,
      "Out": 8514,
      "Too": 8515,
      "While": 8516,
      "aves": 8517,
      "acle": 8518,
      "dle": 8519,
      "house": 8520,
      "rim": 8521,
      "rous": 8522,
      "sc": 8523,
      "zh": 8524,
      "¡èĲ": 8525,
      "ĠX": 8526,
      "ĠçľŁ": 8527,
      "Ġä½Ĩ": 8528,
      "Ġè¦ģæĺ¯": 8529,
      "Ġè°ģä¼ļ": 8530,
      "ä»Ĩ": 8531,
      "çļ±": 8532,
      "æĺ¯ä»¥": 8533,
      "æĺ¯æĪĳçļĦ": 8534,
      "Ġsort": 8535,
      "éģĵå£°": 8536,
      "éģĵè·¯": 8537,
      "äºĨé©¬": 8538,
      "Ġmorrow": 8539,
      "Ġwon": 8540,
      "æĪĳåıª": 8541,
      "æĪĳåĴĮ": 8542,
      "æĪĳåĲĥ": 8543,
      "æĪĳåĵ©": 8544,
      "æĪĳæĻĵå¾Ĺ": 8545,
      "è¯Ľ": 8546,
      "æĿ¥æĹ¶": 8547,
      "è¿Ļçķª": 8548,
      "åĪĴ": 8549,
      "è¡Įç¤¼": 8550,
      "äººåķ¦": 8551,
      "äººè¯´": 8552,
      "Ġdry": 8553,
      "Ġcru": 8554,
      "åĵı": 8555,
      "Ġlan": 8556,
      "Ġlist": 8557,
      "Ġlaid": 8558,
      "å¤§éģĵ": 8559,
      "å¤§èĦĳ": 8560,
      "aring": 8561,
      "åľ¨è¿Ļ": 8562,
      "åľ¨ä½ķå¤Ħ": 8563,
      "Ġobey": 8564,
      "å¼¦": 8565,
      "è¡ĮèĢħåį´": 8566,
      "è¡ĮèĢħåį³": 8567,
      "Ġheld": 8568,
      "vel": 8569,
      "èĢģå©Ĩ": 8570,
      "ster": 8571,
      "ä¸īå®«": 8572,
      "å°±è¡Į": 8573,
      "ators": 8574,
      "å¤©å¤©": 8575,
      "å¤©ç½Ĺ": 8576,
      "å¥½åĥı": 8577,
      "set": 8578,
      "çĽ¼": 8579,
      "åıªåĲ¬": 8580,
      "çĿĢçģ«": 8581,
      "çĿĢåĺ´": 8582,
      "åī¿": 8583,
      "éĢĨ": 8584,
      "lease": 8585,
      "çľŁä»Ļ": 8586,
      "åºĵ": 8587,
      "åĸī": 8588,
      "ä¸İå¸ĪçĪ¶": 8589,
      "æĹ¶çļĦ": 8590,
      "éĥ½è¯´": 8591,
      "èĦĤ": 8592,
      "æŃ¤ä¹ĥ": 8593,
      "æĬĬå¤´": 8594,
      "æĬĬå¸ĪçĪ¶": 8595,
      "æĮ¥": 8596,
      "åīįèĢħ": 8597,
      "åīįè¾¹": 8598,
      "Ġnote": 8599,
      "æīĵæ¸¸æĪı": 8600,
      "è¿Ļç§įå¸¸è¯Ĩ": 8601,
      "æ°´ä¸Ń": 8602,
      "èº«é«ĺ": 8603,
      "èº«èº¯": 8604,
      "å®¶éĩĮ": 8605,
      "æīĭæī§": 8606,
      "æģ³": 8607,
      "åįģçİĭ": 8608,
      "è½©": 8609,
      "ä¿Ĳ": 8610,
      "åľ°çĲĨ": 8611,
      "éĽĮ": 8612,
      "æ¸Ĭ": 8613,
      "æĹ¥æľ¬": 8614,
      "æĹ¥ä¹ħ": 8615,
      "éĩĳèº«": 8616,
      "åĺ²": 8617,
      "æĸ¹å¾Ĺ": 8618,
      "æĸ¹è¨Ģ": 8619,
      "Ġstor": 8620,
      "å¤ªå²ģ": 8621,
      "ider": 8622,
      "Ġref": 8623,
      "Ġlived": 8624,
      "urs": 8625,
      "éĵ²": 8626,
      "ä¼ĹçĶŁ": 8627,
      "åĲ¬åĪ°": 8628,
      "Ġaside": 8629,
      "çĶļå¥½": 8630,
      "åĽĽéĿ¢": 8631,
      "åĽĽçĻ¾": 8632,
      "èĥ§": 8633,
      "ä»ĬæľĿ": 8634,
      "é¾ĻåºĬ": 8635,
      "è¯·ä»ĸ": 8636,
      "è¯·èµ·": 8637,
      "çĤ¹èµ·": 8638,
      "Ġnoise": 8639,
      "åĨįæĿ¥": 8640,
      "æĶ¾åħī": 8641,
      "Ġseat": 8642,
      "åıĳæĺİ": 8643,
      "åħ¬éģĵ": 8644,
      "ç¾¡": 8645,
      "ä½Ĩä¸įçŁ¥": 8646,
      "ä¸ĩåįĥ": 8647,
      "èİ«èĥ½": 8648,
      "çľ¼ä¸Ń": 8649,
      "å¾Ģä¸ĭ": 8650,
      "iles": 8651,
      "Ġvain": 8652,
      "æ£ĴæĿ¥": 8653,
      "æĢ¥æĬ½èº«": 8654,
      "èĢģåŃĻçļĦ": 8655,
      "æµ·é¾Ļ": 8656,
      "æĶ¶ä¼ı": 8657,
      "å¿µç»ı": 8658,
      "è¯Ńè¨Ģ": 8659,
      "ç¬¬äºĶåįģ": 8660,
      "ĠMerc": 8661,
      "éĢģåĩº": 8662,
      "æĬ¥æĢ¨": 8663,
      "é¦Ļçģ«": 8664,
      "è®¤çľŁ": 8665,
      "åįĹåĮĹ": 8666,
      "éļıçĿĢ": 8667,
      "å¹²äºĭ": 8668,
      "ä¹Ŀå¤´": 8669,
      "åĸĿå£°": 8670,
      "è¿ľæĿ¥": 8671,
      "çª¿": 8672,
      "çªĦ": 8673,
      "ĠBohemia": 8674,
      "Ġletter": 8675,
      "è®°è½½": 8676,
      "èĻİçĭ¼": 8677,
      "å¾ħèĢģåŃĻ": 8678,
      "åĬŁæŀľ": 8679,
      "åĺ´å·´": 8680,
      "Ġjoin": 8681,
      "æļĹæļĹ": 8682,
      "ounds": 8683,
      "åģĩçļĦ": 8684,
      "å®ĥçļĦ": 8685,
      "Ġprosper": 8686,
      "é»ĳé£İ": 8687,
      "çĨı": 8688,
      "Ġrough": 8689,
      "åģ·åģ·": 8690,
      "æķ´ä¸ª": 8691,
      "è·ŁæĪĳ": 8692,
      "çīĻé½¿": 8693,
      "æįīäºĨ": 8694,
      "å³¨": 8695,
      "Ġabove": 8696,
      "ç¿»æ³¢": 8697,
      "æĺ¾ç¥ŀéĢļ": 8698,
      "ï¼ģðŁĺ¤ðŁĴ¢": 8699,
      "å±ħä½ı": 8700,
      "å¦ĤæĿ¥éģĵ": 8701,
      "ize": 8702,
      "åıĤåĬł": 8703,
      "æģ¯æĢĴ": 8704,
      "åĽ´ç»ķ": 8705,
      "åĪļæīį": 8706,
      "éĻĪå®¶": 8707,
      "å¤ĩè¨Ģ": 8708,
      "Ġä¸įè¿ĩè¯Ŀè¯´åĽŀæĿ¥": 8709,
      "éĶĻäºĨ": 8710,
      "åĩ¤ä»Ļ": 8711,
      "æĢİçĶŁæ¨¡æł·": 8712,
      "æĢĢåŃķ": 8713,
      "åĳ³éģĵ": 8714,
      "æ½®": 8715,
      "å²¸ä¸Ĭ": 8716,
      "èĢĥèĻĳ": 8717,
      "Ġremain": 8718,
      "å¸®å¿Ļ": 8719,
      "å²Ĥä¸įæĺ¯": 8720,
      "Ġlonger": 8721,
      "Ġwomb": 8722,
      "åŃ¤æĭĲ": 8723,
      "ç²īç¢İ": 8724,
      "èĩ´ä»¤": 8725,
      "ï½ŀðŁ¤": 8726,
      "ä¼¸æīĭ": 8727,
      "çķľçĶŁ": 8728,
      "åĩŃä½ł": 8729,
      "ç¢ĹæĿ¥ç²Ĺç»Ĩ": 8730,
      "å¹½åĨ¥": 8731,
      "Ġneeds": 8732,
      "å°¸é¦ĸ": 8733,
      "æµĳèº«": 8734,
      "é¢ľèī²": 8735,
      "æĭĸçĿĢ": 8736,
      "é¦Ĩé©¿": 8737,
      "åĪ·çīĻ": 8738,
      "çĳŀéľŃ": 8739,
      "ç»ĳåľ¨": 8740,
      "Ġchoose": 8741,
      "Ġchurch": 8742,
      "æĸĩæŃ¦å¤ļå®ĺ": 8743,
      "æĺİæĺİæĺ¯": 8744,
      "ä¸ĭé©¬æĿ¥": 8745,
      "è£¤åŃĲ": 8746,
      "Ġprisoner": 8747,
      "Ġsecond": 8748,
      "å»¶å¯¿": 8749,
      "Ġtemp": 8750,
      "å¿ĥä¸ŃæļĹæĥ³éģĵ": 8751,
      "åŃ½çķľ": 8752,
      "Ġgolden": 8753,
      "undred": 8754,
      "éħ¬è°¢": 8755,
      "Ġdispatch": 8756,
      "è¦ģä¸įè¦ģæĪĳç»Ļä½ł": 8757,
      "çªŁçª¿": 8758,
      "ï¾Ł": 8759,
      "ä½łéģĵä»ĸ": 8760,
      "ä¿¯ä¼ı": 8761,
      "è¥ķ": 8762,
      "ä¼¶ä¿Ĳ": 8763,
      "å¿µä¸ªåĴĴè¯Ń": 8764,
      "Ġfresh": 8765,
      "Ġignor": 8766,
      "æľ¦èĥ§": 8767,
      "Ġbecause": 8768,
      "âīĸ": 8769,
      "æ°´æĻ¶å®«": 8770,
      "antagenet": 8771,
      "!--": 8772,
      "Am": 8773,
      "De": 8774,
      "DOR": 8775,
      "EW": 8776,
      "En": 8777,
      "Hark": 8778,
      "LAR": 8779,
      "Pr": 8780,
      "TIUS": 8781,
      "bb": 8782,
      "ban": 8783,
      "ffect": 8784,
      "him": 8785,
      "iled": 8786,
      "ny": 8787,
      "ts": 8788,
      "under": 8789,
      "ulet": 8790,
      "¥åµ": 8791,
      "ºåĢĻ": 8792,
      "Ïī": 8793,
      "âĶ": 8794,
      "éī": 8795,
      "ĠNow": 8796,
      "Ġtent": 8797,
      "ä»ħ": 8798,
      "ä¹Ļ": 8799,
      "ä¸įå®ī": 8800,
      "ä¸įçĲĨ": 8801,
      "ä¸įæĸŃ": 8802,
      "ä¸įè¶³": 8803,
      "ä¸įç»Ŀ": 8804,
      "ä¸įéľĢè¦ģ": 8805,
      "æĺ¯ä¹Ł": 8806,
      "æĺ¯æĮĩ": 8807,
      "æĺ¯å¿ħ": 8808,
      "Ġsch": 8809,
      "Ġsus": 8810,
      "Ġsaint": 8811,
      "æľĶ": 8812,
      "èĢ½": 8813,
      "Ġmut": 8814,
      "inius": 8815,
      "ä¸Ģå¤´": 8816,
      "ä½łéĤ£éĩĮ": 8817,
      "æĪĳä»Ĭ": 8818,
      "æĪĳæĺ¯ä¸ª": 8819,
      "è¯¢": 8820,
      "å®ĭ": 8821,
      "éĤ£ä¸īèĹı": 8822,
      "éĤ£ä¼Ļ": 8823,
      "Ġbig": 8824,
      "Ġbroke": 8825,
      "Ġbones": 8826,
      "åį¢": 8827,
      "è¿ĻçĮ´åŃĲ": 8828,
      "Ġfat": 8829,
      "Ġfine": 8830,
      "Ġfive": 8831,
      "æľīä¸¤": 8832,
      "æľīåįĥ": 8833,
      "æľīä¸īåįģ": 8834,
      "erle": 8835,
      "ä¼°": 8836,
      "ä¼Ĳ": 8837,
      "ä¼ºåĢĻ": 8838,
      "itors": 8839,
      "è¡Įèµ°": 8840,
      "è¡ĮåĬ¨": 8841,
      "äººæĺ¯": 8842,
      "äººäºº": 8843,
      "Ġdrown": 8844,
      "Ġcitizens": 8845,
      "Ġlen": 8846,
      "Ġlow": 8847,
      "Ġlust": 8848,
      "Ġlau": 8849,
      "å¤§ç¬ĳéģĵ": 8850,
      "Ġthreat": 8851,
      "æķı": 8852,
      "çİ²": 8853,
      "ä¸ĬéĹ¨": 8854,
      "Ġhundred": 8855,
      "Ġobed": 8856,
      "Ġpet": 8857,
      "è¡ĮèĢħæīį": 8858,
      "vey": 8859,
      "èĢģå¤§": 8860,
      "èĢģæ¯į": 8861,
      "èĢģæĸ½ä¸»": 8862,
      "ä¸ĭå±±": 8863,
      "ä¸īå±Ĥ": 8864,
      "éĹ®è¿Ļç§įå¥ĩæĢªçļĦéĹ®é¢ĺ": 8865,
      "ang": 8866,
      "Ġoft": 8867,
      "å¤©æ¶¯": 8868,
      "å¥½åĴĮå°ļ": 8869,
      "Ġbend": 8870,
      "Ġbell": 8871,
      "è¦ģè§ģ": 8872,
      "åıªçŃī": 8873,
      "çĿĢä¸¤ä¸ª": 8874,
      "ä¹ĭä¸Ģ": 8875,
      "ä¹ĭæĥħ": 8876,
      "ï½ŀ(ï¿£": 8877,
      "å·ħ": 8878,
      "Ġind": 8879,
      "ceit": 8880,
      "æŀķ": 8881,
      "åºļ": 8882,
      "irl": 8883,
      "ety": 8884,
      "æŃ¤äºĭ": 8885,
      "è¿ĺéŃĤ": 8886,
      "æĮŁ": 8887,
      "åį´ä¸įçŁ¥": 8888,
      "é©¯": 8889,
      "å¿ĥä¸Ĭ": 8890,
      "åīįå¹´": 8891,
      "æ°´æµģ": 8892,
      "æ°´åºľ": 8893,
      "éĻµ": 8894,
      "åĮĻ": 8895,
      "åĽŀåĲĪ": 8896,
      "è°±": 8897,
      "ç½¡": 8898,
      "çŃīäºİ": 8899,
      "éļį": 8900,
      "Ġeffect": 8901,
      "æĥ³å¾Ĺ": 8902,
      "çŁ¥ä»ĸ": 8903,
      "éķ¿å®ĺ": 8904,
      "Ġyourselves": 8905,
      "éĹ®é¢ĺåķĬ": 8906,
      "åĿ¦": 8907,
      "åĲĥéħĴ": 8908,
      "ä¸¤äºº": 8909,
      "ä¸¤å®¶": 8910,
      "èµ°è¿ĩ": 8911,
      "èµ°åħ½": 8912,
      "Ġstood": 8913,
      "Ġstain": 8914,
      "Ġsteel": 8915,
      "Ġsteal": 8916,
      "å½ĵå¤´": 8917,
      "å½ĵæĹ¥": 8918,
      "èĬĴ": 8919,
      "ç¥ŀæ´²": 8920,
      "åıĺèº«": 8921,
      "çĶ¨äºĨ": 8922,
      "éŃħ": 8923,
      "ords": 8924,
      "èĤĥ": 8925,
      "è¥¿åŁŁ": 8926,
      "asion": 8927,
      "æ²¡å¤Ħ": 8928,
      "Ġrevere": 8929,
      "æĤ¯": 8930,
      "æįİ": 8931,
      "Ġsole": 8932,
      "åĪĨæīĭ": 8933,
      "åĽĽä½į": 8934,
      "ARIEL": 8935,
      "é¦¥": 8936,
      "çĽ¸åĬ©": 8937,
      "å¹´è½»": 8938,
      "æ»ŀ": 8939,
      "ease": 8940,
      "ä¸ľèĥľ": 8941,
      "åĨįä¸į": 8942,
      "åĲĮåİ»": 8943,
      "åĩłçķª": 8944,
      "æ²Ļåĥ§ç¬ĳéģĵ": 8945,
      "åıĳçĶŁ": 8946,
      "åıĳçĭł": 8947,
      "æĭľæ¯ķ": 8948,
      "æıĿ": 8949,
      "èĦĳåŃĲæľīéĹ®é¢ĺåķĬ": 8950,
      "å®ŀåľ¨": 8951,
      "Ġknees": 8952,
      "è§£å¼Ģ": 8953,
      "æķĳäºº": 8954,
      "æĢ§æł¼": 8955,
      "ular": 8956,
      "æĮĩå®ļ": 8957,
      "çİīåįİ": 8958,
      "å·²æĺ¯": 8959,
      "icious": 8960,
      "Ġconqu": 8961,
      "åŃ¦çĶŁ": 8962,
      "ieu": 8963,
      "åŁİéļį": 8964,
      "Ġblessed": 8965,
      "æĸĹçīĽ": 8966,
      "ĠGaunt": 8967,
      "ĠGremio": 8968,
      "Ġshed": 8969,
      "æ»¡åłĤ": 8970,
      "èģĭ": 8971,
      "ï¼īãĢĤ": 8972,
      "ï¼īãĢģ": 8973,
      "éĩįéĩį": 8974,
      "éĻįäºĨ": 8975,
      "ĠLet": 8976,
      "ĠLEW": 8977,
      "çħĮ": 8978,
      "é»ĦéĹ¨": 8979,
      "åĲĳåĲİ": 8980,
      "åĲĳåįĹ": 8981,
      "å¸Ŀçİĭ": 8982,
      "Ġswift": 8983,
      "æĿĢäºº": 8984,
      "æľįåĬ¡": 8985,
      "é¬¼åķ¦": 8986,
      "ĠHortensio": 8987,
      "ä¸įå¾ĹæĪĳ": 8988,
      "ç´§ç´§": 8989,
      "ä¿ĿæĮģ": 8990,
      "éĹ®æĪĳåķ¦": 8991,
      "å¨ĺåŃĲ": 8992,
      "åĭĺ": 8993,
      "èĮĤ": 8994,
      "è¿İé£İ": 8995,
      "ç«ĭäºİ": 8996,
      "æ´»è¯¥": 8997,
      "æĺ¯ä¸ªçĶļä¹Ī": 8998,
      "å¯ºåĥ§": 8999,
      "Ġgrand": 9000,
      "å¹³æĹ¶": 9001,
      "å½¢çĬ¶": 9002,
      "å¿Ļå¿Ļ": 9003,
      "ĠPr": 9004,
      "ĠPadua": 9005,
      "Ġproclaim": 9006,
      "Ġsaf": 9007,
      "ume": 9008,
      "åĳ¼éģĵ": 9009,
      "æĬ¤æķĻ": 9010,
      "æĬ¤æ³ķ": 9011,
      "ĠWatch": 9012,
      "istress": 9013,
      "æĳĩæĳĩ": 9014,
      "æķ´å¤©": 9015,
      "æī¾åĪ°": 9016,
      "ï¼ģðŁĻĦðŁĴ¢": 9017,
      "å³¥åµ": 9018,
      "å½©äºĳ": 9019,
      "Ġexc": 9020,
      "éĤ£èĢģåĦ¿": 9021,
      "Ġdesperate": 9022,
      "éĴ»åħ¥": 9023,
      "Ġslander": 9024,
      "äºĮåįģåĽĽ": 9025,
      "ç¾¤çĮ´": 9026,
      "è¶³ä¸ĭ": 9027,
      "æİ¨åĢĴ": 9028,
      "éĶ¦è¡£": 9029,
      "å´ĸåīį": 9030,
      "èĨĿ": 9031,
      "éĹªè¿ĩ": 9032,
      "Ġprecious": 9033,
      "é¼»åŃĶ": 9034,
      "å¤Łå¤ļæĹ¶": 9035,
      "Ġbears": 9036,
      "æľīä»Ģä¹Īå¥½": 9037,
      "æĺıåĲĽ": 9038,
      "Ġappare": 9039,
      "çĹĽåĵŃ": 9040,
      "Ġconscience": 9041,
      "ä»Ķç»Ĩè§Ĥçľĭ": 9042,
      "è¿Ļç§įçĻ½çĹ´éĹ®é¢ĺä¹ŁéĹ®å¾Ĺåĩºåı£": 9043,
      "Ġentertain": 9044,
      "çĭ¼èĻ«": 9045,
      "åĬĪèĦ¸": 9046,
      "æ°¸è¿ľ": 9047,
      "ontent": 9048,
      "å¯Ĩå¯Ĩ": 9049,
      "äºĶçĻ¾å¹´": 9050,
      "æĲŃåĮħ": 9051,
      "Ġpride": 9052,
      "Sirrah": 9053,
      "åĪĺåħ¨": 9054,
      "éĻįå¦ĸæĿĸ": 9055,
      "éľŀåħī": 9056,
      "æĬ¬å¤´è§Ĥçľĭ": 9057,
      "uthor": 9058,
      "çªĹæĪ·": 9059,
      "Ġglory": 9060,
      "Ġdouble": 9061,
      "atesby": 9062,
      "Ġwoes": 9063,
      "posed": 9064,
      "Ġlands": 9065,
      "èĪĮå¤´": 9066,
      "éķĩåħĥ": 9067,
      "å¼ĢäºĨéĹ¨": 9068,
      "åī¥çļ®": 9069,
      "åľ¨æĹģè¾¹": 9070,
      "çĳ¶èįī": 9071,
      "çĳ¶æ±ł": 9072,
      "Ġsentence": 9073,
      "è¾ĵèµ¢": 9074,
      "ĠNorthumberland": 9075,
      "å·įå·į": 9076,
      "Ġdrunk": 9077,
      "åĸ§åĵĹ": 9078,
      "å¤ªå¤ļåķ¦": 9079,
      "åĢĺæĪĸ": 9080,
      "åĪģéĴ»": 9081,
      "Ġtowards": 9082,
      "ï¾ī": 9083,
      "åħ«çĻ¾éĩĮ": 9084,
      "ç¥¸äºĭäºĨ": 9085,
      "æĢ¥çºµèº«": 9086,
      "ĠCapulet": 9087,
      "æĤĦæĤĦçļĦ": 9088,
      "Unto": 9089,
      "Ġforgot": 9090,
      "Ġwisdom": 9091,
      "Ġvenge": 9092,
      "æĺ¯è°ģæĥ³åĩºæĿ¥çļĦåķ¦": 9093,
      "æ£ĢæŁ¥ä¸Ģä¸ĭ": 9094,
      "è¢ľåŃĲ": 9095,
      "å«Ķå¦ĥ": 9096,
      "éŃĤé£ŀéŃĦæķ£": 9097,
      "Sweet": 9098,
      "Ġvictory": 9099,
      "å¾ªçİ¯": 9100,
      "Ġkinsman": 9101,
      "æ¯Ĥè¾ĺ": 9102,
      "æ²Ĳæµ´": 9103,
      "ĠXI": 9104,
      "LARTIUS": 9105,
      "éī´": 9106,
      "ĠLEWIS": 9107,
      "ĠWatchman": 9108,
      "å³¥åµĺ": 9109,
      "30": 9110,
      ";'": 9111,
      "Bel": 9112,
      "Could": 9113,
      "Hear": 9114,
      "Me": 9115,
      "Pardon": 9116,
      "Pedant": 9117,
      "RTIS": 9118,
      "Su": 9119,
      "bray": 9120,
      "den": 9121,
      "eat": 9122,
      "hn": 9123,
      "iance": 9124,
      "ohn": 9125,
      "pir": 9126,
      "ude": 9127,
      "vail": 9128,
      "which": 9129,
      "½åŃĲ": 9130,
      "Ġéĩĳ": 9131,
      "ĮçĿ¡": 9132,
      "ï¼ı": 9133,
      "ï¼ĮâĢľ": 9134,
      "head": 9135,
      "å¤®": 9136,
      "æĺĶ": 9137,
      "ä¸įä¸ĢæĹ¶": 9138,
      "ä¸įç¾ŀ": 9139,
      "æĺ¯åľĨ": 9140,
      "Ġauthor": 9141,
      "åĲ´": 9142,
      "Ġsour": 9143,
      "æľŃ": 9144,
      "Ġmount": 9145,
      "Ġmethinks": 9146,
      "Ġmoney": 9147,
      "Ġmasters": 9148,
      "ä¸Ģçľĭ": 9149,
      "ä¸Ģå¹´": 9150,
      "ä¸Ģåį·": 9151,
      "ä¸ĢæĿ¯": 9152,
      "ä½łä»Ĭ": 9153,
      "rent": 9154,
      "rence": 9155,
      "æĪĳæĥ³": 9156,
      "æĪĳåĢĴ": 9157,
      "æĪĳä¸įæĽ¾": 9158,
      "è¯¦": 9159,
      "è¯Ĭ": 9160,
      "è¯ı": 9161,
      "éĤ£å£ģåİ¢": 9162,
      "æīģ": 9163,
      "æĿ¥æĬ¥": 9164,
      "æĿ¥åİĨ": 9165,
      "è¡¡": 9166,
      "è¿Ļå±±": 9167,
      "è¿ĻæĢª": 9168,
      "è¿Ļéķ¿èĢģ": 9169,
      "è¿Ļæ¬¡": 9170,
      "Ġfru": 9171,
      "Ġfought": 9172,
      "Ġfew": 9173,
      "æľīäºĮ": 9174,
      "æľīäºĮåįģ": 9175,
      "æľīè®¸å¤ļ": 9176,
      "åİĦ": 9177,
      "ä¼¦": 9178,
      "ä¼ģ": 9179,
      "è¡Įç»ı": 9180,
      "äººä¸į": 9181,
      "Ġdied": 9182,
      "Ġdeter": 9183,
      "Ġcapt": 9184,
      "å¸ļ": 9185,
      "å¤§äºĭ": 9186,
      "æĬĦ": 9187,
      "æĬŁ": 9188,
      "ä¸Ĭè¯¾": 9189,
      "Ġpun": 9190,
      "ä¹Łå¥½": 9191,
      "ä¹Łä½ľ": 9192,
      "èĢģæĢªéģĵ": 9193,
      "èĢģå®ĺåĦ¿": 9194,
      "è¯´æĿ¥": 9195,
      "ä¸īæ¸ħ": 9196,
      "ä¸īçķĮ": 9197,
      "owbray": 9198,
      "è§ģéĿ¢": 9199,
      "åĬ²": 9200,
      "å¥½åĺĽ": 9201,
      "åĩºå¾Ĺ": 9202,
      "åīĶ": 9203,
      "Ġhair": 9204,
      "é¢Ĥ": 9205,
      "å¤´åĦ¿": 9206,
      "åħ«ä¹Ŀ": 9207,
      "åĴ¸": 9208,
      "ä¸İå¤§åľ£": 9209,
      "ç¥ł": 9210,
      "åĶµ": 9211,
      "çģ¿": 9212,
      "éĥ½åİ»": 9213,
      "å°ıä»Ļ": 9214,
      "æĬĬéĹ¨": 9215,
      "æĹłå¤Ħ": 9216,
      "æĹłå½±": 9217,
      "åīįè¡Į": 9218,
      "è¾±": 9219,
      "å°ĨæĻļ": 9220,
      "è¿Ļç§įäºĭ": 9221,
      "åĽŀçĶŁ": 9222,
      "è¢Ń": 9223,
      "åħ«æĪĴéĹ»è¨Ģ": 9224,
      "æµ¸": 9225,
      "æµĩ": 9226,
      "Ġeld": 9227,
      "åĴĮæĪĳ": 9228,
      "åįģæķ°": 9229,
      "å¤ļå¹´": 9230,
      "éķ¿èĢħ": 9231,
      "ï¼ģðŁĻ": 9232,
      "åľ°ç½ĳ": 9233,
      "ç«Ń": 9234,
      "åĲĥäºĨä¸Ģ": 9235,
      "åĶĲéķ¿èĢģ": 9236,
      "ä¸¤åı£": 9237,
      "åĺī": 9238,
      "Ġstud": 9239,
      "ç¥ŀå°Ĩ": 9240,
      "ç¥ŀå¨ģ": 9241,
      "å¤ªçĻ½": 9242,
      "å¤ªä¹Ļ": 9243,
      "èĤ¿": 9244,
      "è¥¿åĮĹ": 9245,
      "æ£º": 9246,
      "æ£ī": 9247,
      "æĺİçıł": 9248,
      "åĽĽä¸ĭ": 9249,
      "æĻĭ": 9250,
      "ä¸Ķåİ»": 9251,
      "èį·": 9252,
      "é«ĺå³°": 9253,
      "çģ«å¤§": 9254,
      "estion": 9255,
      "å®Ŀæĸ¹": 9256,
      "å®Ŀå¡Ķ": 9257,
      "Ġdoing": 9258,
      "åħīç¦Ħ": 9259,
      "ä»ĻåŃĲ": 9260,
      "å¥³ç«¥": 9261,
      "åıĸèĥľ": 9262,
      "æĶ¾å£°": 9263,
      "iful": 9264,
      "çĹķ": 9265,
      "äºĶä¸ª": 9266,
      "äºĶèī²": 9267,
      "Ġseal": 9268,
      "æĺ¯ä¸įæĺ¯å°±": 9269,
      "å¯¹è¡ĮèĢħéģĵ": 9270,
      "èī¾": 9271,
      "åĬ¨æ¼«": 9272,
      "èı©æıĲ": 9273,
      "ç¼¥": 9274,
      "æĥħèĬĤ": 9275,
      "çľŁæĺ¯æĭ¿ä½łæ²¡åĬŀæ³ķ": 9276,
      "å¾Ģä¸Ĭ": 9277,
      "åĢĴèº«ä¸ĭæĭľ": 9278,
      "æı¡": 9279,
      "æĹ©æľī": 9280,
      "ility": 9281,
      "ĠCa": 9282,
      "å®«å¨¥": 9283,
      "cted": 9284,
      "æķĳåĳ½": 9285,
      "æ¢Ń": 9286,
      "å¿«èµ°": 9287,
      "ETER": 9288,
      "çİ°ä»£": 9289,
      "å·²æ¯ķ": 9290,
      "âĹ£": 9291,
      "Ġmanner": 9292,
      "ç¬¬ä¸īä¸ª": 9293,
      "å¯»çĿĢ": 9294,
      "ĠEarl": 9295,
      "é¸Ń": 9296,
      "å°ĳé¡·": 9297,
      "ä¼łä»¤": 9298,
      "å¾ĦæĿ¥": 9299,
      "å¾Ħå¥Ķ": 9300,
      "æĸĹç»ı": 9301,
      "ĠGo": 9302,
      "ĠGrumio": 9303,
      "æ¸ħæ¥ļ": 9304,
      "å°½æĺ¯": 9305,
      "å°½æĥħ": 9306,
      "éĻįéŃĶ": 9307,
      "Ġknowledge": 9308,
      "ç¢°": 9309,
      "å©¢": 9310,
      "éĤ£æĢªéĹ»è¨Ģ": 9311,
      "æĸĭä¾Ľ": 9312,
      "çıĳ": 9313,
      "èĲ½ä¸ĭ": 9314,
      "ä½łæĺ¯éĤ£éĩĮæĿ¥çļĦ": 9315,
      "èĻİåĬĽ": 9316,
      "åĸĦè´¢": 9317,
      "ï¼ģðŁ¤¯": 9318,
      "å½ĵçĦ¶è¦ģ": 9319,
      "å·®æĿ¥": 9320,
      "umerle": 9321,
      "ä¿±æĺ¯": 9322,
      "é¢ĨçĿĢ": 9323,
      "è¯Ĩå¾Ĺ": 9324,
      "çķĻä»ĸ": 9325,
      "å·¦è¾¹": 9326,
      "Ġenjoy": 9327,
      "Ġran": 9328,
      "æ¶Īå¤±": 9329,
      "æī¾ä¸ª": 9330,
      "ĠAnt": 9331,
      "Within": 9332,
      "Ġalive": 9333,
      "å¤±è¿İ": 9334,
      "Ġabro": 9335,
      "å¾¡èĬ±åĽŃ": 9336,
      "èĤīçľ¼": 9337,
      "çĥŁéľŀ": 9338,
      "åĩ¡äºº": 9339,
      "çĳĢ": 9340,
      "è§Ĵèī²": 9341,
      "å¸Īå¾ĴåĽĽä¼Ĺ": 9342,
      "ways": 9343,
      "æŀ¶ä½ı": 9344,
      "Ġhonours": 9345,
      "Ġwarm": 9346,
      "100": 9347,
      "çŀĮçĿ¡": 9348,
      "çĶ·åŃĲ": 9349,
      "çĶ·çĶŁ": 9350,
      "ä½łèĦĳåŃĲæĺ¯ä¸įæĺ¯è¢«": 9351,
      "åĽŃéĩĮ": 9352,
      "èĥĮåĲİ": 9353,
      "èģĬå¤©": 9354,
      "ations": 9355,
      "èĨľ": 9356,
      "åĴ¬çĿĢ": 9357,
      "å·¥å¤«": 9358,
      "éĶĻåķ¦": 9359,
      "æĢİçĶŁæīĵæī®": 9360,
      "çĭ®é©¼": 9361,
      "Ġdeadly": 9362,
      "åķĨéĩı": 9363,
      "Ġkept": 9364,
      "ðŁĴ¨": 9365,
      "çīµçĿĢé©¬": 9366,
      "Ġcontr": 9367,
      "Ġcontin": 9368,
      "Ġarmy": 9369,
      "æ¬ºè´Ł": 9370,
      "å²Ńä¸Ĭ": 9371,
      "çĭ¬èĩª": 9372,
      "é³ĸ": 9373,
      "é³ľ": 9374,
      "éĴ¢åĪĢ": 9375,
      "Ġlordship": 9376,
      "æĪĳæīįä¸įæĥ³": 9377,
      "Ġguest": 9378,
      "Ġguess": 9379,
      "æĽ¿ä½ł": 9380,
      "åĲĵå¾Ĺ": 9381,
      "éĢĴä¸İè¡ĮèĢħ": 9382,
      "éĻªç¬ĳéģĵ": 9383,
      "ä¿ĿæĬ¤åĶĲåĥ§": 9384,
      "è¯»èĢħ": 9385,
      "ä»·åĢ¼": 9386,
      "å¿ĺäºĨ": 9387,
      "é¡½èĢį": 9388,
      "éĩĳæĺŁéģĵ": 9389,
      "CURTIS": 9390,
      "æ¨µå¤«": 9391,
      "èĶ½": 9392,
      "çĿģçĿĽ": 9393,
      "éķ¿çĶŁä¸įèĢģ": 9394,
      "æīįä¸įæĺ¯ä»Ģä¹Ī": 9395,
      "èī³èī³": 9396,
      "åŁĭæĢ¨": 9397,
      "Ġpromised": 9398,
      "comes": 9399,
      "åħľçİĩ": 9400,
      "èŀį": 9401,
      "éŀįè¾Ķ": 9402,
      "éĥ½ä¸įçŁ¥éģĵåĲĹ": 9403,
      "ç¯®çĲĥ": 9404,
      "åľ¨æ°´éĩĮ": 9405,
      "æİ§åĪ¶": 9406,
      "è¿¦åı¶": 9407,
      "æ®·åĭ¤": 9408,
      "èĦĳåŃĲè¿Ľæ°´äºĨ": 9409,
      "eeper": 9410,
      "åĺ»åĺ»": 9411,
      "Ġwretched": 9412,
      "Ġdespair": 9413,
      "Â´)": 9414,
      "Ġcheeks": 9415,
      "SAMP": 9416,
      "å»ºè®®ä½ł": 9417,
      "ä¹Ĵä¹ĵ": 9418,
      "æĨĭ": 9419,
      "åħŃä¸ģåħŃçĶ²": 9420,
      "å®łçī©": 9421,
      "Ġlabour": 9422,
      "Ġstruck": 9423,
      "çłĶç©¶": 9424,
      "Faith": 9425,
      "æĭ¯æķĳ": 9426,
      "Ġdeterm": 9427,
      "åħīç¦Ħå¯º": 9428,
      "SAMPSON": 9429,
      "'re": 9430,
      ":--": 9431,
      "BU": 9432,
      "Br": 9433,
      "Citizens": 9434,
      "Dis": 9435,
      "Either": 9436,
      "IGON": 9437,
      "bury": 9438,
      "ey": 9439,
      "good": 9440,
      "mit": 9441,
      "take": 9442,
      "¾æ²³": 9443,
      "Ä«": 9444,
      "Ġä¸į": 9445,
      "Ġäºº": 9446,
      "ĠèĢģ": 9447,
      "Ġè¿Ļç§įéĹ®é¢ĺ": 9448,
      "äº¿": 9449,
      "Ġtry": 9450,
      "Ġteach": 9451,
      "ä»ĳ": 9452,
      "è¿ħ": 9453,
      "ä¸įåĲ¬": 9454,
      "ä¸įå°±æĺ¯": 9455,
      "ä¸įè¯¥": 9456,
      "ä¸įå¿į": 9457,
      "ä¸įèĪĴæľį": 9458,
      "Ġaid": 9459,
      "çļĦä¸įæĺ¯": 9460,
      "çļĦå£°éŁ³": 9461,
      "çļĦå®¶ä¼Ļ": 9462,
      "éģģ": 9463,
      "ounce": 9464,
      "Ġsim": 9465,
      "æĿł": 9466,
      "ä¸ĢäºĮ": 9467,
      "ä¸ĢæĹ¶éĹ´": 9468,
      "ä¸ĢæĿŁ": 9469,
      "reed": 9470,
      "æĪĳéĹ¨": 9471,
      "æĪĳåı¯": 9472,
      "æĪĳçĶ¨": 9473,
      "éĤ£å¤ªåŃĲ": 9474,
      "éĤ£å¦ĩäºº": 9475,
      "Ġbastard": 9476,
      "åįĴ": 9477,
      "æī¹": 9478,
      "æīĶ": 9479,
      "orious": 9480,
      "æľīæĹ¶": 9481,
      "llow": 9482,
      "ited": 9483,
      "è¡ĮäºĨ": 9484,
      "Ġdance": 9485,
      "Ġcorn": 9486,
      "Ġcred": 9487,
      "Ġcried": 9488,
      "åĵĩ": 9489,
      "å¤§æ¦Ĥ": 9490,
      "åľ¨ä¸Ĭ": 9491,
      "åľ¨è·¯": 9492,
      "åľ¨ä¸Ģèµ·": 9493,
      "åľ¨åįĬç©ºä¸Ń": 9494,
      "ä¸Ĭè·¯": 9495,
      "ä¸ĬåĨĻçĿĢ": 9496,
      "å¾Ĺéģĵ": 9497,
      "å¾ĹçŁ¥": 9498,
      "å¾Ĺä¸Ģä¸ª": 9499,
      "èµ¡": 9500,
      "èµµ": 9501,
      "Ġpal": 9502,
      "è¡ĮèĢħéªĤéģĵ": 9503,
      "ä¹Łå°±": 9504,
      "ä¹Łä¼ļ": 9505,
      "Ġhel": 9506,
      "Ġhealth": 9507,
      "åĳĲ": 9508,
      "èĢģåĴĮå°ļ": 9509,
      "èĢģé¼ĭ": 9510,
      "æĭ¢": 9511,
      "ä¸ĭèĲ½": 9512,
      "stant": 9513,
      "å°±æŃ¤": 9514,
      "è§ģè¡ĮèĢħ": 9515,
      "å±¡": 9516,
      "å¤©äºķ": 9517,
      "å¥½ä¾¿ä¼¼": 9518,
      "åĩºåħ¥": 9519,
      "åıªæĥħ": 9520,
      "çĿĢäºĨ": 9521,
      "çĿĢåħ«æĪĴ": 9522,
      "åıĪæķĻ": 9523,
      "åıĪæģĲ": 9524,
      "ä¹ĭåľ°": 9525,
      "ä¹ĭæķ°": 9526,
      "ä¹ĭè¾Ī": 9527,
      "çľĭç»ı": 9528,
      "å¤´çĽ®": 9529,
      "åħ«åĽŀ": 9530,
      "æ³¾æ²³": 9531,
      "æĹ¶èĬĤ": 9532,
      "éĥ½åĪ°": 9533,
      "utio": 9534,
      "å°ıäºĭ": 9535,
      "è´¡": 9536,
      "ä¸Ńæ¯Ĵ": 9537,
      "å±±ä¸ĭ": 9538,
      "å±±åīį": 9539,
      "æĬĬæĪĳä»¬": 9540,
      "æĬĬèħ°": 9541,
      "è¿ĺä¼ļ": 9542,
      "è¿ĺä¸įæĽ¾": 9543,
      "éĹ¨ä¸ĭ": 9544,
      "è¾ĸ": 9545,
      "è¿Ļç§įè¯Ŀ": 9546,
      "è¿Ļç§įç®Ģåįķ": 9547,
      "ourn": 9548,
      "æĥ³çŁ¥éģĵ": 9549,
      "åįģåħŃ": 9550,
      "å¤ļå¿ĥ": 9551,
      "å¤ļå¤ļ": 9552,
      "èĹıäºĨ": 9553,
      "å¸ĪçĪ¶æĶ¾å¿ĥ": 9554,
[...]
